FFFF
FFFF
FFFF
0000
FFFF
FFFF
FFAC
0000
FFFF
FFFF
0000
FFFF
FFFF
0000
FFFF
FFFF
0000
FFFF
FFFF
FFFF
FFFF
0000
0000
0000
FFFF
0000
FFFF
0000
FFFF
0000
0000
FFFF
0000
FFFF
0000
FFFF
0000
0000
FFFF
0000
0000
FFFF
FFFF
0000
0000
0039
FFFF
FFFF
FFFF
0000
FFFF
0000
FFFF
FFFF
FFFF
FFFF
FFFF
004C
FFFF
0000
0000
0000
FFFF
FFFF
0000
0000
FFFF
0000
0000
0000
0000
0000
0000
0000
0000
0000
0000
0000
FFFF
0000
FFFF
0000
FFFF
FFFF
0000
FFFF
0000
0000
FFFF
FFFF
0000
FFFF
FFFF
0000
0000
0000
0000
0000
0000
0000
0000
0000
0000
0000
0000
0000
0000
0000
0000
FFFF
0046
0000
0000
0000
FFFF
0000
FFFF
0000
0000
0000
0000
0000
0000
0000
0000
002C
0000
0000
0027
0000
008B
0000
0000
0000
0000
0000
0000
FFFF
FFFF
FFFF
0000
FFFF
FFFF
FFFF
0000
0000
0000
0000
0000
0000
000E
0000
0045
0035
0013
0002
0030
0000
0049
0000
0000
0000
0000
0000
FFFF
FFFF
FFFF
0046
FFFF
0000
FFFF
002C
0000
0000
0000
0000
0000
0007
0000
0000
000F
0032
0022
008A
0000
002D
0020
0000
0030
0000
0068
0000
0000
0000
0000
0000
FFFF
0000
0033
0000
0000
0000
0000
0000
0000
0000
0000
0027
0000
0027
0000
0000
0000
0054
0017
0006
0000
0000
0006
0000
0073
0000
0000
FFFF
FFFF
FFFF
0000
001D
0000
0000
000E
0000
0026
003B
0000
0000
000C
0008
0000
0040
0052
0016
0040
0000
0000
000B
0000
0000
002C
0000
0000
FFFF
FFFF
0000
0016
FFFF
0000
0000
0000
0027
0023
0014
0000
0024
0030
0000
0000
0067
0037
0043
0011
0020
0000
0000
006F
0020
0000
0000
FFFF
FFFF
0068
0000
0000
0000
0000
0000
002F
0005
000E
0038
0000
0049
0000
002E
0000
000C
0000
0000
0000
0021
0000
0000
0000
0000
0000
0000
0000
FFFF
FFFF
FFFF
FFFF
FFFF
0000
0000
0000
0000
0000
0000
0000
0046
0000
0000
005D
0034
0000
001B
0018
0000
0000
0000
004A
0000
0000
0000
FFFF
FFFF
0000
FFFF
FFFF
FFFF
0000
0000
0000
0052
0000
0025
0000
0000
005E
0000
0000
0000
0000
0047
0000
0030
003A
0008
0053
0000
0000
0000
FFFF
FFFF
FFFF
0000
FFFF
0022
0000
0000
0000
0009
0000
0000
0000
0028
006E
0048
0063
004C
0004
0034
0017
0000
0000
001A
0070
0000
0000
FFFF
FFFF
0000
FFFF
FFFF
0000
0000
0000
0000
001B
0000
0000
0000
0014
0000
002A
0000
003C
0000
001B
0003
0000
0021
002A
0006
0000
0000
0000
FFFF
FFFF
FFFF
FFFF
0046
FFFF
FFFF
0000
0000
000D
000B
0038
003A
0000
0000
0000
0000
0005
003F
000A
0000
0000
0014
0000
0041
0000
0000
0000
0000
FFFF
0000
FFFF
0000
FFFF
0000
0000
0000
000C
005B
0000
0000
0032
0000
0000
007D
002D
0080
0041
0050
0019
0000
0000
0000
0000
0000
0000
0000
0000
0000
0000
0000
FFFF
FFFF
0000
0000
001B
0003
0000
0000
0002
0000
0000
0000
0023
0000
0042
000A
0000
0000
002D
0000
0009
0000
0000
0000
0000
FFFF
FFFF
FFFF
FFFF
0000
0000
0000
0000
0000
0026
0000
0070
0000
0000
000A
0033
0000
0000
0000
0000
0039
0000
0000
001C
0000
0000
0000
0000
0000
FFFF
FFFF
FFFF
0000
0000
0004
0050
002D
0000
002A
003A
0037
0016
0041
005F
0000
003B
0000
0000
0005
0023
0016
0000
0000
0000
0000
0000
0000
FFFF
0000
00B0
0000
0000
0005
004C
0002
0000
0000
004F
0000
0001
0017
0003
0000
0000
0000
0000
0000
0000
0000
0000
0000
0000
0000
0000
0000
FFFF
FFFF
0042
0000
0000
0000
0043
0052
007B
0000
0000
0013
0000
0035
0033
0044
0047
0039
0000
000D
001E
0000
0000
0000
0000
FFFF
FFFF
0000
0000
0000
0000
0000
0000
0000
0000
0002
0000
0000
0000
0000
003F
0000
0000
0000
0034
0000
0000
0000
0000
0000
0000
0000
0000
0000
0000
FFFF
FFFF
FFFF
0000
0000
0000
0000
0000
0000
0035
0060
0000
0000
0000
0000
0000
0012
0000
0035
0000
0000
0000
0000
0000
FFFF
FFFF
FFFF
FFFF
0000
0000
0000
0000
FFFF
0000
0000
0000
0000
0000
0019
0006
000A
0000
0035
0000
001F
003F
0000
0000
0000
FFFF
FFFF
0000
0000
0051
FFFF
0000
FFFF
0000
FFFF
0000
FFFF
FFFF
0000
0000
0000
0000
0000
0000
008A
002E
001E
0000
0000
0000
0000
0000
0000
004C
FFFF
FFFF
FFFF
FFFF
FFFF
FFFF
FFFF
0000
FFFF
0000
FFFF
FFFF
FFFF
FFFF
FFFF
0000
0029
0000
0000
0000
0000
0000
0000
0000
0000
0000
0000
FFFF
0000
FFFF
FFFF
FFFF
0000
FFFF
FFFF
FFFF
0000
FFFF
FFFF
FFFF
0000
0000
FFFF
0000
FFFF
FFFF
FFFF
0000
0000
0000
0000
0000
0000
FFFF
FFFF
FFFF
0000
FFFF
FFFF
0000
0000
FFFF
0000
