0000
0000
FFFF
0000
FFFF
FFFF
FFFF
0000
FFFF
0000
FFFF
FFFF
FFFF
0000
FFFF
FFFF
0000
0000
0000
0000
FFFF
FFFF
FFFF
0000
FFFF
0000
FFFF
0000
FFFF
0000
0000
FFFF
0000
FFFF
FFFF
FFFF
0000
FFFF
0000
0000
0000
FFFF
FFFF
FFFF
FFFF
FFFF
FFFF
0000
FFFF
0000
FFFF
0000
FFFF
FFFF
FFFF
0000
FFFF
FFFF
002D
0000
0000
0000
FFFF
FFFF
FFFF
0000
0000
0021
0000
0000
0000
0000
0000
0000
0000
0000
FFFF
FFFF
FFFF
0000
FFFF
FFFF
FFFF
FFFF
FFFF
0000
FFFF
0000
FFFF
FFFF
0000
0000
0000
0000
0000
0000
0000
0000
0000
0000
0000
0000
FFFF
0000
0000
FFFF
0000
0000
0000
FFFF
FFFF
0000
0000
FFFF
FFFF
0000
FFFF
0000
0000
0000
0000
0000
0000
0000
0030
0000
0000
0000
0000
000C
0021
0000
0000
0000
0000
0000
0000
FFFF
FFFF
0000
0000
FFFF
FFFF
0000
0000
0000
0000
0000
000B
0000
0036
0000
007B
0000
0049
0000
0035
0000
0000
0043
0000
0026
0000
0000
FFFF
FFFF
FFFF
FFFF
0000
0000
FFFF
0000
0000
0000
0000
0000
0065
005E
0000
0057
0008
000C
0000
0072
0000
0000
003E
0009
0007
0000
0000
0000
0000
0000
FFFF
FFFF
FFFF
0000
FFFF
FFFF
0000
0000
0000
000E
0000
003D
001A
0029
0008
002F
0000
0000
0020
0045
0000
001A
0000
0000
001D
0000
0000
FFFF
0000
0000
FFFF
FFFF
FFFF
FFFF
0000
0000
0000
0000
004A
0053
001E
0007
004E
002F
0000
0000
0000
0000
0024
0000
0000
001E
0013
0000
0000
0000
0000
FFFF
FFFF
0000
FFFF
FFFF
0000
0000
0000
0000
0000
003B
0000
0000
0000
0007
0000
0000
0019
0000
0000
0017
001F
004B
0000
0000
0000
0000
FFFF
FFFF
FFFF
FFFF
0000
0000
0000
0000
0000
0000
0000
0000
0000
0000
001E
0031
0000
003B
0000
0036
0000
0000
0000
0067
003F
0000
0000
0000
0000
0000
FFFF
FFFF
FFFF
0000
0000
0000
0000
0027
0000
0000
0000
0000
0055
0000
000B
0042
0000
0000
000F
0000
0000
0030
0000
0000
0000
0000
0000
FFFF
0000
0000
FFFF
0000
0000
0000
0000
0000
0000
0000
0008
0015
001D
0033
0034
0000
004D
006B
0000
003A
0000
0006
0049
0000
0000
FFFF
FFFF
FFFF
FFFF
FFFF
FFFF
0000
0000
0000
0000
0000
004B
0000
0048
005A
0000
0029
0000
0053
0000
0027
0026
0009
0026
0000
0000
0000
0000
0000
0000
0000
FFFF
0000
0000
0000
0000
0000
003A
0056
0007
001E
0000
004E
0027
0013
0000
0000
0000
0024
0000
0000
0000
0000
000C
0002
000C
FFFF
0000
FFFF
0000
FFFF
FFFF
FFFF
0000
0000
0000
0000
0007
0000
0000
0021
0019
0000
0050
0038
000F
0000
0011
0000
0000
0064
0000
0011
0000
0000
FFFF
0000
FFFF
0000
0000
0000
0000
0000
0008
0000
003C
002E
0032
0001
0040
0000
0000
0000
0000
0000
0014
0024
0063
0074
0000
0000
0000
0000
0000
0000
FFFF
0000
FFFF
FFFF
0000
0028
002E
0000
0000
0031
002F
0000
0000
002B
0000
002C
0000
0000
0000
0000
0000
0002
0024
0000
0000
0000
0000
FFFF
FFFF
FFFF
0000
0000
0018
0026
0013
0000
0000
0000
0000
0000
0027
0000
0036
0066
0017
0061
0000
0000
0046
0055
0004
0000
0000
0000
0000
0000
FFFF
FFFF
FFFF
0000
0000
0052
0012
0000
0066
0000
000C
0000
0000
0000
0041
0000
002C
0000
0062
0029
0000
006B
0000
0000
0000
0000
0000
0000
FFFF
0000
FFFF
0000
0000
0000
001E
0000
0009
0003
0028
0000
004D
0000
0032
0000
0000
0037
0000
0000
0000
0000
0000
0000
0000
0000
0000
0000
FFFF
0000
FFFF
FFFF
0000
0000
0000
0039
0000
0000
0014
0000
0000
0016
0000
0000
000A
008A
0000
0000
0000
0000
0000
0000
0000
FFFF
0000
0000
0000
0000
0000
0000
0000
0000
000B
0000
0017
0000
0044
0025
0016
0000
0000
001B
0000
0024
0000
0000
0000
0000
0000
0000
0000
FFFF
0000
FFFF
FFFF
FFFF
0000
0000
0000
0000
0000
003A
0012
0000
0000
0000
0021
0000
005F
0032
0037
004E
000A
0006
0000
0000
0000
FFFF
FFFF
0000
FFFF
0000
0000
FFFF
0000
FFFF
0000
0000
0000
0000
0000
0000
0000
001A
0000
0009
0000
0021
0000
0000
0000
0000
FFFF
0000
0000
0000
FFFF
FFFF
0000
FFFF
0000
FFFF
FFFF
FFFF
FFFF
FFFF
0000
0000
0000
0000
0000
0000
0000
0000
0000
0000
0000
0000
0000
0000
FFFF
0000
FFFF
FFFF
FFFF
FFFF
0000
FFFF
0000
FFFF
FFFF
003B
0000
FFFF
0000
0000
0000
0000
0000
0000
0000
0000
0000
0000
0000
0000
FFFF
0000
FFFF
0000
0000
FFFF
FFFF
0000
FFFF
FFFF
FFFF
0000
FFFF
0000
FFFF
0000
FFFF
FFFF
0000
0000
FFFF
0000
0000
FFFF
0000
0000
0000
FFFF
FFFF
FFFF
FFFF
0000
FFFF
FFFF
0000
0000
FFFF
FFFF
