FFFF
FFFF
FFFF
FFFF
FFFF
FFFF
FFFF
0000
FFFF
0000
0000
FFFF
0000
0000
FFFF
0000
0000
FFFF
0000
0000
0000
FFFF
0000
0000
FFFF
0000
0000
0000
FFFF
0000
FFFF
FFFF
0000
FFFF
0000
FFFF
0000
0000
0000
0000
0000
FFFF
0000
FFFF
0000
FFFF
FFFF
FFFF
FFFF
0000
FFFF
0000
FFFF
FFFF
FFFF
FFFF
FFFF
FFFF
FFFF
0000
0000
0000
0000
FFFF
0000
0000
0000
0000
FFFF
0000
0000
0000
0000
FFFF
FFFF
0000
0000
0000
FFFF
0000
FFFF
0000
FFFF
FFFF
0000
FFFF
0000
0000
FFFF
FFFF
0000
0000
FFFF
0000
0000
0000
0000
0000
0000
0000
0000
0000
0000
0000
0000
0000
0000
0000
0000
FFFF
FFFF
0000
0000
0000
FFFF
0000
0000
0000
FFFF
0000
0000
0000
0000
0000
0000
0000
0000
0001
0022
0000
0000
001D
0000
0000
0000
0000
0000
FFFF
FFFF
0000
0000
FFFF
FFFF
0000
0000
0000
0000
0000
003B
0000
0000
0000
001A
0063
002F
005C
0016
0047
0064
0000
001C
0000
0000
0000
0000
FFFF
FFFF
FFFF
FFFF
006C
FFFF
FFFF
0000
0000
0000
0000
0016
000B
0000
0000
007E
0000
0000
0000
0030
0000
0010
0000
0000
0031
0000
0000
0000
0000
FFFF
0000
FFFF
0000
FFFF
0000
0000
0000
0000
0000
000E
0000
0028
0000
0011
000A
0000
003B
0000
0000
0034
0000
0059
001C
0000
0000
0000
0000
0000
0000
FFFF
FFFF
0000
FFFF
0000
0000
0000
0000
0044
0000
0000
0009
0007
0007
002D
0004
0000
0000
0000
0000
0000
0008
0000
FFFF
FFFF
0000
0000
FFFF
FFFF
0000
FFFF
FFFF
0000
0000
0000
0000
0000
0006
002D
0011
0000
0000
0000
0010
0000
0000
0003
0034
000D
0027
000A
0000
FFFF
0000
FFFF
0000
FFFF
FFFF
0000
0000
0000
0000
0000
0000
0016
001D
0000
001F
001C
0000
0008
0000
0038
0019
0026
0000
0000
0000
0000
0000
0000
0000
0000
FFFF
FFFF
FFFF
FFFF
0000
0000
0000
0000
000A
0000
0009
0000
0001
0017
0000
000B
0000
002A
0000
0014
0000
0000
0000
0000
0000
FFFF
0000
0000
FFFF
0000
0000
FFFF
FFFF
0000
0000
0000
0000
0000
0000
0000
0000
003C
0000
0031
0000
0000
0032
000C
0013
0000
0000
0000
0000
FFFF
FFFF
FFFF
0000
FFFF
0000
FFFF
0000
0000
0000
0000
0032
0000
0000
002D
0000
0000
006C
0019
0000
0030
0000
0008
0000
0000
0039
0000
0000
FFFF
0000
0000
0000
FFFF
0000
0000
0000
0000
0000
0000
0003
003B
002C
0019
004C
0017
0053
0020
0000
0000
002F
0000
0007
0038
0000
0000
0000
0000
0000
0000
FFFF
FFFF
FFFF
FFFF
FFFF
0000
0000
0000
002D
0000
002B
0016
0000
001B
0000
0001
0046
001F
0000
001F
0052
0002
001C
0000
0000
0000
0000
FFFF
0000
FFFF
FFFF
0000
0000
0000
0000
0000
0000
0000
0027
0025
0000
0000
0013
0000
0010
0000
0029
0005
008C
0000
0014
0000
0000
0000
0000
0000
FFFF
0000
0000
FFFF
FFFF
0000
0000
0045
0013
0000
000D
0011
001C
0000
0008
0000
0000
003B
0002
0031
000D
0000
0026
0023
0000
0000
0000
0041
FFFF
0000
FFFF
0000
0000
0000
0000
0000
0000
0000
0013
0007
0000
0000
0074
002E
0000
0000
0034
0016
0000
002A
0011
0000
0000
0000
0000
0000
FFFF
FFFF
0000
FFFF
0000
0000
0000
001C
0000
0000
0010
0017
0034
0000
0000
0000
001F
0013
002B
0000
0009
0000
0000
0000
0000
0000
0000
0000
FFFF
FFFF
0000
FFFF
0000
0000
0000
0000
0000
0000
0037
0001
0000
0000
0000
0000
0000
0000
0000
0000
0000
0029
0000
0000
0000
0000
0000
0000
0000
FFFF
FFFF
FFFF
0000
0000
0000
000F
0052
0026
0000
0004
0000
0000
0000
0001
0068
0000
0002
0000
004B
000B
0000
0000
0000
0000
FFFF
0000
FFFF
FFFF
0000
0000
0000
0000
0000
002C
001F
0036
0025
0000
0038
0028
0000
0004
0000
0000
0000
000E
0000
0000
0000
0000
0000
0000
0000
0000
FFFF
FFFF
FFFF
0000
0000
0000
0000
0000
0045
0000
0003
0024
0013
0000
0018
0000
001F
0000
0000
0030
0013
0000
0000
0000
0000
FFFF
0000
FFFF
0000
FFFF
FFFF
FFFF
FFFF
0000
0000
0000
0000
0000
0000
0000
0000
0000
0066
0010
0006
0000
0077
0000
0000
0000
FFFF
0000
0000
FFFF
0000
0000
0000
0000
FFFF
0000
FFFF
FFFF
0000
0000
0000
0000
0000
FFFF
0000
0000
0000
0000
0000
0000
FFFF
0000
0000
FFFF
0000
FFFF
FFFF
FFFF
0000
0000
FFFF
0000
FFFF
0000
FFFF
0000
FFFF
0000
0000
0000
0000
FFFF
FFFF
FFFF
0000
0000
0000
0000
0000
0000
FFFF
FFFF
0000
FFFF
FFFF
FFFF
0000
FFFF
FFFF
FFFF
0000
0000
0000
FFFF
0000
0000
FFFF
0000
0000
FFFF
0000
0000
0000
0000
0000
0000
0000
FFFF
FFFF
0000
FFFF
FFFF
FFFF
0000
0000
FFFF
FFFF
