FFFF
0000
0000
FFFF
FFFF
FFFF
0000
FFFF
0000
0000
0000
FFFF
FFFF
0000
FFFF
FFFF
0000
FFFF
FFFF
FFFF
0000
0000
0000
0000
FFFF
0000
FFFF
0000
FFFF
0000
0000
0000
0000
FFFF
0000
FFFF
0000
FFFF
0000
0000
0000
FFFF
FFFF
0000
FFFF
FFFF
FFFF
FFFF
0000
0000
FFFF
0000
FFFF
FFFF
FFFF
0000
FFFF
FFFF
0000
0000
0000
0000
0000
FFFF
FFFF
0004
0000
0000
FFFF
0000
FFFF
0000
0000
0000
002F
0000
0000
0000
FFFF
0000
0000
FFFF
FFFF
FFFF
0000
0000
0000
FFFF
0000
FFFF
0000
0000
0000
0000
0000
0000
0000
0000
0000
0000
0000
0000
0000
0000
0000
0000
0000
0000
0000
0000
FFFF
0000
FFFF
FFFF
FFFF
0000
FFFF
0000
0000
0000
0000
0000
0000
006F
0000
000D
0000
0000
0000
0000
0010
0000
0000
0000
0000
0000
0000
FFFF
FFFF
0000
0000
FFFF
FFFF
0000
0000
0000
0000
0000
0000
0000
0000
0006
0000
0000
0000
0000
0031
0000
0012
0000
0000
0000
0000
0000
FFFF
FFFF
FFFF
FFFF
FFFF
0000
FFFF
FFFF
0000
0000
0000
0000
0000
0000
0000
0000
0025
0057
0000
0023
0000
0000
0000
0000
001C
0000
0000
0000
0000
0000
FFFF
0000
FFFF
0000
FFFF
FFFF
FFFF
FFFF
FFFF
0000
0000
0000
0000
0029
0008
000A
001C
0000
0023
0000
0000
0006
0000
0000
0000
0000
0000
FFFF
0000
0000
FFFF
FFFF
0000
FFFF
0000
0000
FFFF
0000
0000
003C
0000
0000
002E
0024
0000
0000
001D
0000
0000
0024
0000
0000
0000
0000
0000
0000
0000
FFFF
0000
0000
FFFF
FFFF
FFFF
FFFF
FFFF
0000
0000
0000
0041
0000
0000
0013
0025
0000
0060
0000
0000
0000
0000
0000
0000
0000
0000
0000
FFFF
0000
FFFF
FFFF
0000
0000
0000
0000
0000
0000
0060
0000
0000
0000
0009
0000
0050
0000
0000
0000
0000
0011
0005
0000
0000
0000
0000
0000
0000
0000
FFFF
FFFF
FFFF
0000
0000
0000
0000
0000
0009
0000
0000
0000
0032
0000
0000
0000
0000
002D
0013
0000
0000
0000
0000
0000
0000
0000
0000
0000
0000
0000
FFFF
FFFF
0000
0000
0000
0000
0000
0000
0000
0012
0002
0000
001B
0000
0000
0000
0030
0000
0000
0005
0000
0000
0000
0000
FFFF
FFFF
0000
0000
0000
0000
0000
0000
0000
0017
0000
0029
005D
0000
0019
0000
0000
0006
0000
0000
0029
0000
0023
0000
003B
0000
0000
FFFF
FFFF
0000
FFFF
0000
0000
0000
0000
0000
0000
0000
0000
0000
002D
0000
003F
0000
0000
0000
0000
0028
0000
0060
001E
001E
0044
0000
0000
FFFF
0000
FFFF
FFFF
FFFF
FFFF
FFFF
0000
0000
005D
004A
0041
0000
0000
0000
0000
0021
0000
0050
0018
0000
0008
002E
003A
0000
0000
0000
0000
0000
FFFF
0000
0000
FFFF
0000
FFFF
0000
0000
0000
0000
0000
0040
0000
0013
0014
0020
0000
000B
0000
004D
0000
0000
0051
0014
0000
0005
0000
0000
0000
FFFF
0000
0000
FFFF
FFFF
0000
005D
0026
0000
0055
003F
0079
001B
0000
006F
0000
0000
0000
001B
000A
000D
0000
0011
0000
0000
0000
0000
0000
FFFF
0000
FFFF
FFFF
0000
0000
0025
0000
000A
0000
007D
0000
0015
0000
0000
0008
0000
0058
001A
0000
002F
0013
0033
0000
0000
0000
0000
0000
FFFF
FFFF
FFFF
FFFF
FFFF
0000
0000
0026
002D
0000
0000
0000
0023
001B
0023
0012
0007
0000
0001
0000
0001
0040
0000
0000
0000
0000
0000
0000
0000
FFFF
0000
FFFF
0000
0000
0000
0028
0000
0000
0057
0021
004D
0000
0000
0000
0000
000B
0045
0032
0000
0000
0000
0000
0000
0010
0000
0000
0000
FFFF
0000
FFFF
0000
0000
0000
0000
0035
0000
001A
0020
0002
0000
0033
0000
000A
0028
0000
0022
0000
0012
0000
0000
0000
0000
FFFF
0000
0000
FFFF
0000
FFFF
FFFF
FFFF
0000
0000
0000
0000
0000
0006
0000
0025
0000
0000
000F
0000
0011
0000
0000
0000
0000
0000
0000
0000
0000
0000
FFFF
FFFF
FFFF
0000
0000
FFFF
FFFF
0000
0000
0000
0016
0000
0014
0030
0000
0000
0000
0000
0000
0000
0000
0000
0000
0000
0000
FFFF
0000
FFFF
0000
FFFF
FFFF
FFFF
FFFF
FFFF
FFFF
FFFF
FFFF
0000
0000
0000
0000
0000
0000
0000
0000
0000
0000
0000
0000
FFFF
0000
0000
0000
FFFF
0000
0000
0000
0000
FFFF
0000
0000
FFFF
0000
0000
FFFF
0000
0000
0000
0000
0000
0000
0000
0000
0000
0000
0000
0000
0000
0000
FFFF
FFFF
0000
0000
0000
0000
0000
FFFF
0000
0000
0000
FFFF
0000
0000
0000
FFFF
0000
FFFF
FFFF
FFFF
0000
0000
FFFF
0000
0000
0000
FFFF
0000
0000
FFFF
FFFF
0000
FFFF
FFFF
FFFF
0000
FFFF
FFFF
0000
0000
0000
FFFF
0000
FFFF
FFFF
0000
0000
0000
0000
0000
0000
FFFF
FFFF
FFFF
0000
FFFF
FFFF
FFFF
0000
FFFF
0000
FFFF
