FFFF
0000
FFFF
FFFF
FFFF
FFFF
0000
0000
FFFF
0000
FFFF
FFFF
FFFF
0000
FFFF
0000
0000
0000
0000
0000
0000
0000
0000
0000
FFFF
0000
FFFF
0000
FFFF
0000
0000
FFFF
0000
FFFF
FFFF
FFFF
0000
FFFF
0000
0000
FFFF
FFFF
0000
FFFF
0000
FFFF
FFFF
FFFF
FFFF
0000
FFFF
0000
FFFF
FFFF
0000
0000
FFFF
FFFF
FFFF
0000
0000
0000
FFFF
FFFF
0000
0000
FFFF
0000
0000
0000
FFFF
0000
0000
0000
0000
0000
0000
FFFF
0000
0000
FFFF
FFFF
FFFF
FFFF
FFFF
0000
FFFF
0000
FFFF
FFFF
0000
0000
FFFF
0000
0000
0000
0000
0000
0000
0000
0000
0000
0000
0000
0000
FFFF
FFFF
FFFF
FFFF
FFFF
FFFF
0000
0000
FFFF
FFFF
0000
FFFF
0000
0000
0000
0000
0000
0000
0000
0000
0000
004F
0000
0015
003F
0000
001D
0000
0000
0000
FFFF
0000
FFFF
FFFF
0000
0000
FFFF
FFFF
0000
FFFF
0000
0000
0000
0000
0000
0024
005A
0000
0029
0000
0008
000B
000E
0000
0000
0000
0000
0000
0000
0000
FFFF
FFFF
FFFF
FFFF
FFFF
0000
FFFF
FFFF
0000
0000
0000
0000
0010
0000
0000
0062
0000
0024
0040
0034
0007
001A
002A
0000
0004
0000
0000
0000
0000
FFFF
FFFF
FFFF
FFFF
FFFF
FFFF
FFFF
0000
0000
0000
0005
0000
0000
003E
0006
004E
0000
0000
0016
0000
0000
0000
0085
004C
0000
0000
0000
0000
0000
0000
0000
FFFF
FFFF
FFFF
0000
0000
0000
0000
002A
0000
0000
0000
0000
0000
0000
0000
0000
0009
0027
0001
000A
0000
0000
0000
0000
0000
0000
FFFF
FFFF
0000
FFFF
FFFF
0000
0000
0000
0000
0035
004E
0030
000E
0000
0000
003E
0000
0000
001F
0015
0000
0000
0000
0000
0000
0000
0000
FFFF
FFFF
FFFF
FFFF
0000
0000
0000
0000
0000
0000
0000
0024
0018
0000
0021
0000
0000
0032
0035
0000
0000
0000
0015
0004
0047
0000
0000
0000
0000
0000
FFFF
FFFF
FFFF
0000
0000
0000
0000
0000
0000
0000
0000
0000
0053
0000
0062
001C
0000
0000
0000
0000
0000
001A
0000
0000
0000
0000
0000
FFFF
0000
0000
0000
FFFF
0000
0000
0000
0000
0000
0000
0000
0027
0000
0000
003F
0000
0002
0000
0000
0000
0000
0000
0033
0000
0000
FFFF
FFFF
FFFF
FFFF
0000
FFFF
0000
0000
0000
0000
0000
0000
0000
0000
0000
0000
0000
0035
0066
0031
0000
0000
0000
0013
003F
0000
002A
0000
0000
0000
FFFF
FFFF
0000
0000
0000
0000
0000
0000
0000
001C
0047
0000
0017
0042
0026
0000
0064
0000
0000
0038
0000
0000
0000
008E
0000
0000
0000
0000
FFFF
FFFF
FFFF
FFFF
FFFF
0000
0000
0000
0000
000C
0001
0000
0000
006D
0000
0000
0072
0000
0000
0036
0000
0023
0000
0000
0000
0000
0000
FFFF
FFFF
FFFF
FFFF
0000
0000
0000
0000
0000
0000
004C
0000
0000
0000
0000
001A
0000
0000
0000
0044
0000
0017
0000
0023
0000
0000
0000
0000
0000
FFFF
FFFF
0000
0000
FFFF
0000
0000
0000
0028
0012
0000
005D
000C
0000
0000
0000
0000
001F
0000
005C
0004
0000
0000
0035
0000
0000
0000
FFFF
0000
0000
0000
0000
0000
0000
0000
0000
0000
002C
0010
0021
0000
0000
0000
0000
0000
0000
0000
0000
0000
002E
0000
0030
0000
0000
0000
0000
FFFF
FFFF
FFFF
FFFF
0000
0000
0000
0000
0000
0000
0000
0013
0000
0022
0000
006F
0016
0016
0000
0000
0000
0002
0026
0085
0000
0000
0000
0000
FFFF
FFFF
0000
FFFF
0000
0000
0000
0025
0000
003E
0015
0000
0000
0000
001B
0033
0000
0000
0000
0000
0000
0000
0044
0000
0000
0000
0000
0000
0000
FFFF
0000
FFFF
0000
0000
0056
0000
0000
0000
0000
002E
0054
0000
0000
0000
0000
0000
0020
0000
0000
0000
0000
0000
000B
0000
FFFF
0000
FFFF
FFFF
0000
0000
0000
0000
0000
000A
0005
007B
0013
0000
0000
0013
0000
0000
002B
0043
0031
0000
001F
0000
0000
0000
0000
0000
FFFF
0000
FFFF
0000
FFFF
0000
0000
0000
0000
0000
0000
0000
0000
0004
0017
0000
0000
0000
0000
0000
0000
004F
0000
0000
0000
0000
0000
FFFF
0000
FFFF
0000
FFFF
FFFF
FFFF
FFFF
0000
0000
0000
0000
0000
001B
0000
0000
0041
0024
0000
0024
0000
0000
0000
0000
FFFF
FFFF
0000
0000
FFFF
0000
0000
FFFF
0000
FFFF
FFFF
FFFF
FFFF
FFFF
0000
FFFF
FFFF
FFFF
FFFF
0000
0000
0000
0000
0000
0000
0000
0000
0000
0000
0000
FFFF
FFFF
0000
FFFF
0000
FFFF
0000
FFFF
FFFF
FFFF
FFFF
FFFF
0000
0000
0000
FFFF
0000
0000
0000
0000
0000
0000
0000
0000
0000
0000
0000
0000
FFFF
FFFF
FFFF
0000
FFFF
FFFF
0000
0000
FFFF
0000
0000
0000
FFFF
FFFF
0000
0000
FFFF
0000
0000
FFFF
0000
0000
0000
0000
FFFF
0000
FFFF
FFFF
FFFF
FFFF
0000
0000
FFFF
0000
