FFFF
FFFF
FFFF
FFFF
FFFF
FFE6
0000
0000
FFFF
FFFF
0000
FFFF
FFFF
0000
FFFF
FFFF
0000
FFFF
FFFF
FFFF
FFFF
FFFF
FFFF
0000
FFFF
0000
FFFF
0000
FFFF
0000
0000
FFFF
0000
FFFF
0000
FFFF
0000
0000
0000
0000
0000
FFFF
FFFF
FFFF
FFFF
FFFF
FFFF
FFFF
FFFF
0000
FFFF
0000
FFFF
FFFF
FFFF
FFFF
FFFF
FFFF
FFFF
0000
0000
0000
FFFF
0000
FFFF
0000
FFFF
0000
0000
0000
0000
0000
0000
0000
0000
0000
0000
0000
FFFF
0000
FFFF
FFFF
FFFF
FFFF
0000
0000
0000
0000
FFFF
FFFF
FFFF
0000
0000
0000
0000
0000
0005
0000
0000
0000
0000
0000
FFFF
0000
0000
0000
0000
0000
0000
0000
FFFF
0000
0000
FFFF
FFFF
0000
FFFF
0000
FFFF
0000
0000
0000
0000
000F
0012
0005
0000
0003
0013
003B
0055
0000
0000
0000
0000
0000
0000
FFFF
0000
0000
0000
FFFF
FFFF
0000
0000
0000
0000
0000
0000
0000
0000
0061
000E
0000
0000
0000
0000
0000
001F
0000
0028
0000
0000
0000
FFFF
FFFF
FFFF
FFFF
FFFF
0000
FFFF
FFFF
0000
0000
0000
0000
0000
0000
002A
0003
0000
0000
002B
0031
0000
0000
0002
0012
0038
0000
0000
0000
0000
0000
FFFF
0000
FFFF
0000
FFFF
0000
0000
0000
0000
0000
0000
0000
000B
0000
0000
0000
0064
000B
0000
0005
000B
0000
0010
0000
0072
0000
0000
0000
0000
0000
FFFF
FFFF
0000
FFFF
0000
0000
0000
008D
0000
0014
001A
0023
0020
0000
002B
0000
0006
0000
003D
0012
0052
0063
001F
0000
0000
0000
0000
FFFF
FFFF
0000
FFFF
FFFF
0000
0000
0000
0000
0000
002C
0071
0000
0000
0038
0032
0000
0000
0004
0000
0000
001F
0015
0000
0008
0000
0000
FFFF
FFFF
FFFF
FFFF
0000
0000
0000
0000
0000
0000
0000
000F
0000
002C
0000
002E
0021
0049
0000
0002
002E
0000
0000
0003
0000
0000
0000
0000
0000
FFFF
FFFF
FFFF
FFFF
0000
0000
0000
0000
0000
0043
0015
0000
0000
000E
0010
0064
0000
0007
0000
0000
002E
0000
0000
000E
0000
0000
0000
0000
FFFF
0000
FFFF
FFFF
FFFF
0000
0000
0000
0011
0000
0000
004B
0007
005C
0030
0000
0000
0029
0022
0000
0000
0047
000A
0000
0000
0000
0000
FFFF
0000
FFFF
0000
FFFF
0000
0000
0000
0000
0010
0000
0045
0000
003E
0000
0069
0040
0000
0000
0061
0000
0000
0000
006E
0027
0000
0000
FFFF
FFFF
0000
FFFF
FFFF
0000
0000
0000
0000
0055
003F
0072
0000
002D
0020
0012
0000
0000
0018
0015
003C
0000
0000
0000
004A
0000
0000
0000
FFFF
FFFF
FFFF
FFFF
FFFF
FFFF
FFFF
0000
0000
0029
0000
0000
0000
0000
0008
0000
0000
0011
0000
0022
0000
0035
005A
0000
0000
0019
0000
0000
0000
FFFF
0000
FFFF
FFFF
0000
0000
0000
0000
0000
0000
0000
0000
0000
007C
001D
0030
005D
0000
0000
0028
002A
0000
001B
0000
0025
0000
0000
0000
0000
FFFF
0000
0000
FFFF
FFFF
0000
001C
0000
0035
000B
0000
005C
0014
001E
0000
0000
0010
0064
0000
0000
0028
0000
0029
0000
0000
0000
0000
0000
FFFF
FFFF
FFFF
FFFF
0000
0000
0013
0012
001F
001D
0000
000E
0057
001B
0000
0000
0015
0000
001A
0000
0000
0000
0062
0000
0000
0000
0000
0000
FFFF
FFFF
FFFF
FFFF
0000
0000
0000
0024
00A3
0078
0000
000F
0000
0000
0050
0006
0014
0000
0014
0000
0000
008A
0000
0000
0000
0000
0000
0000
0000
FFFF
0000
FFFF
0000
0000
0000
0057
0000
0000
0000
0000
0000
0006
0009
0017
0000
0029
0043
0000
0018
0000
0000
0000
0000
0000
0000
0000
0000
FFFF
FFFF
FFFF
0000
0000
0000
0020
0000
0005
0000
0000
0038
002E
000F
001F
0000
0010
0000
0000
002C
0000
0000
0000
0000
0000
0000
0000
0000
FFFF
0000
0000
0000
0000
0003
0061
0011
0040
0000
0000
0003
0051
0000
0042
0000
0000
0014
0000
0000
0000
0000
0000
0000
0000
0000
0000
FFFF
FFFF
FFFF
0000
0000
0000
0000
0000
0019
0075
0000
0000
0000
0029
0000
0000
0007
0000
0000
0000
0000
0000
0000
0000
0000
0000
0000
FFFF
0000
FFFF
FFFF
FFFF
FFFF
0000
0000
0000
0000
0000
000C
0000
0056
003B
000B
0008
0000
0000
0000
0000
0000
FFFF
0000
0000
0000
FFFF
FFFF
0000
FFFF
0000
FFFF
0000
FFFF
FFFF
0000
0000
0000
0000
0000
0000
0000
0000
0000
0000
0000
0000
0000
0000
0000
0000
0000
FFFF
FFFF
FFFF
FFFF
0000
FFFF
0000
FFFF
0000
FFFF
FFFF
FFFF
0000
0000
0000
0000
0000
0000
0000
0000
0000
0000
0000
0000
0000
0000
FFFF
0000
0000
FFFF
FFFF
0000
FFFF
FFFF
FFFF
0000
FFFF
0000
FFFF
0000
0000
FFFF
0000
FFFF
FFFF
FFFF
0000
0000
0000
0000
0000
FFFF
FFFF
FFFF
FFFF
0000
FFFF
FFFF
0000
0000
FFFF
0000
