FFFF
FFFF
FFFF
FFFF
FFFF
FFFF
0000
0000
0000
0000
0000
FFFF
FFFF
0000
0000
FFFF
0000
FFFF
FFFF
FFFF
FFFF
0000
FFFF
0000
FFFF
0000
FFFF
0000
0000
0000
0000
0000
0000
FFFF
0000
0000
0000
FFFF
0000
0000
0000
FFFF
FFFF
FFFF
0000
FFFF
FFFF
FFFF
FFFF
0000
FFFF
0000
0000
0000
FFFF
FFFF
FFFF
FFFF
FFFF
0000
0000
0000
FFFF
FFFF
0000
FFFF
0000
0000
0000
0000
FFFF
0000
0000
0000
FFFF
0000
0000
0000
FFFF
0000
0000
0000
FFFF
FFFF
0000
0000
0000
FFFF
FFFF
FFFF
0000
0000
0000
0000
0000
0000
0000
0000
0000
0000
0000
0000
FFFF
0000
0000
0000
0000
FFFF
0000
FFFF
FFFF
0000
0000
FFFF
FFFF
FFFF
FFFF
0000
0000
0000
0000
0000
0000
0006
0042
002C
0000
0000
0018
0000
0000
0000
0000
0000
0000
0000
0000
FFFF
0000
0000
0000
FFFF
FFFF
0000
0000
0000
0002
0000
003F
0000
0000
0000
0000
0000
0000
0037
0000
0000
0000
0000
0000
0000
0000
0000
FFFF
0000
FFFF
FFFF
FFFF
0000
FFFF
FFFF
0000
0000
0000
0000
0000
0000
0000
0000
000D
0032
0000
0038
006D
000D
0000
0043
0000
0005
0000
0000
0000
0000
0000
0000
FFFF
0000
FFFF
FFFF
FFFF
0000
0000
0000
0000
0031
0000
006D
0027
0007
0005
0000
0067
0000
0000
001C
0000
0000
0000
0000
0000
FFFF
0000
FFFF
FFFF
FFFF
0000
FFFF
0000
0000
0000
0000
0000
0034
000E
000B
0000
003D
0000
0033
0000
0000
006F
0025
0000
000A
0000
0000
0000
0000
0000
0000
FFFF
0000
FFFF
FFFF
0000
0000
0000
001A
003C
0032
0010
0000
0007
0000
000D
0016
002A
0000
0000
0021
003B
0019
0000
0000
0000
0000
FFFF
0000
FFFF
FFFF
0000
0000
0000
0000
0046
0000
0000
0000
0000
0000
0011
000B
0000
007F
0034
0000
0000
0000
0016
003F
0000
0000
0000
0000
0000
FFFF
FFFF
FFFF
0000
0000
0000
0000
004B
0000
0000
008A
0050
0013
0015
0000
0000
0006
0000
0000
0010
000B
000C
006A
0000
0000
0000
0000
FFFF
FFFF
0000
FFFF
FFFF
FFFF
0000
0000
0002
0060
0000
0046
0001
0000
0000
0000
0000
0000
000B
0000
0000
0000
0000
0000
0051
0014
0000
0000
FFFF
FFFF
FFFF
0000
FFFF
0000
0000
0000
002F
0010
0010
0000
0000
0053
0000
0000
0002
006C
0000
0012
0000
0035
0000
0020
0000
0000
0000
FFFF
FFFF
0000
FFFF
FFFF
0000
0000
0000
0000
0000
0000
0029
002F
0003
0000
000D
0000
0017
0000
0000
0000
004B
0000
0000
001A
0098
0000
0000
FFFF
FFFF
FFFF
FFFF
FFFF
FFFF
FFFF
0000
0000
0000
0017
0000
0078
0000
0000
0000
0000
0000
0008
002E
0007
0000
0000
000E
003D
0000
0000
0000
0000
FFFF
0000
FFFF
0000
0000
0000
0000
0000
0000
0000
0012
0000
003D
0000
0000
0000
001B
0000
0016
000A
0065
0016
0000
003E
0000
0000
0000
0000
0000
0000
0000
0000
FFFF
FFFF
0000
0000
0000
0000
0000
0011
0000
0012
0000
0000
0000
0022
0000
0000
0024
0000
0023
0021
0009
0000
0000
0000
0000
FFFF
FFFF
FFFF
FFFF
0000
0000
000E
0007
0000
0000
0000
0025
0014
002A
0032
002A
0035
0000
0000
0025
0000
0057
0000
0058
0000
0000
0000
0000
FFFF
FFFF
FFFF
FFFF
FFFF
0000
0000
0000
0000
0000
001F
0000
0000
0018
001C
0020
0000
0000
001B
0031
0000
0000
0000
0000
0000
0000
0000
0000
0000
FFFF
0000
FFFF
0000
0000
0000
0000
0000
0000
0029
002A
0042
0000
0044
003E
0000
0000
004C
0000
0060
003C
0019
0000
0000
0000
0000
0000
0000
FFFF
FFFF
FFFF
0000
0000
0000
0000
000F
0000
0049
0000
0000
000A
0000
001F
0000
0000
0049
0000
0000
0000
0000
0000
0000
0000
FFFF
0000
0000
FFFF
0000
0000
0000
0000
0000
0000
0000
0000
0001
0000
0000
0000
0000
0000
0000
0000
000A
005A
0000
0000
0000
0000
0000
0000
0000
0000
FFFF
FFFF
FFFF
0000
0000
0000
0000
0000
0000
003E
001E
0000
000D
0004
0000
0000
0000
0000
0022
0024
0000
0000
0000
0000
FFFF
0000
0000
0000
0000
0000
FFFF
0000
FFFF
0000
0000
0000
0000
0000
0000
0005
0000
0000
0000
0010
0000
0000
0000
0000
0000
0000
FFFF
0000
0000
FFFF
FFFF
0000
FFFF
0000
FFFF
0000
FFFF
0000
0000
0000
0000
0000
0000
0000
0000
0000
0000
0000
0000
0000
0000
0000
0000
0000
0000
FFFF
FFFF
FFFF
FFFF
FFFF
FFFF
0000
FFFF
0000
FFFF
0000
0000
0000
0000
0000
0000
0000
0000
0000
FFFF
0000
0000
0000
0000
0000
0000
FFFF
0000
FFFF
FFFF
FFFF
0000
FFFF
FFFF
FFFF
0000
0000
FFFF
FFFF
0000
0000
FFFF
0000
FFFF
FFFF
FFFF
0000
0000
0000
0000
0000
0000
FFFF
FFFF
FFFF
0000
FFFF
FFFF
FFFF
0000
FFFF
0000
