0000
0000
FFFF
FFFF
FFFF
FFFF
0000
0000
0000
0000
0000
FFFF
FFFF
0000
0000
0000
0000
FFFF
FFFF
FFFF
FFFF
FFFF
FFFF
0000
FFFF
0000
FFFF
0000
FFFF
0000
0000
0000
0000
FFFF
0000
FFFF
0000
0000
0000
0000
0000
FFFF
0000
FFFF
FFFF
0000
FFFF
0000
FFFF
0000
FFFF
0000
FFFF
FFFF
0000
0000
FFFF
FFFF
FFFF
0000
0000
0000
FFFF
FFFF
FFFF
FFFF
0000
0000
0000
0000
FFFF
0000
0000
0000
0000
0000
FFFF
0000
FFFF
0000
0000
FFFF
FFFF
FFFF
0000
0000
0000
0000
FFFF
FFFF
FFFF
0000
FFFF
0000
0000
0000
0000
0000
001A
0000
0000
0000
0034
0000
0000
0000
0000
0000
0000
FFFF
0000
0000
0000
FFFF
FFFF
0000
FFFF
0000
FFFF
0000
0000
0000
0000
0000
0000
003B
0013
0000
0000
0000
0000
0010
0043
0000
0000
0000
0000
FFFF
FFFF
0000
0000
FFFF
FFFF
0000
0000
0000
0000
0000
0000
0000
0000
0000
0000
0000
000E
0024
0015
0005
0006
0034
0029
0016
0000
0000
FFFF
FFFF
FFFF
0000
0000
0000
0000
0000
0000
0000
0000
0000
0000
0000
0000
0000
0000
0000
0000
0000
0000
0028
0033
000D
0016
0022
0029
000B
0000
0000
FFFF
0000
FFFF
0000
0000
FFFF
0000
0000
0000
0000
0000
001B
0017
0009
0027
0000
000A
0000
006C
0000
0000
0030
002A
0031
0000
0000
0000
0000
0000
0000
FFFF
FFFF
0000
FFFF
0000
0000
0000
0000
0000
0000
0000
002F
0016
0014
0027
001A
0028
000C
0000
0000
0000
005D
0000
0000
0000
0000
0000
0000
FFFF
0000
FFFF
FFFF
FFFF
0000
0000
0000
0000
001F
0000
000E
000A
0022
0000
001A
0000
0008
0000
0000
0024
0080
0000
0000
0000
0000
FFFF
FFFF
FFFF
FFFF
0000
0000
0000
FFFF
0000
0000
0000
0017
0000
0000
0004
0004
0009
0059
0000
0000
0029
0001
002D
0000
0023
0000
0000
0000
0000
0000
FFFF
FFFF
FFFF
0000
0000
0000
001B
0000
0014
0070
0000
0000
0026
001B
0008
003A
0007
0000
0000
0000
001C
0000
0000
0000
0000
0000
0000
FFFF
FFFF
FFFF
FFFF
0000
0000
0000
0000
0031
0008
000A
0073
0063
0000
0000
0000
0000
004B
0000
0054
0000
0021
0000
0022
0000
0000
0000
FFFF
FFFF
FFFF
0000
FFFF
0000
0000
0000
0048
0000
0000
000C
0000
0041
0000
004B
0000
0000
0000
0002
002C
0000
0000
0000
0000
0008
0000
FFFF
FFFF
0000
FFFF
0000
0000
0000
0000
0000
0000
004C
0000
0000
0026
0000
0012
005B
002E
0000
0000
0000
000F
0000
0000
0004
0000
0000
0000
0000
0000
FFFF
0000
0000
FFFF
FFFF
0000
0000
001A
0000
002A
0045
000E
0000
0006
0012
003E
0000
0000
000F
0000
0000
001E
0005
0029
0000
0000
0000
FFFF
0000
FFFF
0000
0000
0000
0000
0000
0036
005E
0016
0044
0024
0047
001B
0005
0000
0039
004E
0000
002A
0038
000E
0000
0000
0000
0000
0000
0000
0000
0000
0000
FFFF
FFFF
0000
0000
0003
001B
0041
0000
0025
007A
0035
0000
0000
0000
0000
0013
0016
0000
001E
0038
0000
0000
0000
0000
0000
FFFF
FFFF
FFFF
FFFF
0000
0000
0000
0000
0000
0000
0029
005E
0007
0050
0000
0017
0000
0000
000D
004F
0000
0001
0032
0000
0000
0000
0000
0000
FFFF
FFFF
FFFF
FFFF
0000
000C
0000
0000
0000
001E
0000
0000
0047
0000
0000
0000
003F
0000
0023
002A
0000
0005
0000
0000
0000
0000
0000
0000
0000
FFFF
0000
FFFF
0000
0000
0003
0000
0038
0052
0000
0000
0003
0013
0007
0026
003E
0000
003C
002B
0013
0000
004D
0000
0000
0000
0000
FFFF
0000
FFFF
0000
0000
0000
0000
0000
0022
0000
0004
0009
0000
002F
0000
0000
0060
002D
0034
0048
0022
0036
0000
0000
0000
0000
0000
FFFF
0000
0000
FFFF
0000
0000
0000
0000
0000
0023
0021
0000
0000
0000
0039
0000
0000
0000
0000
0097
0000
001A
0035
0000
0000
0000
0000
0000
0000
0000
FFFF
FFFF
FFFF
0000
0000
0000
0000
0000
0044
000B
0000
0000
0000
006F
000B
0000
0008
0000
000D
0000
0000
0000
0000
0000
0000
FFFF
0000
FFFF
0000
0000
FFFF
0000
FFFF
0000
0000
0000
0000
0000
0000
0000
0000
0000
0000
0000
002B
0000
0000
0000
0000
FFFF
0000
0000
0000
FFFF
FFFF
0000
FFFF
0000
FFFF
0000
FFFF
FFFF
0000
0000
0000
0000
0000
0000
0000
0000
0000
0000
0000
0000
0000
0000
0000
0000
0000
FFFF
0000
FFFF
FFFF
0000
FFFF
0000
FFFF
0000
FFFF
FFFF
FFFF
0000
0000
0000
0000
0000
0000
FFFF
0000
0000
0000
0000
0000
0000
0000
0000
0000
FFFF
FFFF
FFFF
0000
FFFF
FFFF
FFFF
0000
FFFF
FFFF
FFFF
0000
0000
FFFF
0000
FFFF
FFFF
0000
0000
0000
0000
0000
0000
0000
FFFF
FFFF
FFFF
0000
0000
FFFF
0000
0000
FFFF
FFFF
