0000
0000
FFFF
0000
FFFF
FFFF
0000
0000
0000
0000
FFFF
FFFF
FFFF
0000
0000
FFFF
0000
0000
FFFF
FFFF
FFFF
0000
FFFF
0000
FFFF
0000
FFFF
0000
FFFF
0000
0000
0000
0000
FFFF
FFFF
FFFF
0000
FFFF
0000
0000
0000
FFFF
FFFF
FFFF
FFFF
FFFF
FFFF
0000
0000
0000
0000
0000
FFFF
FFFF
0000
0000
FFFF
FFFF
FFFF
0000
0000
0000
FFFF
FFFF
FFFF
0000
FFFF
0000
0000
0000
FFFF
0000
0000
0000
0000
0000
FFFF
0000
0000
0000
0000
0000
FFFF
FFFF
FFFF
0000
FFFF
0000
0000
FFFF
FFFF
0000
0000
0000
0000
0000
0000
0000
0000
0000
0000
0000
0000
0000
0000
0000
0000
0000
FFFF
FFFF
FFFF
0000
0000
0000
FFFF
0000
0000
0000
FFFF
0000
0000
0000
0000
0000
0000
0000
0000
0020
004E
001E
0000
0000
0000
0000
0000
0000
0000
FFFF
FFFF
FFFF
0000
FFFF
FFFF
FFFF
0000
0000
0000
0000
0000
0000
0000
0000
0008
0062
0000
0000
0052
0000
0000
0040
0020
0015
0000
0000
FFFF
FFFF
FFFF
FFFF
0000
0000
0000
FFFF
0000
0000
0000
0000
0000
0020
0000
0000
0000
0010
0000
0000
0013
002E
0002
0011
0022
0000
0000
0000
0000
0000
FFFF
FFFF
FFFF
0000
FFFF
FFFF
FFFF
FFFF
0000
0000
0000
0000
0000
0000
0000
0000
0013
0000
0023
0035
0000
0000
0018
005A
0000
0000
0000
0000
0000
FFFF
FFFF
FFFF
FFFF
FFFF
0000
0000
FFFF
0000
0000
0000
0000
0000
0000
0000
0000
0016
0000
0000
0049
0000
0063
0000
0000
0000
0000
0000
0000
0000
FFFF
0000
FFFF
FFFF
0000
0000
0000
0000
0000
0000
0020
0000
0000
001C
0000
0000
000E
0030
0027
0000
002B
0000
0000
0000
0000
0000
FFFF
FFFF
FFFF
FFFF
0000
0000
0000
FFFF
0000
0000
0000
0000
0000
0000
0000
004C
002B
0020
000E
0016
0000
0000
0000
0000
0031
0000
0000
0000
0000
0000
FFFF
FFFF
FFFF
0000
0000
0000
0000
0000
0000
0002
0000
0000
0000
0000
0000
0000
000C
0034
0006
001B
0000
005A
0000
0000
0000
0000
0000
0000
0000
FFFF
FFFF
0000
0000
0000
0000
0000
0000
0043
0055
0000
0000
0027
0000
0023
001B
0000
0003
0003
0004
007F
0006
0000
0000
0000
FFFF
FFFF
FFFF
0000
FFFF
0000
0000
0000
0000
0000
0071
0000
0000
0000
0026
003C
0000
0032
0010
0000
0000
0000
0000
0000
0007
0000
0000
FFFF
FFFF
0000
FFFF
0000
0000
0000
0000
0000
0000
0000
000A
0000
0031
0000
0000
0000
0022
0000
0000
0002
0000
0000
000F
0064
0000
0000
0000
FFFF
0000
FFFF
0000
FFFF
FFFF
FFFF
0000
0000
0005
0000
0000
000F
0000
0000
0000
0000
0028
000C
0074
0000
0030
0000
0000
001E
0000
0000
0000
0000
FFFF
0000
FFFF
FFFF
FFFF
0000
0000
0000
0041
0001
002D
0000
0000
004F
0038
0000
000A
0000
0000
0000
0049
0029
0005
0000
0036
0000
0000
0000
0000
0000
FFFF
0000
FFFF
FFFF
0000
0000
0000
0000
002B
0032
0048
0025
0018
0000
005F
0000
0030
0054
0047
0026
0000
0000
0000
0000
0000
0000
0000
FFFF
FFFF
FFFF
FFFF
0000
0000
0018
0000
0036
0000
0000
0000
0026
0000
0015
0042
0000
0000
003D
0024
0044
0000
0004
0000
0000
0000
0000
0000
0000
FFFF
FFFF
FFFF
0000
0000
0056
0010
0024
0000
0051
0050
0000
001C
0000
0050
0000
000C
0000
0006
0000
0040
0000
0000
0000
0000
0000
0000
0000
FFFF
0000
FFFF
0000
0000
0024
0024
0004
0080
0040
000C
0007
0000
0015
0000
000E
0000
0000
0005
0000
001E
0000
0000
0000
0000
0000
0000
0000
FFFF
0000
FFFF
0000
0000
0000
0000
0000
0038
0020
000F
0044
0000
0000
0000
0000
0000
0032
0000
008B
003A
0000
0000
0000
0000
FFFF
0000
0000
0000
0000
0000
0000
0000
0000
0062
0000
0000
002C
0000
0000
002B
001C
0033
000D
0000
0028
000D
0000
0000
0000
0000
0000
0000
FFFF
0000
FFFF
FFFF
FFFF
0000
0000
0000
0000
0000
0000
0000
0000
003A
000B
003B
004B
0000
0027
0000
0000
0000
0000
0000
0000
0000
0000
FFFF
FFFF
FFFF
0000
FFFF
FFFF
FFFF
FFFF
0000
0000
0000
0000
0000
0028
0033
0000
0014
0007
003C
0000
0000
0000
0000
0000
FFFF
FFFF
0000
0000
FFFF
FFFF
0000
FFFF
0000
FFFF
FFFF
FFFF
FFFF
FFFF
0000
0000
0000
0000
0000
0000
0000
0000
0000
0000
0000
0000
0000
0000
FFFF
FFFF
FFFF
FFFF
FFFF
FFFF
FFFF
FFFF
0000
FFFF
FFFF
FFFF
0000
0000
0000
FFFF
0000
0000
0000
FFFF
FFFF
FFFF
0000
0000
0000
0000
FFFF
0000
FFFF
0000
FFFF
FFFF
FFFF
0000
FFFF
FFFF
FFFF
0000
0000
FFFF
0000
0000
FFFF
FFFF
0000
FFFF
FFFF
0000
0000
FFFF
0000
0000
0000
FFFF
FFFF
FFFF
FFFF
0000
FFFF
FFFF
0000
0000
FFFF
FFFF
