FFFF
FFFF
FFFF
FFFF
FFFF
FFFF
FFFF
0000
FFFF
0000
FFFF
FFFF
FFFF
0000
FFFF
FFFF
0000
FFFF
FFFF
FFFF
0000
FFFF
0000
0000
FFFF
0000
FFFF
0000
FFFF
0000
0000
FFFF
002D
FFFF
0000
FFFF
0000
0000
0000
0000
0000
FFFF
FFFF
FFFF
FFFF
0000
FFFF
FFFF
FFFF
0000
0000
0000
FFFF
FFFF
FFFF
FFFF
FFFF
0000
FFFF
0000
0000
0000
FFFF
FFFF
FFFF
0000
0000
0000
FFFF
0000
FFFF
0000
0000
0000
0000
0000
FFFF
0000
FFFF
0000
0000
FFFF
FFFF
FFFF
0000
0000
0000
FFFF
FFFF
FFFF
0000
0000
FFFF
0000
0000
0000
0000
0000
0000
0000
0000
0000
0000
0000
0000
0000
0000
0000
0000
FFFF
0000
0000
0000
FFFF
FFFF
FFFF
FFFF
0000
0000
0000
0000
0000
0000
0000
0000
0000
0000
0000
0000
0000
0000
0000
0000
0000
0000
0000
0000
FFFF
FFFF
0000
0000
FFFF
FFFF
0000
FFFF
0000
FFFF
FFFF
0000
0000
0000
0000
0033
0000
0000
0046
0003
000B
0000
001F
0013
0000
0000
0000
FFFF
FFFF
FFFF
0000
FFFF
0000
FFFF
0000
FFFF
FFFF
0000
0000
002C
0000
0000
0000
0044
0028
0002
0037
0000
0000
0006
0000
0000
0032
001F
0000
0000
0009
0000
0000
FFFF
FFFF
0000
FFFF
0000
0000
0000
0000
0040
0036
0002
0024
0000
0032
0021
0000
0000
0000
0000
0000
0048
000C
0000
000D
0000
0000
0000
0000
FFFF
FFFF
FFFF
FFFF
0000
0000
0000
0000
0000
0000
0000
0000
0004
0000
0000
0000
000C
0000
0000
004B
001B
0000
0000
0000
0000
0000
0000
FFFF
FFFF
0000
FFFF
FFFF
0000
0000
0000
0000
0039
0000
0060
0000
0000
0000
0000
0000
001E
0048
0000
0044
0000
004C
0000
0000
0000
0000
FFFF
FFFF
0000
0000
0000
FFFF
0000
0000
0043
0000
0000
0028
0005
0000
0000
0000
0024
0000
0058
0000
0038
0025
0000
0000
0022
0000
0000
0000
FFFF
FFFF
FFFF
FFFF
FFFF
0000
0000
0000
0000
0000
0000
0000
000D
0022
0031
000B
001F
0000
0000
001D
0000
001E
0000
0000
0000
0000
0000
0000
0000
FFFF
0000
0000
FFFF
FFFF
0000
0000
0042
0000
001E
004D
0013
0025
0039
0007
0000
0000
0000
001E
0000
0000
0000
0000
0000
0000
0000
0000
FFFF
FFFF
FFFF
FFFF
FFFF
0000
0000
0000
0000
0000
0000
0007
0000
0000
0000
0000
001F
0000
000B
006D
0024
0000
002F
0020
0000
0000
0000
FFFF
FFFF
FFFF
FFFF
FFFF
0000
0000
0000
002C
0020
000A
003E
0000
0046
0000
0079
0000
0020
0000
0000
0000
0000
0000
0000
0008
0000
0000
0000
FFFF
FFFF
FFFF
FFFF
0000
FFFF
FFFF
0000
0000
0003
0048
003A
000A
0021
0038
0000
0037
0017
0000
0032
0044
0036
0021
0000
0003
0056
0000
0000
0000
FFFF
0000
FFFF
0000
0000
0000
0000
002B
0000
0000
001F
0008
0000
0053
0007
0000
0059
0038
001F
0000
0028
0007
0000
0000
0000
0000
0000
0000
0000
FFFF
0000
0000
FFFF
FFFF
0000
0000
0055
0065
0000
0000
0007
0000
0000
0000
0000
0040
0000
0000
0037
0000
0004
0000
0000
0000
0000
0000
0000
FFFF
0000
FFFF
FFFF
0000
0000
0000
0000
0007
0002
0010
0000
0014
0000
0003
0039
0032
0000
0001
0004
0000
0000
0000
0000
0000
0000
0000
0000
FFFF
FFFF
FFFF
FFFF
FFFF
0000
0000
0000
0000
0012
0000
001C
0000
0025
0000
0000
002D
0000
002E
0000
0000
0000
004B
0000
0000
0000
0000
0000
0000
FFFF
0000
0000
0000
0000
0000
0000
0018
0000
003E
0005
0032
0000
0000
0000
003E
0000
0000
0000
000C
0000
0000
0000
0000
0000
0000
0000
0000
FFFF
FFFF
0000
0000
0000
0000
0000
001C
0015
0000
0013
0000
0000
0000
001C
0000
0000
0000
0015
0000
0000
0000
0000
0000
0000
FFFF
0000
0000
FFFF
0000
0000
0000
0000
FFFF
0000
0000
003A
0000
0056
0015
000C
0000
0033
0000
0073
005F
003D
0000
0000
0000
0000
0000
0000
0000
0000
FFFF
FFFF
FFFF
0000
0000
0000
0000
0000
0000
0000
0005
0000
0000
006A
0000
0000
0000
0000
0004
0000
0000
0000
0000
0000
FFFF
FFFF
0000
FFFF
0000
0000
0000
0000
FFFF
0000
0000
0000
0000
0000
004C
0048
0000
0044
0000
0000
0012
0000
0000
0000
0000
0000
FFFF
0000
0000
0000
FFFF
0000
FFFF
0000
FFFF
FFFF
FFFF
0000
0000
0000
0000
0000
0000
0003
0006
0000
0000
0000
0000
0000
0000
0000
0000
0000
0000
FFFF
FFFF
FFFF
FFFF
0000
FFFF
0000
FFFF
FFFF
0000
FFFF
0000
FFFF
0000
0000
0000
0000
0000
0000
0000
0000
0000
0000
0000
0000
0000
FFFF
0000
FFFF
FFFF
FFFF
0000
0000
FFFF
FFFF
0000
0000
FFFF
FFFF
0000
0000
FFFF
0000
FFFF
FFFF
FFFF
0000
0000
0000
0000
0000
0000
FFFF
FFFF
FFFF
FFFF
FFFF
FFFF
0000
0000
FFFF
FFFF
