FFFF
0000
FFFF
FFFF
FFFF
FFFF
FFFF
0000
FFFF
0000
FFFF
FFFF
002D
0000
FFFF
FFFF
0000
FFFF
FFFF
FFFF
0000
0000
0000
0000
FFFF
0000
FFFF
0000
FFFF
0000
0000
FFFF
FFFF
FFFF
FFFF
FFFF
0000
0000
0000
0000
0000
FFFF
FFFF
0000
FFFF
0000
FFFF
FFFF
FFFF
0000
FFFF
0000
FFFF
FFFF
0000
0000
FFFF
0000
FFFF
0000
FFFF
0000
0000
FFFF
FFFF
0000
FFFF
0000
0000
0000
FFFF
0000
0000
0000
0000
0000
FFFF
0000
FFFF
0000
0000
0000
FFFF
FFFF
FFFF
0000
FFFF
FFFF
FFFF
FFFF
FFFF
FFFF
FFFF
0000
0000
0000
0000
0000
0000
0000
0000
0000
0000
0000
0000
0000
FFFF
0000
0000
FFFF
0000
0000
FFFF
FFFF
FFFF
FFFF
FFFF
0000
FFFF
0000
0000
0000
0000
0000
0000
0000
000C
0000
0000
0013
0000
0000
0000
0000
0000
0000
0000
FFFF
FFFF
0000
0000
FFFF
FFFF
0000
0000
FFFF
0000
0000
0000
0000
0000
0000
0000
0000
0000
0000
003D
0000
001B
0000
0000
0000
0000
FFFF
FFFF
0000
FFFF
0000
FFFF
0000
0000
0000
FFFF
FFFF
FFFF
0000
0000
0000
0000
001A
0000
0000
0039
0000
0000
005E
0000
0000
0000
0045
0014
0000
0000
0000
FFFF
FFFF
FFFF
0000
0000
FFFF
FFFF
FFFF
FFFF
0000
0000
0000
0000
0000
0000
0000
0014
0034
0000
0000
0012
0000
0000
0000
004D
000D
0000
0000
0000
0000
FFFF
FFFF
FFFF
0000
0000
FFFF
FFFF
0000
003C
0000
0000
0000
0000
0096
0004
0000
0000
0000
000D
0000
000C
0018
000C
0000
0000
0000
0000
FFFF
FFFF
0000
0000
FFFF
FFFF
0000
FFFF
0000
004B
0000
0000
0000
0000
0000
0021
0000
0052
0005
0023
000D
0001
0028
0070
0000
0000
0000
FFFF
FFFF
0000
0000
0000
0000
0000
FFFF
0000
0000
0004
003A
0029
0063
0000
002E
002A
0001
0000
0032
0009
0000
0000
0000
0007
0000
0000
0000
0000
0000
FFFF
FFFF
FFFF
0000
0000
0000
0000
000E
0021
0000
007F
0000
0026
0015
0000
000F
000C
0000
002E
0022
0000
0000
0000
0000
0000
0000
0000
FFFF
0000
0000
FFFF
FFFF
0000
0000
0000
0040
004E
0000
0018
0000
001B
0010
0000
0000
0009
0000
0000
000C
0000
0000
0047
0000
0000
0000
FFFF
FFFF
FFFF
0000
FFFF
0000
0000
0000
0000
0000
0000
0000
004E
0000
0000
0000
0004
0006
0031
0007
0000
0019
0000
0010
0004
0000
0000
FFFF
FFFF
0000
FFFF
0000
0000
0000
0000
0000
0004
001D
0016
0000
0010
0000
000C
0000
0017
0000
0000
002F
0000
0000
004F
0000
0025
0000
0000
FFFF
0000
FFFF
FFFF
0000
FFFF
FFFF
0000
0000
0000
0000
0000
002C
004D
0000
001D
0023
0000
0000
000A
0000
0000
0028
0000
0000
0000
0000
0000
0000
FFFF
0000
FFFF
0000
0000
0000
0000
0000
0000
0000
0026
0000
000D
0000
0063
002D
0020
0000
0000
0000
0037
0000
0000
0000
0000
0000
0000
0000
0000
0000
FFFF
0000
FFFF
FFFF
0000
0000
0000
0000
002E
0000
0019
0000
0003
0000
0000
002A
0000
0000
0018
0000
0000
0000
0000
0000
0000
0000
0000
FFFF
0000
0000
FFFF
0000
0000
0000
0000
000D
0000
003F
0000
002C
001C
0023
0000
0000
0067
000E
0000
0034
0007
0015
0000
0000
0000
0000
0000
FFFF
FFFF
0013
FFFF
FFFF
0000
0000
0000
0000
002C
0000
0000
0000
0015
001E
0000
002D
000D
000D
003B
0000
0000
0000
0000
0000
0000
0000
0000
0000
FFFF
0000
0000
0000
0000
0000
0000
0000
0000
0000
0000
003E
0000
0046
001C
002E
001A
0000
003F
0022
0000
0000
0000
0000
0000
0000
0000
0000
FFFF
0000
0000
0000
0000
0000
0000
0000
0019
0015
0000
0021
0016
000D
0000
0000
0003
000B
0000
0000
0000
0000
0000
0000
0000
FFFF
0000
0000
FFFF
0000
0000
FFFF
0000
0000
0000
0000
002D
0000
0000
0000
000F
0000
0007
0008
0000
0000
0008
0000
0000
0000
0000
0000
FFFF
FFFF
0000
FFFF
FFFF
FFFF
0000
0000
FFFF
0000
0000
0000
0000
0000
0000
0000
0000
0000
000E
0039
0006
0000
0000
0000
0000
0000
0000
0000
FFFF
0000
FFFF
0000
0000
0000
0000
FFFF
0000
0000
0000
0000
0000
0000
0000
0000
0000
0033
0000
002C
0008
0000
0000
0000
0000
0000
0000
0000
0000
FFFF
0000
0000
0000
FFFF
FFFF
FFFF
0000
0000
0000
0000
0000
0000
0000
0000
0000
0000
0000
0000
0000
0000
0000
0000
0000
0000
FFFF
FFFF
FFFF
FFFF
0000
FFFF
0000
FFFF
FFFF
0000
FFFF
0000
0000
0000
0000
0000
0000
0000
0000
0000
0000
0000
0037
0000
0000
0000
0000
0000
0000
FFFF
FFFF
0000
0000
FFFF
FFFF
0000
0000
0000
FFFF
0000
FFFF
FFFF
0000
FFFF
FFFF
0000
0000
FFFF
0000
0000
0000
001E
FFFF
FFFF
0000
FFFF
FFFF
FFFF
0000
0000
FFFF
0000
