FFFF
0000
FFFF
FFFF
FFFF
FFFF
FFFF
0000
FFFF
0000
FFFF
FFFF
FFFF
0000
FFFF
FFFF
0000
0041
FFFF
FFFF
0000
0000
0000
FFFF
FFFF
0000
FFFF
0000
FFFF
0000
0000
FFFF
0000
FFFF
0000
FFFF
0000
FFFF
FFFF
0000
0000
FFFF
FFFF
FFFF
FFFF
0000
FFFF
FFFF
FFFF
0000
FFFF
0000
FFFF
FFFF
0000
0000
FFFF
0000
FFFF
0000
0000
0000
0000
FFFF
FFFF
0000
0000
0000
0000
0000
FFFF
0000
0000
0000
0000
0000
FFFF
0000
0000
0000
0000
FFFF
FFFF
FFFF
0000
FFFF
FFFF
FFFF
FFFF
FFFF
FFFF
0000
FFFF
0000
0000
0000
0000
0000
0000
0000
0000
FFFF
0000
FFFF
0000
0000
0000
0000
FFFF
FFFF
0000
0000
0000
FFFF
FFFF
FFFF
FFFF
0000
0000
0000
0000
0000
0000
0000
0000
0000
0000
002E
0000
0000
0000
0000
0000
0000
0000
0000
0000
FFFF
FFFF
0000
0000
FFFF
0000
0000
0000
FFFF
0000
FFFF
0000
0000
0000
000A
0000
0000
0000
0000
0000
007F
0008
0000
0010
0000
0000
0000
FFFF
FFFF
FFFF
0000
FFFF
0000
0000
0000
FFFF
FFFF
0000
FFFF
0000
0068
0000
0009
0000
0000
000C
0015
0000
0000
0000
0000
000A
0017
0000
0000
0000
0000
0000
FFFF
FFFF
FFFF
0000
FFFF
FFFF
0000
0000
0000
0000
0018
0012
000F
0000
0027
0000
0003
0000
001B
0000
0000
0000
0000
0000
0000
0000
0000
0000
0000
FFFF
0000
FFFF
FFFF
0000
0000
0000
0067
0000
0003
0019
0000
0048
0005
0000
0000
0000
0010
0000
0065
0000
000B
0022
0000
0000
0000
0000
FFFF
FFFF
0000
FFFF
FFFF
0000
0000
0000
001D
0000
0086
0000
0000
001F
0056
0000
001F
002D
0000
0000
0000
001F
0062
0000
0000
0000
0000
FFFF
0000
0000
FFFF
0000
0000
0000
0000
0006
0000
005C
0000
0032
0000
0000
0000
0000
0050
0000
0000
0033
0007
0000
0040
0000
0000
0000
0000
0000
0000
0000
FFFF
FFFF
0000
0000
0000
002C
0016
0000
0021
0000
0000
0000
0000
002D
0000
0000
0000
0000
0051
0016
001E
0000
0000
0000
0000
0000
FFFF
0000
0000
FFFF
FFFF
0000
0000
0000
0005
0000
0080
0000
0018
0011
002A
0000
0000
0000
0030
0033
0000
004A
0000
001A
0000
0000
0000
FFFF
FFFF
FFFF
FFFF
FFFF
0000
0000
0000
0000
002F
0022
0013
0000
0026
002F
0000
0010
0039
003C
0040
0000
0011
0000
005C
0000
0000
0000
FFFF
FFFF
0000
0000
0000
0000
0000
0000
0003
0000
0000
001B
0032
0000
0035
0016
004D
0000
0000
0007
0000
0076
0043
0036
000D
002E
0000
0000
FFFF
0000
0000
FFFF
0000
FFFF
FFFF
0000
0000
0000
0000
0046
0000
0056
0000
0043
0000
0000
0028
0043
0000
0000
002B
001E
0029
0035
0000
0000
0000
FFFF
0000
FFFF
0000
0000
0000
0000
0000
0005
0000
0000
0000
0000
0041
001A
0085
0000
0000
000A
0000
0000
003C
0000
0000
0000
0000
0000
0000
FFFF
FFFF
FFFF
0000
FFFF
FFFF
0000
0000
0020
0000
0000
0000
0055
0020
0000
0000
001E
0033
0000
0015
0000
0000
0000
0000
0000
0003
0000
0000
0000
FFFF
0000
0000
FFFF
0000
0000
0000
0000
0029
002D
0000
0000
000D
0056
0000
0019
0013
0000
0000
0011
0004
0000
0014
0000
0000
0000
FFFF
FFFF
FFFF
FFFF
FFFF
FFFF
FFFF
0000
0000
0000
0000
0000
0000
0000
0000
0000
0000
0000
0000
0061
0011
0000
0007
000F
0000
0000
0000
0000
FFFF
0000
0000
FFFF
0000
FFFF
0000
0000
0000
0000
0000
0008
0031
0000
0000
0000
0000
0000
0000
0000
0022
0000
003E
0000
0000
0000
0000
0000
0000
0000
0000
FFFF
0000
0000
FFFF
0000
0000
0000
0000
0000
0000
002B
0000
0000
0000
0000
0000
0000
0000
0000
0000
0000
0000
0000
0000
0000
0000
FFFF
0000
FFFF
0000
0000
0000
0000
0000
0000
0000
0040
0000
0000
0000
0000
000B
0003
0000
0000
0089
0000
0001
0000
0000
0000
0000
FFFF
FFFF
0000
FFFF
FFFF
FFFF
0000
0000
0000
0000
0000
0000
0000
0000
0000
0000
0054
000E
0000
0019
005C
0000
0000
0000
0000
0000
0000
0000
FFFF
0000
FFFF
0000
0000
FFFF
0000
FFFF
0000
0000
0000
0000
0000
0000
0022
0000
0003
0000
0016
004F
0000
0023
0000
0000
FFFF
0000
0000
0000
0000
FFFF
0000
0000
0000
FFFF
FFFF
FFFF
0000
FFFF
0000
0000
0000
0000
0000
0000
0000
001F
0000
0006
0000
0000
0000
0000
0000
0000
FFFF
FFFF
FFFF
FFFF
0000
FFFF
0000
FFFF
FFFF
FFFF
FFFF
FFFF
0000
0000
0000
0000
0000
0000
0000
0000
0000
0000
0000
0000
FFFF
FFFF
FFFF
0000
FFFF
FFFF
FFFF
0000
FFFF
FFFF
FFFF
0000
FFFF
0000
FFFF
0000
0000
FFFF
0000
FFFF
FFFF
0000
0000
0000
0000
0000
0000
FFFF
FFFF
FFFF
0000
0000
0000
FFFF
0000
0000
FFFF
0000
