0000
FFFF
FFFF
FFFF
FFFF
FFFF
0000
0000
FFFF
0000
FFFF
FFFF
FFFF
0000
FFFF
FFFF
0000
0000
FFFF
FFFF
FFFF
FFFF
0000
0000
FFFF
0000
FFFF
0000
FFFF
0000
0000
FFFF
0000
FFFF
FFFF
FFFF
0000
FFFF
0000
0000
0000
FFFF
FFFF
FFFF
FFFF
FFFF
FFFF
0000
FFFF
0000
0000
0000
FFFF
FFFF
FFFF
FFFF
FFFF
FFFF
FFFF
0000
FFFF
0000
FFFF
FFFF
FFFF
0000
FFFF
0000
0000
0000
FFFF
0000
0000
0000
0000
0000
FFFF
0000
FFFF
0000
0000
FFFF
FFFF
FFFF
FFFF
0000
FFFF
0000
FFFF
FFFF
0000
0000
0000
0000
0000
0000
0000
0000
0000
0000
0000
0000
FFFF
0000
0000
0000
0000
0000
0000
FFFF
FFFF
0000
0000
0000
FFFF
FFFF
0000
0000
FFFF
0000
0000
0000
0000
0039
001B
0011
0000
002A
0000
0000
0011
0000
0000
0000
0000
0000
0000
FFFF
FFFF
0000
0000
FFFF
FFFF
0000
0000
0000
0000
0000
0000
0000
0057
0000
0000
0029
0000
0001
0000
000B
0000
005B
0000
002C
0000
0000
FFFF
FFFF
FFFF
FFFF
0000
FFFF
FFFF
0000
0000
0000
0000
0000
0000
0000
0000
0000
0000
0000
0000
0000
0005
000F
004F
0047
0031
0000
0060
0000
0000
0000
FFFF
FFFF
FFFF
0000
FFFF
FFFF
FFFF
FFFF
0000
000A
0000
0024
0011
0000
0000
0000
0000
0000
0000
006B
0000
001E
000A
0005
0000
0000
0000
0000
0000
0000
FFFF
FFFF
FFFF
FFFF
0000
0000
0000
0061
0000
000A
0000
0039
0000
0037
0000
0000
000D
0019
0000
0031
0000
0000
0000
0000
0000
0000
0000
FFFF
FFFF
0000
FFFF
FFFF
0000
0000
0000
0021
0000
0000
0000
002F
005C
0000
0008
0000
0016
0000
0002
0000
0000
0038
0000
0000
0000
0000
FFFF
FFFF
FFFF
FFFF
0000
0000
0000
FFFF
0003
0001
004C
000F
0000
0000
0000
000B
007D
0000
0000
0000
0000
0000
0000
004A
0000
0000
0000
0000
0000
FFFF
FFFF
FFFF
FFFF
0000
0000
0000
0000
0030
0000
0000
0030
0000
0000
0000
002C
0012
0007
003A
0000
0000
0000
0000
0000
0000
0000
0000
0000
FFFF
0000
FFFF
FFFF
0000
0000
0000
0000
0027
003C
000E
0033
0000
000C
0033
0000
0000
0000
0000
001F
0000
0000
0004
0000
0000
0000
FFFF
FFFF
FFFF
FFFF
FFFF
FFFF
0000
0000
0000
0000
0020
0000
0032
002F
0032
0000
0046
0000
0000
0000
0000
0000
001D
0000
004A
001E
0000
0000
FFFF
FFFF
0000
FFFF
FFFF
0000
0000
0000
0000
0000
0027
0050
0000
0000
0000
0000
0000
0000
0002
005F
0000
0000
0035
0000
000A
005D
0005
0000
FFFF
FFFF
FFFF
0000
FFFF
FFFF
FFFF
0000
0000
0000
0000
003A
0000
0049
0000
0011
004B
0000
0000
0000
0064
0064
0021
0000
0000
003A
0000
0000
0000
FFFF
0000
FFFF
FFFF
0000
0000
0000
0000
000D
0000
0009
0028
001B
0048
0000
0001
000D
0000
0000
0000
0011
000C
0011
0000
002F
0000
0000
0000
0000
0000
FFFF
0000
FFFF
FFFF
0000
0000
0015
0047
0000
0000
0000
0006
001A
0021
0000
0000
0016
0000
0061
0000
0013
0054
0000
0000
0000
0000
0000
FFFF
FFFF
0000
FFFF
0000
0000
0000
0011
0000
0000
0000
001D
000B
0000
0000
0000
0000
0031
0018
0000
0020
0022
0000
0000
0000
0000
0000
0000
FFFF
FFFF
FFFF
FFFF
FFFF
0000
0000
0000
0061
0000
0000
0000
0025
0048
003F
0002
0000
0000
003E
0000
0019
0000
0030
0000
0000
0000
0000
0000
FFFF
FFFF
0000
FFFF
0000
0000
0000
0000
0000
0057
001E
0039
0000
0000
0000
0000
002C
0000
0000
000F
0023
0000
0000
0000
0000
0000
0000
0000
0000
FFFF
FFFF
FFFF
0000
0000
0019
0000
003E
0000
0012
0012
0060
0000
0000
0002
0020
0000
0000
000D
0058
000A
0000
0000
0000
0000
FFFF
0000
FFFF
FFFF
0000
0000
0000
0000
0000
0000
0010
0000
000E
004B
0014
003A
0000
0000
0069
0018
0017
001E
0011
0000
0000
0000
0000
0000
FFFF
0000
0000
FFFF
FFFF
0000
0000
0000
0000
0000
0009
0033
003A
0063
0011
000A
0025
0032
0017
001B
0000
0000
0000
0000
0000
0000
FFFF
FFFF
0000
FFFF
0000
FFFF
FFFF
FFFF
FFFF
0000
0000
0000
0000
0000
0000
0008
0000
0000
0000
0000
0000
0000
0000
0000
FFFF
FFFF
0000
0000
0000
FFFF
FFFF
0000
FFFF
0000
FFFF
FFFF
FFFF
0000
0000
0000
0000
0000
0000
0000
0000
0000
0000
0000
0000
0000
0000
0000
0000
FFFF
0000
FFFF
0000
FFFF
FFFF
0000
FFFF
0000
FFFF
FFFF
FFFF
FFFF
0000
0000
FFFF
0000
0000
FFFF
FFFF
0000
0000
0000
0000
FFFF
0000
FFFF
0000
FFFF
0000
0000
FFFF
FFFF
0000
FFFF
FFFF
FFFF
0000
0000
FFFF
FFFF
0000
FFFF
FFFF
0000
FFFF
FFFF
FFFF
0000
FFFF
0000
0000
0000
FFFF
FFFF
FFFF
FFFF
0000
FFFF
FFFF
0000
0000
FFFF
0000
