FFFF
0000
FFFF
FFFF
FFFF
FFFF
0000
0000
FFFF
0000
FFFF
FFFF
FFFF
0000
0000
0000
0000
0000
FFFF
FFFF
FFFF
0000
FFFF
0000
FFFF
0000
FFFF
0000
FFFF
0000
0000
FFFF
0000
FFFF
0000
FFFF
0000
0000
0000
0000
0000
FFFF
0000
FFFF
0000
FFFF
FFFF
0000
FFFF
0000
0000
0000
FFFF
FFFF
FFFF
0000
FFFF
FFFF
FFFF
0000
0000
0000
FFFF
FFFF
0000
0000
FFFF
0000
0000
0000
FFFF
0000
0000
0000
0000
0000
FFFF
0000
FFFF
0000
FFFF
0000
FFFF
FFFF
0000
0000
0000
0000
FFFF
FFFF
0000
FFFF
FFFF
0000
0000
0000
0000
0000
0000
0000
0000
0000
0000
0000
0000
0000
0000
0000
0000
0000
FFFF
0000
0000
0000
FFFF
0000
FFFF
0000
0000
0000
0000
0000
0000
0000
0000
0037
004C
0007
003F
0011
0000
0000
0021
0000
0000
0000
0000
FFFF
0000
0000
0000
FFFF
FFFF
0000
0000
0000
0000
0000
0000
0001
0000
0009
0000
001A
0000
0000
0000
0000
0000
0000
0000
0000
0000
FFFF
FFFF
FFFF
FFFF
FFFF
FFFF
0000
FFFF
FFFF
0000
0000
0000
0000
0000
0042
0000
0000
0000
0008
0000
0000
0061
0000
0000
0000
0029
0024
0049
0000
0000
0000
FFFF
0000
FFFF
0000
FFFF
FFFF
0000
0000
0000
0000
0000
000B
0004
002B
0000
0030
0000
0000
0088
0031
0000
0008
0000
003C
0000
0000
0000
0000
0000
0000
FFFF
FFFF
FFFF
FFFF
0000
0000
0000
000F
0018
002C
0000
0025
0000
0032
000B
0012
0000
0018
0000
0000
0000
0018
0053
0000
0000
0000
0000
FFFF
FFFF
0000
FFFF
FFFF
0000
0000
0000
000C
0000
0038
003A
0035
0032
000A
0000
0000
0070
0055
0000
0000
004D
0000
0000
0000
0000
0000
FFFF
FFFF
FFFF
FFFF
0000
0000
0000
0000
0000
0000
0000
0000
001C
0000
0020
0000
0000
0038
0002
0008
0009
0000
005A
0029
008C
0000
0012
0000
0000
0000
FFFF
FFFF
FFFF
0000
0000
0000
0000
0037
001B
0000
002E
005C
0075
000F
001D
0050
0000
0000
0000
0000
0000
0000
0046
0011
0000
0000
0000
FFFF
0000
FFFF
FFFF
FFFF
0000
0000
0036
0000
001C
0000
0017
0000
0000
0000
004D
0004
0000
0008
0000
0000
0000
0000
0000
0000
0000
FFFF
FFFF
FFFF
FFFF
0000
FFFF
FFFF
0000
0000
0000
0000
0000
0000
0000
0081
0000
0000
0018
0018
0000
0013
001B
005B
0000
0000
001C
0000
0000
FFFF
FFFF
0000
FFFF
0000
0000
0000
0000
0000
0028
0001
0000
0005
0000
0006
0001
0000
0000
0000
001F
0038
0000
0000
0000
0006
0004
0000
0000
0000
0000
FFFF
FFFF
FFFF
FFFF
FFFF
0000
0000
0018
0000
005A
0000
0010
0002
0025
0045
0000
0000
0000
000A
0035
003C
00A0
0000
0000
000B
0000
0000
FFFF
FFFF
FFFF
FFFF
0000
0000
0000
0000
001A
0000
000C
0000
0000
0000
0000
0000
0000
0000
0000
0000
0022
0000
0039
0000
0013
0000
0000
0000
0000
0000
0000
0000
FFFF
FFFF
0000
0033
0009
0000
0000
0000
002C
0000
0000
0000
0014
0000
0015
0000
0000
0030
0000
0000
0000
0000
0000
0000
0000
FFFF
FFFF
FFFF
FFFF
0000
0000
0000
0005
0015
0000
0038
003E
0037
0000
000D
001A
0000
0000
0032
0000
0000
0000
0000
0046
0000
0000
0000
0000
FFFF
FFFF
FFFF
FFFF
0000
0000
0075
000C
0021
007A
0000
0017
0039
0000
0000
0010
0000
0017
0042
0000
003C
0000
004D
0000
0000
0000
0000
0000
FFFF
FFFF
0000
FFFF
0000
0000
001A
0000
0000
0032
0013
0020
0000
0000
0017
0056
0065
0000
0042
0000
0000
0000
0000
0000
0000
0000
0000
0000
0000
FFFF
0000
FFFF
0000
0000
0000
0000
0000
0080
0041
002E
0000
002F
0010
0000
0003
0000
0000
0000
0002
0000
0000
0000
0000
0000
FFFF
0000
FFFF
FFFF
0000
0000
0000
0000
001C
0009
002F
0031
0018
0000
0029
007D
0000
0000
0000
0000
006D
0000
0000
0000
0000
0000
0000
0000
0000
0000
FFFF
FFFF
FFFF
0000
0000
0000
0000
001B
0066
0000
0091
002A
0000
0000
005A
0000
0000
001D
000F
000F
0000
0000
0000
0000
FFFF
0000
0000
FFFF
0000
FFFF
FFFF
FFFF
FFFF
0000
0000
0000
0000
0004
0000
0000
005F
0003
0060
0023
0035
005F
0000
0000
0000
0000
FFFF
0000
0000
FFFF
FFFF
0000
FFFF
0000
FFFF
FFFF
FFFF
FFFF
0000
0000
0000
0000
0000
0000
0000
0000
0052
0000
0000
0000
0000
0000
0000
0000
0000
FFFF
FFFF
FFFF
FFFF
0000
FFFF
0000
FFFF
FFFF
FFFF
FFFF
0000
0000
0000
0000
0000
0000
0000
0000
0000
0000
0000
0000
0000
0000
0000
FFFF
0000
FFFF
FFFF
FFFF
0000
FFFF
FFFF
FFFF
0000
0000
0000
FFFF
0000
0000
FFFF
0000
FFFF
FFFF
0000
0000
0000
0032
0000
0000
FFFF
FFFF
FFFF
FFFF
0000
FFFF
FFFF
0000
0000
FFFF
0000
