0000
0000
FFFF
FFFF
FFFF
FFFF
0000
0000
0000
0000
0000
FFFF
FFFF
0000
0000
FFFF
FFFF
FFFF
FFFF
FFFF
FFFF
0000
FFFF
0000
FFFF
0000
FFFF
0000
0000
0000
0000
0000
0000
0000
0000
0000
0000
0000
FFFF
0000
0000
FFFF
FFFF
0000
0000
0000
FFFF
0000
0000
0000
FFFF
0000
FFFF
FFFF
FFFF
0000
FFFF
FFFF
FFFF
0000
0000
0000
FFFF
FFFF
0000
0000
0000
0000
0000
0000
0000
FFFF
0000
0000
0000
0000
FFFF
0000
FFFF
0000
FFFF
FFFF
FFFF
FFFF
0000
0000
0000
0000
0000
FFFF
0000
0000
FFFF
0000
0000
0000
0000
0000
0000
0000
0000
0000
FFFF
0000
0000
0000
FFFF
0000
0000
FFFF
FFFF
0000
FFFF
0000
FFFF
0000
FFFF
0000
0000
0000
0000
0000
0000
0000
0000
0004
001A
003E
0000
0000
0041
0000
0000
0000
0000
0000
0000
FFFF
FFFF
0000
0000
FFFF
FFFF
0000
0000
0000
0000
0000
0005
0000
0012
0000
0049
0014
0000
0000
008A
0000
0000
0000
0018
0000
0000
FFFF
FFFF
FFFF
0000
FFFF
0000
FFFF
FFFF
0000
0000
0000
0000
0002
0023
0051
0011
001F
0000
0000
0021
004B
009C
0000
0010
0000
0000
0000
0000
0000
0000
0000
FFFF
0000
FFFF
0000
0000
0000
FFFF
0000
001E
001C
0000
0000
0000
0000
0000
0000
0000
0000
0041
0000
000B
003F
0000
0000
0000
0000
0000
0000
0000
0000
FFFF
FFFF
0000
FFFF
0000
0000
0000
0000
0000
0033
0031
0021
0000
0000
0000
0000
0000
0009
0000
0000
0076
005E
0000
0000
0000
0000
0000
0000
FFFF
0000
FFFF
FFFF
0000
0000
0000
0000
0009
0023
0000
0000
0000
0000
0009
0000
000F
0035
0000
0016
0006
002B
0013
0000
0000
0000
FFFF
FFFF
FFFF
FFFF
0000
0000
0000
0000
0000
0000
0000
0000
0000
0035
0000
0000
0044
002A
0000
0000
0001
003C
001B
0066
0000
0000
0000
0000
0000
0000
FFFF
FFFF
0000
0000
0000
0000
0000
001E
0000
0000
000E
0000
0000
0000
0000
005A
0000
0000
0000
0020
0045
0017
0000
0003
0000
0000
0000
0000
0000
FFFF
FFFF
0000
0000
0000
0000
0007
0018
001B
0000
0021
0000
0000
000E
0000
005D
0004
0000
0000
0000
007B
0000
0000
0000
0000
FFFF
0000
FFFF
0000
FFFF
0000
0000
0000
0000
0074
0000
0000
000C
0000
0034
0000
0000
0028
004D
0017
0000
002F
0033
0041
0000
0000
0000
FFFF
FFFF
0000
FFFF
0000
0000
0000
0000
0000
0000
0000
0000
0000
003F
0000
000C
0000
0026
0002
0023
0000
0000
0025
0000
0000
0000
0000
0000
FFFF
0000
FFFF
0000
FFFF
0000
FFFF
0000
0000
0000
0025
0077
0000
0000
000C
007E
0000
0000
0000
0000
0017
0007
0000
0000
0000
0000
0000
0000
0000
FFFF
0000
FFFF
FFFF
0000
0000
0000
0000
0002
0027
0050
0029
0005
0000
002D
0000
004E
0000
0030
001F
0032
0022
0000
0000
0000
0000
0000
0000
0000
0000
0000
0000
FFFF
FFFF
0000
0005
0000
0000
0049
0000
0000
0028
0000
0000
0000
0021
0000
0000
0025
005A
0007
0000
0000
0000
0000
0000
0000
FFFF
FFFF
FFFF
FFFF
0000
0000
0000
003B
0006
0000
0000
0000
0004
005D
0000
0000
0006
0000
001A
0000
0000
003C
001D
0000
0000
0000
0000
0000
FFFF
FFFF
FFFF
FFFF
FFFF
0000
0000
003C
0000
0041
0000
000B
0011
0006
0000
0000
0000
0003
0000
0037
0018
003A
000E
0030
0000
0000
0000
0000
0000
FFFF
0000
FFFF
0000
0000
0000
0000
0000
0031
0009
0000
0029
0007
0005
004C
0000
0000
001B
0000
0000
0018
0022
0000
0000
0000
0000
0000
0000
FFFF
0000
FFFF
0000
0000
0000
0033
0031
0000
005B
0000
0007
0022
0000
001B
0015
0000
0024
0015
0011
0014
0003
0000
0000
0000
FFFF
FFFF
0000
FFFF
0000
0000
0000
0000
0000
0000
0000
001F
0008
0000
0000
0057
0000
000D
0000
001C
0000
005E
002F
0032
0000
0000
0000
0000
0000
0000
0000
FFFF
FFFF
0000
0000
0000
0000
0000
003B
0026
0000
0000
0000
0000
0035
0028
000C
0028
0071
0000
0011
0000
0000
0000
0000
FFFF
0000
FFFF
0000
FFFF
FFFF
FFFF
FFFF
0000
0000
0000
0000
0000
0000
0000
001C
0000
0000
0033
0000
000F
0000
0037
0000
0000
FFFF
0000
0000
FFFF
FFFF
0000
FFFF
0000
FFFF
0000
FFFF
FFFF
0000
0000
0000
0000
0000
0000
0000
0000
0000
0000
0000
0000
0000
0000
0000
0000
0000
FFFF
0000
FFFF
FFFF
0000
FFFF
0000
FFFF
0000
FFFF
FFFF
FFFF
0000
0000
0000
0000
0000
0000
0000
0000
0000
0000
0000
0000
FFFF
0000
FFFF
0000
FFFF
FFFF
FFFF
0000
FFFF
FFFF
FFFF
0000
FFFF
FFFF
0000
0000
0000
FFFF
0000
FFFF
FFFF
0000
0000
0000
0000
0000
0000
FFFF
FFFF
FFFF
FFFF
0000
FFFF
FFFF
0000
0000
FFFF
FFFF
