FFFF
FFFF
FFFF
FFFF
FFFF
FFFF
0000
0000
0000
FFFF
0000
FFFF
0000
0000
0000
FFFF
0000
0000
FFFF
FFFF
FFFF
FFFF
FFFF
0000
FFFF
0000
FFFF
0000
FFFF
0000
0000
0000
0000
FFFF
0000
FFFF
0000
0000
0000
0000
0000
FFFF
FFFF
FFFF
FFFF
0000
FFFF
FFFF
FFFF
0000
FFFF
0000
FFFF
FFFF
FFFF
FFFF
FFFF
0000
FFFF
0000
0000
0000
FFFF
FFFF
FFFF
0000
0000
0000
0000
0000
FFFF
0026
0000
0000
0000
0000
FFFF
0000
FFFF
0000
0000
0000
FFFF
FFFF
0000
0000
0000
0000
FFFF
FFFF
0000
0000
0000
0000
0000
0000
0000
0000
0000
0000
0020
0000
0000
0000
0000
0000
0000
0000
0000
FFFF
0000
0000
0000
FFFF
FFFF
0000
FFFF
0000
FFFF
0000
0000
0000
0000
0000
0000
003F
0000
000B
0006
0000
0041
000E
0000
0000
0000
0000
0000
FFFF
FFFF
0000
0000
FFFB
FFFF
0000
0000
FFFF
FFFF
FFFF
0000
0000
0000
0000
0000
0000
0035
0059
0000
0000
000C
0000
0000
0000
0000
0000
FFFF
FFFF
FFFF
0000
FFFF
0000
FFFF
0000
FFFF
FFFF
0000
0000
0000
0000
0022
0000
0000
0000
000A
0020
0000
0000
0003
0016
0036
0043
0026
0000
0000
0000
0000
0000
FFFF
0000
0000
FFFF
0000
FFFF
0000
0000
0007
0000
0000
0047
0000
0000
0017
0014
0000
0000
0096
0002
0000
0000
0023
0000
0000
0000
0000
0000
FFFF
FFFF
0000
FFFF
0000
0000
0000
0000
0000
0000
0000
0049
0016
0058
0000
0000
0020
0000
0000
0000
0049
0014
0000
0000
0000
0000
0000
FFFF
FFFF
0000
FFFF
FFFF
FFFF
FFFF
0000
0017
001E
0000
0000
0000
0046
0042
0000
002F
0000
0000
0000
0060
0000
0000
0000
0000
0000
0000
FFFF
FFFF
FFFF
0000
0000
0000
0000
FFFF
0000
0000
001B
0000
0049
0019
002F
0008
0009
0000
0000
0000
0000
0018
0000
000F
0049
0000
0000
0000
0000
FFFF
FFFF
FFFF
FFFF
0000
0000
0000
0000
0030
0026
0045
0055
0000
002C
0036
0034
0000
0000
000A
0050
0000
0000
0024
0019
0000
0000
0000
0000
FFFF
FFFF
FFFF
FFFF
FFFF
0000
0000
0000
0000
0000
0036
0000
002B
0000
0000
0000
0000
0000
0000
001D
0000
006E
0000
0031
0000
0000
0000
FFFF
FFFF
FFFF
0000
FFFF
0000
0000
0000
003D
0015
0050
0068
0000
0000
0000
0000
0000
000B
0033
0028
0021
0026
0000
0000
0013
0000
0000
FFFF
FFFF
0000
FFFF
FFFF
0000
0000
0000
0000
0000
0000
0000
001E
0000
0008
0000
0000
0000
0000
001A
0012
0000
000D
0017
0000
0000
0023
0000
FFFF
FFFF
FFFF
FFFF
0000
FFFF
FFFF
0000
0000
0000
0000
001A
003E
001C
0000
0054
0000
0000
001F
0000
0016
0006
004E
0023
0056
0000
0000
0000
0000
FFFF
FFFF
FFFF
0000
0000
0000
0000
003D
0041
000A
0013
0000
0008
0020
004C
0000
002F
0008
0000
0000
0000
0004
0000
0000
0000
000D
0000
0000
0000
FFFF
0000
0000
FFFF
FFFF
0000
0000
0000
002E
000E
0001
000B
0032
0000
0000
0018
0040
0003
0000
0000
002E
0000
0000
0063
0000
0000
0000
0000
FFFF
FFFF
FFFF
FFFF
0000
0000
0000
0052
0000
0000
004C
0054
0000
003A
0015
0068
0000
0012
001E
0000
0017
0000
0028
002D
0000
0000
0000
0000
FFFF
FFFF
0000
FFFF
0000
0000
003A
0000
0021
0000
005E
0000
0015
0000
0021
0000
0000
002F
0039
0000
006E
0012
0012
0000
0000
0000
0000
0000
0000
FFFF
0000
FFFF
0000
0000
0000
0000
000E
0000
0016
0000
000F
0021
006B
0000
0000
0005
0008
006C
000E
0000
0027
0000
0000
0000
0000
0000
0000
FFFF
FFFF
0000
0000
0000
0000
0051
0000
0000
002B
0000
0047
0000
0031
0000
0000
000D
0015
0000
000D
0026
0000
0000
0000
0000
FFFF
0000
0000
FFFF
0000
0000
0000
0000
0000
0000
0000
002F
0001
0024
0036
0000
0017
003A
000C
0000
0003
0038
0000
0000
0000
0000
0000
0000
0000
0000
FFFF
FFFF
FFFF
0000
0000
0000
0000
0000
0000
0017
0013
0000
0000
003A
0016
0000
0012
0037
0012
0039
0000
0000
0000
0000
0000
FFFF
0000
FFFF
0000
0000
0000
0000
FFFF
0000
0000
0000
0000
0000
0000
0040
0000
0028
0015
000F
0000
0000
0000
0000
0000
0000
0000
0000
0000
0000
FFFF
0000
FFFF
0000
FFFF
0000
FFFF
FFFF
0000
0000
0000
0000
0000
0000
0000
0000
0000
0000
0000
0000
0000
0000
0000
0000
0000
FFFF
FFFF
FFFF
FFFF
0000
FFFF
0000
FFFF
0000
0000
0000
FFFF
0000
FFFF
0000
0000
0000
0000
0000
0000
0000
0000
0000
0000
0000
0000
FFFF
0000
0000
FFFF
FFFF
0000
0000
FFFF
FFFF
0000
FFFF
0000
FFFF
0000
0000
FFFF
0000
FFFF
FFFF
FFFF
0000
0000
0000
0000
0000
0000
FFFF
FFFF
FFFF
0000
FFFF
FFFF
0000
0000
FFFF
FFFF
