FFFF
0000
FFFF
0000
FFFF
FFFF
FFFF
0000
FFFF
0000
FFFF
FFFF
FFFF
0000
FFFF
FFFF
0000
FFFF
FFFF
FFFF
0000
FFFF
0000
FFFF
FFFF
0000
FFFF
0000
FFFF
0000
FFFF
FFFF
0000
FFFF
FFFF
FFFF
0000
0000
0000
0000
0000
FFFF
FFFF
FFFF
FFFF
0000
FFFF
0000
FFFF
0000
FFFF
0000
FFFF
FFFF
FFFF
0000
FFFF
0000
FFFF
0000
0000
0000
FFFF
FFFF
FFFF
0000
FFFF
0000
0000
0000
FFFF
0000
0000
0000
0000
0000
FFFF
0000
0000
0000
FFFF
FFFF
FFFF
FFFF
FFFF
FFFF
FFFF
0000
FFFF
FFFF
FFFF
0000
FFFF
0000
0000
0000
0000
0000
0000
0000
0000
0000
FFFF
0000
0000
0000
0000
0000
FFFF
FFFF
0000
0000
0077
0000
FFFF
FFFF
0000
0000
0000
0000
0000
0000
0000
0000
0000
0000
0000
0000
0005
0002
0058
002A
0000
0000
0000
0000
0000
FFFF
FFFF
0000
0000
FFFF
FFFF
0000
0000
0000
0000
0000
0000
0000
0000
0000
0026
000F
0021
0000
0017
0000
000B
0040
0000
002E
0000
0000
FFFF
FFFF
FFFF
0000
FFFF
FFFF
FFFF
0000
0000
0000
0000
0000
0000
004B
002C
0000
002B
0000
0032
0000
0000
0009
000D
0000
000E
0012
0000
0000
0000
0000
0000
FFFF
FFFF
0000
0000
FFFF
0000
0000
0000
0000
0003
002D
0025
000C
0000
0000
006F
0000
0010
001B
002F
001B
0020
0011
000F
0000
0000
0000
0000
0000
FFFF
0000
FFFF
FFFF
0000
0000
0000
0000
0000
0079
0000
0034
0000
008A
0000
004E
000E
0000
0051
0000
001F
0000
0032
0000
0000
0000
0000
FFFF
FFFF
0000
FFFF
FFFF
0000
0000
001A
0000
0000
001C
005A
0027
0099
0000
0005
002D
0008
0003
005E
0051
004D
0015
0000
0000
0000
0000
FFFF
FFFF
0000
0000
0000
0000
0000
0000
0000
0000
0000
0000
001B
0000
0040
0000
0020
0000
0047
0000
0026
0004
0048
0000
005E
0000
0000
0000
0000
0000
0000
FFFF
FFFF
0000
0000
0000
0000
001C
0011
0028
0003
0026
0000
0033
0015
000A
002A
0047
0000
0000
0000
0011
001E
0030
0000
0000
0000
FFFF
0000
FFFF
FFFF
FFFF
0000
0000
0000
0000
0000
0054
0000
0000
0026
0018
0000
0045
0054
0010
0029
0020
0000
0000
0000
0000
0000
FFFF
FFFF
FFFF
FFFF
FFFF
FFFF
0000
000C
0000
0000
002B
0025
0000
0014
000A
003B
0000
0034
0018
0000
0000
003F
0000
0036
000A
0000
0000
0000
FFFF
FFFF
0000
FFFF
0000
0000
0000
0000
0000
0000
0000
0000
0000
0016
0000
0000
0000
0007
0000
0000
0000
0000
0003
0000
0000
0000
0000
0000
FFFF
0000
0000
FFFF
0000
FFFF
FFFF
0000
0000
0046
0000
0000
0000
0000
0000
000F
0040
0000
0055
0052
0000
0000
0000
0057
0000
0000
0000
0000
0000
FFFF
0000
FFFF
0000
0000
0000
0000
0000
0008
0007
0000
0018
001D
0039
0008
002E
0000
0000
0000
0006
0000
0000
0000
001D
0000
0000
0000
0000
0000
0000
FFFF
0000
FFFF
FFFF
0000
0000
002C
0060
000C
0000
0000
0000
0000
0033
0000
0000
0000
003C
0014
0000
0000
000D
0000
0000
0000
0000
0000
FFFF
0000
0000
FFFF
0000
0000
0000
0000
0002
0005
0025
002C
0021
0000
003F
0019
002C
0000
0049
0000
0034
0000
007B
0000
0000
0000
0000
0000
0000
FFFF
FFFF
FFFF
0000
0000
0000
0010
0032
0000
0013
0000
0014
0000
0006
0000
002F
0015
0000
0000
0000
0000
0042
0000
0000
0000
0000
0000
0000
FFFF
0000
0000
0000
0000
0000
003F
0000
0021
0000
0022
0000
003C
0000
003E
0030
0000
0031
0024
0047
0000
003D
0000
0000
0000
0000
0000
0000
FFFF
0000
0000
0000
0000
0000
0000
0000
0000
0000
0000
0000
0000
0000
0000
0000
0000
0032
008C
0006
0000
0000
0000
0000
0000
0000
FFFF
0000
0000
0000
0000
0000
0000
0000
0000
0000
0000
0000
0011
0047
0000
0003
000F
004F
0000
0000
0024
0000
0000
0000
0000
0000
0000
FFFF
0000
FFFF
FFFF
FFFF
0000
0000
0000
0000
0000
0000
0011
000A
0000
0000
0000
000F
0000
0025
0000
0048
0000
0000
0000
0000
0000
0000
FFFF
0000
FFFF
0000
0000
0000
0000
FFFF
FFFF
0000
0000
0000
0000
0000
0000
0000
0023
006F
0000
004D
0043
0000
0000
0000
FFFF
0000
0000
0006
0000
FFFF
0000
FFFF
0000
FFFF
FFFF
FFFF
0000
0000
0000
0000
0000
0000
0000
0000
0000
000A
001B
0000
0000
0000
0000
0000
0000
0000
FFFF
0000
FFFF
FFFF
0000
FFFF
0000
FFFF
FFFF
FFFF
0000
FFFF
0000
FFFF
0000
0000
0000
0000
0000
0000
0000
0000
0000
0000
0000
FFFF
FFFF
0000
0000
FFFF
FFFF
0000
0000
FFFF
FFFF
0000
FFFF
0000
FFFF
0000
FFFF
FFFF
0000
FFFF
FFFF
0000
0000
FFFF
0000
003F
0000
FFFF
FFFF
FFFF
FFFF
0000
FFFF
FFFF
000F
0000
FFFF
0000
