0000
FFFF
FFFF
0000
FFFF
FFFF
0000
0000
0000
0000
FFFF
FFFF
FFFF
0000
0000
FFFF
0000
FFFF
FFFF
FFFF
FFFF
FFFF
0000
0000
FFFF
0000
FFFF
0000
FFFF
0000
FFFF
FFFF
0000
FFFF
0000
FFFF
0000
FFFF
0000
0000
0000
FFFF
FFFF
0000
0000
FFFF
FFFF
0000
FFFF
0000
FFFF
0000
FFFF
FFFF
FFFF
FFFF
FFFF
FFFF
FFFF
0000
0000
0000
FFFF
FFFF
0000
0000
0000
0000
0000
0000
FFFF
0000
0000
0000
0000
0000
FFFF
0000
0000
0000
FFFF
FFFF
FFFF
FFFF
0000
0000
0000
0000
FFFF
FFFF
0000
0000
0000
0000
0000
0000
0000
0000
0000
002F
0000
0000
FFFF
0000
0000
0000
0000
0000
0000
FFFF
FFFF
0000
0000
FFFF
FFFF
0000
FFFF
0000
0000
0000
0000
0000
002E
0000
0000
0000
0000
0007
0000
003D
0000
0042
0000
0005
0000
0000
0000
FFFF
FFFF
0000
0000
FFFF
FFFF
0000
0000
0000
0000
0000
0000
0000
0036
0061
0011
0023
0000
0049
004D
0031
0000
002D
0000
0000
0000
0000
0000
FFFF
FFFF
FFFF
0000
0000
FFFF
0000
0000
0000
0000
0000
0011
0000
0000
0044
0000
0000
001A
0000
0054
001F
0017
0015
0000
0013
0000
0000
0000
0000
FFFF
0000
FFFF
0000
FFFF
FFFF
FFFF
0000
0000
0000
003A
0000
0000
000F
0000
001F
0000
000C
0001
0000
0000
0028
003F
0000
0000
0000
0000
0000
0000
0000
FFFF
FFFF
FFFF
FFFF
0000
0000
FFFF
0000
0000
0023
000E
0000
0023
0038
000F
0000
0000
0000
0000
0000
0000
0000
0000
0000
0000
0000
0000
FFFF
FFFF
0000
FFFF
FFFF
FFFF
0000
0000
0000
0013
0000
0043
0000
0000
0000
000C
0000
0001
000B
0000
001A
0034
0000
0000
0000
0000
0000
FFFF
FFFF
FFFF
FFFF
0000
0000
0000
FFFF
0000
0000
0046
0000
0000
0009
0017
0021
0000
0000
0000
0022
000C
001E
0024
001B
0000
0000
0000
0000
0000
FFFF
FFFF
FFFF
FFFF
0000
0000
0000
0000
0044
0000
0000
0000
003E
0000
0000
002C
001F
002A
0000
0025
0024
0000
0000
0000
0000
0000
0000
0000
FFFF
0000
FFFF
FFFF
FFFF
0000
0000
0013
0023
005C
0029
0035
0000
0038
002D
005A
0000
002F
0000
0000
0000
0000
0012
0020
0000
0000
0000
FFFF
FFFF
FFFF
FFFF
FFFF
0000
0000
0000
0000
000A
0077
0000
0000
0000
0000
0011
0000
0000
000E
0000
0000
0000
0001
0001
0000
0000
0000
0000
0000
0000
FFFF
FFFF
0000
0000
0000
0000
0029
0022
0000
0026
0000
0000
0000
0000
0045
0000
0000
0054
000B
0000
0000
0053
001C
0000
0000
FFFF
FFFF
FFFF
FFFF
FFFF
FFFF
FFFF
0000
0023
0000
0000
0000
0030
0010
005B
0000
000A
004C
0055
0052
0012
0013
000C
0013
002A
0000
0030
0000
0000
FFFF
0000
FFFF
0000
0000
0000
0000
004C
0066
0037
0019
0000
001C
0000
0027
0000
0000
0068
0000
0021
0000
0000
0062
000E
004D
0000
0005
0000
0000
0000
0000
0000
FFFF
FFFF
0000
0016
0000
0000
0048
0000
0010
0050
0014
0066
0046
0011
0000
0000
002B
0033
0000
0000
0000
0017
0000
0000
0000
FFFF
FFFF
0020
FFFF
0000
0000
0000
0000
0000
0000
0000
0035
003E
0000
0000
0018
0032
0000
000C
0000
006F
0012
0003
0000
0000
0000
0000
0000
FFFF
FFFF
FFFF
FFFF
0000
0000
0000
0000
0000
0004
0087
0030
0033
0041
0009
0000
003A
0000
0000
0000
0014
000F
0000
002C
0000
0000
0000
0000
0000
FFFF
0000
FFFF
0000
0000
0002
003B
0000
0000
0030
0000
0010
0000
0000
000A
0044
0000
0009
001E
0012
0000
0037
0000
0000
0000
0000
0000
0000
FFFF
FFFF
FFFF
0000
0000
0000
0075
0000
0000
0000
0091
0000
0034
0000
005C
0000
0000
000A
0000
0007
0008
0000
0000
0000
0000
FFFF
0000
0000
FFFF
0000
0000
0000
0000
0000
0000
004C
001A
001F
0000
0026
0033
0023
002B
0018
0000
0000
0000
0000
0000
0000
0000
0000
0000
0000
0000
FFFF
FFFF
FFFF
0000
0000
0000
0000
0000
0023
0000
0000
0035
0000
0000
0000
0000
0000
0030
003F
0000
0000
0000
0000
0000
0000
FFFF
0000
FFFF
0000
0000
FFFF
0000
FFFF
0000
0000
0000
0000
0000
001A
0009
0000
000A
0000
0000
0000
0000
0000
0000
0000
FFFF
FFFF
0000
0000
FFFF
FFFF
0000
FFFF
0000
FFFF
FFFF
FFFF
FFFF
FFFF
0000
0000
0000
0000
0000
0000
0000
0000
0000
0000
0000
0000
0000
0000
FFFF
0000
FFFF
FFFF
FFFF
FFFF
0000
FFFF
0000
FFFF
FFFF
FFFF
FFFF
FFFF
0000
FFFF
0000
0000
0000
0000
0000
0000
0000
0000
0000
0000
FFFF
0000
FFFF
0000
FFFF
FFFF
FFFF
0000
FFFF
FFFF
FFFF
0000
0000
0000
FFFF
0000
0000
FFFF
0000
FFFF
FFFF
FFFF
0000
0000
0000
0000
0000
FFFF
FFFF
FFFF
FFFF
0000
FFFF
FFFF
0000
0000
FFFF
0080
