FFFF
FFFF
FFFF
FFFF
FFFF
FFFF
FFFF
0000
FFF4
0000
FFFF
FFFF
FFFF
0000
FFFF
FFFF
0000
FFFF
FFFF
FFFF
FFFF
FFFF
0000
0000
FFFF
0000
0000
0000
FFFF
0000
FFFF
FFFF
0000
FFFF
0000
FFFF
0000
0000
0000
0000
0000
FFFF
FFFF
FFFF
FFFF
FFFF
FFFF
FFFF
FFFF
0000
FFFF
0000
FFFF
FFFF
FFFF
FFFF
FFFF
FFFF
FFFF
0000
0000
0000
FFFF
FFFF
FFFF
0000
FFFF
0000
0000
0000
0000
0000
0000
0000
0000
0000
0000
0000
0000
0000
FFFF
FFFF
FFFF
FFFF
FFFF
FFFF
FFFF
FFFF
FFFF
FFFF
0000
0000
0000
0000
0000
0000
0000
0000
0000
0000
0000
0000
0000
0000
0000
0000
0000
0000
0000
0000
FFFF
0000
FFFF
FFFF
FFFF
FFFF
FFFF
0000
0000
0000
0000
0000
0000
0000
0011
0014
0000
0008
0018
0086
0000
002C
0033
0000
0000
0000
0000
FFFF
FFFF
FFFF
0000
FFFF
0000
FFFF
FFFF
FFFF
FFFF
FFFF
0000
0000
0007
0020
0000
000D
0000
0013
000A
0009
0007
0000
0000
005D
0000
0000
FFFF
FFFF
FFFF
FFFF
FFFF
FFFF
FFFF
FFFF
FFFF
FFFF
0000
0000
0000
0000
0000
004F
0000
0000
0000
0000
0000
0000
0040
0000
0000
001A
0000
0000
0000
0000
0000
FFFF
FFFF
0000
FFFF
FFFF
FFFF
0000
0000
001C
0038
0038
0013
0000
0097
0000
0000
0007
0037
0000
0000
001E
0000
0065
0000
0000
0000
0000
0000
FFFF
FFFF
FFFF
FFFF
FFFF
0000
0000
0004
003A
0000
0003
002C
0000
005C
0000
0029
0000
0000
0000
0000
000B
0000
003F
001C
0000
0000
0000
0000
FFFF
FFFF
0000
FFFF
FFFF
0000
0000
0000
0030
0000
0000
0039
0028
0000
0000
0038
0012
003F
0000
0057
0000
0000
0000
0000
0000
0000
0000
FFFF
FFFF
FFFF
0000
0000
FFFF
0000
0000
0000
0058
007E
0000
0000
0000
001F
0000
0000
0000
0000
0000
0002
0000
0000
0008
002A
0000
0000
0000
FFFF
FFFF
FFFF
FFFF
FFFF
0000
0000
0000
0000
0000
001E
0038
0002
0000
0000
0000
0000
003F
0000
0000
0020
0016
0000
0000
0000
0000
0000
0000
FFFF
FFFF
0000
0000
FFFF
FFFF
0000
0000
0000
0009
001C
0013
0000
0000
0000
0014
002D
0049
0044
0024
0000
0000
004A
0022
0000
0000
0000
FFFF
FFFF
FFFF
FFFF
FFFF
FFFF
FFFF
0000
0000
0000
0000
0000
000C
0036
0000
0000
0066
0000
0000
0000
004E
000F
0000
0000
0000
0000
0000
0000
FFFF
FFFF
0000
FFFF
FFFF
0000
0000
FFFF
0000
0000
0000
0000
0000
0042
0000
0027
0000
0000
0013
0025
002B
0000
0000
0000
0000
0000
0000
0000
FFFF
FFFF
FFFF
FFFF
FFFF
FFFF
FFFF
0000
0000
0000
0031
0000
0037
0027
000E
0082
0000
0000
0021
006E
0000
0045
0000
0037
0000
000D
0000
0000
0000
FFFF
0000
FFFF
0000
FFFF
0000
0000
0000
0000
0000
0000
000A
0000
0062
000F
0018
0000
0049
004F
001C
0031
0000
0000
0056
0000
0000
0000
0000
0000
FFFF
FFFF
0000
FFFF
FFFF
0000
0000
0000
0038
0000
0000
0043
0012
0000
0000
0058
0000
003C
004E
0000
0000
0000
001C
0000
0000
0000
0000
0000
FFFF
FFFF
FFFF
FFFF
0000
0000
0000
0000
004B
0000
0000
0029
0025
0036
0016
0037
0006
0000
0000
0000
0000
0000
005C
0000
0000
0000
0000
0000
FFFF
FFFF
FFFF
FFFF
FFFF
0000
0005
006A
0005
0000
0010
0017
0000
0000
0030
0000
0074
002A
0000
0000
0000
002B
000F
0000
0000
0000
0000
0000
0000
FFFF
0000
FFFF
0000
0000
0000
0000
0000
000E
0000
001A
0000
0000
0024
0000
0040
0000
0000
0021
0000
0007
0000
0000
0000
0000
0000
0000
0000
FFFF
FFFF
FFFF
0000
0000
0000
004F
0000
0000
0000
0000
0013
0000
0000
0000
0000
0024
0000
0000
000F
0020
0000
0000
0000
0000
FFFF
FFFF
0000
FFFF
0000
0000
0000
0000
0000
0000
001D
0000
001C
0042
0000
0000
0000
0000
0013
0017
0018
0000
0000
0000
0000
0000
0000
0000
FFFF
0000
FFFF
0000
FFFF
0000
0000
0000
0000
0000
000C
0023
002C
0000
0026
0000
0000
007F
004C
0000
0046
0000
0000
0000
0000
0000
0000
FFFF
FFFF
FFFF
0000
0000
0000
0000
FFFF
0000
0000
0000
0000
0000
0045
0048
0000
0010
0017
001C
0000
0000
0000
0000
0000
FFFF
0000
0000
0000
FFFF
FFFF
0000
FFFF
0000
FFFF
FFFF
FFFF
0000
0000
0000
0000
0000
0000
0000
0000
004F
0000
0000
0000
0000
0000
0000
0000
FFFF
0000
FFFF
FFFF
0000
FFFF
FFFF
FFFF
0000
FFFF
FFFF
0000
0000
FFFF
0000
0000
0000
0000
0000
0000
0000
0000
0000
0000
0000
0000
FFFF
FFFF
FFFF
0000
0000
FFFF
FFFF
0000
0000
FFFF
FFFF
0000
FFFF
FFFF
FFFF
0000
0000
FFFF
0000
FFFF
FFFF
FFFF
0000
0000
0000
0000
0000
FFFF
FFFF
FFFF
FFFF
0000
FFFF
FFFF
0000
0000
FFFF
0000
