0000
FFFF
FFFF
FFFF
FFFF
FFFF
FFFF
0000
FFFF
0000
FFFF
FFFF
FFFF
0000
FFFF
FFFF
0000
FFFF
FFFF
FFFF
0000
FFFF
0000
0000
FFFF
0000
FFFF
0000
FFFF
0000
0000
FFFF
0000
FFFF
0000
FFFF
0000
FFFF
FFFF
0000
0000
FFFF
FFFF
0000
FFFF
0000
FFFF
0000
FFFF
0000
FFFF
0000
FFFF
FFFF
FFFF
FFFF
FFFF
FFFF
FFFF
0000
0000
0000
FFFF
FFFF
FFFF
0000
FFFF
0000
0000
0000
FFFF
0000
0000
0000
0000
0000
FFFF
0000
0000
0000
0000
FFFF
FFFF
FFFF
0000
FFFF
FFFF
FFFF
FFFF
FFFF
FFFF
FFFF
FFFF
0000
0000
0000
0000
0000
0000
0000
0000
0000
FFFF
0000
0000
0000
0000
0000
0000
FFFF
FFFF
0000
FFFF
0000
FFFF
FFFF
FFFF
0000
0000
0000
0000
0000
0000
0000
0000
0005
0000
001F
0000
0000
0000
002B
0000
0000
0000
0000
0000
FFFF
FFFF
0000
0000
FFFF
FFFF
0000
0000
0000
0000
0000
0000
0000
0012
0000
0018
0034
0000
0000
0000
002C
0022
0070
0000
0000
0000
0000
FFFF
FFFF
FFFF
FFFF
0000
0000
FFFF
0000
0000
0000
0000
0000
0000
0000
0000
0000
0009
0043
0000
0000
0000
001F
0000
0000
0000
0000
0000
0000
0000
0000
0000
FFFF
FFFF
0000
0000
FFFF
0000
0000
0000
0000
0000
0064
0019
002A
0026
0023
0010
006C
0000
004F
0000
0022
0000
0006
0000
0000
0000
0000
0000
0000
FFFF
0000
FFFF
FFFF
0000
0000
0000
0000
0000
0000
000A
0006
005B
0000
0000
0041
0014
000E
000F
001A
0000
001E
0007
0000
0000
0000
0000
FFFF
FFFF
0000
FFFF
FFFF
0000
0000
0024
0000
005A
0000
000F
006D
0000
0000
0031
0000
003F
003C
0000
0043
0000
0000
0035
0000
0000
0000
FFFF
FFFF
FFFF
FFFF
0000
0000
0000
0000
0000
0000
0000
0000
0000
0000
0000
0000
0000
0063
0053
0000
0004
0025
0028
0005
001B
0000
0000
0000
0000
FFFF
FFFF
FFFF
FFFF
0000
0000
0000
0000
000E
0000
0000
004A
001F
0050
001D
0020
0030
0015
004D
0000
0037
0000
0000
0000
0000
0000
0000
0000
FFFF
0000
FFFF
FFFF
FFFF
0000
0000
0000
0007
0029
004B
0000
0024
002B
0000
0000
0000
0011
0011
0000
0000
0004
0000
0000
0000
0000
FFFF
FFFF
FFFF
FFFF
FFFF
FFFF
0000
0000
0000
0046
0061
0021
0046
0000
0000
000B
0000
0010
0000
0073
0044
000A
0000
0000
0000
0000
0000
0000
FFFF
FFFF
0000
FFFF
FFFF
0000
0000
0000
0000
0000
0000
0023
0000
0040
0000
0000
0000
0028
0000
0000
0024
0000
0000
002B
000E
0023
0000
0000
FFFF
FFFF
FFFF
FFFF
FFFF
FFFF
FFFF
0000
001D
0036
0000
002F
0000
0046
0008
0000
0000
0018
0000
0000
0000
0000
0046
0011
004A
0000
0000
0000
0000
FFFF
0000
FFFF
0000
0000
0000
0000
0000
0000
0043
0056
0048
0000
0000
002B
000B
0000
006A
0062
002F
0000
002A
0000
0033
0000
0000
0000
0000
0000
0000
FFFF
0000
FFFF
FFFF
0000
0000
0000
0000
008F
0000
0029
005C
0000
000B
0004
0000
0028
0000
0031
0029
0000
0000
0035
0000
0000
0000
0000
FFFF
0000
FFFF
FFFF
0000
0000
0000
000F
0000
0000
0000
0035
0052
0000
0000
0000
0000
001C
0000
007C
0000
0004
0008
0000
0000
0000
0000
0000
FFFF
FFFF
FFFF
0000
FFFF
0000
0000
0000
0000
0009
0000
0000
0000
0010
0000
0019
0000
0021
0036
0010
0000
0000
001C
0000
0000
0000
0000
0000
0000
FFFF
0000
FFFF
0000
0000
0000
0029
0000
0019
0018
0000
0000
0039
0011
0018
0000
0000
0000
0000
0061
0000
0027
0000
0000
0000
0000
0000
0000
FFFF
FFFF
FFFF
FFFF
0000
0030
0000
0017
0011
0000
0040
0001
0000
0000
0057
0000
000F
0000
0000
0036
0014
0024
0000
0000
0000
FFFF
FFFF
0000
FFFF
0000
0000
0000
0000
0000
000A
003A
0000
0003
0013
0000
0000
0019
0000
0046
0000
000E
000A
005F
0000
0000
0000
0000
0000
FFFF
0000
FFFF
FFFF
FFFF
0000
0000
0000
0000
0000
0008
0000
0005
0000
0000
0000
0029
0027
0000
0000
0000
0000
0052
0000
0000
0000
FFFF
FFFF
0000
FFFF
0000
0000
FFFF
0000
FFFF
0000
0000
0000
0000
0000
0000
0000
0000
0016
005D
0006
0000
0000
005C
0000
0000
FFFF
0000
0000
0000
FFFF
FFFF
0000
FFFF
0000
FFFF
FFFF
FFFF
0000
FFFF
0000
0000
0000
0000
0000
0000
0000
002C
0000
0000
0000
0000
0000
0000
0000
0000
FFFF
FFFF
FFFF
FFFF
0000
FFFF
0000
FFFF
FFFF
FFFF
0000
FFFF
0000
0000
0000
0000
0000
0000
0000
0000
0000
0000
0000
0000
0000
FFFF
FFFF
0000
0000
FFFF
FFFF
0000
FFFF
FFFF
FFFF
0000
FFFF
0000
FFFF
0000
0000
FFFF
0000
FFFF
FFFF
FFFF
0000
0000
0000
0000
0000
FFFF
FFFF
FFFF
FFFF
0000
FFFF
FFFF
0000
0000
FFFF
0000
