0000
FFFF
FFFF
FFFF
FFFF
FFFF
0000
0000
FFFF
0000
FFFF
FFFF
FFFF
0000
FFFF
FFFF
0000
FFFF
FFFF
FFFF
FFFF
0000
0000
0000
FFFF
0000
FFFF
0000
FFFF
0000
0000
0000
0000
FFFF
0000
FFFF
0000
FFFF
0000
0000
0000
FFFF
FFFF
0000
FFFF
FFFF
FFFF
0000
FFFF
0000
FFFF
0000
FFFF
FFFF
FFFF
FFFF
FFFF
FFFF
FFFF
0000
0000
0000
FFFF
FFFF
FFFF
0000
0000
0000
0000
0000
0000
0000
0000
0000
0000
0000
FFFF
0000
0000
0000
0000
FFFF
FFFF
FFFF
FFFF
0000
FFFF
0000
FFFF
FFFF
FFFF
0000
0000
0000
0000
0000
0000
0000
0000
006D
0000
0000
0000
0000
0000
0000
0000
0000
FFFF
0000
FFFF
0000
0000
0000
FFFF
0000
FFFF
0000
0000
0000
0000
0000
0000
0000
0000
0000
0000
0000
0035
0007
001C
0017
0000
0000
0000
0000
0000
FFFF
FFFF
FFFF
0000
FFFF
FFFF
FFFF
FFFF
0000
FFFF
0000
0000
0000
0000
0010
0000
0048
0024
0053
0041
0035
0010
0008
0000
0000
0000
0000
0000
FFFF
FFFF
FFFF
0000
0000
FFFF
0000
FFFF
FFFF
0000
0000
0000
001A
000B
0000
0026
0006
0000
0000
0036
0000
0027
000D
0000
0057
0007
0000
0000
0000
FFFF
FFFF
FFFF
0000
FFFF
FFFF
0000
0000
0000
0000
0000
0043
0000
0030
0010
0015
0000
0000
0045
0000
003A
0088
0000
0000
0000
0002
0000
0000
0000
FFFF
FFFF
FFFF
FFFF
FFFF
0000
0000
0000
0000
0000
000B
0005
0000
000A
0006
0000
0000
0000
0000
0000
0000
002D
0000
000E
0000
0000
0000
0000
FFFF
FFFF
0000
FFFF
FFFF
FFFF
0000
FFFF
0000
0000
001C
0013
001F
0000
0000
002E
0000
0000
0041
0004
0000
0000
0031
001F
0000
0000
0000
FFFF
FFFF
FFFF
FFFF
0000
0000
0000
FFFF
0000
0052
0000
0000
0027
00A7
003C
0000
0000
000D
0000
0000
0052
000E
0038
0000
001D
0000
0000
0000
0000
FFFF
FFFF
FFFF
FFFF
0000
0000
0000
0000
006A
0000
0000
0014
0045
006C
0000
0024
0032
0060
0020
0000
0016
0000
0048
000D
0000
0000
0000
0000
FFFF
0000
FFFF
FFFF
0000
0000
0000
001F
000F
0033
0054
0038
0029
0005
001A
0000
0038
0000
002A
0000
0015
0000
0000
0000
0000
0000
FFFF
FFFF
FFFF
FFFF
FFFF
FFFF
0000
0000
0000
0000
0000
004D
000A
0000
0000
001C
0023
0000
0000
0000
0000
001A
0000
0000
0013
001C
0000
0000
FFFF
FFFF
0000
FFFF
FFFF
0000
0000
0000
0000
0000
0001
0012
0000
0000
0000
0021
0000
0023
0000
0005
004D
0012
0003
0000
0000
0000
0000
0000
FFFF
FFFF
FFFF
0000
FFFF
FFFF
FFFF
0023
0000
0000
0000
0000
0000
0004
0000
000C
0000
0062
0026
0027
0000
0000
0002
000D
0006
0000
0000
0000
0000
FFFF
0000
FFFF
0000
FFFF
0000
0000
0000
0000
0023
0000
0059
000E
0000
003B
0000
0000
0044
0000
0000
0056
003A
0000
0024
0000
0000
0000
0000
0000
0000
FFFF
0000
FFFF
FFFF
0000
0001
0000
0000
000A
0036
0007
002E
0000
0000
0030
0000
0062
0000
0009
0034
0000
0000
0000
0001
0000
0000
0000
FFFF
FFFF
FFFF
FFFF
0000
0000
0000
001D
000A
002C
0000
002C
0051
0022
0027
0039
0000
0000
0000
0000
0002
0000
0023
0000
0000
0000
0000
0000
FFFF
FFFF
FFFF
FFFF
0000
0000
0013
0000
0041
001E
0035
0000
0000
002D
0033
001E
0032
0038
0034
0000
0000
000A
002B
0000
0000
0000
0000
0000
0000
FFFF
0000
FFFF
0000
0000
0002
0045
0000
0054
001B
0000
0000
0000
0004
0000
0006
0000
003E
003D
0000
0007
0000
0000
0000
0000
0000
0000
0000
FFFF
FFFF
FFFF
FFFF
0000
0000
0000
0000
0044
0007
0000
0000
0000
0000
0016
0027
0000
0000
0000
0022
0000
0000
0000
0000
0000
FFFF
0000
0000
FFFF
0000
0000
0000
0000
0000
001D
0050
000D
0043
0006
0000
0007
0000
0000
0008
0000
0027
0000
0010
0000
0000
0000
0000
0000
FFFF
0000
FFFF
FFFF
FFFF
0000
0000
0000
0000
0000
000A
000E
0000
0036
0000
0000
0019
0000
0000
0000
0000
0000
0000
0000
0000
0000
FFFF
FFFF
0000
FFFF
0000
0000
FFFF
0000
FFFF
0000
0000
0000
0000
0000
0000
0000
0000
0000
0000
0000
0000
0000
0000
0000
0000
FFFF
0000
0000
0000
FFFF
FFFF
0000
FFFF
0000
FFFF
FFFF
FFFF
FFFF
0000
0000
0000
0000
0000
0000
0000
0000
0000
0000
0000
0000
0000
0000
0000
0000
0000
FFFF
FFFF
FFFF
FFFF
FFFF
FFFF
0000
FFFF
FFFF
FFFF
FFFF
FFFF
0000
0000
0000
0000
0000
0000
0000
0000
0000
0000
0000
0000
FFFF
0000
0000
0000
0000
FFFF
FFFF
0000
FFFF
FFFF
FFFF
0000
FFFF
FFFF
FFFF
0000
0000
FFFF
0000
FFFF
FFFF
FFFF
0000
0000
0000
0000
0000
0000
FFFF
FFFF
FFFF
0000
FFFF
FFFF
0000
0000
FFFF
FFFF
