006A
FFFF
0000
FFFF
FFFF
FFFF
FFFF
0000
FFFF
FFFF
FFFF
FFFF
FFFF
0000
FFFF
FFFF
0000
FFFF
0000
0000
FFFF
0000
0000
0000
FFFF
0000
0000
0000
FFFF
0000
0000
FFFF
0000
FFFF
FFFF
FFFF
0000
FFFF
0000
0000
FFFF
FFFF
FFFF
FFFF
FFFF
FFFF
FFFF
0044
FFFF
0000
FFFF
0000
FFFF
FFFF
FFFF
FFFF
FFFF
FFFF
0000
FFFF
0000
0000
FFFF
FFFF
FFFF
0000
0000
0000
FFFF
0000
FFFF
0000
0000
0000
FFFF
0000
0000
FFFF
FFFF
0000
0000
0000
FFFF
FFFF
FFFF
FFFF
FFFF
0078
FFFF
FFFF
0000
0000
0046
0000
0000
0000
0000
0000
0000
0000
0000
0000
0000
0000
0000
FFFF
FFFF
0000
0000
0000
FFFF
0000
0000
FFFF
FFFF
0000
FFFF
0000
0000
0000
0000
0000
0000
0000
0000
0000
000F
0000
0038
0000
0000
0000
0000
0000
0000
0000
0000
FFFF
FFFF
0000
0000
FFFF
FFFF
0000
0000
0000
0000
0000
0000
001E
001C
0001
0000
0003
000B
0000
002B
0000
0000
0000
0000
0000
0000
0000
0000
FFFF
FFFF
FFFF
0066
0000
FFFF
0000
0000
0000
0000
0000
0024
0053
0005
0000
0000
0000
0000
0000
0000
000B
0032
0000
0000
0000
0000
0000
0000
0000
FFFF
FFFF
FFFF
0032
0000
FFFF
FFFF
0000
0000
0000
0000
0014
0015
0056
002D
007A
0000
0000
0000
0000
0000
0062
0020
0000
0000
0000
0000
0000
0000
0000
0000
FFFF
FFFF
FFFF
0000
0000
0000
0000
004B
0000
0000
0009
0000
0035
0015
0000
001D
0000
0038
0005
0017
0036
0000
0000
FFFF
0000
0000
FFFF
FFFF
0000
FFFF
FFFF
0000
0000
0000
0004
0000
0029
0000
0000
0023
0000
0001
007E
0004
0000
0000
0000
0000
0000
0000
0000
0000
0000
FFFF
0000
FFFF
FFFF
0000
0000
0000
0000
0000
0000
000A
0000
0000
0000
0000
0000
0000
0003
0000
0000
0000
0006
0000
0000
0000
0000
0000
0000
0000
FFFF
FFFF
FFFF
FFFF
0000
0000
0000
0000
0000
0000
0000
0000
0005
0000
0002
0000
0021
0062
002B
0000
0000
0000
0000
0000
0000
0000
0000
FFFF
FFFF
0000
0000
0000
007A
0000
0000
0000
0000
0000
0000
0000
0000
0000
0000
0000
0000
003A
0034
0000
0000
0000
0000
0000
0000
0000
FFFF
FFFF
FFFF
0000
FFFF
0000
0000
0000
0000
0000
0000
0000
0006
0000
0000
0000
0000
0000
0000
0013
0000
0006
0000
0000
0000
0000
0000
0000
0000
0000
002D
0000
FFFF
0000
0000
FFFF
0000
0000
0000
0000
0000
0000
0000
007A
0000
0000
002A
0000
0022
001D
0000
0000
0000
0000
0000
0000
FFFF
FFFF
FFFF
0099
FFFF
FFFF
FFFF
0000
0000
0000
0000
0009
0000
0000
0000
0000
002F
0000
001A
001D
002C
0000
0000
0021
0000
0000
0000
0000
0000
FFFF
0000
0000
FFFF
0000
0000
0000
0000
0000
0000
0000
0000
0000
002F
0000
0000
0000
0012
003D
0044
000C
0000
0005
0000
0000
0000
0000
0000
0000
0038
FFFF
0000
0000
FFFF
0000
0000
0000
0000
0000
0000
0000
003A
0000
0010
0014
0020
0000
0000
0000
004A
0000
0000
0000
0000
0000
0000
0000
0000
FFFF
FFFF
0000
0000
0000
0000
0000
0000
0005
0000
0017
003A
0000
0000
0093
0000
0007
0000
000E
0000
0000
0000
0000
0000
0000
0000
0000
FFFF
FFFF
FFFF
FFFF
FFFF
0000
0000
0000
0000
001D
0000
001A
0000
001C
0000
0000
006C
0000
0000
0000
0040
0000
0000
0000
0000
0000
0000
0000
FFFF
FFFF
0000
FFFF
0000
0000
0000
0000
0000
0000
0000
0032
005B
0011
0000
005B
0000
002D
0001
0000
0000
0000
0000
0000
0000
0000
0000
0000
0000
FFFF
FFFF
FFFF
0000
0000
0000
0000
004B
0030
0000
0000
001C
0015
0000
0000
0005
0000
0000
0000
0007
0000
0028
0000
0000
0000
FFFF
0000
FFFF
FFFF
0000
0000
0000
0000
0000
0003
0081
0016
0000
0000
002B
0056
0015
0024
0015
003E
0000
0055
0000
0000
0000
0000
0000
0000
FFFF
0000
FFFF
0000
FFFF
0000
0000
0000
0000
0000
0007
0017
0000
0000
0000
0034
0002
0054
0000
0034
0000
0000
0000
0000
0000
FFFF
0000
FFFF
0000
FFFF
0000
FFFF
FFFF
FFFF
FFFF
0036
0000
0000
0000
0000
0000
002D
0000
0000
0010
0030
0000
0000
0000
0000
0000
FFFF
0000
0000
0000
FFFF
FFFF
0000
0000
0000
FFFF
FFFF
0000
FFFF
0000
0000
0000
0000
0000
0000
0000
000C
0000
0026
0000
0000
FFFF
0000
0000
FFFF
0000
FFFF
FFFF
0000
0000
0000
0000
0000
FFFF
FFFF
0000
FFFF
0000
0000
0000
0000
0000
0000
0000
0000
0000
0000
0000
0000
0000
0000
FFFF
0000
0000
FFFF
FFFF
FFFF
0000
FFFF
FFFF
0000
0000
0000
0000
FFFF
0000
FFFF
FFFF
0000
0000
FFFF
FFFF
0000
FFFF
0000
0000
0000
FFFF
FFFF
0000
FFFF
0033
FFFF
FFFF
0000
0000
FFFF
0000
