0000
0000
FFFF
FFFF
FFFF
FFFF
FFFF
0000
FFFF
0000
FFFF
FFFF
FFFF
0000
0000
FFFF
0000
FFFF
FFFF
FFFF
FFFF
FFFF
0000
0000
FFFF
0000
FFFF
0000
FFFF
0000
0000
FFFF
0000
FFFF
FFFF
FFFF
0000
0000
0000
0000
0000
FFFF
FFFF
0000
FFFF
0000
FFFF
0000
FFFF
0000
FFFF
0000
FFFF
FFFF
0000
0000
FFFF
0000
FFFF
0000
FFFF
0000
FFFF
FFFF
FFFF
0000
FFFF
0000
0000
0000
FFFF
FFFF
FFFF
0000
0000
0000
FFFF
FFFF
FFFF
0000
0000
FFFF
FFFF
FFFF
FFFF
0000
FFFF
0000
FFFF
FFFF
0000
FFFF
FFFF
0000
0000
0000
0000
0000
0000
0000
0000
0000
0000
0000
0000
FFFF
FFFF
FFFF
FFFF
FFFF
0000
0000
FFFF
FFFF
FFFF
FFFF
FFFF
0000
FFFF
0000
0000
0000
0000
0000
0000
0000
0084
0000
0000
0000
0000
0000
0000
0000
0000
0000
0000
FFFF
0000
0000
0000
FFFF
FFFF
0000
0000
0000
FFFF
FFFF
0000
0000
0000
0000
0010
0000
0000
0000
002D
0000
0016
0000
0000
0000
0000
0000
FFFF
FFFF
FFFF
0000
0000
0000
0000
0000
FFFF
FFFF
0000
0000
0000
0003
0000
0004
0000
0000
0000
0000
0000
0010
0021
0000
001B
000E
0000
0000
0000
0000
FFFF
FFFF
FFFF
0000
0000
FFFF
FFFF
FFFF
0000
002D
0012
0000
0001
0000
0005
0030
0000
0029
0000
0000
004E
0022
0049
0000
0007
0000
0000
0000
0000
0000
FFFF
FFFF
FFFF
FFFF
0000
0000
0000
0000
0011
0007
001B
000B
0000
0000
0000
001D
0016
0010
006D
0000
0000
0028
0000
0000
0000
0000
0000
FFFF
FFFF
0000
FFFF
FFFF
0000
0000
002F
0071
0080
0021
0000
002D
0003
0000
0000
0054
008F
0000
0031
0066
0000
0038
0019
0000
0000
0000
FFFF
FFFF
0000
0000
0000
FFFF
0000
0000
000F
0033
0000
0000
0002
0028
0000
0026
0000
0000
002E
0000
003E
0000
0000
0000
0000
0000
0000
0000
FFFF
0000
FFFF
FFFF
FFFF
0000
0000
0000
0030
0000
0000
004E
0000
0000
0011
0026
000B
0000
0000
001B
001F
002C
004D
0026
0029
0000
0000
0000
0000
FFFF
0000
FFFF
FFFF
0000
0000
002D
006D
0000
0000
0094
0000
0000
0000
0000
0032
0000
0027
0000
0000
0038
0000
0000
003C
0000
0000
FFFF
FFFF
FFFF
FFFF
0000
FFFF
0000
0000
0000
0057
0000
0022
0000
0066
0000
0000
0009
0032
0000
0027
000D
0000
0000
004E
0000
0000
0000
0000
FFFF
FFFF
0000
FFFF
0000
0000
0000
0000
0000
004C
0000
002D
004D
0000
0011
0005
001B
003D
0000
0000
0000
0000
0045
0000
0034
0000
0000
0000
FFFF
0000
FFFF
0000
0000
FFFF
FFFF
0000
0000
0000
0000
0000
0004
0004
001E
002D
0000
0024
0000
0000
0000
0000
001E
0000
0000
0015
0000
0000
0000
FFFF
0000
FFFF
FFFF
0000
0000
0000
0000
0000
0000
0000
0029
0000
0000
0000
0000
001C
0000
0000
0024
0000
0000
0009
0000
0000
0000
0000
0000
0000
0000
FFFF
0000
FFFF
FFFF
0000
0000
0000
0000
0000
0000
0021
0000
0042
005F
0000
0041
0000
0000
0000
002F
0022
0000
0000
0000
0000
0000
0000
FFFF
FFFF
0000
FFFF
0000
0000
0000
0000
001F
0041
0019
0000
0005
0000
0000
0000
0000
0000
0000
0000
0000
0006
0000
0000
0000
0000
FFFF
FFFF
FFFF
FFFF
FFFF
FFFF
0000
0000
0000
000E
0067
003F
0000
0000
0000
0038
0000
0000
002F
0013
0036
0003
001E
0028
0000
0000
0000
0000
FFFF
0000
0000
FFFF
0000
0000
0000
0000
001D
0000
0000
0000
0000
0000
0000
0000
0042
0045
0039
0000
000F
0021
0000
0000
0000
0000
0000
0000
0000
FFFF
0000
FFFF
0000
0000
0000
0000
0000
0000
0000
0000
0000
0000
0000
000A
0000
000F
0000
0000
005B
0000
0000
0000
0000
0000
0000
0000
0000
0000
0000
FFFF
0000
0000
0000
0000
0000
0000
0000
0011
0000
0000
0050
0000
004C
0005
0026
0000
0000
003E
005F
0000
0000
0000
0000
0000
FFFF
0000
FFFF
FFFF
FFFF
0000
0000
0000
0000
0000
0000
0000
0000
0000
0000
0043
0000
0000
0009
0069
0028
002D
0000
0000
0000
0000
FFFF
0000
0000
FFFF
0000
FFFF
0000
FFFF
FFFF
0000
0000
0000
0000
0000
0000
0000
0000
001D
0023
0011
000D
0000
0000
0000
0000
0000
0000
0000
0000
0000
FFFF
0000
FFFF
0000
FFFF
FFFF
FFFF
0000
FFFF
0000
0000
0000
0000
0000
0000
004F
0000
0000
0002
0000
0000
0000
0000
0000
0000
FFFF
FFFF
FFFF
FFFF
0000
FFFF
0000
FFFF
FFFF
FFFF
0000
FFFF
0000
FFFF
0000
0000
0000
0000
0000
0000
0000
0000
0000
0000
0000
0000
FFFF
0000
0000
FFFF
FFFF
0000
0000
FFFF
FFFF
0000
FFFF
0000
FFFF
0000
FFFF
FFFF
0000
FFFF
FFFF
0000
0000
FFFF
0000
0000
0000
FFFF
FFFF
FFFF
FFFF
0000
FFFF
FFFF
0000
0000
FFFF
0000
