FFFF
FFFF
FFFF
FFFF
FFFF
FFFF
0000
0000
0000
0000
0000
FFFF
FFFF
0000
0000
0000
0000
FFFF
FFFF
FFFF
0000
FFFF
FFFF
0000
FFFF
0000
FFFF
0000
0000
0000
0000
0000
0000
0000
0000
0000
0000
0000
0000
0000
0000
FFFF
0000
FFFF
FFFF
FFFF
0000
FFFF
FFFF
0000
0000
0000
FFFF
FFFF
FFFF
FFFF
FFFF
FFFF
FFFF
0000
0000
0000
0000
0000
FFFF
0000
0000
0000
0000
0000
0000
0000
0000
0000
0000
0000
FFFF
FFFF
FFFF
0000
0000
FFFF
FFFF
FFFF
0000
0000
0000
0000
FFFF
FFFF
FFFF
0000
FFFF
0000
0000
0000
0000
0000
0000
0000
0000
0000
0000
0000
0000
0000
0000
0000
0000
0000
FFFF
0000
0000
FFFF
FFFF
0000
FFFF
0000
FFFF
0000
0000
0000
0000
0000
0000
0000
0000
0041
000C
0000
0000
0000
0000
0000
0000
0000
0000
FFFF
0000
0000
0000
FFFF
FFFF
0000
0000
0000
0000
0000
0000
0000
0000
0000
0000
0000
0000
0000
0000
0000
0000
0000
000F
0000
0000
FFFF
FFFF
FFFF
0000
FFFF
FFFF
FFFF
FFFF
0000
FFFF
0000
0000
0000
0042
0001
0000
0000
002F
001A
0000
0000
0000
0015
0000
0000
0017
0000
0000
0000
0000
0000
0000
0000
FFFF
FFFF
FFFF
0000
FFFF
FFFF
0000
0000
0000
0074
001F
0000
0032
0005
0000
0000
005F
003D
007D
000E
0000
0031
0000
0000
0000
0000
0000
0000
FFFF
FFFF
0000
FFFF
0000
0000
0000
001C
0015
005E
0000
0000
0000
0000
0040
0000
0000
0041
0000
0039
0046
0000
0000
0000
0000
0000
0000
0000
FFFF
0000
FFFF
FFFF
0000
0000
0000
002E
004D
0004
0000
0000
0026
0000
000B
000A
0000
0024
0000
0000
0000
0000
0057
0000
0000
0000
FFFF
FFFF
FFFF
FFFF
0000
0000
0000
0000
0028
0000
0001
0029
0026
0000
0000
000B
0000
0000
0000
0000
0028
0000
0044
0000
0000
0000
0000
0000
0000
FFFF
FFFF
FFFF
0000
0000
0000
0000
0000
0017
003C
0017
0000
000B
0001
0000
000E
0000
0000
0000
0000
0006
0000
0042
0000
0000
0000
0000
FFFF
FFFF
FFFF
FFFF
FFFF
FFFF
0000
0000
0000
0000
0004
0025
003A
0000
0000
0000
0000
0071
0000
0000
003E
0000
0000
0007
002C
0000
0000
0000
FFFF
0000
FFFF
0000
FFFF
0000
0000
0000
0043
0000
0000
0009
0007
0000
0001
0044
0000
0000
0000
0008
0000
0000
0006
0009
0008
0000
0000
FFFF
FFFF
FFFF
FFFF
FFFF
0000
0000
0000
0000
0024
0000
0029
0004
0000
0000
0000
0000
000E
0012
0000
0013
0000
003B
003A
0000
0005
0000
0000
0000
FFFF
FFFF
FFFF
FFFF
0000
FFFF
0000
0000
003E
0000
0000
0026
0000
000B
0000
0018
000F
0000
0000
0005
0000
0000
0000
0001
003C
0000
0000
0000
FFFF
0000
FFFF
0000
0000
0000
0000
0001
002D
0000
0002
0000
0017
0000
0037
0009
002A
0000
0012
0000
0003
000F
003B
0020
0058
0000
0000
0000
0000
FFFF
0000
0000
FFFF
FFFF
0000
006A
0000
0000
003D
000C
0000
0000
0054
0000
0000
0017
002D
0006
0024
0050
0050
0000
0000
0037
0000
0000
0000
FFFF
0000
FFFF
FFFF
0000
0000
0000
002A
0032
005D
0000
0000
0000
0000
001D
0000
0013
0022
0016
0016
0000
0049
0000
0000
0000
003B
0000
0000
FFFF
FFFF
FFFF
FFFF
0000
0000
0006
0053
003F
0000
003A
0000
0066
003D
0025
000B
0055
002B
0000
0000
000D
0000
0023
0054
0000
0000
0000
0000
0000
FFFF
0000
FFFF
0000
0000
0000
0003
0000
0000
0000
0000
0000
0015
0000
0016
0068
0000
000D
0000
0000
0039
0006
0000
0000
0000
0000
0000
0000
FFFF
FFFF
FFFF
0000
0000
0000
001A
0037
003C
0000
002B
0000
0019
0000
0000
0000
0000
0007
0000
0008
0000
0000
0000
0000
0000
0000
0000
0000
FFFF
0000
0000
0000
0000
0000
0000
001A
0000
0009
0012
004F
0000
0000
001B
0003
0034
0000
0016
0000
0000
0000
0000
0000
0000
0000
0000
FFFF
FFFF
FFFF
0000
0000
0000
0000
0000
0000
0000
0000
0000
0020
005B
0000
0000
000A
0001
0048
0000
0000
0000
0000
FFFF
FFFF
0000
0000
FFFF
0000
0000
0000
0000
FFFF
0000
0000
0000
0000
0000
0000
0000
0000
0000
002E
0000
0000
0000
0000
0000
0000
0000
FFFF
0000
0000
FFFF
FFFF
0000
FFFF
0000
FFFF
0000
FFFF
FFFF
0000
0000
0000
0000
0000
0000
0000
0000
0000
0000
0000
0000
0000
0000
0000
0000
0000
FFFF
FFFF
FFFF
FFFF
0000
FFFF
0000
FFFF
0000
0000
FFFF
0000
0000
FFFF
0000
0000
0000
0000
0000
0000
0000
0000
FFFF
0000
0000
0000
FFFF
0000
FFFF
FFFF
FFFF
0000
FFFF
FFFF
FFFF
0000
0000
0000
FFFF
0000
0000
FFFF
0000
FFFF
FFFF
FFFF
0000
0000
0000
0000
0000
FFFF
FFFF
FFFF
0000
FFFF
FFFF
FFFF
FFFF
0000
FFFF
FFFF
