0000
FFFF
FFFF
FFFF
FFFF
FFFF
FFFF
0000
FFFF
0000
FFFF
FFFF
FFFF
0000
0000
FFFF
0000
FFFF
FFFF
FFFF
FFFF
FFFF
FFFF
0000
FFFF
0000
FFFF
0000
FFFF
0000
0000
FFFF
0000
FFFF
0000
FFFF
0000
FFFF
0000
0000
0000
FFFF
FFFF
FFFF
FFFF
FFFF
FFFF
0000
FFFF
0000
FFFF
0000
FFFF
FFFF
FFFF
FFFF
FFFF
FFFF
FFFF
0000
0000
0000
FFFF
FFFF
FFFF
0000
FFFF
0000
0000
0000
0000
0000
0000
0000
0000
0000
FFFF
0000
0000
0000
FFFF
FFFF
FFFF
FFFF
FFFF
0000
FFFF
0000
FFFF
FFFF
FFFF
0000
0000
0000
0000
0000
0000
0000
0000
0000
0000
0000
0000
0000
0000
0000
0000
0000
0000
FFFF
FFFF
0000
0000
0000
FFFF
0000
0000
0000
FFFF
0000
0000
0000
0000
0000
0007
0000
0000
0012
0048
0000
0026
004A
0000
0000
0000
0000
0000
FFFF
FFFF
0000
0000
FFFF
0000
0000
FFFF
FFFF
FFFF
FFFF
0000
0000
004A
0000
0011
0029
0000
0031
0057
0000
0021
00A3
0000
0033
0000
FFFF
FFFF
FFFF
FFFF
FFFF
0000
0000
FFFF
0000
FFFF
FFFF
0000
0000
0000
0000
0000
0067
0023
0019
0000
0000
002B
0000
0000
0000
0008
000C
0000
0000
0000
0000
FFFF
FFFF
FFFF
0000
0000
FFFF
0000
0000
0000
0003
0025
0005
001B
0018
007D
0000
0000
000B
0000
000D
0005
004D
000B
0000
0000
0000
0000
FFFF
0000
0000
FFFF
FFFF
FFFF
FFFF
0000
0000
0000
0013
0000
0040
0000
0000
0000
006D
0000
0022
0013
0015
0000
0000
0038
003E
003E
0000
0000
0000
0000
FFFF
FFFF
0000
FFFF
FFFF
FFFF
0000
001A
0000
0015
0000
0000
0021
0000
0023
0013
0000
0028
0000
0029
0000
0033
0000
0000
0000
0000
0000
FFFF
FFFF
FFFF
FFFF
0000
0000
0000
0000
0055
000C
0000
0036
0050
0000
0005
0000
0000
0000
0000
0022
0005
0050
003C
0000
0076
0000
0000
0000
0000
FFFF
FFFF
FFFF
FFFF
0000
0000
0000
0038
0021
0000
004A
0009
0057
000C
0000
0000
0000
000A
0012
004F
0000
0044
0000
0000
0000
0000
0000
0000
FFFF
0000
FFFF
FFFF
0000
0000
0000
0011
0000
0000
0000
000D
001A
0033
0000
0008
004D
0000
0000
0022
0006
0000
003D
0004
0000
0000
FFFF
FFFF
FFFF
FFFF
FFFF
FFFF
0000
0000
0000
0000
0024
0032
0000
000F
0000
0000
0071
0000
0015
0000
0000
0000
0000
004C
0000
0000
0000
0000
FFFF
FFFF
0000
FFFF
0000
0000
0000
0000
0000
000D
0010
0000
000E
0000
0000
0048
0006
0000
0000
0000
0000
0000
0000
0014
0000
0000
0000
0000
FFFF
FFFF
FFFF
0000
FFFF
FFFF
FFFF
0000
0000
0000
0004
0000
0000
0013
0005
0000
0047
0000
0000
0000
005E
0000
0018
0023
0000
0005
0000
0000
0000
FFFF
0000
FFFF
0000
0000
0000
0000
0000
0000
0028
0014
0025
0022
0030
003A
0000
0000
0000
0000
0000
0000
0025
0000
0000
0000
0000
0000
0000
0000
0000
FFFF
0000
FFFF
FFFF
0000
0013
0005
006A
0000
002B
0000
0004
0000
0008
0000
0003
0045
0000
003B
0011
0032
0008
0000
0000
0000
0000
0000
FFFF
FFFF
FFFF
FFFF
0000
0000
0000
0000
0000
0000
0000
000C
003C
0000
0019
0000
0000
0041
004F
0059
0022
0014
0000
0000
0000
0000
0000
0000
FFFF
FFFF
FFFF
FFFF
FFFF
0000
000E
0000
0004
0000
0030
0000
0020
0000
0000
0030
0000
0034
002B
0000
0000
0000
0017
0004
0000
0000
0000
0000
0000
FFFF
0000
FFFF
0000
0000
0000
0000
0000
0018
0064
0036
0020
0000
0000
0003
0001
0013
0046
005F
0000
0000
0000
0000
0000
0000
0000
0000
0000
FFFF
FFFF
FFFF
0000
0000
0000
0007
0003
005D
0021
0025
0025
0000
0000
0028
0007
0000
0000
0000
0000
002D
0000
0000
0000
0000
FFFF
0000
0000
FFFF
0000
0000
0000
0000
0000
0000
0000
0000
0019
000C
0002
0000
0000
0005
0000
0000
0000
004C
0025
0000
0000
0000
0000
0000
FFFF
0000
FFFF
FFFF
FFFF
0000
0000
0000
0000
0000
0000
0000
0000
0018
0000
0000
0000
0000
0000
0000
0000
0000
0013
0000
0000
0000
0000
FFFF
0000
FFFF
0000
0000
FFFF
0000
001C
0000
0000
0000
0000
0000
0087
0000
0000
0000
0000
0000
0000
0000
0000
0000
0000
FFFF
FFFF
0000
0000
FFFF
FFFF
0000
FFFF
0000
FFFF
FFFF
FFFF
FFFF
FFFF
0000
0000
0000
0000
0000
0000
0000
0000
0000
0000
0000
0000
0000
0000
FFFF
0000
FFFF
FFFF
FFFF
FFFF
0000
FFFF
0000
FFFF
FFFF
FFFF
FFFF
FFFF
0000
0000
0000
0000
0000
0000
FFFF
0000
0000
0000
0000
0000
FFFF
0000
FFFF
0000
FFFF
FFFF
FFFF
0000
FFFF
FFFF
FFFF
0000
FFFF
0000
FFFF
0000
0000
FFFF
0000
FFFF
FFFF
FFFF
0000
0000
0000
0000
0000
0000
FFFF
FFFF
FFFF
0000
FFFF
FFFF
0000
0000
FFFF
0000
