FFFF
0000
FFFF
0000
FFFF
FFFF
FFFF
0000
FFFF
FFFF
FFFF
FFFF
FFFF
0000
FFFF
FFFF
0000
0000
FFFF
FFFF
FFFF
FFFF
FFFF
0000
FFFF
0000
FFFF
0000
FFFF
0000
FFFF
0000
0000
FFFF
0000
FFFF
0000
0000
FFFF
0000
0000
FFFF
FFFF
0000
0000
FFFF
FFFF
FFFF
FFFF
0000
FFFF
0000
FFFF
FFFF
0000
0000
FFFF
FFFF
FFFF
0000
0000
0000
FFFF
FFFF
0000
0000
FFFF
0000
0000
0000
FFFF
FFFF
0000
0000
0000
0000
FFFF
0000
FFFF
0000
FFFF
FFFF
FFFF
FFFF
0000
0000
0000
FFFF
FFFF
FFFF
0000
0000
FFFF
0000
0000
0000
0000
0000
0000
0000
0000
0000
0000
0000
0000
0000
0000
0000
0000
FFFF
FFFF
0000
0000
0000
FFFF
FFFF
FFFF
0000
FFFF
0000
0000
0000
0000
0000
0000
001A
0000
0009
0000
0000
0000
0000
0000
0000
0000
0000
0000
FFFF
FFFF
FFFF
0000
FFFF
FFFF
FFFF
0000
0000
0000
0000
0000
0018
0000
0000
0000
0000
000A
0024
0000
002D
0021
0056
0003
0000
0000
0000
0000
0000
FFFF
FFFF
FFFF
0000
0000
0000
0000
0000
0000
0000
0002
0000
0052
000C
0000
0043
0000
002F
004A
0054
0000
009E
0048
0000
003C
0000
0000
0000
FFFF
0000
FFFF
0000
0000
FFFF
FFFF
0000
0000
0000
0000
0056
003F
0027
0000
001D
0059
0000
0000
0016
0041
0000
0000
0000
0038
0000
0000
FFFF
0000
FFFF
FFFF
FFFF
FFFF
FFFF
0000
0000
0000
0000
0002
0055
0000
0018
0000
0043
0001
0000
0000
0008
0005
0016
0000
0000
0007
0000
0000
0000
0000
FFFF
FFFF
0000
FFFF
FFFF
0000
0000
0021
0022
0000
003E
001A
0000
0000
0068
0000
0000
001F
001E
0021
0012
0000
0000
002D
0000
0000
0000
FFFF
FFFF
FFFF
FFFF
0000
FFFF
0000
0000
0000
0000
0071
0000
0008
0000
003B
0000
0000
0000
0000
002F
0000
000F
0000
0000
0000
0000
0000
0000
0000
0000
FFFF
FFFF
FFFF
0000
0000
0000
0000
0000
001E
0028
0000
0000
0000
0013
0000
004E
0025
0000
0000
0000
0000
0000
000A
0000
0000
0000
0000
FFFF
0000
FFFF
FFFF
FFFF
0000
0000
0000
0056
002D
0000
0000
0031
0000
0000
002D
0000
0000
0065
0000
0000
001C
0001
0000
0000
0000
0000
FFFF
FFFF
FFFF
0000
FFFF
0000
0000
0000
0000
0000
0000
0000
0000
0000
0000
0000
0000
0039
002F
0000
0017
001F
002A
0009
0000
0000
0000
0000
FFFF
0000
FFFF
0000
0000
0000
0000
0000
006C
0000
0012
0000
0000
0000
003A
001C
006E
0075
001E
0000
000C
0000
0000
0000
0025
0000
0000
FFFF
0000
FFFF
FFFF
FFFF
FFFF
FFFF
0000
0000
0000
0060
002D
0000
002C
0026
0011
0007
0026
000C
0000
001F
0022
0000
0000
0000
0000
0000
0000
0000
FFFF
0000
FFFF
FFFF
FFFF
0000
0000
000E
0031
000A
0046
0000
001B
0014
0000
0000
0008
0000
0000
0047
0000
006E
0000
0006
0000
0000
0000
0000
0000
0000
0000
0000
FFFF
FFFF
0000
0000
000A
0045
002F
0000
0000
0000
000A
0025
0000
0000
0000
000B
0000
0016
0004
0000
0000
0000
0000
0000
0000
FFFF
FFFF
FFFF
FFFF
0000
0000
0000
0000
0001
0000
0000
000E
0036
0000
0000
000E
0000
0000
0003
0000
0000
000D
0000
0033
0000
0000
0000
0000
0000
FFFF
FFFF
FFFF
FFFF
0000
0024
0000
0034
000D
0000
0000
0000
0000
0000
0015
001D
0010
0000
001B
0069
002F
0000
0000
0000
0000
0000
0000
FFFF
FFFF
0000
FFFF
0000
0000
0000
0081
0000
0016
0022
0023
0011
008A
0008
003B
0000
0000
0000
0000
0060
004D
0000
0012
0000
0000
0000
FFFF
0000
FFFF
0000
FFFF
0000
0000
0007
0000
0000
0000
002A
0000
0000
0000
0000
0000
0056
0000
0000
000A
0000
0000
000A
0000
0000
0000
FFFF
FFFF
FFFF
0000
0000
0000
0000
0000
0000
0000
0000
0000
0047
0000
0038
004A
0002
0017
000D
0025
0019
0000
0000
0000
0000
0000
0000
0000
0000
0000
0000
FFFF
FFFF
0000
0000
0000
0000
0000
0042
001C
001F
0032
0000
0000
0040
0000
0015
001A
0020
0000
0019
0000
0000
0000
0000
FFFF
FFFF
FFFF
0000
FFFF
FFFF
FFFF
FFFF
0000
0000
0000
0000
0033
0000
004C
0032
0030
0000
0002
0051
000A
0000
0000
0000
FFFF
FFFF
0000
0000
FFFF
FFFF
0000
FFFF
0000
FFFF
FFFF
FFFF
FFFF
0000
0000
0000
0000
0000
0000
0000
0000
0000
0000
0000
0000
0000
0000
0000
FFFF
FFFF
FFFF
FFFF
FFFF
FFFF
FFFF
FFFF
0000
FFFF
FFFF
FFFF
FFFF
FFFF
0000
FFFF
0000
0000
0000
0000
0000
0000
0000
0000
0000
0000
FFFF
0000
FFFF
0000
FFFF
FFFF
FFFF
0000
FFFF
FFFF
FFFF
0000
FFFF
FFFF
FFFF
FFFF
0000
FFFF
0000
FFFF
FFFF
0000
0000
0000
0000
0000
0000
FFFF
FFFF
FFFF
FFFF
FFFF
FFFF
FFFF
0000
0000
FFFF
0000
