FFFF
FFFF
FFFF
0000
FFFF
FFFF
FFFF
0000
FFFF
FFFF
FFFF
FFFF
FFFF
0000
FFFF
FFFF
0000
FFFF
FFFF
FFFF
0000
FFFF
0000
0000
FFFF
0000
FFFF
0000
FFFF
0000
0000
FFFF
0000
FFFF
0000
FFFF
0000
0000
0000
0000
0000
FFFF
FFFF
FFFF
008C
0000
FFFF
FFFF
FFFF
0000
FFFF
0000
FFFF
FFFF
FFFF
FFFF
FFFF
0000
FFFF
0000
0000
0000
FFFF
FFFF
0049
0000
FFFF
0000
0000
0000
FFFF
0000
0000
0000
0000
0000
FFFF
0000
FFFF
0000
0000
FFFF
FFFF
FFFF
0000
FFFF
0000
FFFF
FFFF
FFFF
0057
0000
FFFF
0000
0000
0000
0000
0000
0026
0002
0000
0000
0000
0000
0000
0000
FFFF
FFFF
0000
0000
0000
0000
FFFF
FFFF
FFFF
0000
FFFF
0000
FFFF
0000
0000
0000
0000
0000
0000
002E
004B
0000
004C
0016
0020
0000
0000
0000
0000
0000
0000
FFFF
FFFF
0000
0000
FFFF
FFFF
0000
0000
0000
FFFF
FFFF
0000
0000
0000
0007
0000
0000
001A
0021
0000
0000
0000
0000
0087
0000
0000
0000
FFFF
FFFF
FFFF
0000
FFFF
0000
FFFF
0000
FFFF
FFFF
0000
0000
0000
0000
0000
0000
0040
0000
0000
0000
0000
002B
000F
0022
000B
0000
0000
0000
0000
0000
FFFF
0000
FFFF
0000
0000
FFFF
0000
0000
0000
0000
0000
0006
0000
0000
0000
0083
001B
0000
0014
0000
003D
0060
0000
0000
0004
0000
0000
0000
0000
0000
FFFF
FFFF
FFFF
0000
0000
0000
0000
0000
0012
0000
0000
0037
0076
0000
0000
000F
0000
0000
0029
0041
0029
0000
004F
001D
0000
0000
0000
FFFF
FFFF
0000
0000
FFFF
0000
0000
0000
0000
0000
0000
0000
0049
001D
006D
0000
0000
001F
0000
0000
002C
0000
0000
0000
0000
0000
0000
FFFF
FFFF
0000
FFFF
0000
0000
0000
0000
000A
0022
0000
0000
0024
0029
0000
0000
0035
0003
0000
007B
0039
0033
0000
004A
002B
0000
0000
0000
0000
FFFF
FFFF
FFFF
FFFF
0000
0000
0000
0000
0000
005A
0000
0000
0000
0000
0038
001B
0000
0018
0000
0000
0000
0016
0065
0000
0035
0000
0000
0000
FFFF
0000
FFFF
FFFF
FFFF
0000
0000
0000
006D
005C
007E
0025
0000
0002
0015
002A
0000
0000
0000
0000
0000
005C
001D
0035
0000
0000
0000
FFFF
FFFF
FFFF
FFFF
FFFF
0000
0000
0000
0004
0000
000E
0000
0000
0000
0000
005E
0000
0000
0000
0030
0000
0000
001C
0000
0000
0000
0000
FFFF
FFFF
0000
FFFF
FFFF
0000
0000
0000
0043
0000
0000
0035
0000
0000
0000
0041
0000
0000
0000
0000
002D
0027
001C
004F
004C
0000
0000
0000
FFFF
FFFF
FFFF
FFFF
0000
FFFF
FFFF
0000
0000
0049
0031
0024
0061
0000
0000
0000
0000
0000
0000
0000
0000
003E
0000
0012
0000
0000
0000
0000
0000
FFFF
0000
FFFF
0000
0000
0000
0000
0034
0000
0000
0007
0034
0061
0024
0000
0000
0000
0000
0000
0004
0000
0000
0000
0000
0018
0000
0000
0000
0000
0000
0000
0000
FFFF
FFFF
0000
0000
0000
0000
0000
0000
0000
0000
000C
0028
0000
001C
004C
0000
0000
0049
0000
0000
002D
0000
0000
0000
0000
FFFF
0000
0000
FFFF
0000
0000
0000
0017
0007
0000
0031
0000
0001
0021
0001
0026
001B
0044
0039
0038
0000
0044
000A
0000
0000
0000
0000
0000
FFFF
FFFF
FFFF
FFFF
FFFF
0000
0000
0000
0000
0000
0052
004B
0000
0000
0000
003B
0000
0000
0000
001C
0000
0000
0016
0000
0000
0000
0000
0000
0000
FFFF
0000
0000
0000
0000
004F
0071
0000
0024
0000
0000
0000
001A
003B
004B
0010
0000
0000
0000
0000
000A
0000
0000
0000
0000
0000
0000
0000
FFFF
FFFF
0000
0000
0000
0000
0007
0000
0000
0065
005B
0021
0005
0048
0000
000D
0012
002C
0030
0000
0031
0000
0000
0000
0000
FFFF
0000
0000
FFFF
0000
0000
0000
0000
0000
0000
0000
000C
0000
0008
0000
0035
0000
0028
0000
0016
000D
000C
0000
0000
0000
0000
0000
0000
0000
0000
FFFF
FFFF
FFFF
0000
0000
0000
0000
0000
001C
0000
0004
0000
0000
0015
0000
004B
0000
0000
0000
0000
0000
0000
0000
0000
0000
FFFF
0000
FFFF
0000
0000
0000
0000
FFFF
0000
0000
0000
0000
0000
003F
0000
0004
0000
0000
0004
0000
0000
0000
0000
0000
FFFF
0000
0000
0000
0000
FFFF
0000
FFFF
0000
FFFF
FFFF
FFFF
0000
0000
0000
0000
0000
0000
0000
0000
0016
0000
0000
0000
0000
0000
0000
0000
0000
0000
FFFF
FFFF
FFFF
FFFF
0000
FFFF
0000
FFFF
FFFF
FFFF
0000
FFFF
0000
0000
0000
0000
0000
0000
0000
0000
0000
0000
0000
0000
0000
0000
FFFF
0000
0000
FFFF
FFFF
0000
FFFF
FFFF
FFFF
0000
0000
0000
FFFF
0000
0000
FFFF
0000
FFFF
FFFF
FFFF
0000
0000
0000
0000
0000
FFFF
FFFF
FFFF
FFFF
0000
FFFF
FFFF
0000
0000
FFFF
0000
