FFFF
FFFF
FFFF
FFFF
FFFF
FFFF
FFFF
0000
FFFF
FFFF
0000
FFFF
FFFF
0000
FFFF
FFFF
0000
FFFF
FFFF
FFFF
FFFF
0000
0000
0000
FFFF
0000
FFFF
0000
FFFF
0000
0000
FFFF
0000
FFFF
0000
FFFF
0000
0000
0000
0000
0000
FFFF
FFFF
FFFF
FFFF
0000
FFFF
0000
FFFF
0000
FFFF
0000
FFFF
FFFF
FFFF
FFFF
FFFF
0000
FFFF
0000
0000
0000
FFFF
FFFF
FFFF
0000
FFFF
0000
0000
0000
FFFF
FFFF
0000
0000
0000
0000
FFFF
0000
0000
0000
FFFF
FFFF
FFFF
FFFF
0000
FFFF
0000
FFFF
FFFF
FFFF
0000
0000
FFFF
0000
0000
0000
0000
0000
0000
0000
0000
0000
0000
0000
0000
0000
0000
0000
0000
0000
0000
0000
FFFF
0000
FFFF
FFFF
0000
0000
FFFF
0000
0000
0000
0000
0000
0000
0000
0009
0000
0000
0000
0000
0000
0000
0000
0000
0000
0000
FFFF
FFFF
0000
0000
FFFF
FFFF
0000
0000
0000
0000
0000
0000
000A
0012
0000
0000
000B
0040
002A
0000
0019
0000
0000
0000
0000
0000
0000
FFFF
FFFF
FFFF
0000
FFFF
FFFF
FFFF
0000
0000
0000
0000
0000
001E
0000
0000
004B
004F
0000
0022
0023
0000
0055
0000
0000
0000
0000
0000
0000
0000
0000
FFFF
0000
FFFF
0000
0000
FFFF
FFFF
0000
0000
0000
0064
0000
0027
0000
0014
0000
001E
0048
0023
0000
000B
0002
0026
0021
0000
0000
0000
FFFF
0000
0000
FFFF
FFFF
0000
FFFF
0000
0000
FFFF
0011
0000
003E
000F
0013
0072
0000
0000
005E
0010
001C
0000
0022
0000
0000
0000
0000
0000
0000
0000
FFFF
FFFF
0000
FFFF
FFFF
0000
0000
0000
0000
0000
0000
0040
000D
0000
0061
0017
0059
0000
0003
002E
000D
0000
0017
0000
0000
0000
0000
FFFF
FFFF
0000
0000
0000
0000
0000
0000
008B
0048
0021
003E
0034
0017
0006
0048
0000
0005
0038
001D
0017
0020
000B
0000
005E
0000
0000
0000
0000
FFFF
FFFF
FFFF
FFFF
0000
0000
0000
0000
001D
0000
0000
0000
0000
0014
0014
0000
0000
001E
0046
0018
0000
0000
0000
0000
0000
0000
0000
0000
FFFF
0000
FFFF
FFFF
FFFF
0000
0000
0004
0000
0000
0027
0000
0000
0000
0002
0026
0057
001D
0000
0000
0000
000F
0000
002D
0000
0000
FFFF
FFFF
FFFF
FFFF
0000
FFFF
0000
0000
0000
0000
0000
0000
0000
0000
0000
001B
0012
0018
004D
0012
0000
000D
0016
0000
001B
0000
0000
0000
FFFF
FFFF
0000
FFFF
FFFF
0000
0000
0000
0000
001A
001B
0000
004A
0003
0000
000B
0002
0000
0002
003D
0000
000A
003D
0020
0013
0000
0000
0000
FFFF
FFFF
FFFF
FFFF
0000
FFFF
FFFF
0000
0000
0000
0000
0056
0000
0037
0000
0013
0003
0000
002A
0002
0000
0000
002C
0017
001A
0034
0020
0000
0000
FFFF
0000
FFFF
FFFF
0000
0000
0000
000C
0084
0000
002C
0000
0000
004D
0000
0010
0000
0000
0000
0036
0000
0006
001B
0000
0011
0000
0000
0000
0000
0000
0000
0000
FFFF
FFFF
0000
0000
0000
0029
0040
0000
0018
0000
0001
0000
0000
0000
0019
0036
0040
0029
0025
0000
0014
0000
0000
0000
0000
FFFF
FFFF
0000
FFFF
0000
0000
002A
0000
0044
0069
0018
0000
004B
0000
0027
0000
0000
0046
0012
001E
0046
0000
0000
0000
0000
0000
0000
0000
FFFF
FFFF
FFFF
FFFF
FFFF
0000
0000
003A
0007
0003
0000
0020
0000
002D
0000
0000
0025
0000
0000
0000
0000
0000
0009
0000
0000
0000
0000
0000
0000
FFFF
0000
0000
0000
0000
003F
0042
0034
0000
0065
0029
0004
0031
0001
0000
0020
0000
0000
0043
0000
0000
0000
0015
0000
0000
0000
0000
0000
FFFF
FFFF
0000
0000
0000
005D
0000
0003
0000
0025
0000
0000
0000
0000
0000
0000
0000
0000
0000
0028
0000
0000
0000
0000
0000
FFFF
0000
0000
FFFF
0000
0000
0000
0000
0000
005A
0000
0000
0000
0000
004A
0000
0058
0009
0000
0030
0003
0000
0000
000C
0000
0000
0000
0000
0000
0000
FFFF
0000
FFFF
0000
0000
0000
0000
0000
0000
0000
0023
0014
0000
006D
0006
0000
0000
001A
0000
001D
0009
0000
0000
0000
0000
FFFF
0000
FFFF
0000
FFFF
0000
FFFF
FFFF
0000
0000
0000
0000
0000
0000
002E
0000
002F
0002
0014
0000
0000
0036
0000
0000
FFFF
FFFF
0000
0000
0000
FFFF
0000
0000
0000
FFFF
0000
FFFF
0000
0000
0000
0000
0000
0000
0000
0000
0000
0000
0000
0000
0000
0000
0000
0000
0000
0000
FFFF
FFFF
0000
FFFF
0000
FFFF
0000
FFFF
0000
FFFF
0000
FFFF
0000
0000
0000
0000
0000
0000
0000
0000
0000
0000
0000
0000
FFFF
0000
FFFF
0000
FFFF
FFFF
FFFF
0000
0000
FFFF
FFFF
0000
FFFF
0000
FFFF
0000
0000
FFFF
0000
FFFF
FFFF
FFFF
0000
0000
0000
0000
0000
FFFF
FFFF
FFFF
FFFF
0000
FFFF
FFFF
0000
0000
FFFF
0000
