FFFF
0000
FFFF
FFFF
FFFF
FFFF
FFFF
0000
FFFF
0000
FFFF
FFFF
FFFF
0000
FFFF
FFFF
0000
FFFF
FFFF
FFFF
0000
FFFF
0000
0000
FFFF
0000
0049
0000
FFFF
FFFF
0000
FFFF
0000
FFFF
0000
FFFF
0000
0000
FFFF
0000
0000
FFFF
FFFF
FFFF
FFFF
FFFF
FFFF
FFFF
FFFF
0000
FFFF
0000
FFFF
FFFF
FFFF
0000
FFFF
FFFF
FFFF
0000
0000
0000
FFFF
FFFF
FFFF
0000
FFFF
0000
0000
0000
0000
0000
0000
0000
0000
0000
FFFF
0000
0000
0000
0000
FFFF
FFFF
FFFF
0000
FFFF
0000
FFFF
FFFF
FFFF
FFFF
FFFF
FFFF
0000
0000
0000
0000
0000
0043
0000
0000
0000
FFFF
0000
0000
0000
0000
0000
0000
0000
FFFF
0000
FFFF
FFFF
FFFF
FFFF
FFFF
0000
FFFF
0000
0000
0000
0018
0003
0047
0000
006A
0010
0010
0000
0000
0000
0000
0000
0000
0000
0000
FFFF
FFFF
FFFF
0000
FFFF
FFFF
FFFF
0000
0000
0000
0000
0000
0000
000B
0073
001E
0024
0029
0041
0000
0000
0000
0042
0000
0043
0000
0000
FFFF
FFFF
FFFF
FFFF
FFFF
FFFF
FFFF
FFFF
0000
0000
0000
0000
0000
0000
0006
0002
0000
0014
0004
004D
0000
0000
0013
0021
0000
0000
0000
0000
0000
0000
0000
0000
FFFF
0000
FFFF
FFFF
0000
0000
0000
0027
0000
0000
0000
0011
0000
0000
0000
003E
0000
0057
002B
001A
0000
0000
0000
0000
0000
0000
0000
FFFF
FFFF
FFFF
FFFF
FFFF
0000
0000
0000
0043
0000
002C
0000
0000
0000
0019
0000
0028
0053
0000
0027
0014
000F
0000
0009
0000
0000
0000
0000
FFFF
FFFF
0000
FFFF
FFFF
0000
0000
000E
0052
0000
0000
0017
0000
0012
0000
0022
0003
0000
0000
0039
0000
0000
0000
0000
0000
0000
0000
FFFF
FFFF
FFFF
FFFF
0000
FFFF
0000
0000
0000
0006
0086
003C
0000
002A
0033
004C
0000
0000
002C
0000
0000
0000
0006
005C
0000
0000
0000
0000
FFFF
0000
FFFF
FFFF
FFFF
0000
0000
0000
003D
0000
0030
0030
0044
0061
0000
0000
0000
0000
0000
0000
0000
0000
0000
0016
0036
0000
0000
0000
0000
FFFF
0000
FFFF
FFFF
FFFF
0000
0000
0000
0071
0004
0038
0000
001F
0000
0011
0001
0000
0005
0000
008F
0000
0000
0000
000C
0000
0000
FFFF
FFFF
FFFF
FFFF
FFFF
FFFF
0000
0000
0000
0000
0000
000C
0034
0018
0000
0000
0000
003E
0026
0027
0000
0015
0000
0000
0000
0000
0000
0000
FFFF
FFFF
0000
FFFF
0000
0000
0000
0000
0000
0000
001E
0000
0025
0041
0000
0000
0006
000A
0003
0000
002C
0000
0000
002B
0092
0000
0000
0000
FFFF
0000
FFFF
FFFF
FFFF
FFFF
FFFF
0000
0005
004D
0000
0000
0028
0007
0000
002A
000A
0000
0000
0071
0008
0036
0000
0000
0000
0001
0000
0000
0000
FFFF
FFFF
FFFF
0000
FFFF
0000
0000
003E
0000
0030
0000
0045
0000
003B
000B
0010
0000
0000
005C
0012
0000
0000
0005
0011
0000
0000
0000
0000
0000
0000
0000
0000
FFFF
FFFF
0000
0000
0000
0000
0016
0000
0005
003C
0000
0000
0018
006D
0035
0000
0000
0000
0000
0000
0000
0000
0000
0000
0000
FFFF
0000
0000
FFFF
0000
0000
0000
003C
0057
001E
0000
0006
0000
0000
0013
0000
0025
0000
001D
0000
0000
000D
0000
002B
0000
0000
0000
0000
FFFF
FFFF
FFFF
FFFF
FFFF
0000
0000
0000
0015
0000
001F
0000
0001
003C
0000
0027
0000
0030
0029
0000
003A
002B
003B
0000
0000
0000
0000
0000
0000
FFFF
0000
FFFF
0000
0000
0000
0008
0000
0000
0004
0000
0000
0056
0029
000D
001B
003F
009B
0012
0000
0000
0000
001B
0000
0000
0000
0000
0000
FFFF
0000
FFFF
0000
0000
0000
0000
0040
0019
0000
0031
0008
0000
0034
0000
0026
0000
0023
0020
000D
0000
0022
0000
0000
0000
FFFF
FFFF
0000
FFFF
0000
FFFF
FFFF
0000
0000
0000
002A
001A
0000
0033
0000
0000
0000
0000
0007
0000
0042
007C
0010
0000
0000
0000
0000
0000
0000
0000
FFFF
FFFF
FFFF
0000
0000
0000
0000
0000
0000
0000
0000
0000
0000
0000
0000
0000
0000
0010
001E
0033
0006
0000
0000
0000
0000
FFFF
FFFF
FFFF
0001
0000
FFFF
0000
FFFF
0000
0000
0000
0000
0000
001D
0000
0000
0029
0001
0000
0000
0001
0027
0000
0000
0000
0000
0000
0000
FFFF
FFFF
0000
0000
0000
FFFF
FFFF
FFFF
0000
FFFF
0000
0000
0000
0000
0000
0000
000B
0000
0003
0000
0000
0000
0000
0000
0000
0000
FFFF
FFFF
FFFF
FFFF
FFFF
FFFF
0000
FFFF
FFFF
FFFF
FFFF
FFFF
0000
FFFF
0000
0000
0000
0000
0000
0000
0000
0000
0000
0000
0000
0000
FFFF
0000
0000
FFFF
FFFF
0000
FFFF
FFFF
FFFF
0000
FFFF
FFFF
FFFF
0000
0000
FFFF
0000
FFFF
FFFF
0000
0000
0000
0000
0000
0000
0000
FFFF
FFFF
FFFF
0000
FFFF
FFFF
0000
0000
FFFF
0000
