0000FFFFFFFF0000000000000000FFFF0000FFFF0000FFFF00000000FFFF0000FFFFFFFF00000000006A0000FFFFFFFFFFFFFFFFFFFFFFFFFFFFFFFF0000FFFFFFFFFFFF00000000FFFFFFFFFFFFFFFFFFFFFFFFFFFF0000FFFFFFFFFFFF0000000000000000FFFFFFFFFFFFFFFFFFFF0000FFFFFFFFFFFFFFFF00000000FFFF00000000FFFF0000FFFFFFFFFFFFFFFFFFFFFFFFFFFFFFFF00000000FFFFFFFFFFFFFFFFFFFFFFFF0000FFFFFFFFFFFFFFFFFFFFFFFFFFFFFFFF00000000FFFF0000FFFFFFFFFFFFFFFF0000FFFF0000FFFFFFFFFFFFFFFFFFFF0000FFFFFFFF0000FFFF00000000FFFF0000000000000000FFFFFFFFFFFFFFFF0000FFFF0000
FFFF0000FFFFFFFF000000000000FFFFFFFFFFFFFFFF0000FFFFFFFF0000FFFFFFFF00000000FFFFFFFFFFFFFFFF0000FFFFFFFFFFFFFFFF000000000000000000000000FFFF00000000FFFFFFFF00000000FFFF00000000FFFFFFFFFFFF000000000000FFFFFFFF0083FFFFFFFFFFFF000000000000FFFF0000FFFF0000FFFFFFFFFFFF000000000000FFFFFFFFFFFFFFFFFFFF0000FFFFFFFF0000FFFFFFFF0000FFFF0000000000000000FFFFFFFFFFFF0000FFFF000000000000FFFFFFFF0000FFFFFFFF0000FFFFFFFFFFFFFFFF000000000000FFFF0000FFFFFFFFFFFFFFFF0000FFFF00000000FFFFFFFFFFFF0000FFFF0000FFFF0000000000000000
FFFFFFFFFFFFFFFFFFFF0000FFFFFFFFFFFFFFFFFFFFFFFFFFFFFFFFFFFFFFFFFFFFFFFFFFFFFFFF0000FFFFFFFFFFFFFFFFFFFFFFFFFFFFFFFFFFFFFFFFFFFF00000000FFFFFFFFFFFFFFFFFFFF0000FFFFFFFFFFFFFFFFFFFFFFFFFFFFFFFFFFFFFFFFFFFFFFFFFFFFFFFFFFFFFFFFFFFFFFFFFFFFFFFF0000FFFFFFFFFFFFFFFFFFFFFFFFFFFFFFFFFFFFFFFFFFFF00450000FFFFFFFFFFFFFFFF0000FFFFFFFF0000FFFFFFFFFFFFFFFFFFFF0000FFFFFFFFFFFFFFFFFFFFFFFFFFFFFFFFFFFF0000FFFFFFFFFFFFFFFFFFFFFFFFFFFFFFFFFFFFFFFFFFFFFFFFFFFFFFFFFFFFFFFFFFFFFFFFFFFFFFFFFFFFFFFFFFFFFFFFFFFFFFFFFFFF000000000000
FFFFFFFFFFFFFFFFFFFF0000FFFFFFFF00000000FFFFFFFFFFFFFFFF0000FFFFFFFFFFFFFFFFFFFFFFFF00000000FFFFFFFFFFFF0000FFFFFFFFFFFFFFFFFFFFFFFFFFFFFFFFFFFFFFFFFFFF0000FFFF0000FFFFFFFFFFFFFFFFFFFFFFFFFFFFFFFFFFFFFFFFFFFF0000FFFFFFFFFFFFFFFFFFFF0000FFFFFFFF0000FFFF005EFFFF0000FFFFFFFFFFFFFFFFFFFFFFFFFFFFFFFFFFFF00000000FFFF0000FFFFFFFFFFFFFFFFFFFFFFFFFFFFFFFFFFFFFFFFFFFFFFFFFFFFFFFF0000FFFFFFFF0000FFFF0000FFFFFFFFFFFFFFFF0000FFFF0000FFFF000000000000FFFF0000FFFFFFFFFFFF0000FFFFFFFFFFFF0000FFFFFFFF0000FFFFFFFFFFFFFFFF0000
FFFFFFFFFFFF0020FFFF0000FFFFFFFFFFFFFFFFFFFFFFFFFFFFFFFFFFFFFFFFFFFFFFFF0000FFFFFFFFFFFFFFFFFFFFFFFFFFFFFFFFFFFFFFFFFFFFFFFFFFFFFFFFFFFFFFFFFFFF0000FFFFFFFFFFFFFFFFFFFFFFFFFFFFFFFFFFFFFFFFFFFFFFFFFFFFFFFFFFFFFFFFFFFFFFFFFFFFFFFFFFFFFFFFFFFFFFFFFFFFFFFFFFFFFFFFFFFFFFFFFFFFFFFFFFFFFFFFFFFFFFFFFFFFFFFFFFFFFFFFFFFFFFFFFFFFFFFFFFFFFFFFFFFFFFFFFFFFFFFFFFFFFFFFFFFFFFFFFFFFFFFFFFFFFFFFFFFF0000FFFFFFFFFFFFFFFFFFFFFFFFFFFFFFFFFFFFFFFFFFFFFFFFFFFFFFFFFFFFFFFFFFFFFFFFFFFFFFFFFFFFFFFFFFFFFFFFFFFFFFFFFFFFFFFFFFFFFFFF0000
FFFFFFFFFFFFFFFFFFFFFFFFFFFFFFFFFFFFFFFFFFFFFFFFFFFFFFFFFFFFFFFFFFFFFFFFFFFFFFFFFFFFFFFFFFFFFFFFFFFFFFFFFFFFFFFFFFFFFFFFFFFFFFFFFFFFFFFFFFFFFFFFFFFFFFFFFFFFFFFFFFFFFFFFFFFFFFFFFFFF0051FFFFFFFFFFFFFFFFFFFFFFFFFFFFFFFFFFFFFFFFFFFFFFFFFFFFFFFFFFFFFFFFFFFFFFFFFFFFFFFFFFFFFFFFFFFFFFFFFFE6FFFFFFFFFFFFFFFFFFFFFFFFFFFFFFFFFFFFFFFFFFFFFFFFFFFFFFFFFFFFFFFF0000FFFFFFFFFFFFFFFFFFFFFFFFFFFFFFFFFFFFFFFFFFFFFFFFFFFFFFFFFFFFFFFFFFFFFFFFFFFFFFFFFFFFFFFFFFFFFFFFFFFFFFFFFFFFFFFFFFFFFFFFFFFFFFFFFFFFFFFFFFFFFFFFFFFFFFFFFFFF0000
FFFF0000FFFF000000000000FFFFFFFFFFFFFFFFFFFFFFFF0000FFFFFFFF00000074000000000000FFFFFFFFFFFF0000FFFFFFFFFFFFFFFF0000FFFFFFFF00000000FFFF0000FFFFFFFFFFFFFFFFFFFFFFFF0000FFFF0000FFFFFFFFFFFF0000FFFF00000000FFFF0000FFFFFFFF000000000000FFFF00000000FFFFFFFFFFFFFFFF0000FFFF00000000FFFF0000FFFF000000000000000000000000FFFF0000FFFF0000FFFFFFFFFFFFFFFFFFFF0000FFFF0000FFFF00000000FFFFFFFFFFFF0000FFFFFFFF00000000FFFFFFFFFFFFFFFFFFFFFFFFFFAC000000000000FFFFFFFFFFFFFFFF0000FFFFFFFF00000000FFFFFFFFFFFF000000000000FFFF0000
00000000000000000000FFFF000000000000000000000000000000000000000000000000000000000000000000000000000000000000FFFF00000000000000000000FFFF0000FFFF00000000000000000000000000000000000000000000000000000000000000000000000000000000FFFF003900000000FFFF000000000000000000000000000000000000000000000000000000000000FFFF0000FFFF00000000000000000000000000000000FFFFFFFF0000FFFF00000000000000000000FFFF0000000000000000000000000000000000000000000000000000000000000000FFFF00000000000000000000000000000000000000000000000000000000
FFFFFFFFFFFFFFFFFFFF0000FFFFFFFFFFFFFFFFFFFFFFFFFFFFFFFFFFFFFFFF003C00000000FFFFFFFF0000FFFF0000FFFF0000FFFFFFFFFFFFFFFFFFFFFFFFFFFFFFFFFFFF00000000FFFF0000FFFFFFFFFFFFFFFFFFFFFFFFFFFFFFF40000FFFFFFFFFFFFFFFF0000FFFFFFFFFFFFFFFF0000FFFF00000000FFFFFFFFFFFFFFFF0000FFFF0000FFFFFFFFFFFFFFFFFFFF00000000FFFFFFFF000000000000FFFF0000FFFFFFFFFFFFFFFFFFFF0000FFFF0000FFFFFFFFFFFFFFFFFFFFFFFF0000FFFFFFFF00000000FFFFFFFFFFFFFFFFFFFFFFFFFFFF0000FFFF0000FFFFFFFF0000FFFF0000FFFFFFFF0000FFFFFFFFFFFF00000000FFFF0000FFFF0000
00580000FFFFFFFF000000000000000000000000FFFF000000000000000000000000FFFFFFFF0000FFFF000000000000FFFF0000FFFFFFFF000000000000000000000000000000000000000000000000FFFF00000000FFFF0000000000000000FFFF00000000FFFF000000000000000000000000000000000000FFFF0000FFFF00000000FFFF000000000000FFFF0000FFFF0000000000000000000000000000000000000000000000000000FFFFFFFFFFFF00000000000000000000FFFF000000000000FFFF00000000FFFF0000000000000000FFFFFFFF000000000000000000000000000000000000FFFF0000FFFF000000000000FFFFFFFF000000000000
000000000000FFFFFFFF0000FFFF00000000000000000000FFFFFFFFFFFFFFFFFFFFFFFFFFFF0000FFFFFFFFFFFFFFFFFFFFFFFFFFFF0000FFFFFFFF000000000000FFFF0000FFFFFFFFFFFFFFFF0087FFFFFFFFFFFF0000FFFFFFFFFFFF0000FFFFFFFF00000000FFFF0000FFFFFFFF00000000000000000000FFFFFFFF00000000FFFF00000000000000000000FFFF0000FFFF0000FFFF0000FFFF00000000FFFFFFFFFFFFFFFFFFFF00000000FFFFFFFFFFFF0000FFFFFFFFFFFFFFFFFFFFFFFFFFFF0000FFFFFFFFFFFF0000FFFFFFFFFFFFFFFF0000000000000000FFFF00000000FFFFFFFFFFFF0000FFFFFFFFFFFF0000FFFF00000000FFFFFFFF0000
FFFFFFFFFFFFFFFFFFFF0000FFFFFFFFFFFFFFFFFFFFFFFFFFFFFFFFFFFFFFFFFFFFFFFFFFFFFFFFFFFFFFFFFFFFFFFFFFFFFFFFFFFFFFFFFFFFFFFFFFFF0067FFFFFFFFFFFFFFFFFFFFFFFFFFFFFFFFFFFFFFFFFFFFFFFFFFFFFFFFFFFFFFFFFFFFFFFFFFFFFFFFFFFFFFFFFFFFFFFFFFFFFFFFFFFFFFFFFFFFFFFFFFFFFFFFFFFFFFFFFFFFFFFFFFFFFFFFFFFFFFFFFFFF0000FFFFFFFFFFFFFFFFFFFFFFFFFFFFFFFFFFFFFFFFFFFFFFFFFFFFFFFFFFFFFFFFFFFFFFFFFFFFFFFFFFFFFFFFFFFFFFFFFFFFFFFFFFFFFFFFFFFFFFFFFFFFFFFFFFFFFFFFFFFFFFFFFFFFFFFFFFFFFFFFFFFFFFFFFFFFFFFFFFFFFFFFFFFFFFFFFFFFFFFFFFFFFFFFFFFF0000
FFFFFFFFFFFFFFFFFFFFFFFFFFFFFFFFFFFFFFFFFFFFFFFFFFFFFFFFFFFFFFFFFFFFFFFFFFFFFFFFFFFFFFFFFFFFFFFFFFFFFFFFFFFFFFFFFFFFFFFFFFFFFFFFFFFFFFFF0000FFFFFFFFFFFFFFFFFFFFFFFFFFFFFFFFFFFFFFFFFFFFFFFFFFFFFFFFFFFFFFFFFFFFFFFFFFFFFFFFFFFFFFFFFFFFFFFFFFFFFFFFFFFFFFFFFFFFFFFFFFFFFFFFFFFFFFFF0000FFFFFFFFFFFF0000FFFFFFFFFFFFFFFFFFFFFFFFFFFFFFFFFFFFFFFFFFFFFFFFFFFFFFFFFFFFFFFFFFFFFFFFFFFFFFFFFFFFFFFFFFFFFFFFFFFFFFFFFFFFFFFFFFFFFFFF002DFFFFFFFFFFFFFFFFFFFFFFFFFFFFFFFFFFFFFFFFFFFF00000000FFFFFFFFFFFFFFFFFFFF0000FFFFFFFFFFFF0000
00000000000000000000000000000000000000000000000000000000000000000000000000000000000000000000000000000000000000000000000000000000000000000000000000000000000000000000000000000000000000000000000000000000000000000000000000000000000000000000000000000000000000000000000000000000000000000000000000000000000000000000000000000000000000000000000000000000000000000000000000000000000000000000000000000000000000000000000000000000000000000000000000000000000000000000000000000000000000000000000000000000000000000000000000000000
FFFFFFFFFFFFFFFF00000000FFFFFFFF00000000FFFFFFFFFFFFFFFFFFFFFFFF0044000000000000FFFF000000000000FFFF0000FFFFFFFFFFFFFFC80000FFFFFFFFFFFFFFFF00000000FFFF0000FFFFFFFF0000FFFFFFFFFFFFFFFFFFFF0000FFFF0000FFFFFFFF00000000FFFF0000FFFF0000FFFF0000FFFFFFFF0000FFFFFFFF0000FFFF00000000FFFFFFFFFFFFFFFF00000000FFFF0000000000000000FFFF0000FFFFFFFFFFFFFFFFFFFF0000FFFF0000FFFF0000FFFFFFFF0000FFFF00000000FFFFFFFF0000FFFFFFFFFFFFFFFFFFFF0000FFFF0000FFFF00000000FFFF000000000000FFFFFFFF00000000FFFFFFFF000000000000FFFFFFFF0000
FFFFFFFF00000000FFFFFFFFFFFFFFFFFFFF0011FFFFFFFFFFFFFFFFFFFFFFFFFFFFFFFFFFFFFFFFFFFFFFFFFFFFFFFFFFFFFFFFFFFFFFFF0000FFFFFFFFFFFF0000FFFF0000FFFF0000FFFFFFFFFFFFFFFFFFFFFFFFFFFFFFFFFFFFFFFFFFFFFFFF00000000FFFFFFFFFFFFFFFFFFFFFFFFFFFFFFFF0000FFFFFFFFFFFFFFFFFFFFFFFFFFFF0000FFFF0000FFFFFFFFFFFF00000000FFFF0000FFFFFFFF0000FFFFFFFFFFFFFFFFFFFFFFFFFFFFFFFFFFFFFFFFFFFF0000FFFFFFFFFFFFFFFF0000FFFFFFFFFFFFFFFF0000FFFFFFFFFFFFFFFFFFFFFFFF0000FFFFFFFFFFFF0000FFFFFFFFFFFFFFFFFFFFFFFFFFFFFFFFFFFFFFFFFFFFFFFFFFFFFFFF0000
000000000000000000000000FFFF0000FFFF0000000000000000000000000000000000000000000000000000000000000000000000000000000000000000FFFF000000000000000000000000000000000000000000000000000000000000FFFF00000000FFFF000000000000000000000000FFFF00000000000000300000000000000000000000000000000000000000000000000000000000000000FFFF00000000000000000000FFFF0000000000000000000000000000000000000000000000000000000000000000000000000000000000000000000000000000000000000000000000000000FFFF00000000000000000000000000000000000000000000
FFFF0000FFFFFFFFFFFF0000FFFFFFFFFFFFFFFFFFFF0000FFFFFFFFFFFF0000FFFF0000FFFFFFFFFFFF0000FFFFFFFF00000000FFFFFFFF0000FFFFFFFFFFFF000000000000FFFFFFFFFFFFFFFF00000000000000410000FFFFFFFFFFFFFFFFFFFF00000000FFFFFFFFFFFFFFFFFFFF0000FFFF0000FFFFFFFF0000FFFFFFFFFFFFFFFFFFFFFFFFFFFFFFFFFFFFFFFFFFFFFFFF000000000000000000000000FFFFFFFFFFFFFFFFFFFFFFFFFFFF00000000FFFF00000000FFFF0000FFFFFFFFFFFFFFFFFFFFFFFFFFFF000000000000FFFF0000FFFFFFFFFFFFFFFFFFFF00000000FFFFFFFF0000FFFFFFFFFFFFFFFFFFFFFFFFFFFF00000000FFFFFFFF0000
FFFFFFFFFFFFFFFFFFFF0000FFFF0000FFFFFFFFFFFFFFFFFFFFFFFFFFFFFFFFFFFFFFFFFFFFFFFF0000FFFFFFFFFFFFFFFFFFFFFFFFFFFF0000FFFFFFFFFFFFFFFFFFFFFFFFFFFFFFFFFFFFFFFFFFFFFFFFFFFFFFFFFFFFFFFFFFFFFFFFFFFF0041FFFFFFFFFFFF0000FFFFFFFFFFFFFFFFFFFFFFFFFFFFFFFFFFFFFFFFFFFFFFFFFFFFFFFFFFFFFFFF0000FFFFFFFFFFFFFFFFFFFFFFFFFFFFFFFFFFFF0000FFFFFFFFFFFFFFFFFFFF0000FFFF0000FFFFFFFF0000FFFFFFFF0000FFFFFFFFFFFFFFFFFFFFFFFFFFFFFFFFFFFFFFFFFFFFFFFFFFFFFFFFFFFFFFFFFFFFFFFFFFFF0000FFFFFFFFFFFFFFFFFFFFFFFFFFFFFFFFFFFFFFFFFFFFFFFFFFFF0000
FFFFFFFFFFFFFFFFFFFF0000FFFF0000FFFFFFFFFFFFFFFFFFFFFFFFFFFFFFFFFFFFFFFFFFFFFFFF0000FFFFFFFFFFFFFFFFFFFFFFFFFFFF0000FFFFFFFFFFFFFFFFFFFFFFFFFFFFFFFFFFFFFFFFFFFFFFFFFFFFFFFFFFFFFFFFFFFFFFFFFFFF003DFFFFFFFFFFFF0000FFFFFFFFFFFFFFFFFFFFFFFFFFFFFFFFFFFFFFFFFFFFFFFFFFFFFFFFFFFFFFFF0000FFFFFFFFFFFFFFFFFFFFFFFFFFFFFFFFFFFF0000FFFFFFFFFFFFFFFFFFFF0000FFFF0000FFFFFFFF0000FFFFFFFF0000FFFFFFFFFFFFFFFFFFFFFFFFFFFFFFFFFFFFFFFFFFFFFFFFFFFFFFFFFFFFFFFFFFFFFFFFFFFF0000FFFFFFFFFFFFFFFFFFFFFFFFFFFFFFFFFFFFFFFFFFFFFFFFFFFF0000
FFFFFFFFFFFFFFFF00000000FFFFFFFFFFFF0000FFFFFFFFFFFF00000000FFFF000000000000FFFFFFFF0000FFFF00000000FFFF0000FFFF00000000FFFF0000FFFFFFFFFFFF00000000FFFFFFFFFFFFFFFF000000000000FFFFFFFFFFFFFFFFFFFFFFFFFFFF0000000000000000FFFF0000FFFFFFFF000000000000FFFFFFFFFFFFFFFF0000FFFFFFFF0000FFFF0000FFFFFFFFFFFFFFFFFFFF00000000000000000000FFFFFFFF0000FFFFFFFF0000000000520000FFFF0000FFFF0000FFFF00000000FFFFFFFFFFFF0000000000000000FFFFFFFFFFFF00000000FFFF0000FFFF0000FFFFFFFFFFFF00000000FFFFFFFFFFFFFFFFFFFFFFFF0000FFFF0000
0000FFFF00000000FFFF0000FFFF00000000FFFFFFFF00000000FFFFFFFFFFFFFFFFFFFF0000FFFF00000000FFFFFFFFFFFFFFFFFFFFFFFF0000FFFFFFFFFFFFFFFFFFFFFFFFFFFF0000FFFFFFFFFFFFFFFFFFFF0000FFFFFFFFFFFFFFFF0000FFFFFFFF000000000000FFFFFFFFFFFF0000FFFFFFFFFFFF00000000FFFFFFFF0000FFFFFFFFFFFF0000FFFFFFFFFFFFFFFFFFFF0000FFFFFFFF000000000000FFFFFFFFFFFF003400000000000000000000FFFF00000000FFFFFFFF0000FFFF00000000FFFF0000FFFF0000000000000000FFFFFFFF0000000000000000FFFF00000000FFFF000000000000FFFF0000FFFFFFFFFFFFFFFFFFFFFFFFFFFF0000
000000000000FFFFFFFF0000FFFF0000FFFFFFFF000000000000000000000000FFA1FFFFFFFF00000000FFFF0000FFFF0000FFFF00000000000000000000000000000000FFFFFFFF00000000FFFF0000FFFFFFFF00000000000000000000FFFF0000FFFFFFFF0000FFFF0000000000000000FFFF0000FFFF0000FFFF00000000000000000000FFFFFFFF0000FFFF000000570000FFFF0000FFFFFFFF0000FFFF00000000000000000000000000000000000000000000FFFF0000FFFF00000000FFFF000000000000FFFFFFFFFFFFFFFF00000000FFFF0000FFFF0000FFFFFFFF0000FFFFFFFFFFFF0000FFFFFFFFFFFFFFFF0000FFFFFFFFFFFF000000000000
00000000000000000000000000000000000000000000000000000000FFFF000000000000000000000000000000000000000000000000000000000000000000000000000000000000000000000000000000000000FFFF000000000000000000000000FFFF00000000000000000000000000000000000000000000FFFF000000000000000000000000000000000000002100000000000000000000000000000000000000000000000000000000000000000000FFFF00000000000000000000000000000000000000000000000000000000000000000000000000000000000000000000000000000000000000000000000000000000000000000000000000000000
FFFFFFFFFFFF00000000FFFFFFFFFFFFFFFFFFFFFFFFFFFFFFFFFFFFFFFFFFFFFFFFFFFFFFFFFFFFFFFFFFFFFFFFFFFFFFFFFFFFFFFFFFFFFFFFFFFFFFFFFFFFFFFFFFFFFFFFFFFFFFFFFFFFFFFFFFFFFFFFFFFFFFFFFFFFFFFFFFFFFFFFFFFFFFFFFFFFFFFFFFFFFFFFFFFFFFFFFFFFFFFFFFFFFFFFFFFFFFFFFFFFFFFFFFFFFFFFFFFFFFFFFFFFFFFFFFFFFFFFFFFFFFFFFFFFFFFFFFFFFFFFFFFF00000000FFFFFFFFFFFFFFFFFFFFFFFFFFFFFFFFFFFFFFFFFFFFFFFFFFFFFFFFFFFFFFFFFFFFFFFFFFFFFFFF001AFFFFFFFFFFFFFFFF0000FFFFFFFFFFFFFFFFFFFFFFFF0000FFFFFFFFFFFFFFFFFFFFFFFFFFFFFFFFFFFFFFFFFFFFFFFFFFFFFFFF0000
00000000000000000000000000000000000000000000000000000000000000000000000000000000000000000000000000000000000000000000000000000000000000000000000000000000000000000000000000000000000000000000000000000000000000000000000000000000000000000000000000000000000000000000000000000000000000000000000000000000000000000000000000000000000000000000000000000000000000000000000000000000000000000000000000000000000000000000000000000000000000000001000000000000000000000000000000000000000000000000000000000000000000000000000000000000
FFFFFFFFFFFFFFFFFFFF0000FFFFFFFFFFFFFFFFFFFFFFFFFFFFFFFFFFFFFFFFFFFFFFFFFFFFFFFF0000FFFFFFFFFFFFFFFFFFFFFFFFFFFFFFFFFFFFFFFFFFFFFFFFFFFFFFFFFFFFFFFFFFFFFFFF0000FFFFFFFFFFFF0000FFFFFFFF0000FFFFFFFFFFFFFFFFFFFFFFFFFFFFFFFFFFFFFFFFFFFFFFFFFFFFFFFFFFFFFFFFFFFFFFFFFFFFFFFFFFFFFFFF0000FFFFFFFF00000000FFFF0000FFFFFFFFFFFFFFFF0049FFFFFFFFFFFF0000FFFFFFFF00000000FFFFFFFFFFFFFFFFFFFFFFFFFFFFFFFFFFFF0000FFFFFFFFFFFFFFFFFFFFFFFF0000FFFFFFFFFFFFFFFFFFFFFFFFFFFFFFFFFFFFFFFFFFFFFFFFFFFFFFFFFFFFFFFFFFFFFFFFFFFFFFFF00000000
00000000000000000000000000000000000000000000000000000000000000000000000000000000000000000000000000000000000000000000000000000000000000000000000000000000000000000000000000000000000000000000000000000000000000000000000000000000000000000000000000000000000000000000000000000000000000000000000000000000000000000000000000000000000000000000000000000000000000000000000000000000000000000000000000000000000000000000000000000000000000000000000000000000000000000000000000000000000000000000000000000000000000000000000000000000
FFFFFFFFFFFFFFFFFFFF0000FFFFFFFFFFFFFFFFFFFFFFFFFFFFFFFFFFFFFFFF00690000FFFFFFFFFFFFFFFFFFFFFFFFFFFFFFFFFFFFFFFFFFFFFFEBFFFFFFFFFFFFFFFFFFFFFFFFFFFFFFFFFFFFFFFFFFFFFFFFFFFFFFFFFFFFFFFFFFFF0000FFFFFFFFFFFFFFFF0000FFFFFFFFFFFFFFFFFFFFFFFF0000FFFFFFFFFFFFFFFFFFFFFFFFFFFFFFFFFFFFFFFFFFFFFFFFFFFF0000FFFFFFFFFFFFFFFFFFFF0000FFFF0000FFFFFFFFFFFFFFFFFFFFFFFFFFFFFFFFFFFFFFFFFFFFFFFFFFFFFFFF0000FFFFFFFFFFFFFFFFFFFFFFFFFFFFFFFFFFFFFFFFFFFFFFFFFFFF0000FFFFFFFFFFFFFFFFFFFFFFFFFFFFFFFFFFFFFFFFFFFFFFFFFFFFFFFFFFFFFFFF0000
0000FFFF000000000000FFFFFFFF000000000000000000000000000000000000000000000000000000000000000000000000000000000000000000000000000000000000000000000000FFFF00000000000000000000000000000000000000000000000000000000000000000000000000000000000000000000FFFF0000000000000000FFFF000000000000000000000000FFFF0000000000000000FFFF0000FFFFFFFF0000000000000000000000000000000000000000000000000000FFFF00000000000000000000FFFF0000000000000000FFFF0000000000000000004E000000000000000000000000000000000000000000000000FFFF000000000000
FFFFFFFF0000FFFF0000000000000000FFFF0000FFFF000000000000FFFF000000000000000000000000000000000000000000000000FFFF000000000000001700000000000000000000000000000000FFFF00000000FFFF0000FFFFFFFF00000000FFFFFFFFFFFF00000000000000000000FFFF0000000000000000000000000000FFFF00000000FFFFFFFF00000000000000000000FFFFFFFF000000000000000000000000000000000000000000000000FFFF0000000000000000000000000000000000000000000000000000000000000000FFFF0000000000000000FFFF000000000000000000000000000000000000FFFF000000000000000000000000
FFFFFFFFFFFF0000FFFF0000FFFFFFFFFFFF0000FFFFFFFF0000FFFFFFFFFFFF00520000FFFFFFFFFFFF000000000000FFFF0000FFFFFFFFFFFFFFFFFFFFFFFFFFFFFFFFFFFF0000FFFFFFFF0000FFFF0000FFFFFFFFFFFFFFFFFFFFFFFF0000FFFF0000FFFFFFFF0000FFFFFFFFFFFF00000000FFFF00000000FFFFFFFFFFFFFFFFFFFFFFFF0000FFFFFFFFFFFFFFFFFFFF0000FFFF0000FFFF000000000000FFFF0000FFFFFFFFFFFFFFFFFFFFFFFFFFFF00000000FFFFFFB9FFFFFFFFFFFF0000FFFFFFFFFFFF0000FFFF0000FFFFFFFFFFFF0000FFFF0000FFFF00000000FFFF0000FFFF0000FFFFFFFF00000000FFFFFFFF000000000000FFFF00000000
000000000000000000000000000000000000000000000000000000000000000000000000000000000000000000000000000000000000000000000000000000000000000000000000000000000000000000000000000000000000000000000000000000000000000000000000002D000000000000000000000000000000000000000000000000000000000000000000000000000000000000000000000000000000000000000000000000000000000000000000000000000000000000FFFF000000000000FFFF00000000000000000000FFFF00000000000000000000000000000000FFFF00000000000000000000000000000000000000000000000000000000
FFFFFFFFFFFFFFFFFFFF0000FFFFFFFFFFFFFFFFFFFFFFFFFFFFFFFFFFFFFFFF0060FFFFFFFFFFFFFFFFFFFFFFFFFFFFFFFFFFFFFFFFFFFFFFFFFFFFFFFFFFFFFFFFFFFFFFFFFFFFFFFFFFFFFFFFFFFFFFFFFFFFFFFFFFFFFFFFFFFFFFFF0000FFFFFFFFFFFFFFFF0000FFFFFFFFFFFFFFFFFFFFFFFF0000FFFFFFFFFFFFFFFFFFFFFFFFFFFFFFFFFFFFFFFFFFFFFFFFFFFFFFFFFFFFFFFFFFFFFFFFFFFF0000FFFF0000FFFFFFFFFFFFFFFFFFFFFFFFFFFFFFFFFFFFFFFFFFFFFFFFFFFFFFFF0000FFFFFFFFFFFFFFFFFFFFFFFFFFFFFFFFFFFFFFFFFFFFFFFFFFFFFFFFFFFFFFFFFFFFFFFFFFFFFFFFFFFFFFFFFFFFFFFFFFFFFFFFFFFFFFFFFFFFFFFF0000
00000000000000000000000000000000000000000000000000000000FFFFFFFF0000000000000000FFFF0000FFFF0000FFFFFFFF00000000FFFF0000000000000000FFFF000000000000000000000038000000000000000000000000000000000000FFFF00000000000000000000000000000000000000000000FFFFFFFF0000000000000000000000000000000000000000FFFF0000FFFF0000FFFF000000000000FFFF0000000000000000000000000000FFFF000000000000FFFFFFFFFFFF000000000000FFFF000000000000FFFFFFFF0000FFFF00000000000000000000000000000000FFFF00000000FFFF000000000000FFFF00000000FFFF00000000
FFFFFFFFFFFFFFFFFFFF0000FFFFFFFFFFFFFFFFFFFFFFFFFFFFFFFFFFFFFFFF00540000FFFFFFFFFFFFFFFFFFFFFFFFFFFFFFFFFFFFFFFFFFFFFFFFFFFFFFFFFFFFFFFFFFFFFFFFFFFFFFFFFFFFFFFFFFFFFFFFFFFFFFFFFFFFFFFFFFFF0000FFFFFFFFFFFFFFFF0000FFFFFFFFFFFFFFFFFFFFFFFF0000FFFFFFFFFFFFFFFFFFFFFFFFFFFFFFFFFFFFFFFFFFFFFFFFFFFF0000FFFFFFFFFFFFFFFFFFFF0000FFFF0000FFFFFFFFFFFFFFFFFFFFFFFFFFFFFFFFFFFFFFFFFFFFFFFFFFFFFFFF0000FFFFFFFFFFFFFFFFFFFFFFFFFFFFFFFFFFFFFFFFFFFFFFFFFFFF0000FFFFFFFFFFFFFFFFFFFFFFFFFFFFFFFFFFFFFFFFFFFFFFFFFFFFFFFFFFFFFFFF0000
00000000000000000000000000000000000000000000000000000000000000000000000000000000000000000000000000000000000000000000000000000000000000000000000000000000000000000000000000000000000000000000000000000000000000000000000000000000000000000000000000000000000000000000000000000000000000000000000000000000000000000000000000000000000000000000000000000000000000000000000000000000000000000000000000000000000000000000000000000000000000000000000000000000000000000000000000000000000000000000000000000000000000000000000000000000
0000FFFF000000000000FFFF000000000000000000000000FFFFFFFF0000FFFF000000000000FFFFFFFF0000FFFF00000000000000000000FFFF000000000000FFFFFFFF0000FFFFFFFFFFFFFFFFFFFF00000000FFFF00000000000000000000FFFF0000FFFF0000FFFF000000000000FFFFFFFF00000000FFFF000000000000FFFFFFFF0000000000000000000000000000FFFF0000FFFF0000FFFF0000FFFF0000000000000000000000000000FFFFFFFFFFFF00000000FFFFFFFF00000000FFFF00000000004E00000000000000000000FFFF00000000FFFFFFFFFFFF000000000000FFFFFFFF000000000000FFFF00000000FFFF00000000FFFF00000000
0000000000000000000000000000FFFF0000FFFFFFFF00000000FFFF000000000000FFFF00000000000000000000FFFFFFFF00000000FFFF0000FFFF0000FFFF000000000000FFFF00000000FFFF0000FFFFFFFFFFFF0000004B00000000FFFF000000000000FFFFFFFF00000000000000000000FFFF00000000FFFF00000000FFFF000000000000FFFF000000000000FFFF00000000000000000000FFFFFFFFFFFF00000000FFFF0000FFFF000000000000FFFF00000000FFFF00000000FFFF00000000FFFF0000FFFF000000000000000000000000FFFF0000FFFF0000FFFF0000000000000000FFFFFFFF00000000FFFFFFFF0000000000000000FFFF0000
00000000000000000000000000000000000000000000000000000000000000000000000000000000000000000000000000000000000000000000000000000000000000000000000000000000000000000000000000000000000000000000000000000000000000000000000000000000000000000000000000000000000000000000000000000000000000000000000000000000000000000000000000000000000000000000000000000000000000000000000000000000000000000000000000000000000000000000000000000000000000000000000000000000000000000000000000000000000000000000000000000000000000000000000000000000
00000000000000000000000000000000000000000000000000000000000000000000000000000000FFFF000000000000FFFF000000000000FFFF00000000000000000000000000000000000000000000000000000000000000000000000000000000000000000000FFFF0000000000000000000000000000000000000000000000000000000000000000000000000000000000000000000000000000000000000000FFFF000000000000000000000000000000000000000000000000000000000000000000000000000000000000FFFF0000003A0000000000000000000000000000000000000000000000000000000000000000000000000000000000000000
FFFFFFFFFFFFFFFFFFFF0000FFFFFFFFFFFFFFFFFFFFFFFFFFFFFFFFFFFFFFFFFFFFFFFFFFFFFFFFFFFFFFFFFFFFFFFFFFFFFFFFFFFFFFFFFFFFFFFFFFFFFFFFFFFFFFFFFFFFFFFFFFFFFFFFFFFF0000FFFFFFFFFFFFFFFFFFFFFFFFFFFFFFFFFFFFFFFFFFFFFFFFFFFFFFFFFFFFFFFFFFFFFFFFFFFFFFFFFFFFFFFFFFFFFFFFFFFFFFFFFFFFFFFFFFFFFFFFFFFFFFFF007CFFFFFFFFFFFFFFFFFFFF0000FFFFFFFFFFFFFFFFFFFFFFFFFFFFFFFF0000FFFFFFFFFFFFFFFFFFFFFFFFFFFFFFFFFFFFFFFFFFFFFFFFFFFFFFFFFFFFFFFFFFFFFFFFFFFFFFFFFFFFFFFFFFFFFFFFFFFFFFFFFFFFFFFFFFFFFFFFFFFFFFFFFFFFFFFFFFFFFFFFFFFFFFFFFFFF0000
FFFFFFFF00000000FFFFFFFFFFFFFFFFFFFF000BFFFFFFFFFFFFFFFFFFFFFFFFFFFFFFFFFFFFFFFFFFFFFFFFFFFFFFFFFFFFFFFFFFFFFFFF0000FFFFFFFFFFFF0000FFFF0000FFFF0000FFFFFFFFFFFFFFFFFFFFFFFFFFFFFFFFFFFFFFFFFFFFFFFF00000000FFFFFFFFFFFFFFFFFFFFFFFFFFFFFFFF0000FFFFFFFFFFFFFFFFFFFFFFFFFFFF0000FFFF0000FFFFFFFFFFFF00000000FFFF0000FFFFFFFF0000FFFFFFFFFFFFFFFFFFFFFFFFFFFFFFFFFFFFFFFFFFFF0000FFFFFFFFFFFFFFFF0000FFFFFFFFFFFFFFFF0000FFFFFFFFFFFFFFFFFFFFFFFF0000FFFFFFFFFFFF0000FFFFFFFFFFFFFFFFFFFFFFFFFFFFFFFFFFFFFFFFFFFFFFFFFFFFFFFF0000
FFFFFFFFFFFF0000FFFF0000FFFFFFFF0000FFFFFFFF000000000000FFFFFFFFFFFFFFFF0000FFFFFFFFFFFF0000000000000000FFFFFFFFFFFFFFFF0000FFFF0000FFFF0000FFFFFFFFFFFFFFFF00000000FFFFFFFFFFFFFFFF0000FFFF00000000FFFF0000FFFF0000FFFFFFFF00400000FFFFFFFFFFFF000000000000FFFF00000000FFFFFFFFFFFFFFFFFFFFFFFF00000000FFFF0000FFFFFFFFFFFFFFFFFFFFFFFFFFFFFFFFFFFFFFFFFFFFFFFF000000000000FFFF0000FFFFFFFFFFFF0000FFFFFFFFFFFFFFFFFFFFFFFF00000000FFFFFFFF000000000000FFFFFFFFFFFFFFFFFFFFFFFF0000FFFFFFFF0000FFFFFFFFFFFFFFFFFFFFFFFFFFFF0000
FFFF00000000FFFFFFFF0000000000000000FFFFFFFFFFFFFFFFFFFFFFFFFFFFFFFFFFFF0000FFFFFFFFFFFFFFFFFFFFFFFFFFFF008CFFFF0000FFFFFFFFFFFF0000FFFFFFFFFFFFFFFFFFFF0000FFFF0000FFFFFFFFFFFFFFFFFFFFFFFF0000FFFFFFFFFFFFFFFF0000FFFFFFFFFFFFFFFFFFFFFFFFFFFFFFFF0000FFFFFFFFFFFF00000000FFFF00000000FFFFFFFFFFFFFFFFFFFF0000FFFFFFFF0000FFFFFFFFFFFF0000FFFF0000FFFFFFFF00000000FFFF00000000FFFFFFFFFFFFFFFF0000FFFF00000000FFFFFFFFFFFFFFFFFFFFFFFFFFFF0000FFFFFFFF0000FFFFFFFFFFFFFFFFFFFFFFFF0000FFFF00000000FFFFFFFFFFFFFFFF0000FFFF0000
FFFFFFFF0000FFFFFFFFFFFF000000000000000000000000FFFF00000000FFFFFFFF00000000FFFFFFFF00000000FFFFFFFF00000000FFFFFFFFFFFF0000FFFFFFFFFFFFFFFF0000000000000000FFFFFFFFFFFF0000FFFFFFFFFFFFFFFF0000FFFFFFFFFFFFFFFF000000000000FFFFFFFFFFFFFFFFFFFFFFFF00000000FFFFFFFFFFFFFFFF0000FFFFFFFFFFFF0000FFFF0000FFFFFFFFFFFFFFFF00000000FFFF00000000FFFF000000000000FFFF000000000000FFFFFFFFFFFF00000000FFFF00000000FFFFFFFF00000000000000000000FFFF00390000FFFFFFFF000000000000FFFFFFFF00000000FFFFFFFFFFFFFFFF00000000FFFF000000000000
FFFFFFFFFFFFFFFFFFFF0000FFFFFFFFFFFFFFFFFFFFFFFFFFFFFFFFFFFFFFFF0085FFFFFFFFFFFFFFFFFFFFFFFFFFFFFFFFFFFFFFFFFFFFFFFFFFFFFFFFFFFFFFFFFFFFFFFFFFFFFFFFFFFFFFFFFFFFFFFFFFFFFFFFFFFFFFFFFFFFFFFFFFFFFFFFFFFFFFFFFFFF0000FFFFFFFFFFFFFFFFFFFFFFFF0000FFFFFFFFFFFFFFFFFFFFFFFFFFFFFFFFFFFFFFFFFFFFFFFFFFFFFFFFFFFFFFFFFFFFFFFFFFFF0000FFFFFFFFFFFFFFFFFFFFFFFFFFFFFFFFFFFFFFFFFFFFFFFFFFFFFFFFFFFFFFFF0000FFFFFFFFFFFFFFFFFFFFFFFFFFFFFFFFFFFFFFFFFFFFFFFFFFFFFFFFFFFFFFFFFFFFFFFFFFFFFFFFFFFFFFFFFFFFFFFFFFFFFFFFFFFFFFFFFFFFFFFF0000
0000FFFFFFFF0000000000000000FFFF0000FFFF0000FFFF00000000000000000000FFFF0000000000440000FFFFFFFFFFFFFFFFFFFFFFFFFFFFFFFF0000FFFFFFFFFFFF00000000FFFFFFFFFFFF0000FFFFFFFFFFFF0000FFFFFFFFFFFF00000000000000000000FFFF0000FFFFFFFF0000FFFF0000FFFFFFFF00000000000000000000FFFF00000000FFFFFFFF0000FFFFFFFFFFFFFFFF00000000FFFFFFFFFFFFFFFFFFFF0000000000000000FFFFFFFFFFFF00000000FFFF00000000FFFF0000FFFFFFFFFFFF0000000000000000FFFFFFFFFFFFFFFFFFFF0000FFFFFFFF0000FFFF00000000FFFF00000000000000000000FFFFFFFF0000000000000000
FFFFFFFF0000FFFFFFFF0000FFFFFFFFFFFFFFFFFFFF0000FFFFFFFFFFFFFFFFFFFFFFFFFFFFFFFFFFFFFFFFFFFFFFFFFFFFFFFFFFFFFFFFFFFFFFFFFFFFFFFFFFFFFFFFFFFFFFFFFFFFFFFFFFFFFFFFFFFFFFFFFFFFFFFFFFFFFFFFFFFF0000FFFFFFFF0000FFFF0000FFFFFFFFFFFFFFFFFFFFFFFFFFFF00000000FFFFFFFFFFFFFFFFFFFFFFFFFFFFFFFFFFFFFFFFFFFFFFFFFFFFFFFFFFFFFFFFFFFFFFFFFFFFFFFFFFFF0062FFFF0000FFFFFFFFFFFFFFFFFFFFFFFFFFFFFFFF0000FFFF0000FFFFFFFFFFFFFFFFFFFFFFFFFFFFFFFFFFFFFFFFFFFFFFFF0000FFFFFFFFFFFF0000FFFF0000FFFFFFFFFFFFFFFFFFFFFFFFFFFFFFFFFFFFFFFFFFFF0000
00000000000000000000000000000000000000000000000000000000000000000000000000000000000000000000000000000000000000000000000000000000000000000000000000000000000000000000000000000000000000000000000000000000000000000000000000000000000000000000000000000000000000000000000000000000000000000000000000000000000000000000000000000000000000000000000000000000000000000000000000000000000000000001000000000000000000000000000000000000000000000000000000000000000000000000000000000000000000000000000000000000000000000000000000000000
0000FFFFFFFFFFFF00000000FFFFFFFFFFFFFFFFFFFFFFFFFFFFFFFFFFFF0000FFFFFFFFFFFFFFFFFFFFFFFF0000FFFFFFFF0000FFFFFFFFFFFFFFFFFFFFFFFF0000FFFF0000FFFF0000FFFFFFFFFFFFFFFFFFFFFFFF000000BCFFFFFFFFFFFFFFFFFFFFFFFFFFFFFFFF00000000FFFFFFFFFFFFFFFF0000FFFFFFFFFFFFFFFFFFFFFFFFFFFFFFFFFFFFFFFFFFFFFFFFFFFFFFFFFFFFFFFFFFFFFFFFFFFFFFFFFFFFFFFFFFFFFFFFFFFFFFFFFFFFFFFFFFFFFFFF00000000FFFFFFFF0000FFFF0000FFFFFFFFFFFFFFFFFFFF0000FFFFFFFFFFFFFFFFFFFF0000FFFFFFFFFFFFFFFFFFFFFFFF0000FFFFFFFFFFFFFFFFFFFFFFFF0000FFFFFFFF0000FFFF0000
00000000000000000000000000000000000000000000000000000000000000000000000000000000000000000000000000000000000000000000000000000000000000000000000000000000000000000000000000000000000000000000000000000000000000000000000000000000000000000000000000000000000000000000000000000000000000000000000000000000000000000000000000000000000000000000000000000000000000000000000000000000000000000000000000000000000000000000000000000000000000000000000000000000000000000000000000000000000000000000000000000000000000000000000000000000
0000FFFFFFFFFFFF00000000FFFFFFFFFFFFFFFFFFFFFFFFFFFFFFFFFFFFFFFFFFFFFFFFFFFFFFFFFFFFFFFFFFFFFFFFFFFFFFFFFFFFFFFFFFFFFFFFFFFFFFFFFFFFFFFFFFFFFFFFFFFFFFFFFFFFFFFFFFFFFFFFFFFFFFFFFFFFFFFFFFFFFFFFFFFFFFFFFFFFFFFFFFFFFFFFFFFFFFFFFFFFFFFFFFFFFFFFFFFFFFFFFFFFFFFFFFFFFFFFFFFFFFFFFFFFFFFFFFFF0007FFFFFFFFFFFFFFFFFFFFFFFFFFFFFFFFFFFFFFFFFFFFFFFFFFFFFFFFFFFFFFFFFFFFFFFFFFFFFFFFFFFFFFFFFFFFFFFFFFFFFFFFFFFFFFFFFFFFFFFFFFFFFFFFFFFF0000FFFFFFFFFFFFFFFF0000FFFFFFFFFFFFFFFFFFFFFFFFFFFFFFFFFFFFFFFFFFFFFFFFFFFFFFFFFFFFFFFF0000
0000FFFFFFFFFFFF00000000FFFFFFFFFFFFFFFFFFFFFFFFFFFFFFFFFFFFFFFFFFFFFFFFFFFFFFFFFFFFFFFFFFFFFFFFFFFFFFFFFFFFFFFFFFFFFFFFFFFFFFFFFFFFFFFFFFFFFFFFFFFFFFFFFFFFFFFFFFFFFFFFFFFFFFFFFFFFFFFFFFFFFFFFFFFFFFFFFFFFFFFFFFFFFFFFFFFFFFFFFFFFFFFFFFFFFFFFFFFFFFFFFFFFFFFFFFFFFFFFFFFFFFFFFFFFFFFFFFFF0006FFFFFFFFFFFFFFFFFFFFFFFFFFFFFFFFFFFFFFFFFFFFFFFFFFFFFFFFFFFFFFFFFFFFFFFFFFFFFFFFFFFFFFFFFFFFFFFFFFFFFFFFFFFFFFFFFFFFFFFFFFFFFFFFFFFF0000FFFFFFFFFFFFFFFF0000FFFFFFFFFFFFFFFFFFFFFFFFFFFFFFFFFFFFFFFFFFFFFFFFFFFFFFFFFFFFFFFF0000
FFFFFFFFFFFFFFFFFFFF0000FFFFFFFFFFFFFFFFFFFF0000FFFFFFFFFFFFFFFFFFFFFFFF0000FFFFFFFFFFFFFFFFFFFFFFFFFFFFFFFFFFFF000000000000FFFF0000FFFFFFFFFFFFFFFFFFFFFFFFFFFF0000FFFF00000000FFFFFFFFFFFFFFFFFFFFFFFFFFFFFFFF0021FFFFFFFFFFFF00000000FFFFFFFFFFFFFFFF0000FFFFFFFFFFFFFFFF0000FFFFFFFFFFFFFFFFFFFFFFFF0000FFFFFFFF0000FFFFFFFFFFFFFFFFFFFFFFFF0000FFFFFFFFFFFFFFFF0000FFFFFFFFFFFFFFFFFFFFFFFF0000FFFFFFFFFFFFFFFFFFFFFFFFFFFF0000FFFF0000FFFF0000FFFFFFFFFFFFFFFFFFFFFFFF0000FFFFFFFFFFFFFFFFFFFFFFFFFFFFFFFF00000000FFFF0000
FFFF0000FFFFFFFF000000000000FFFFFFFFFFFFFFFF0000FFFFFFFF0000FFFFFFFF00000000FFFFFFFFFFFFFFFF0000FFFFFFFFFFFFFFFF000000000000000000000000FFFF00000000FFFFFFFF00000000FFFF00000000FFFFFFFFFFFF000000000000FFFFFFFF008BFFFFFFFFFFFF000000000000FFFF0000FFFF0000FFFFFFFFFFFF000000000000FFFFFFFFFFFFFFFFFFFF0000FFFFFFFF0000FFFFFFFF0000FFFF0000000000000000FFFFFFFFFFFF0000FFFF000000000000FFFFFFFF0000FFFFFFFF0000FFFFFFFFFFFFFFFF000000000000FFFF0000FFFFFFFFFFFFFFFF0000FFFF00000000FFFFFFFFFFFFFFFFFFFF0000FFFF0000000000000000
FFFFFFFFFFFFFFFFFFFF0000FFFFFFFFFFFFFFFFFFFFFFFFFFFFFFFFFFFFFFFFFFFFFFFFFFFFFFFFFFFFFFFFFFFFFFFFFFFFFFFFFFFFFFFFFFFFFFFFFFFF0050FFFFFFFFFFFFFFFFFFFFFFFFFFFFFFFFFFFFFFFFFFFFFFFFFFFFFFFFFFFFFFFFFFFFFFFFFFFFFFFFFFFFFFFFFFFFFFFFFFFFFFFFFFFFFFFFFFFFFFFFFFFFFFFFFFFFFFFFFFFFFFFFFFFFFFFFFFFFFFFFFFFF0000FFFFFFFFFFFFFFFFFFFFFFFFFFFFFFFFFFFFFFFFFFFFFFFFFFFFFFFFFFFFFFFFFFFFFFFFFFFFFFFFFFFFFFFFFFFFFFFFFFFFFFFFFFFFFFFFFFFFFFFFFFFFFFFFFFFFFFFFFFFFFFFFFFFFFFFFFFFFFFFFFFFFFFFFFFFFFFFFFFFFFFFFFFFFFFFFFFFFFFFFFFFFFFFFFFFF0000
FFFFFFFF0000FFFFFFFFFFFFFFFF00000000FFFFFFFFFFFFFFFFFFFF0000FFFFFFFF0000FFFFFFFFFFFF00000000FFFFFFFF00000000FFFFFFFFFFFFFFFFFFFFFFFFFFFFFFFF00000000FFFF0000FFFFFFFFFFFF0000FFFFFFFFFFFFFFFFFFFFFFFFFFFFFFFFFFFF000000000000FFFFFFFFFFFFFFFFFFFFFFFF00000000FFFFFFFFFFFFFFFFFFFFFFFFFFFFFFFFFFFFFFFF0000FFFFFFFFFFFFFFFF0000FFFFFFFF0000FFFFFFFFFFFF00000000FFFF000000000000FFFFFFFFFFFFFFFF0000FFFFFFFF0000FFFFFFFF0000FFFF00000000FFFFFFFF004CFFFFFFFFFFFFFFFFFFFF0000FFFFFFFF00000000FFFFFFFFFFFFFFFF00000000FFFFFFFF00000000
FFFFFFFFFFFFFFFFFFFF0000FFFFFFFFFFFFFFFFFFFFFFFFFFFFFFFFFFFFFFFFFFFFFFFFFFFF00000000FFFFFFFFFFFFFFFFFFFFFFFFFFFFFFFFFFFFFFFFFFFFFFFFFFFFFFFF0000FFFFFFFFFFFF0000FFFFFFFFFFFFFFFFFFFFFFFFFFFFFFFFFFFFFFFFFFFFFFFFFFFFFFFFFFFFFFFFFFFFFFFFFFFFFFFF0000FFFFFFFFFFFFFFFFFFFFFFFFFFFFFFFFFFFFFFFFFFFF0000FFFFFFFFFFFFFFFFFFFFFFFFFFFFFFFF0000FFFFFFFFFFFFFFFFFFFF000000000000FFFFFFFFFFFF002DFFFF0000FFFFFFFF00000000FFFFFFFFFFFFFFFFFFFFFFFFFFFFFFFFFFFFFFFFFFFFFFFFFFFFFFFFFFFFFFFFFFFFFFFFFFFFFFFFFFFF0000FFFFFFFFFFFFFFFFFFFF0000
00000000000000000000000000000000000000000000000000000000000000000033000000000000FFFF000000000000000000000000000000000000000000000000000000000000000000000000FFFF00000000000000000000000000000000000000000000000000000000000000000000000000000000000000000000000000000000000000000000000000000000FF9000000000000000000000000000000000000000000000000000000000FFFF0000000000000000000000000000000000000000000000000000000000000000000000000000000000000000000000000000000000000000000000000000000000000000000000000000000000000000
000000000000000000000000000000000000000000000000000000000000FFFF000000000000000000000000FFFF00000000FFFF0000000000000000000000000000000000000000000000000000002D0000000000000000000000000000000000000000000000000000000000000000000000000000000000000000FFFF0000000000000000000000000000000000000000FFFF0000FFFF0000FFFF0000000000000000000000000000000000000000000000000000000000000000000000000000000000000000000000000000FFFFFFFF0000FFFF000000000000000000000000000000000000000000000000000000000000FFFF00000000FFFF00000000
00000000000000000000000000000000000000000000000000000000000000000000000000000000000000000000000000000000000000180000000000000000000000000000000000000000000000000000000000000000000000000000000000000000000000000000000000000000000000000000000000000000000000000000000000000000000000000000000000000000000000000000000000000000000000000000000000000000000000000000000000000000000000000000000000000000000000000000000000000000000000000000000000000000000000000000000000000000000000000000000000000000000000000000000000000000
FFFFFFFFFFFFFFFFFFFF0000FFFFFFFFFFFF0000FFFFFFFFFFFFFFFFFFFFFFFFFFFF00000000FFFFFFFF0000FFFFFFFF0000FFFFFFFFFFFFFFFFFFFFFFFFFFFFFFFFFFFFFFFFFFFF0000FFFFFFFFFFFFFFFFFFFF00000000FFFFFFFFFFFFFFFFFFFFFFFFFFFFFFFFFFFFFFFFFFFFFFFF0000FFFFFFFF000000000000FFFFFFFFFFFFFFFF0000FFFFFFFF0000FFFFFFFFFFFFFFFFFFFFFFFFFFFF000000000000FFFF0000FFFFFFFF0000FFFFFFFF00000000008A0000FFFFFFFFFFFF0000FFFFFFFFFFFFFFFFFFFFFFFFFFFF0000FFFF0000FFFFFFFFFFFFFFFFFFFFFFFF0000FFFFFFFFFFFFFFFFFFFFFFFF0000FFFFFFFFFFFFFFFFFFFFFFFFFFFFFFFF0000
FFFFFFFFFFFFFFFFFFFFFFFFFFFF0000FFFF0000FFFFFFFFFFFFFFFFFFFFFFFFFFFF00000000FFFFFFFFFFFFFFFFFFFFFFFFFFFFFFFFFFFFFFFFFFFFFFFFFFFF0000FFFFFFFF0016FFFFFFFFFFFFFFFFFFFFFFFFFFFFFFFFFFFFFFFFFFFFFFFFFFFFFFFF0000FFFFFFFFFFFFFFFFFFFFFFFFFFFFFFFF0000FFFFFFFFFFFFFFFFFFFFFFFFFFFFFFFFFFFFFFFF0000FFFFFFFFFFFFFFFFFFFF0000FFFFFFFF0000FFFFFFFFFFFFFFFFFFFFFFFFFFFF0000FFFFFFFF0000FFFFFFFFFFFFFFFFFFFFFFFFFFFFFFFFFFFFFFFFFFFFFFFFFFFFFFFF0000FFFFFFFF00000000FFFFFFFFFFFFFFFFFFFFFFFF000000000000FFFFFFFFFFFFFFFFFFFFFFFFFFFFFFFF0000
FFFF00000000FFFFFFFF0000000000000000FFFFFFFFFFFFFFFFFFFFFFFFFFFFFFFFFFFF0000FFFFFFFFFFFFFFFFFFFFFFFFFFFF0049FFFF0000FFFFFFFFFFFF0000FFFFFFFFFFFFFFFFFFFF0000FFFF0000FFFFFFFFFFFFFFFFFFFFFFFF0000FFFFFFFFFFFFFFFF0000FFFFFFFFFFFFFFFFFFFFFFFFFFFFFFFF0000FFFFFFFFFFFF00000000FFFF00000000FFFFFFFFFFFFFFFFFFFF0000FFFFFFFF0000FFFFFFFFFFFF0000FFFF0000FFFFFFFF00000000FFFF00000000FFFFFFFFFFFFFFFF0000FFFF00000000FFFFFFFFFFFFFFFFFFFFFFFFFFFF0000FFFFFFFF0000FFFFFFFFFFFFFFFFFFFFFFFF0000FFFF00000000FFFFFFFFFFFFFFFF0000FFFF0000
FFFF00000000000000000000000000000000000000000000000000000000000000000000000000000000000000000000000000000000000000000000000000000000000000000000000000000000000000000000000000000000FFFF00000000000000000000000000000000000000000000FFFF000000000004000000000000000000000000FFFF0000000000000000000000000000000000000000000000000000000000000000000000000000000000000000FFFF0000000000000000FFFF0000000000000000FFFF000000000000000000000000000000000000FFFF00000000000000000000000000000000000000000000FFFF00000000000000000000
00000000FFFFFFFF00000000FFFFFFFFFFFFFFFFFFFFFFFF0000FFFFFFFFFFFF00000000FFFF00000000FFFF0000FFFFFFFFFFFFFFFFFFFFFFFFFFFFFFFFFFFF000000000000FFFFFFFF0000FFFF0000FFFF00000000FFFFFFFFFFFFFFFF0000FFFFFFFFFFFFFFFFFFFFFFFF000000000000FFFFFFFF00000000FFFFFFFFFFFFFFFF0000FFFF000000000000FFFFFFFF003A0000FFFFFFFFFFFFFFFF0000FFFFFFFF0000FFFFFFFFFFFFFFFFFFFF0000FFFF0000FFFFFFFFFFFF000000000000FFFF000000000000FFFF0000FFFFFFFFFFFFFFFFFFFFFFFF000000000000FFFFFFFF0000FFFFFFFF0000FFFFFFFFFFFFFFFF0000FFFF00000000000000000000
0000000000000000000000000000000000000000000000000000000000000000000000000000000000000000000000000000000000000000000000000000000000000000000000000000000000000000000000000000FFFF000000000000000000000000FFFF000000000000000000000000FFFF000000000000000000000000000000000000000000000000000000000000000000000000000000000000000000000000000000000000000000000000000000000000000000000021000000000000000000000000000000000000000000000000FFFF000000000000000000000000000000000000000000000000000000000000000000000000000000000000
00000000000000000000FFFF00000000000000000000000000000000000000000000000000000000FFFF000000000000000000000000000000000000000000000000000000000014000000000000FFFF000000000000FFFF00000000000000000000000000000000FFFF0000FFFF00000000FFFF00000000FFFF00000000000000000000000000000000FFFF00000000000000000000000000000000FFFF00000000FFFF000000000000000000000000FFFFFFFF00000000000000000000000000000000FFFFFFFF000000000000000000000000FFFF000000000000000000000000000000000000000000000000000000000000000000000000000000000000
00000000000000000000000000000000000000000000000000000000000000000000000000000000000000000000000000000000000000000000000000000000000000000000000000000000000000000000000000000000000000000000000000000000000000000000000000000000000000000000000000000000000000000000000000000000000000000000000000000000000000000000000000000000000000000000000000000000000000000000000000000000000000000000000000000000000000000000000000000000000000000000000000000000000000000000000000000000000000000000000000000000000000000000000000000000
000000000000FFFF00000000FFFF00000000FFFFFFFFFFFF0000FFFFFFFFFFFF0000FFFFFFFFFFFFFFFFFFFFFFFFFFFF0000FFFFFFFFFFFFFFFF0000FFFFFFFF00000000FFFFFFFF00000000FFFF0035FFFFFFFFFFFFFFFF0000000000000000FFFFFFFFFFFF0000FFFFFFFFFFFF000000000000FFFF0000FFFFFFFFFFFF00000000FFFFFFFFFFFF00000000000000000000FFFF0000FFFF0000FFFF000000000000FFFFFFFF00000000FFFFFFFFFFFFFFFFFFFF0000FFFF00000000FFFF0000FFFFFFFFFFFFFFFFFFFFFFFFFFFFFFFFFFFFFFFFFFFF000000000000FFFF00000000FFFF0000FFFF00000000FFFF000000000000FFFFFFFF0000FFFFFFFF0000
00000000000000000000000000000000FFFF0000FFFF000000000000000000000000FFFF00000000000000000000000000000000000000000000000000000000000000000000000000000000FFFF0000FFFF00000000FFFF000000000000FFFF0000FFFF0000000000000000000000000000FFFF000000000000FFFFFFFF000000000000000000000000000000000000000000000000FFFF0000FFFFFFFF0000000000000000000000000000FFFF00000000FFFF00000000000000000000000000000000FFFF0000000000000000FFFF0000000000000000000000000000000000000000000000000000000000000000000000000000002600000000FFFF0000
0000000000000000000000000000000000000000FFFFFFFF00000000000000000000FFFF0000000000000000000000000000000000000000000000000000000000000000000000000000000000000000000000000000000000000000000000000000FFFF0000000000000000000000000000FFFF0000000000000000FFFF000000000000000000000000000000000000000000000000000000000000FFFFFFFF000000000000000000000000000000000000000000000000000000000000003A00000000000000000000000000000000000000000000000000000000000000000000000000000000000000000000000000000000000000000000000000000000
00000000FFFF000000000000000000000000000000000000000000000000000000000000000000000000000000000000000000000000000000000000000000000000000000000000000000000000000000000000000000000000000000000000000000000000000000000000000000000000000000000000000000000000000000000000000000000000FFFF000000000000000000000000000000000000FFFF0000000000000000000000000000000000000000000000000000000000000000000000000000000000000000000000000000000000000000000000000000000000000000000000000000002E0000000000000000000000000000000000000000
00000000000000000000000000000000000000000000000000000000000000000000000000000000FFFF000000000000000000000000000000000000000000000000000000000000000000000000000000000000000000000000FFFF00000000000000000000000000000000000000000000000000000000002F00000000000000000000000000000000FFFF00000000000000000000000000000000000000000000000000000000000000000000000000000000FFFF000000000000000000000000000000000000FFFF000000000000000000000000000000000000FFFF00000000000000000000000000000000000000000000FFFF00000000000000000000
00000000000000000000000000000000000000000000000000000000000000000000000000000000000000000000000000000000000000000000000000000000000000000000000000000000000000000000000000000000000000000000000000000000000000000000000000000000000000000000000000000000000000000000000000000000000000000000000000000000000000000000000000000000000000000000000000000000000000000000000000000000000000000000000000000000000000000000000000000000000000000000000000000000000000000000000000000000000000000000001E00000000000000000000000000000000
FFFF0000FFFFFFFFFFFF0000FFFFFFFFFFFFFFFFFFFFFFFFFFFFFFFFFFFFFFFF00000000000000000000FFFFFFFF0000FFFF0000FFFFFFFF00000000FFFFFFFF0000FFFFFFFFFFFFFFFF0000FFFFFFFFFFFFFFFFFFFFFFFFFFFF00000000FFFF0000FFFF0000FFFF0000FFFFFFFFFFFF0000FFFFFFFFFFFF0000FFFFFFFFFFFFFFFFFFFF0000FFFFFFFF0000000000000000FFFFFFFF0000FFFFFFFFFFFFFFFFFFFFFFFF0002FFFF0000FFFFFFFF00000000FFFF0000FFFF0000FFFFFFFFFFFF0000FFFF0000FFFF000000000000FFFFFFFFFFFFFFFF0000FFFF00000000FFFFFFFFFFFFFFFFFFFFFFFFFFFFFFFF0000FFFFFFFFFFFFFFFFFFFF0000FFFF0000
0000000000000000000000000000FFFF0000FFFFFFFFFFFF000000000000000000000000FFFF0000FFFF000000000000000000000000FFFFFFFF000000000000000000000000FFFF000000000000FFFF0000000000000000000000000000000000000000FFFF0000FFFFFFFF00000000000000000000FFFF00000000FFFF0000000000000000000000000000000000690000FFFF000000000000FFFFFFFFFFFF00000000000000000000FFFF0000000000000000FFFF00000000FFFF000000000000000000000000000000000000FFFF0000000000000000FFFF0000000000000000000000000000000000000000000000000000FFFF00000000000000000000
FFFFFFFF00000000FFFFFFFFFFFFFFFF0000FFFFFFFFFFFF000000000000FFFFFFFF0000FFFF0000FFFF00000000000000000000FFFFFFFF00000000FFFFFFFFFFFF00000000FFFF0000FFFFFFFFFFFFFFFFFFFF0000FFFF000000000000FFFF00000000FFFF00000000FFFFFFFFFFFFFFFF0000FFFFFFFFFFFF0000FFFF0000000000000000FFFFFFFFFFFFFFFF00000000FFFF00000000FFFFFFFF0000FFFF0000000000000000FFFFFFFF0000FFFFFFFF0000FFFFFFFFFFFFFFFFFFFF0000FFFF00000000FFFFFFFFFFFFFFFFFFFFFFFFFFFF0000FFFFFFFFFFFFFFFFFFFF000000000000000000A00000FFFFFFFF0000FFFFFFFFFFFF0000FFFF00000000
00000000000000000000000000000000000000000000000000000000000000000000000000000000000000000000000000000000000000000000000000000000000000000000000000000000000000000000000000000000000000000000000000000000000000000000000000000000000000000000000000000000000000000000000000000000000000000000000000000000000000000000000000000000000000000000000000000000000000000000000000000000000000000000000000000000000000000000000000000000000000000000000000000000000000000000000000000000000000000000000000000000000100000000000000000000
FFFFFFFF0000FFFFFFFF000000000000FFFFFFFFFFFF000000000000FFFF0000FFFF000000000000000000000000FFFFFFFFFFFF0000FFFFFFFF00000000001E00000000FFFFFFFF00000000FFFF0000FFFFFFFF0000FFFFFFFFFFFFFFFFFFFF0000FFFFFFFFFFFFFFFF000000000000FFFFFFFF000000000000000000000000FFFFFFFF00000000FFFFFFFFFFFF0000000000000000FFFFFFFF000000000000000000000000FFFF00000000FFFF0000FFFFFFFF0000FFFFFFFFFFFF000000000000FFFF00000000FFFFFFFF0000FFFF0000FFFFFFFFFFFFFFFFFFFF0000FFFF00000000FFFF00000000FFFFFFFFFFFF0000FFFF000000000000000000000000
0000FFFF000000000000FFFF0000FFFFFFFF0000FFFFFFFFFFFFFFFFFFFFFFFFFFFFFFFF000000000000FFFFFFFFFFFFFFFFFFFFFFFFFFFFFFFF0000FFFF00000000FFFFFFFFFFFFFFFF0000FFFFFFFFFFFF0000FFFF0000FFFFFFFFFFFFFFFF0000FFFFFFFF00000000FFFFFFFF0000FFFFFFFFFFFFFFFFFFFFFFFFFFFFFFFFFFFFFFFFFFFFFFFFFFFF0000FFFFFFFFFFFFFFFFFFFFFFFFFFFFFFFFFFFF0000FFFF0000FFFFFFFFFFFFFFFFFFFFFFFF0000FFFFFFFF0000FFFFFFFF002E0000FFFFFFFF0000FFFF00000000FFFFFFFF0000FFFF00000000FFFF0000000000000000FFFFFFFF0000FFFFFFFFFFFFFFFF0000FFFFFFFF0000FFFFFFFFFFFF0000
FFFFFFFFFFFF0034FFFF0000FFFFFFFFFFFFFFFFFFFFFFFFFFFFFFFFFFFFFFFFFFFFFFFF0000FFFFFFFFFFFFFFFFFFFFFFFFFFFFFFFFFFFFFFFFFFFFFFFFFFFFFFFFFFFFFFFFFFFF0000FFFFFFFFFFFFFFFFFFFFFFFFFFFFFFFFFFFFFFFFFFFFFFFFFFFFFFFFFFFFFFFFFFFFFFFFFFFFFFFFFFFFFFFFFFFFFFFFFFFFFFFFFFFFFFFFFFFFFFFFFFFFFFFFFFFFFFFFFFFFFFFFFFFFFFFFFFFFFFFFFFFFFFFFFFFFFFFFFFFFFFFFFFFFFFFFFFFFFFFFFFFFFFFFFFFFFFFFFFFFFFFFFFFFFFFFFFFF0000FFFFFFFFFFFFFFFFFFFFFFFFFFFFFFFFFFFFFFFFFFFFFFFFFFFFFFFFFFFFFFFFFFFFFFFFFFFFFFFFFFFFFFFFFFFFFFFFFFFFFFFFFFFFFFFFFFFFFFFF0000
FFFFFFFFFFFFFFFFFFFFFFFFFFFFFFFFFFFFFFFFFFFFFFFFFFFFFFFFFFFFFFFFFFFFFFFFFFFFFFFFFFFFFFFFFFFFFFFFFFFFFFFFFFFFFFFFFFFFFFFFFFFFFFFFFFFFFFFFFFFFFFFFFFFFFFFFFFFFFFFFFFFFFFFFFFFFFFFFFFFFFFFFFFFFFFFFFFFF0000FFFFFFFFFFFFFFFFFFFFFFFFFFFFFFFFFFFFFFFFFFFFFFFFFFFFFFFFFFFFFFFFFFFFFFFFFFFFFFFFFFFFFFFFFFFF003DFFFFFFFF0000FFFFFFFFFFFFFFFFFFFFFFFFFFFFFFFFFFFFFFFFFFFFFFFFFFFFFFFFFFFFFFFFFFFFFFFFFFFFFFFFFFFFFFFFFFFFFFFFFFFFFFFFFFFFFFFFFFFFFFFFFFFFFFFFFFFFFFFFFFFFFFFFFFFFFFFFFFFFFFFFFFFFFFFFFFFFFFFFFFFFFFFFFFFFFFFFFFFFFFFF0000
000000000000000000000000FFFF00000000000000000000FFFF0000FFFFFFFF00000000FFFF0000FFFFFFFFFFFF0000FFFFFFFF00000000FFFFFFFF000000000000FFFF0000FFFFFFFF0000FFFF004E0000FFFF000000000000FFFFFFFF0000FFFFFFFF00000000FFFF00000000000000000000000000000000FFFFFFFF00000000000000000000000000000000FFFF0000FFFF0000FFFF0000FFFF000000000000FFFF00000000FFFF00000000FFFF0000FFFF000000000000FFFFFFFFFFFFFFFFFFFF0000FFFF000000000000FFFFFFFFFFFFFFFF0000000000000000FFFF00000000FFFFFFFF00000000FFFF0000FFFF0000FFFF00000000FFFFFFFF0000
00000000FFFFFFFF000000000000FFFF00000000FFFFFFFF0000FFFFFFFF00000026000000000000FFFF000000000000FFFF0000FFFFFFFF0000FFFF00000000FFFF0000000000000000FFFF0000FFFF00000000FFFF0000FFFFFFFFFFFF0000FFFF00000000FFFF000000000000000000000000FFFF00000000FFFF0000FFFFFFFF0000FFFF00000000FFFF0000FFFFFFFF0000000000000000000000000000FFFF0000FFFFFFFFFFFFFFFFFFFF0000FFFF000000000000FFFF00000000FFFF00000000FFFF0000000000000000FFFF0000FFFF0000FFFF0000FFFF00000000FFFF0000000000000000FFFF00000000FFFFFFFF000000000000000000000000
000000000000000000000000FFFF00000000000000000000FFFFFFFFFFFFFFFF0000FFFFFFFF0000FFFFFFFFFFFF0000FFFFFFFF00000000FFFFFFFF000000000000FFFF0000FFFFFFFF0000FFFF00500000FFFFFFFF00000000FFFFFFFF0000FFFFFFFF00000000FFFF00000000000000000000000000000000FFFFFFFF00000000000000000000000000000000FFFF0000FFFF0000FFFF0000FFFF000000000000FFFF00000000FFFF00000000FFFF0000FFFF000000000000FFFFFFFFFFFFFFFFFFFF0000FFFF000000000000FFFFFFFFFFFFFFFF0000000000000000FFFF00000000FFFFFFFF00000000FFFF0000FFFF0000FFFF00000000FFFFFFFF0000
0000000000000000000000000000FFFF0000FFFF000000000000FFFF00000000FFFF00000000000000780000FFFF0000FFFF0000FFFFFFFF0000FFFF000000000000FFFF000000000000FFFFFFFFFFFFFFFFFFFFFFFF000000000000FFFF00000000000000000000FFFF0000FFFF00000000FFFF00000000FFFF000000000000000000000000000000000000000000000000FFFF0000FFFF00000000FFFF0000FFFF00000000FFFF00000000FFFFFFFFFFFFFFFFFFFF0000000000000000FFFF0000FFFF000000000000FFFF0000FFFFFFFFFFFF00000000FFFF0000FFFFFFFF0000FFFF0000000000000000000000000000000000000000FFFFFFFFFFFF0000
FFFFFFFFFFFFFFFFFFFF0000FFFFFFFFFFFFFFFFFFFFFFFFFFFFFFFFFFFFFFFFFFFFFFFFFFFFFFFFFFFFFFFFFFFFFFFFFFFFFFFFFFFFFFFFFFFFFFFFFFFFFFFFFFFFFFFFFFFFFFFFFFFFFFFFFFFFFFFFFFFFFFFFFFFFFFFFFFFFFFFFFFFF0000FFFFFFFF0000FFFFFFFFFFFFFFFFFFFFFFFFFFFFFFFFFFFF00000000FFFFFFFFFFFFFFFFFFFFFFFFFFFFFFFFFFFFFFFFFFFFFFFFFFFFFFFFFFFFFFFFFFFFFFFFFFFFFFFFFFFF006FFFFF0000FFFFFFFFFFFFFFFFFFFFFFFFFFFFFFFF0000FFFFFFFFFFFFFFFFFFFFFFFFFFFFFFFFFFFFFFFFFFFFFFFFFFFFFFFFFFFFFFFFFFFFFFFF0000FFFF0000FFFFFFFFFFFFFFFFFFFFFFFFFFFFFFFFFFFFFFFFFFFF0000
FFFFFFFFFFFFFFFFFFFF0000FFFFFFFFFFFFFFFFFFFFFFFFFFFFFFFFFFFFFFFFFFFFFFFFFFFFFFFFFFFFFFFFFFFFFFFFFFFFFFFFFFFFFFFFFFFFFFFFFFFF004DFFFFFFFFFFFFFFFFFFFFFFFFFFFFFFFFFFFFFFFFFFFFFFFFFFFFFFFFFFFFFFFFFFFFFFFFFFFFFFFFFFFFFFFFFFFFFFFFFFFFFFFFFFFFFFFFFFFFFFFFFFFFFFFFFFFFFFFFFFFFFFFFFFFFFFFFFFFFFFFFFFFF0000FFFFFFFFFFFFFFFFFFFFFFFFFFFFFFFFFFFFFFFFFFFFFFFFFFFFFFFFFFFFFFFFFFFFFFFFFFFFFFFFFFFFFFFFFFFFFFFFFFFFFFFFFFFFFFFFFFFFFFFFFFFFFFFFFFFFFFFFFFFFFFFFFFFFFFFFFFFFFFFFFFFFFFFFFFFFFFFFFFFFFFFFFFFFFFFFFFFFFFFFFFFFFFFFFFFF0000
0000000000000000FFFF0000000000000000FFFF0000FFFFFFFFFFFFFFFF000000000000000000000000FFFF00000000FFFFFFFF0057FFFF000000000000000000000000FFFFFFFFFFFF00000000FFFF0000FFFFFFFFFFFFFFFFFFFF000000000000FFFFFFFF0000000000000000FFFFFFFFFFFFFFFFFFFF000000000000FFFF000000000000FFFF00000000FFFFFFFFFFFFFFFFFFFF0000FFFF00000000FFFFFFFFFFFF000000000000000000000000000000000000000000000000FFFF000000000000000000000000FFFF0000FFFFFFFFFFFFFFFF0000FFFF00000000FFFF0000FFFFFFFFFFFF00000000FFFF00000000000000000000FFFF000000000000
000000000000FFFF000000000000000000000000000000000000FFFF000000000000000000000000000000000000FFFF00000000000000000000000000000000000000000000000000000000000000000000000000000000000000000000000000000000FFFF0000000000000000000000000000000B00000000FFFFFFFF00000000000000000000000000000000FFFF00000000FFFF00000000000000000000FFFF0000FFFF00000000FFFF00000000000000000000FFFF000000000000000000000000000000000000FFFF00000000FFFFFFFF0000FFFF000000000000000000000000000000000000000000000000FFFF0000000000000000000000000000
0000000000000000FFFF00000000FFFF0000FFFFFFFFFFFF0000FFFFFFFF0000FFFF0000FFFF000000460000FFFFFFFFFFFFFFFFFFFFFFFFFFFF000000000000FFFF000000000000FFFF0000FFFF0000FFFF0000FFFFFFFFFFFF00000000FFFFFFFF0000FFFF0000FFFF0000FFFF00000000FFFF0000FFFF00000000FFFF0000FFFF00000000FFFFFFFFFFFF0000FFFF00000000FFFFFFFF00000000FFFF0000FFFF0000FFFF00000000FFFFFFFFFFFFFFFFFFFFFFFFFFFF00000000FFFFFFFFFFFF0000000000000000FFFF00000000FFFFFFFFFFFFFFFFFFFF0000000000000000FFFF00000000000000000000FFFFFFFFFFFFFFFF000000000000FFFF0000
000000000000000000000000000000000000000000000000000000000000000000000000000000000000000000000000000000000000000000000000000000000000000000000000000000000000000000000000000000000000000000000000000000000000000000000000000000000000000000000000000000000000000000000000000000000000000000000000000000000000FFFF0000000000000000000000000000000000000000000000000000000000000000000000000000000000000000000000000000001100000000000000000000000000000000000000000000000000000000000000000000000000000000000000000000000000000000
0000000000000000000000000000000000000000000000000000000000000000000000000000000000000000000000000000000000000000000000000000000000000000000000000000000000000000000000000000000000000013000000000000000000000000000000000000000000000000000000000000FFFF0000000000000000000000000000000000000000000000000000FFFF00000000000000000000000000000000000000000000FFFF0000000000000000000000000000000000000000000000000000000000000000000000000000000000000000000000000000000000000000000000000000000000000000000000000000000000000000
00000000000000000000000000000000000000000000000000000000000000000000000000000000000000000000000000000000000000000000000000000000000000000000000000000000000000000000000000000000000000000000000000000000000000000000000000000000000000000000000000000000000000000000000000000000000000000000000000000000000000000000000000000000000000000000000000000000000000000000000000000000000000000000000000000000000000000000000000000000000000000000000000000000000000000011000000000000000000000000000000000000000000000000000000000000
00000000000000000000000000000000000000000000000000000000000000000000000000000000000000000000000000000000000000000000000000000000000000000000000000000000000000000000000000000000000000000000000000000000000000000000000000000000000000000000000000000000000000000000000000000000000000000005000000000000000000000000000000000000000000000000000000000000000000000000000000000000000000000000000000000000000000000000000000000000000000000000000000000000000000000000000000000000000000000000000000000000000000000000000000000000
00000000000000000000000000000000000000000000000000000000000000000000000000000000000000000000000000000000000000000000000000000000000000000011000000000000000000000000000000000000000000000000000000000000000000000000000000000000000000000000000000000000000000000000000000000000000000000000000000000000000000000000000000000000000000000000000000000000000000000000000000000000000000000000000000000000000000000000000000000000000000000000000000000000000000000000000000000000000000000000000000000000000000000000000000000000
000000000000000000000000000000000000000000000000000000000000000000000000000000000000000000000000000000000026000000000000000B000000000000000000000000000000000000000000000000000000000000000000000000000000000000000000000000000000000000000000000000000000000005000000000000001A000000000000000000000000000000000000000000000000004300000000000000000000000000000000000000000000000000000000000000000000000000000000000000540000000000000000000000000000000000000000000000000000000000000000000000000000000000000000000000000000
000000000000000000000000000000000000000000000000006D0000000000000000000000000000000000000000000000000000000200000000000000000000000000000000000000000000000000000000000000000000000000000000000000000000000000000000000000000034000000000000000000000000000000000000002F00000000000000000000000000000000000000000034000000000000000000000000000000000000000000000012000000000000000000000000000000000010000000000000000000000000000000000000000000000000000000000000000000000000000000490000000000000026000000000000000000000000
000000000000000000000000000000000000000000000000000000000000000000000000000000000000000C00000000000000000000000000000000000000000000000F00000000000000000000000000000000000000000000000000000000000000000000000000000000000000000000000000000000000000000000000000000000000000000000000000000000000000000000000000000000000000000000000000000088001C0000000000000000000000000000000000000000000000000000000000000000001100090000000000000000000000000000000000000000000000000000000000000000000000000000000000200000000000000000
0000000000000000000000000000000000000000FFFFFFFF000000000000000000390000000000000000000000000000000000000000FFFF00000000000000000000000000000000000000000000000000000000FFFF000000000000000000000000FFFF0000000000000000000000000000000000000000000000000000000000000000000000000000000000000000000000000000000000000000FFFF000000000000000000000000000000000000003C000000000000000000000000000000000017000000000000000000000000000000000000000000000000000000000000000000000000000000000002000000000000000000000000000000000000
000000000000FFFFFFFF0000FFFF00000000FFFF000000000000FFFFFFFFFFFF00000000FFFFFFFF00000000FFFFFFFFFFFF000000000000000000000000FFFF00000000FFFF000000000000FFFF00000000000000000000FFFF00000000FFFF00000000FFFFFFFFFFFF00000000000000000000FFFF00000000FFFF000000000000FFFFFFFF0034FFFF0000FFFF0000FFFFFFFF0000FFFF0000FFFF00000000FFFF0000FFFFFFFF0000FFFF000000000000FFFF000000000000FFFF00000000000000000000FFFF0000FFFF00000000000000000000000000000000FFFF0000FFFFFFFF0000000000000000000000000000FFFF0000000000000000FFFF0000
00000000000000000000FFFFFFFF000000000000FFFF0000000000000000000000000000000000000000000000000000000000000000FFFF00000000000000000000000000000000000000000000000000000000FFFF000000000000000000000000000000000000000000000000000000000000000000000000000000000000000000000000000000000000000000000000000000000000000000000000FFFF0000000000000000000000000000000000000000000000000000000000000000FFFF0000000000140000000000000000000000000000000000000000000000000000000000000000000000000000000000000000000000000000000000000000
0000000000000000000000000000FFFF0000000000000000000000000000000000000000FFFF00000000000000000000000000000000FFFF000000060000000000000000000000000000000000000000000000000000000000000000000000000000000000000000000000000000000000000000000000000000000000000000000000000000000000000000000000000000000000000000000000000000FFFF000000000000000000000000000000000000000000000000000000000000000000000000000000000000000000000000000000000000000000000000000000000000000000000000000000000000000000000000000000000000000000000000
0000000000000000000000000000FFFF00000000FFFFFFFF000000000000000000000000FFFF0000FFFF000000000000000000000000FFFFFFFF000000000000000000000000FFFF000000000000FFFF0000000000000054000000000000000000000000FFFF00000000FFFF00000000000000000000000000000000FFFF0000000000000000000000000000000000000000FFFF0000000000000000FFFF00000000000000000000000000000000000000000000000000000000FFFF00000000000000000000000000000000000000000000FFFF00000000FFFF0000000000000000000000000000000000000000000000000000FFFF00000000000000000000
0000000000000000000000000000000000000000FFFFFFFF000000000000000000000000FFFF0000FFFF00000000000000000000FFFFFFFFFFFF0000FFFF0000000000000000000000000000FFFFFFFF0000000000000000000000000000FFFF0000000000000000FFFF000000000000000000000000000000000000FFFF00000000000000000000000000000000000000000000000000000000FFFFFFFF000000000000000000000000000000000000000000000000000000000000FFFF00610000000000000000000000000000FFFFFFFF00000000000000000000000000000000FFFF00000000000000000000000000000000FFFF00000000000000000000
00000000000000000000FFFF0000000000000000FFFF0000000000000000000000000000FFFF0000000000000000000000000000FFFF0000FFFF0000000000000000000000000000000000000000FFFF0000FFFF000000000000001E0000000000000000FFFF0000FFFF000000000000000000000000000000000000FFFF00000000000000000000000000000000000000000000000000000000FFFFFFFF00000000000000000000000000000000FFFF00000000FFFF000000000000FFFF00000000000000000000000000000000FFFF000000000000000000000000FFFF00000000000000000000FFFF00000000000000000000000000000000000000000000
000000000000000000000000000000000000000000000000FFFF0000FFFF000000000000FFFF000000000000FFFF00000000000000000000FFFF000000000000000000000000FFFF000000000000005B0000FFFFFFFF000000000000000000000000000000000000FFFF000000000000000000000000000000000000FFFF00000000000000000000000000000000000000000000000000000000FFFF000000000000000000000000000000000000FFFF000000000000000000000000FFFF00000000000000000000000000000000FFFF0000000000000000000000000000FFFF000000000000FFFFFFFF00000000000000000000000000000000000000000000
FFFFFFFF0000FFFFFFFFFFFFFFFF0000FFFF0000000000000000FFFFFFFFFFFF00000000000000000000FFFF0000FFFFFFFFFFFF00000000FFFF0000FFFFFFFF00000000FFFF007C0000FFFFFFFF0000FFFF0000FFFF0000FFFFFFFF0000FFFF0000FFFF0000FFFF0000FFFFFFFF000000000000000000000000FFFFFFFFFFFF0000FFFFFFFFFFFFFFFFFFFF000000000000FFFF000000000000FFFFFFFF00000000FFFF0000FFFFFFFFFFFF00000000FFFFFFFF00000000FFFFFFFFFFFFFFFFFFFFFFFF0000FFFF000000000000FFFFFFFF0000FFFFFFFF00000000FFFFFFFF00000000FFFFFFFF000000000000FFFFFFFF00000000FFFFFFFF000000000000
FFFFFFFF0000FFFFFFFFFFFFFFFF000000000000FFFFFFFFFFFFFFFF0000FFFFFFFF00000000FFFFFFFF00000000FFFFFFFF00000000FFFFFFFFFFFFFFFFFFFFFFFFFFFFFFFF00000000FFFF0000FFFFFFFFFFFF0000FFFFFFFFFFFFFFFFFFFFFFFFFFFFFFFFFFFF000000000000FFFFFFFFFFFFFFFFFFFFFFFF00000000FFFFFFFFFFFFFFFF0000FFFFFFFFFFFFFFFFFFFF0000FFFFFFFFFFFFFFFF00000000FFFF0000FFFFFFFFFFFF00000000FFFF000000000000FFFFFFFFFFFFFFFF0000FFFF00000000FFFFFFFF0000FFFF000000000000FFFF0046FFFFFFFFFFFFFFFFFFFF0000FFFFFFFF00000000FFFFFFFFFFFFFFFF00000000FFFFFFFF00000000
00000000000000000000000000000000000000000000000000000000000000000000000000000000000000000000000000000000000000000000000000000000000000000000000000000000000000000000000000000000000000000000000000000000000000000000000000000000000000000046000000000000000000000000000000000000000000000000000000000000FFFF00000000000000000000000000000000000000000000000000000000000000000000000000000000000000000000000000000000000000000000000000000000000000000000000000000000000000000000000000000000000000000000000000000000000000000000
FFFF00000000FFFF00000000FFFF00000000FFFFFFFF00000000FFFF00770000000000000000000000000000FFFF0000FFFF0000FFFFFFFF0000FFFF0000FFFFFFFF00000000000000000000FFFF00000000000000000000FFFF0000FFFFFFFFFFFF00000000FFFF000000000000FFFF0000000000000000FFFF0000FFFF000000000000000000000000000000000000FFFFFFFFFFFF00000000000000000000FFFFFFFFFFFF00000000FFFFFFFF00000000FFFF00000000000000000000FFFF00000000FFFF00000000000000000000FFFF0000FFFF0000000000000000000000000000000000000000000000000000FFFF00000000000000000000FFFF0000
000000000000FFFF0000000000000000FFFFFFFF000000000000000000000000FFFF000000000000FFFF0000FFFFFFFFFFFF0000FFFFFFFFFFFFFFFF0000FFFF0000FFFFFFFFFFFFFFFFFFFFFFFFFFFF00000000FFFFFFFF0000FFFFFFFF0000FFFF0000FFFF0000FFFF0000FFFFFFFFFFFF0000FFFFFFFFFFFFFFFFFFFF00000000FFFF0000FFFF00000000FFFFFFFFFFFFFFFFFFFF00000000000000000000FFFFFFFFFFFF00000000FFFF00000060FFFFFFFF000000000000FFFF0000FFFF0000FFFFFFFFFFFF000000000000FFFFFFFFFFFF0000000000000000FFFF00000000FFFF000000000000FFFF00000000FFFFFFFF0000FFFF00000000FFFF0000
FFFFFFFFFFFF00000000FFFFFFFFFFFFFFFFFFFFFFFFFFFFFFFFFFFFFFFFFFFFFFFFFFFFFFFFFFFFFFFFFFFFFFFFFFFFFFFFFFFFFFFFFFFFFFFFFFFFFFFFFFFFFFFFFFFFFFFFFFFFFFFFFFFFFFFFFFFFFFFFFFFFFFFFFFFFFFFFFFFFFFFFFFFFFFFFFFFFFFFFFFFFFFFFFFFFFFFFFFFFFFFFFFFFFFFFFFFFFFFFFFFFFFFFFFFFFFFFFFFFFFFFFFFFFFFFFFFFFFFFFFFFFFFFFFFFFFFFFFFFFFFFFFFF00000000FFFFFFFFFFFFFFFFFFFFFFFFFFFFFFFFFFFFFFFFFFFFFFFFFFFFFFFFFFFFFFFFFFFFFFFFFFFFFFFF0047FFFFFFFFFFFFFFFF0000FFFFFFFFFFFFFFFFFFFFFFFF0000FFFFFFFFFFFFFFFFFFFFFFFFFFFFFFFFFFFFFFFFFFFFFFFFFFFFFFFF0000
FFFF00000000FFFF00000000FFFFFFFF0000FFFFFFFFFFFF0000FFFFFFFFFFFFFFFFFFFF0000000000000000FFFF0000FFFF00000000FFFF0000FFFF000000000000FFFFFFFFFFFF0000FFFFFFFFFFFFFFFFFFFFFFFFFFFF00000000FFFF0000FFFFFFFFFFFF000000000000FFFF00000000FFFF0000000000000000FFFF0003FFFF000000000000000000000000000000000000000000000000FFFF00000000FFFFFFFF0000FFFF0000FFFFFFFFFFFFFFFFFFFF00000000000000000000FFFFFFFFFFFF000000000000FFFF00000000FFFFFFFF0000000000000000FFFFFFFF000000000000000000000000FFFFFFFF00000000FFFF0000FFFFFFFFFFFF0000
000000000000FFFF0000000000000000FFFFFFFF00000000FFFFFFFF00000000FFFF00000000FFFFFFFF0000FFFFFFFFFFFF0000FFFFFFFFFFFFFFFF0000FFFF0000FFFFFFFFFFFFFFFFFFFFFFFFFFFFFFFFFFFFFFFFFFFFFFFFFFFFFFFFFFFFFFFF0000FFFFFFFFFFFF0000FFFFFFFFFFFF0000FFFFFFFFFFFFFFFFFFFF0000FFFFFFFF0000FFFF00000000FFFFFFFFFFFFFFFFFFFF00000000000000000000FFFFFFFFFFFF00000000FFFF00000036FFFFFFFF0000FFFFFFFFFFFF0000FFFF0000FFFFFFFFFFFFFFFF00000000FFFFFFFFFFFFFFFFFFFF0000FFFFFFFF0000FFFFFFFF000000000000FFFF00000000FFFFFFFFFFFFFFFF0000FFFFFFFF0000
00000000000000000000000000000000000000000000000000000000000000000000000000000000000000000000000000000000000000000000000000000000000000000000000000000000000000000000000000000000000000000000000000000000000000000000000000000000000000000000000000000000000000000000000000000000000000000000000000000009000000000000000000000000000000000000000000000000000000000000000000000000000000000000000000000000000000000000000000000000000000000000000000000000000000000000000000000000000000000000000000000000000000000000000000000000
0000FFFFFFFF000000000000FFFF0000FFFFFFFF0000FFFF000000000000FFFF0000FFFF0000FFFF0000FFFF00000000FFFF0000FFFF00000000000000000000FFFFFFFF00000000FFFF0000FFFF0000FFFF0000000000000000000E00000000FFFFFFFF0000FFFF0000FFFF0000FFFFFFFF0000FFFFFFFF0000FFFFFFFF0000000000000000FFFF0000FFFFFFFFFFFF000000000000FFFFFFFF00000000FFFFFFFFFFFF00000000FFFF0000FFFF0000FFFF00000000000000000000FFFFFFFFFFFF00000000FFFF0000000000000000FFFFFFFFFFFF0000000000000000FFFF00000000FFFFFFFFFFFF000000000000000000000000FFFFFFFFFFFF00000000
00000000000000000000000000000000000000000000000000000000000000000000000000000000000000000000000000000000000000000000000000000000000000000000000000000000000000000000000000000000000000000000000000000000000000000000000000000000000000000000000000000000000000000000000000000000000000000000000000000000000000000000000000000000000000000000000000000000000000000000000000000000000000000000000000000000000000000000000000000000000000000000000000000000000000000000000000000000000000000000000000000000000000000000000000000000
00000000000000000000000000000000000000000000000000000000000000000000000000000000000000000000000000000000000000000000000000000000000000000000000000000000000000000000000000000000000000000000000000000000000000000000000000000000FFFF000000000000000000000000000000000000000000000000000000000000000000000000FFFF0000000000000000000000000000000000000000000000000000000000000000000000000000000000000000000000000000000000000000000000000000000000000000000000000000000000000000000000000000000000000027000000000000000000000000
000000000000000000000000000000000000000000000000000000000000000000000000000000000000000000000000000000000000000000000000000000000000000000000000000000000000000000000000000000000017000000000000000000000000000000000000000000000000000000000000000000000000000000000000000000000000000000000000000000000000000000000000000000000000000000000000000000000000FFFF0000000000000000000000000000000000000000000000000000000000000000000000000000000000000000000000000000000000000000000000000000000000000000000000000000000000000000
0000003900000000000000000000000000000000000000000000000000000000001A000000000000000000000000000000000000000000000000000B00000000000000000000000000000000000000000000000000000000000000000000000000000000000000000000000000000000000000000000000000000000000000000000002E00230000000000000000000000000000000000000000004A000000000018000000000000000000000000FFFF00000000002C000000000000000000000000001A00000000000000000000000000000000000000000000000000000000000000000000000000000000000000070000000000000000001B002000000000
0000006A000000100048000000000000000000000000000000000000000000390000000000000000000000000000000000000000000000000000000000000000001A000000110000000000000000000000000000000000000000000000000000000000000000000000000023000000000000000000000000006F000000000003000000000000000000000000000F0000003A000000000000000000000000000000030000002E00080000000000000000001A000000000000000000000006000000000075000000000000000000000000000000000000000000000000000600000000000000000000000000000000000000000075000000000000004D00000000
000000000000000000050000000000310000000C00000000000000000000001B005600000000001F0000000000200000000000000000005000000027005D0000000000000025002F000500000000000000000000000000000000003B0011000000000000000400000000000000000020000000000047000000000000000000000000000000000000000000000012000000000000000000000000000000000000004700000000000000200041000000000004000000580000000000300000000000000000000000000045002C000000000000000000000000000D002F0042003A0001000000070000000000330000005000000013000000000000000000000000
0000003F00000000002F000000240000000000050000000000000005000000110000000000000014000000000010000000520039002E0002000000140000000000010000000000000000001200000019001A0015000000000000001E001400040000000000060000000000000000001800000000002B0000000D000000000020000000000000003B00330000000500000045000E0000000000380007005000000000000000020000001E000000000000004800000018003700000000000C003B000000000000000000290000002F000000000004003E002C00210012002C003400000000000000000000006000250041000000540000003F0000000000490000
00000000007600180000000000000031001D0021000D000000000000000000000000000000000017000F00000000000000000000004B0030004F002A0051000000000000000000000008000000000000000000000000000C0026001C0000001A000B000000000045005300660000008E0000001000170000000000030084001F000200000000001300210000000000000017002000000000000D001200000000006A00000072001D0000002E00090000001A00030000004C0000000000180034000F0026000000000004000000400000000C001C001C0000000000200000000000050000000000000000000000000000003B0000004700000000000D00470000
00060028001F0000000000000000003700000033000000000000001F0000002A00000000000000000000000000000000001300000000000000000000004200070003000000270023000000120041003600090052002E0000000000270008003E0000005D0000000000000059000000000000000000180041000000000000001500000007000000000000000100030000001B002B00460015006A00240022000700100000007400000000000A0000000000150000005E000700000000001900000000004B00000000000C0013001200000000000B00000000001100000000006300000000001200200015000C00000000000000000000000B000C003B00000000
00790032000B000500050000000F0042000000000000000000350000000500000011000000000000003800540000003400430000004C00280015002500000000000000000000000000290000000D00000000000000000000000000000018000000110000000000000000001500000001000000000057000C0000004000000000001600000000000000000022001300000023000000000000003700000002000000100000000000000014005700000000007000000000003F00110000000000290000001600460000000B0000001B000000000000000700270055002B001800000014000F0048004E00760000001100000000002E000000060008000000570000
0000002E00000028003600000000000000000000000000000007000000020000000000000014002F0000004A0000004C0026000000160000003F000A002C008E0000002D0010000000000003000C000000000000000000000000001D008600000052001800830005000000480000000F003900090000000000000004000000140003003D001F000000000000003B000300000000000000000000003B0000000000000000000000000036003C00000000000A0000002500110000000C000000AD00000000001A0015005800860004000000130019000000000000005100000000000000000000001E0000000000000000006E0005002A00000000000000000000
0000001C0083001900690000000000000000000000000000001C000000580011004700000000005300000000000000000000004E002000000000002700000000001F0000001C00000000001C0033000000000021000000140031000000000041000F0023003A0000003B001A000000350027000000000000001000000000000000100000004B0000000000000055000000000000000000000000000100000000000000000020000200000000000000000000000000000000000000210000000000000004000000000000001500000000000000040000008B00000000000000000000000000260000001100130000000000000091000000410000001B00200000
0000000000270000000000000000000000000000000000000017002B002A0000003500000000003C00000000000000000000000000000000001D000000000000000000000000000000000016003E000000000040000000000000001B002C00000000006100540000000000000000000000000000000000000000002F0000000000000042003700100051001D00000000000000240000000000000000000000000000000000000000000500000000000000440000000000000000000000000000000000030000000000110000000000010000000000000000000000710000000000000000004A00000000000000000000000000070000000E0000000000000000
000000000000000A000000000000000000000000000000000000000000000000000000000000000000000000000000000000000000000000000000000000000000000000002E0000004D000000000000000000000000000000000000003300000000000000600000000000000000000000000000000000000000000000000000000000000000004300000000000000000000000000000000000000000000FFFF00000000000000000000000000000000000900000000002100000000001500000000000000000000002A000000000000000000000000000000000041000000000000000000000000000000000000000000000000000000000000000000000000
00000000000000000000000000000000000000000000000000000000000000000000000000000000000000000000000000000000000000000000000000000000000000000000000000000000000000000000000000000000000000000000000000000000000000000000000000000000000000000000000000000000000000000000000500000000000000000000000000000000000000000000000000000000000000000000000000000000000000000000000000000000000000000000000000000000000000000000000000000000000000000000000000000000000000000000000000000000000000000000000000000000000000000000000000000000
0000000000000000000000000000000000000000000000000000000000000000000000000000000000000000000000000000000000000000000000000000000000000000000000000000000000000000000000000000000000000007000000000000000000000000FFFF0000000000000000000000000000000000000000000000000000000000000000000000000000000000000000000000000000000000000000000000000000000000000000000000000000FFFF0000000000000000000000000000000000000000000000000000000000000000000000000000000000000000000000000000000000000000000000000000000000000000000000000000
0000000000000000000000000000000000000000000000000000000000000000000000000000000000000000000000000000000000000022FFFF000000000000000000000000000000000000000000000000000000000000000000000000000000000000FFFF0000FFFF000000000000000000000000000000000000000000000000000000000000000000000000000000000000000000000000FFFF0000000000000000000000000000000000000000000000000000000000000000FFFF000000000000000000000000000000000000000000000000000000000000000000000000000000000000000000000000000000000000000000000000000000000000
00000000000000000000000000000000000000000000000000000000000000000000000000000000000000000000000000000000000000000000000000000000000000000000000000000000000000000000000000000000000000000000000000000000000000000000000000000000000000000000000000000000000000000000000000000000000000000000000000000000000000000000000000000000000000000000000000000000000000000000000000000000000000000000000000000000000000000000000000000000000000000000000000000000000000000000000000000000000000000000000000000000000000000000000000000000
FFFFFFFFFFFFFFFFFFFF0000FFFFFFFFFFFFFFFFFFFFFFFFFFFFFFFFFFFFFFFFFFFFFFFFFFFFFFFFFFFFFFFFFFFFFFFFFFFFFFFFFFFFFFFFFFFFFFFFFFFF0057FFFFFFFFFFFFFFFFFFFFFFFFFFFFFFFFFFFFFFFFFFFFFFFFFFFFFFFFFFFFFFFFFFFFFFFFFFFFFFFFFFFFFFFFFFFFFFFFFFFFFFFFFFFFFFFFFFFFFFFFFFFFFFFFFFFFFFFFFFFFFFFFFFFFFFFFFFFFFFFFFFFF0000FFFFFFFFFFFFFFFFFFFFFFFFFFFFFFFFFFFFFFFFFFFFFFFFFFFFFFFFFFFFFFFFFFFFFFFFFFFFFFFFFFFFFFFFFFFFFFFFFFFFFFFFFFFFFFFFFFFFFFFFFFFFFFFFFFFFFFFFFFFFFFFFFFFFFFFFFFFFFFFFFFFFFFFFFFFFFFFFFFFFFFFFFFFFFFFFFFFFFFFFFFFFFFFFFFFF0000
FFFFFFFFFFFFFFFFFFFF0000FFFF0000FFFF0000FFFF0000FFFFFFFFFFFFFFFFFFFFFFFFFFFFFFFFFFFFFFFFFFFFFFFFFFFFFFFFFFFF0000FFFFFFFF0000FFFF000000000000FFFF0000FFFFFFFFFFFFFFFF0000FFFFFFFF0000FFFFFFFFFFFFFFFFFFFF0000FFFFFFFFFFFFFFFF0000FFFFFFFFFFFF0000FFFFFFFF0000FFFFFFFFFFFFFFFFFFFFFFFFFFFF0000FFFF00000000FFFFFFFF0000FFFFFFFF0000FFFF0000FFFF0000FFFF0000FFFF0000FFFFFFFF00000000FFFFFFFFFFFFFFFFFFFF0000FFFFFFFFFFFFFFFFFFFFFFFFFFFFFFFF0026FFFFFFFF00000000FFFFFFFF0000FFFFFFFF00000000FFFFFFFFFFFFFFFFFFFFFFFFFFFFFFFFFFFF0000
FFFF00000000FFFF00000000000000000000FFFFFFFF0000FFFF00000000000000000000000000000000000000000000FFFF000000000000000000000000000000000000FFFFFFFF00000000FFFF0000FFFF000000000000FFFF0000FFFF0000FFFFFFFF0000FFFF0000000000000000FFFF000000000000000000000000FFFF00000000000000000000000000000000000000000000FFFF0000000000000000FFFF0000000000000000FFFF000000000000FFFF00000000004C00000000000000000000FFFF0000FFFF0000FFFF000000000000FFFFFFFF000000000000FFFF000000000000FFFF0000FFFFFFFFFFFFFFFFFFFF0000000000000000FFFF0000
00000000000000000000000000000000000000000000000000000000000000000000000000000000000000000000000000000000000000000000000000000000000000000000000000000000000000000000000000000000000000000000000000000000000000000000000000000000000000000000000000000000000000000000000000000000000000000000000000000000000000000000000000000000000000000000000000000000000000000000000000000000000000000000000000000000000000000000000000000000000000000000000000000000000000000000000000000000000000000000000000000000000000000000000000000000
FFFFFFFFFFFFFFFFFFFFFFFFFFFFFFFFFFFFFFFFFFFFFFFFFFFFFFFFFFFFFFFFFFFFFFFFFFFFFFFFFFFFFFFFFFFFFFFFFFFFFFFFFFFFFFFFFFFFFFFFFFFFFFFFFFFFFFFFFFFFFFFFFFFFFFFFFFFFFFFFFFFFFFFFFFFFFFFFFFFF0059FFFFFFFFFFFFFFFFFFFFFFFFFFFFFFFFFFFFFFFFFFFFFFFFFFFFFFFFFFFFFFFFFFFFFFFFFFFFFFFFFFFFFFFFFFFFFFFFFFFFFFFFFFFFFFFFFFFFFFFFFFFFFFFFFFFFFFFFFFFFFFFFFFFFFFFFFFFFFFFFFFFFFFFFFFFFFFFFFFFFFFFFFFFFFFFFFFFFFFFFFFFFFFFFFFFFFFFFFFFFFFFFFFFFFFFFFFFFFFFFFFFFFFFFFFFFFFFFFFFFFFFFFFFFFFFFFFFFFFFFFFFFFFFFFFFFFFFFFFFFFFFFFFFFFFFBFFFFFFFFFFFF0000
FFFFFFFFFFFF0000FFFF0000FFFF0000FFFF0000FFFFFFFFFFFFFFFFFFFFFFFFFFFFFFFF0000FFFFFFFF004AFFFFFFFF0000FFFFFFFF0000FFFFFFFFFFFFFFFFFFFFFFFFFFFFFFFFFFFFFFFFFFFF0000FFFFFFFF00000000FFFFFFFF0000FFFFFFFF0000FFFFFFFFFFFFFFFFFFFFFFFFFFFFFFFFFFFFFFFFFFFFFFFFFFFFFFFFFFFFFFFFFFFFFFFFFFFFFFFFFFFFFFFFFFFF0000FFFF0000FFFFFFFFFFFFFFFFFFFFFFFFFFFFFFFFFFFFFFFFFFFF0000FFFFFFFFFFFFFFFFFFFFFFFFFFFFFFFFFFFFFFFFFFFFFFFFFFFFFFFFFFFF0000FFFF0000FFFFFFFFFFFFFFFFFFFFFFFFFFFFFFFF0000FFFFFFFFFFFFFFFFFFFFFFFFFFFFFFFFFFFFFFFFFFFF00000000
FFFF00000000FFFF000000000000000000000000FFFF0000FFFF00000000000000000000000000000000000000000000FFFF000000000000000000000000000000000000FFFFFFFF00000000FFFF0000FFFF000000000000FFFF0000FFFF0000FFFFFFFF000000000000000000000000FFFF000000000000000000000000000000000000000000000000000000000000000000000000FFFF0000000000000000FFFF0000000000000000FFFF000000000000FFFF00000000003200000000000000000000FFFF0000FFFF0000FFFF000000000000FFFFFFFF000000000000FFFF000000000000FFFF0000FFFF0000FFFFFFFF00000000000000000000FFFF0000
00000000000000000000000000000000FFFFFFFF00000000FFFF00000000000000000000000000000000FFFF0000FFFFFFFF00000000FFFFFFFF00000000FFFF000000000000000000000000FFFF0000000000000000000000000000FFFF00000000FFFF000000000000FFFFFFFF000000000000FFFF00000000FFFF000000000000000000000000000000000000FFFF00000000000000000000000000000000000000000000000000000000000000000000000000000000008A00000000000000000000FFFF0000000000000000000000000000FFFF0000000000000000000000000000FFFF0000000000000000000000000000000000000000000000000000
0000FFFFFFFF00000000000000000000FFFF000000000000000000000000000000000000000000000000FFFF0000FFFFFFFF000000000000000000000000FFFF000000000000000000000000FFFF000000000000FFFF000000000000FFFF00000000FFFF000000000000FFFF0000000000000000000000000000FFFF000000000000000000000000000000000000002F00000000FFFF000000000000000000000000FFFF0000000000000000000000000000000000000000000000000000000000000000FFFF00000000000000000000FFFF000000000000000000000000000000000000FFFF00000000000000000000000000000000FFFF0000000000000000
00000000000000000000000000000000FFFFFFFF00000000FFFF00000000000000000000000000000000FFFF0000FFFF00000000FFFF0000000000000000FFFF00000000000000000000000000000000000000000000000000000000FFFF00000000FFFF000000000000FFFFFFFF000000000000FFFF000000000000FFFF00000000000000000000000000000000FFFF00000000FFFF0000FFFF00000000000000000000000000000000000000000000000000000000000000000000000000000000000000000000000000000000000000000000FFFF000000000000000200000000FFFFFFFF00000000000000000000000000000000FFFF0000000000000000
0000FFFFFFFF00000000000000000000FFFFFFFF0000000000000000000000000000000000000000000000000000000000000000FFFFFFFF0000000000000000000000000000000000000000FFFF000000000000FFFF000000000000FFFF00000000FFFF0000000000000000FFFF000000000000000000000000FFFFFFFF000000000000000000000000000000000000000000000000000000000000000000000000000000000000000000000000FFFF0000000000000000000000000000000000000000000000000000000000000000000000000000000000000000000000000000FFFFFFFF00000000000000000000001E00000000FFFF0000000000000000
0000000000000000001C00000000000000000000001D0000000000000000000000000000000000000000000000000000000000000000000000000026000000000000000000000000000000000000000000000000000000000000000000000005000000000000000000000000000000000000000000000000000000000000000000000000000000000000003B00000000000000000000000000000000000000000000000000220000000000000000000000000000000000000000000B000000000000000A000000000000000000000000000000000000000000000000003F0000000A000000000000000000000000000000000000000000000000000000000000
0000000000000000003C000000000000000000000000000000000000000000000038000000000000001E000E0000005100070000000000020000000000000000002900000000000000000000000000000018000000000000000000230000000000000000000000000000002300000007000000000000000000000000000000000000000000000000000000000000000000400000000000000000004E00000000000000000003004900000000000A000000000000002300010000000000000019000000160000000000000000008900000000000000000000000E0000000000000000000000000000000000000000000000050000001B00000000000700000000
0012001F00330000000000000052000000000000002200000000001200000057001E000000000000001C0000001E00000000000300000000002400090000001B00030000002100000031002200210000000000000000001000420000000700120000003500180000000000130000000F000000000000000000000000000000000003003600000000000100000000000000000000000000000024003800000000000B0000005200460040000C001200000000001500000000001900360000000000000016000800000000000000560000000000000000000E001400850000000000000000004A0000000000000017002F001F0000000000000013003100000000
0000001C00000040000000000031009E00040000000000000010000000000000000000000000000000010000003D004D0077002F00070000005A004800000000000900000000005E000000000000000800000035000A001F0000000F002000000000002E002B00000000000000000049000900000000000000060000000000000025006100510000000F00000061007F0000001900000000000000590000000000730000000000000000000000000000002E00000000000900000000000000000057006F000D000000000000000E000000000040000A00000000005F00000000000000200000000000000000000000260029000000000000002B001500000000
000D0000000000120000000000110007001C0000000000120000001800260000001400000005000B0000000400000000001A0000000000420000003900000000003400260000000000100000000000270000000500000000002500060000004900030000002A00000000002B003300750007000000000000000000000010000200010011005000000000001A000E002A00720000000D0009001B000C00000002001E00000000001A00000000000000190000001E001D0000000A007B0021007100000000000000000016002F0000005000000000001F004500000000000000000014002A00110008002F0000000000000032000B005400000010000000260000
000000000000007B003B00290000000F0061002B006C000000480034000F002900270031003B000000030000001A0000000000400000000F0029001B000000000000002A007000210019001400080000000000680000001D005F001E000D00140000000300210000000000170000000000000000000000000000000C0000002200400023001C00000004006300000033000000200000000000000000000000000024000A00270000001B0000000B0000001300000000001A00300000003F000000000051000000000000004700210058000000000011003500200000000000000068000A002900620034000200000000002F0023000000000043000000000000
0004000000000051000000000000002D00230000001A000000240000002100000078000000000061000B00080000003A001C0005001A002E00000000000F000200000000004100000011000500000000000A000000000000001800000000000000120013005F0000000000660000000000000000001E00000000000000000000000000000016000E0010002F0000000000000000003100000028000000130000002900000000000000480063004000260000000000000000000000490029001F000E00330000002F00770000004F00000000002C0037001300000000000000000036003100000000005C0002000000000000001600000035001E001A00000000
001C0000000000230000001C0000002D00B70000000000000053000000000001000000000018000A0000007E000A0059003F003400210000000800000000002D00060039000000150000000000000000002400270000000000010023001300000024000000600000000400000046001E001200000035000000000000000000020000004900000024001A005C00000000000000010000000000000000000000000041001F0010000000410000002A002F00000000000000000000000000220000000400000000000000000026009B00040000000000000002002D000000370000000000000031000000000000002B0000000B000000310059000B000E00220000
0000001F00280000005C00160025000000070004000F00070041000000170000000000000014000F002B0000003E0034005D003B00000000000B0026001D000000000000000000000000000000000000000000000000000000000000000A008A00060000000000000043006600030014001700000000000000310027002D00000028004D001D0015000000160000001B001A000000350011000000000000000000000000009F000000000002000000000000000000030000000000350000000000310000001D0000000000370003000D003D00000019003000000000000000000013002E005700520022000000240000001B0042000000000000004500110000
00320000001B00420000000F0005000000000000000000000035002C0000000B00000028003E00000000002400090073000E00000000002D000E000D0000000000000000000000400072000000000000002D000C007F00000000001100090000000C00130032003100000000000B0067005800350025000000000003000000AE001E00310007000500000047000000000047000000090000004300000001000A0000003500000049000100000019000A000000350000000000B00000002500250000000000000023000E00000007000000000000001700000034002F000000000019000600000000000B0000002A00400000000000020000001F0000001B0000
001D0000000000110047000000000000000000000006000000100022000B00000027000000250032000000000049003500000000000000150000000A00040013003E000A00000037000000000048002D0021004A00080000002E0044000700000004001F00000000002C000000000000001A006B000000000012002300160000000000000000000600120064001F0008000E001E00070029004A002D00000000000000000000000C00120000000000090000000C00250000000000000000000000120042003800000000000000110000001B0000003700490039003B0000000000000000002100000000001E0024001F000000000039000C00200000002D0000
000000070015000E0000000000000057000000020024001B000800700040005B0016004E0006000000000018000000010000001000000000000000000000001C001E00000000000000000000000000000056000000000000002A00460000000000240009000D000000180022001F0000001E000000000000000000000000004D0032002D001700340000000000000000000000000021001F0000000000180000004200120033001600350013000000000000002F0000000000120043000F001300030006000600010019001C00090000000000000000000000000000000000000000001700A30040004C001E00000000000000000000000000000022001F0000
0000006000000000001D00000025000000060006000000000000000000000000000A000B00360000000000000000001F000000000087003300000000000000500014000000000000003B004300000000000300270010000A0010000700000018000D0000002000280000002900130018000000000000000F0000002C0000000000070000000000290051001C00280000002900000025000000000000000000000000000000300000000000000000000000030000000000000000000000600000000000000000000000000000002400000000000000340000000000530000000000280000000000200021000E0022001200000000001500000019000000030000
00000013000000000000000000140000000000000000000000000000002E002C000000000000000000000000000000000000004C00000027000000000000000000000006002700430000000000000000000000610000000000000000005D000000360000004E0000000000000000000000510034000000000000000000000000000500000000001600270000000000000000000000000000005100000000000000430000000000000049000000000000000000000000000000000026000000000000000000000000000300000000000000000026000D00000000003C000000000000000000330015000000130000002D002A000000000000002B000000000000
0000000000000000000000000000000000000000000000000000000000000000002D0000000000000000000000000000000000000000000000000000000000000000000000000000003100000000000000000000000000000000000000000000000000660000000000000000000000000000000000000000000000000000000000000000000000000000000000000000003E0000000000000000000000000000000000000000000000000000000000000000000000000000000000000000000000000000000000000000000000000000000000000000000000000000000000000000000000000000000000000000000000000000000000000000000000000000
00000000FFFF00000000000000000000000000000000000000000000000000000000000000000000000000000000000000000000000000000000000000000006000000000000000000000000FFFFFFFF0000000000000000000000000000FFFF00000000FFFF0000FFFF000000000000FFFF00000000FFFF0000000000000000000000000000000000000000000000000000000000000000000000000000FFFF0000000000000000000000000000FFFF000000000000FFFF000000000000000000000000000000000000000000000000FFFF000000000000FFFF00000000000000000000FFFF0000FFFF00000000000000000000000000000000FFFF00000000
FFFFFFFFFFFFFFFFFFFF0000FFFFFFFFFFFF00000000FFFF0000FFFFFFFFFFFFFFFFFFFF000000000000FFFF00000000FFFFFFFFFFFF00000000FFFFFFFF002DFFFFFFFFFFFFFFFFFFFFFFFFFFFFFFFF0000FFFFFFFF0000FFFFFFFFFFFFFFFFFFFFFFFFFFFF0000FFFFFFFFFFFFFFFFFFFFFFFFFFFFFFFFFFFF0000FFFFFFFF00000000FFFFFFFFFFFF0000FFFFFFFF00000000FFFFFFFFFFFF0000FFFFFFFFFFFFFFFFFFFFFFFFFFFFFFFFFFFFFFFFFFFFFFFFFFFFFFFF0000FFFFFFFFFFFFFFFFFFFFFFFF0000FFFFFFFFFFFF0000FFFFFFFFFFFFFFFFFFFFFFFFFFFFFFFFFFFFFFFFFFFFFFFFFFFFFFFFFFFFFFFFFFFFFFFFFFFFFFFFFFFFFFFFFFFF0000
FFFFFFFF0000FFFFFFFF0000FFFFFFFF0000FFFFFFFFFFFFFFFFFFFFFFFFFFFFFFFFFFFFFFFFFFFFFFFFFFFFFFFFFFFFFFFFFFFFFFFFFFFFFFFFFFFFFFFFFFFF0000FFFFFFFFFFFFFFFFFFFFFFFF00000000FFFFFFFFFFFFFFFFFFFFFFFFFFFFFFFFFFFF0000FFFFFFFFFFFFFFFFFFFFFFFF0000FFFFFFFFFFFFFFFFFFFFFFFFFFFFFFFFFFFFFFFFFFFFFFFFFFFFFFFFFFFFFFFFFFFFFFFFFFFF0000FFFFFFFFFFFFFFFFFFFFFFFFFFFFFFFFFFFFFFFFFFFFFFFFFFFFFFFFFFFFFFFFFFFFFFFF0000FFFFFFFFFFFF0000FFFFFFFFFFFF00000000FFFFFFFFFFFFFFFF0000FFFFFFFFFFFFFFFFFFFFFFFFFFFFFFFFFFFF0038FFFFFFFFFFFFFFFFFFFFFFFF0000
FFFFFFFFFFFFFFFFFFFF0000FFFFFFFFFFFFFFFFFFFFFFFFFFFFFFFFFFFFFFFF005FFFFFFFFFFFFFFFFFFFFFFFFFFFFFFFFFFFFFFFFFFFFFFFFFFFFFFFFFFFFFFFFFFFFFFFFFFFFFFFFFFFFFFFFFFFFFFFFFFFFFFFFFFFFFFFFFFFFFFFFF0000FFFFFFFFFFFFFFFF0000FFFFFFFFFFFFFFFFFFFFFFFF0000FFFFFFFFFFFFFFFFFFFFFFFFFFFFFFFFFFFFFFFFFFFFFFFFFFFFFFFFFFFFFFFFFFFFFFFFFFFF0000FFFF0000FFFFFFFFFFFFFFFFFFFFFFFFFFFFFFFFFFFFFFFFFFFFFFFFFFFFFFFF0000FFFFFFFFFFFFFFFFFFFFFFFFFFFFFFFFFFFFFFFFFFFFFFFFFFFFFFFFFFFFFFFFFFFFFFFFFFFFFFFFFFFFFFFFFFFFFFFFFFFFFFFFFFFFFFFFFFFFFFFF0000
FFFFFFFF0000FFFFFFFFFFFFFFFF000000000000FFFFFFFFFFFFFFFF0000FFFFFFFF00000000FFFFFFFF00000000FFFFFFFF00000000FFFFFFFFFFFFFFFFFFFFFFFFFFFFFFFF00000000FFFF0000FFFFFFFFFFFF0000FFFFFFFFFFFFFFFFFFFFFFFFFFFFFFFFFFFF000000000000FFFFFFFFFFFFFFFFFFFFFFFF00000000FFFFFFFFFFFFFFFF0000FFFFFFFFFFFFFFFFFFFF0000FFFFFFFFFFFFFFFF00000000FFFF0000FFFFFFFFFFFF00000000FFFF000000000000FFFFFFFFFFFFFFFF0000FFFF00000000FFFFFFFF0000FFFF000000000000FFFF0046FFFFFFFFFFFFFFFFFFFF0000FFFFFFFF00000000FFFFFFFFFFFFFFFF00000000FFFFFFFF00000000
0000FFFFFFFF0000000000000000FFFF0000FFFF0000FFFF00000000FFFF0000FFFFFFFF0000000000660000FFFFFFFFFFFFFFFFFFFFFFFFFFFFFFFF0000FFFFFFFFFFFF00000000FFFFFFFFFFFFFFFFFFFFFFFFFFFF0000FFFFFFFFFFFF0000000000000000FFFFFFFFFFFFFFFFFFFF0000FFFFFFFFFFFFFFFF00000000FFFF00000000FFFF0000FFFFFFFFFFFFFFFFFFFFFFFFFFFFFFFF00000000FFFFFFFFFFFFFFFFFFFFFFFF0000FFFFFFFFFFFFFFFFFFFFFFFFFFFFFFFF00000000FFFF0000FFFFFFFFFFFFFFFF0000FFFF0000FFFFFFFFFFFFFFFFFFFF0000FFFFFFFF0000FFFF00000000FFFF0000000000000000FFFFFFFFFFFF00000000FFFF0000
0000000000000000FFFF00000000FFFF000000000000000000000000FFFFFFFF00000000FFFF000000000000FFFF00000000000000000000FFFFFFFF00000000FFFF00000000FFFF00000000FFFF0000000000000000000000000000FFFFFFFF0000000000000000FFFF00000000000000000000FFFFFFFF000000000000FFFF00000000FFFF00000000006C000000000000FFFFFFFF000000000000FFFF0000FFFFFFFF0000000000000000FFFF0000FFFF000000000000000000000000FFFF0000FFFFFFFFFFFF0000FFFF0000000000000000000000000000000000000000FFFF000000000000000000000000000000000000FFFF0000FFFFFFFF00000000
FFFFFFFFFFFFFFFFFFFF0000FFFFFFFFFFFFFFFFFFFF0000FFFFFFFFFFFFFFFFFFFFFFFF0000FFFFFFFFFFFFFFFFFFFFFFFFFFFFFFFFFFFF000000000000FFFF0000FFFFFFFFFFFFFFFFFFFFFFFFFFFF0000FFFF00000000FFFFFFFFFFFFFFFFFFFFFFFFFFFFFFFF0024FFFFFFFFFFFF00000000FFFFFFFFFFFFFFFF0000FFFFFFFFFFFFFFFF0000FFFFFFFFFFFFFFFFFFFFFFFF0000FFFFFFFF0000FFFFFFFFFFFFFFFFFFFFFFFF0000FFFFFFFFFFFFFFFF0000FFFFFFFFFFFFFFFFFFFFFFFF0000FFFFFFFFFFFFFFFFFFFFFFFFFFFF0000FFFF0000FFFF0000FFFFFFFFFFFFFFFFFFFFFFFF0000FFFFFFFFFFFFFFFFFFFFFFFFFFFFFFFF00000000FFFF0000
0000FFFF0000FFFFFFFFFFFF0000000000000000000000000000000000000000FFFF00000000FFFF00000000000000000000000000000000FFFF00000000FFFFFFFF0000FFFF0000000000000000FFFF0000FFFF0000FFFFFFFFFFFFFFFF000000000000FFFFFFFF000000000000000000000000FFFF0000FFFF000000000000FFFF0000000000000000FFFFFFFF0000FFFF00000000FFFFFFFFFFFF00000000FFFF00000000FFFF000000000000FFFF000000000000FFFFFFFF0000000000000000000000000000FFFF000000000000000000000000002C0000FFFFFFFF0000000000000000FFFF00000000FFFFFFFF0000FFFF00000000FFFF000000000000
0000FFFFFFFF00000000FFFF00000000FFFFFFFF00000000FFFF00000000000000000000000000180000FFFF0000FFFFFFFF0000FFFFFFFFFFFF00000000FFFF000000000000000000000000FFFF000000000000FFFF000000000000FFFF00000000FFFF000000000000FFFFFFFF000000000000FFFFFFFF0000FFFFFFFF00000000000000000000000000000000FFFF00000000FFFF0000FFFF0000000000000000FFFF00000000000000000000FFFF0000000000000000000000000000000000000000FFFF00000000000000000000FFFF0000FFFF000000000000000000000000FFFFFFFF00000000000000000000000000000000FFFF0000000000000000
00000000FFFF00000000000000000000FFFFFFFF00000000FFFF0000000000000000000000000000000000000000FFFFFFFF0000FFFFFFFF000000060000FFFF000000000000000000000000FFFF000000000000FFFF000000000000FFFF00000000FFFF000000000000FFFFFFFF000000000000FFFF000000000000FFFF00000000000000000000000000000000FFFF00000000FFFF0000FFFF0000000000000000FFFF0000000000000000000000000000000000000000000000000000000000000000FFFF00000000000000000000FFFF0000FFFF000000000000000000000000FFFFFFFF00000000000000000000000000000000FFFF0000000000000000
000000000000000000000000000000000000000000000000000000000000000000000000000000000000000000000000000000000000000000000000000000000000000000000000000000000000FFFF000000000000000000000000000000000000000000000000000000000000000000000000000C000000000000000000000000000000000000000000000000000000000000000000000000000000000000000000000000000000000000000000000000000000000000000000000000000000000000000000000000000000000000FFFF00000000000000000000000000000000000000000000000000000000000000000000000000000000000000000000
00010000000000000020FFFF0000000A000000000000000000000000000000000000000000000000000000000000000000000000000000000000006D000000000000000000000000000000000000000000000000FFFF000000000000000000020000000000000000000000000000000000000000000000000000FFFF0000000000000000000000000000000000000000000000000000FFFF000000000026000000000000000E0000000000000000FFFF00000000000200000000000000000000000000350000000000000000002100000000000000000000007600000000000000000000000000000000000000000000003D0040000000000000000000000000
001F0000001D0000000000000000000000000009004000000000000000000000003800000000002E00240000000000130000000000000000000000160038003900000000005A0000000700000000000000020000000000000000000000000023000000000000000000000000002C000000000000000000420000000000000024004D001100330000008100160000000000000000001E0000000000630000000000000000000B0000000A0000001E00000000000200000000003B0065000000000000000000000000000400350009000000000000000000000072000000000000003B000000000000000000000000002700000000000000000000000000000000
004A00170059001B008C000000000000000A0000000D0000001A0000004B000000000000000D005300530000000000160007000000000000001000000073000000000000000900000000002C00000000000000000068000100260000000000510001001D0031000300000000000000000000000000000001000000000003005F000D0000002B00000000000B000000000000000B000F00300033002F0000000300000013000000190000002E00000000001F0000001E00420000005E002F0000000000000000000000000006000100000000001C0025000700180000000000000015000000000020002400000000003B00000010005D00000027005800000000
00000045003F000000430000001300000026000000140000000B0000002C0000002A001A000000000005003A00310000009600000000003600000000001F000900B000000000003A00000054002500350052000F0000000F0000000F00000011000B0000002B0063002700000000000000000037004A0000000000090000004C000000000000000000000000002A001500440000002B00000000000000000025000600000008000000000000000000030000003100030000000000000015000000400022000E00000009000000530000000000200000000000000018000000200000000000000000002100000000001000000000005C00220000000000000000
007F00540000001D0045001300000001003B00340000003300000000000000000000000000000014000000000013000B00000000000000300000002A0000007900000024000000000017001C00000000000C00000009000000000000004F001F000000460010002C000000000000001C000000060015000000000000000400000000004400340000002E000000030000000E00210033002B000000290049000000020000000A000A00000000004B00130005000000000000000000570054000D00000036000000000000000000000000001A000C001700000000000000000076001A00220067000000000047000000000000000000690000000C000000000000
000000000065000B00000000001B001A001C003F0000002200260009002B0000000000000000000900000071000E000000000000004000000062004D0000000000150000005F0000000000000007000000000000000000000000000000000000000C0000000000000000001F004400000000002F0000002F002500240000008F0000000000210000001A007E00000000000C0000002B0000000000250000001100000008000000110000000C004F00000000000000000000000B0008002300000000000000000000001D0000000C00000000002D0005000F0000006A000D00000042000000230000006F00100036005500290000000000000031003700000000
001D00000000002600000000002D003C0008000000000000000600430000000000000000004500180000000000250000003200000000002B00000000000A00550003003800000007000E009C0000004C0043000400000026004400000000000000000009000D00180000000000280000001D00000000001A0057002400000001000000000000000000000000000000000000004300060000001300000004000000140016001A0028004C003C000000160000000000030008002D000C00000021003B0000000000000000004F000000870000000000000032004D00100032001F002C000000190010003D0036002300010000000000000000000D000400000000
000A0004000B00440000000000000000001100000000005E000000000032000000000000005A0000000000140031001000000051000000340024000000000038008C0047000000000000001C0053000000000000000C0000000000000000002100000000000000000019002B000200000048003D0000000000000000000000000026001A0000000000000000002B000000000000000C003B002E003A0000000000040000000700000000000000220017002400000000000000290000001800170001000000300000004200000000004200390029002D00220006000000000025000A0000000000000000000000080000001B00180000000A0025003F00420000
000000000000002E000500000000000400150000000000620000000000000000000000000030000800000000000E0041002100000000001C0040000000420000000F00000000000000000035001A0000002F000000150000000500000000004B000D001200000000001D0010003700290000000600000000002300000000008600040000000200000031000000310000003400000000000000120000001E0000004D00000000002D000000000023001600000000000C000000000072000000000015000000000000006C0000004100000000001E0021008A0000000000380014002500000000000000000000000000000000000000520020002D009500000000
000000000036001600040000003100000020002500260014003600000000000500100000000000100000002C00000000000000000000000000340000002700000003000000000000001C0001004A0000004A000000000030000F00000000009C0000000000000007003A0000000000470000000C003F00000000000000000000001D005400000000003800300000004A00000000005B000200000000002F001700000000003F0009004900000000000000000000000000610001000000000000002A00090000002D000300000000005C000000000000000000710069006D000000360037002B0013003C0001003E0000002E0000000B00000000006300000000
0000003B00000000000000380000000000000000000000000000001F0009000F000B000E00080000000B00000000001F00170000002B001F0007001C00000000000800170065000000230000000000300054000E000000000071005A0000000000210000000B0015000000000000001E002400110000001500000000001000000021001F004400280000000000000014003700000000000000000000002200480000000A000800390005003D0055000000120008000000000000000000000000004600520000000E0000000000370045005E00140000002D00000000000D0000000000100000002E000000000015000B000000240039000000000000002E0000
004D0057000000500000000000000000003300170000000200270000000D004F000C00000000000000320000000000290000004A000F0009001A0000008500610000003F0012001D0000000000000000000000250000002A0000001300400010001900000021000000000000000600540026002C0000000000000021002100460000001700410033000D0010000200000004000E0000002C00470000000000000013000000000000004700000000000000050000002800000000003E00680000000F00000000002A003900000016001C000000060025002000000025000000010000000000000002004E0000000F00000002002E004300030000000000000000
000000000000004A00000000000000000032000000440037000D00000000004700000000002300340000000000000003000000000022005D002A00000000004C00030000003F00000000000000000000009E004A0000001E0008002F000000000000005C00530028000200160000000000160000001200000000001F00000000000000150000000D000700000012000000000000000000280013000F0002005900210022000000000001000000000026000D00340022000000000009000400000000000000000046000B00000000007500000019002700000000001B0043000000000000000000110000003A0000004A0032000000150016001D003700000000
00000000000900000039000000000002002B001B000C000C00000000000E0031002600370000000D000000000000004A00110000000B00000000000000190000004F00000000001C001400000005001000480062000A0000000000270000000000000000000000000000003D000000000000001C00280017001C0000001B0000001900000017001600130000003800000013000000000013000D0000001E000000000000001500000053000000000000001800080000002900000007000D00000001004E00000000003D00000000000000000035005600300042005B0000001B0009000000080022000000670000000000000009000000360000000000000000
001700000035000D000800000031000C001A000C0019001B00570000001200000000001C002F004A00000000003000010000004100000000000400000010000000000000000000000035003A003200000000001B00170014003F000F001A00000000001D000000050000000600320018002500320018000000000000000E00000000001300270022000000310000001B005B0000000400000001000000000000000000000000000000000000000000000000004A000000240000000000000000001900280005000000300000002A000000450000001B0000000000000005000000000004000C0000000000000026000F003700000051004300000046006B0000
00000000000000000000000000000000000000000000000000070000000000600007003C0000005D0000000000000000000000260000004700000000002700010009000000000000006F000000000000003C00320000000000000009000000000000000A0000000000000000001F0022000000000000000000000000000000000000000000000029000000000000000000450000002E0000003700000000000000000000000000000022000000000000000000000000004900010000000400000000000000000009000000000000000000140000006E006800190000000000000000000000000000000000000000000000100000000000260046000000000000
0000004500000000000000000000000000000000000000000000000000000000000000000000000000000000000000000000000000000000000000000000000000000000000000000000002F00000000000000000000000000000000000000000000000B00000000000000000000000000000000000000000000000000000000000000000000000B000000000000000000000000000000000000000000000000000000000000000000000000000000000000000000000000004B00000000000000000000000000000000000000000000000000000000000000000000000000000000000000000000000000000000000000000000000000000000000000000000
00000000000000000000000000000000000000000000000000000000000000000000000000000000000000000000000000000000000000000000000000000000000000000000001000000000000000000000000000000000000000000000000000000000000000000000000000000000000000000000000000000000000000000000000000000000000000000000000000000000000000000000000000000000000000000000000000000000000000000000000000000000000000000000000000000000000000000000000000000000000000000000000000000000000000000000000000000000000000000000000000000000000000000000000000000000
00000000000000000000000000000000000000000000000000000000000000000000000000000000000000000000000000000000000000000000000000000000000000000000000000000000000000000000000000000000000000000000000000000000000000000000000000090000000000000000000000000000000000000000000000000000000000000000000000000000000000000000000000000000000000000000000000000000000000000000000000000000000000000000000000000000000000000000000000000000000000000000000000000000000000000000000000000000000000000000000000000000000000000000000000000000
