0000
0000
0000
FFFF
FFFF
FFFF
0000
0000
0000
0000
FFFF
FFFF
FFFF
0000
FFFF
FFFF
0000
FFFF
FFFF
FFFF
0000
FFFF
0000
0000
FFFF
0000
FFFF
0000
FFFF
0000
0000
FFFF
0000
FFFF
FFFF
FFFF
0000
FFFF
0000
0000
0000
FFFF
FFFF
FFFF
0000
0000
FFFF
0000
FFFF
0000
0000
0000
FFFF
FFFF
0000
0000
FFFF
FFFF
FFFF
0000
FFFF
0000
FFFF
FFFF
0000
0000
0000
0000
0000
0000
FFFF
0000
0000
0000
0000
0000
0000
0000
FFFF
0000
0000
FFFF
FFFF
FFFF
FFFF
0000
FFFF
FFFF
FFFF
FFFF
0000
0000
0000
0000
0000
0000
0000
0000
0000
0000
0000
0000
0000
0000
0000
0000
0000
0000
0000
0000
FFFF
0000
0000
0000
FFFF
FFFF
FFFF
0000
FFFF
0000
0000
0000
0020
004D
0000
0000
000D
003B
0000
0000
001B
0000
0000
0000
0000
0000
0000
FFFF
FFFF
0000
0000
FFFF
FFFF
0000
0000
0000
0000
0000
0000
0007
0031
0015
0000
0000
001A
000E
0045
0000
0000
0022
0000
0000
0000
FFFF
FFFF
FFFF
FFFF
FFFF
0000
FFFF
0000
0000
0000
0000
0000
0000
0000
0058
0000
0000
0037
0004
003F
0095
0063
0000
0000
0037
0000
0046
0000
0000
0000
0000
FFFF
FFFF
FFFF
0000
0000
FFFF
FFFF
0000
0000
0024
0009
0000
0000
0000
0000
0000
0000
0003
006C
0028
0000
003F
0000
000B
0000
0000
0000
FFFF
0000
0000
FFFF
FFFF
FFFF
FFFF
0000
0000
0000
0000
000F
0054
0000
0010
000F
0012
006B
0000
0000
0005
0013
0018
001E
0009
0000
0000
0000
0000
0000
FFFF
FFFF
0000
FFFF
FFFF
0000
0000
0000
0000
0000
0000
0032
0002
003C
002E
0000
0002
0005
0000
0000
0037
001C
004E
0000
0000
0000
0000
FFFF
0000
FFFF
FFFF
0000
0000
0000
FFFF
0000
0000
001F
000B
0000
0000
0049
001A
0000
0065
0001
0000
0000
0000
0000
0000
0000
0000
0000
0000
0000
0000
FFFF
FFFF
FFFF
0000
0000
0000
0000
0000
0000
003C
0023
002C
0000
0000
0057
0026
0000
0036
0000
0000
0000
0010
0000
0009
0000
0000
0000
FFFF
0000
0000
FFFF
FFFF
0000
0000
000B
000F
0000
0016
0003
0000
0000
0022
0000
002D
001C
0017
0032
0000
0053
0000
0035
0000
0000
0000
FFFF
FFFF
0000
FFFF
0000
0000
0000
0000
0065
0034
006D
000C
003D
0000
0000
0000
0010
0025
0000
0025
004A
000A
0000
0000
0000
0000
0000
FFFF
FFFF
0000
FFFF
0000
0000
0000
0000
0011
005A
0000
002F
0000
0000
0030
0000
0000
0018
0000
0019
001D
0000
0000
0000
0000
0000
0000
0000
FFFF
0000
FFFF
FFFF
FFFF
FFFF
FFFF
0000
000E
0004
0033
0034
0000
0032
0017
0000
0000
0000
0000
000A
0014
0000
0042
0007
001D
0000
0000
0000
0000
FFFF
0000
0000
FFFF
0000
0000
0000
0000
0040
0012
0000
0000
0018
003C
0000
0000
0000
0000
0000
001A
0025
0000
0000
0000
0000
0038
0000
0000
0000
0000
FFFF
0000
FFFF
FFFF
0000
0000
000E
004F
0000
0000
0000
0000
0000
0000
0031
0002
000D
0006
0000
002F
006A
0034
0000
0000
0000
0000
FFFF
FFFF
0000
FFFF
FFFF
0000
0000
0000
0000
0000
0009
0000
0000
0000
0000
004F
0001
0000
0000
0060
0000
0016
0000
0000
000F
0000
0000
0000
0000
FFFF
FFFF
FFFF
FFFF
FFFF
0000
0000
0004
0000
0015
001A
0000
0003
0000
0000
0061
0046
0000
0000
0045
003B
0000
0000
0000
0000
0000
0000
0000
FFFF
FFFF
0000
FFFF
0000
0000
000F
000C
001B
0000
0012
0000
0033
0000
005C
0000
0000
0000
0000
0043
000A
0046
001C
0000
0000
0000
0000
0000
0000
FFFF
0000
FFFF
0000
0000
0000
0000
0000
006C
0007
0001
0000
0000
0000
0000
003D
0017
003A
0000
002E
0000
0000
0000
0000
0000
FFFF
0000
FFFF
FFFF
0000
0000
0000
0000
0000
001C
000A
0014
0009
0046
0000
0000
0000
0000
008F
0000
0033
002C
000C
0028
0000
0000
0000
0000
FFFF
0000
FFFF
0000
FFFF
0000
0000
0000
0000
0000
0000
0000
0000
0007
000F
0000
002D
0000
004B
005B
0011
0022
0001
0000
0000
0000
0000
FFFF
0000
FFFF
0000
FFFF
FFFF
FFFF
FFFF
0000
0000
0000
0000
0000
0000
0007
001E
004F
0004
0000
0000
0000
0000
0000
0000
0000
0000
0000
0000
FFFF
0000
0000
0000
0000
FFFF
FFFF
0000
0000
FFFF
0000
0000
0000
0000
0000
0000
002E
0022
0000
0000
0000
0000
0000
0000
0000
0000
FFFF
FFFF
0000
0000
0000
0000
0000
FFFF
FFFF
0000
FFFF
0000
0000
0000
0000
0000
0000
0000
0000
0000
0000
0000
0000
0000
0000
0000
FFFF
0000
0000
FFFF
FFFF
0000
FFFF
FFFF
FFFF
0000
0000
0000
FFFF
0000
FFFF
FFFF
0000
FFFF
FFFF
0000
0000
FFFF
0000
0000
0000
FFFF
FFFF
FFFF
FFFF
0000
FFFF
FFFF
002D
0000
FFFF
FFFF
