0000
FFFF
FFFF
FFFF
FFFF
FFFF
FFFF
0000
FFFF
0058
0000
FFFF
FFFF
0000
FFFF
FFFF
0000
FFFF
FFFF
FFFF
FFFF
0000
0000
0000
FFFF
0000
FFFF
0000
FFFF
0000
FFFF
FFFF
0000
FFFF
0000
FFFF
0000
0000
0000
0000
0000
FFFF
FFFF
FFFF
FFFF
FFFF
FFFF
0000
FFFF
0000
0000
0000
0000
0000
FFFF
FFFF
FFFF
FFFF
FFFF
0000
0000
0000
FFFF
FFFF
FFFF
FFFF
0000
0000
0000
0000
0000
0000
0000
0000
0000
0000
FFFF
0000
FFFF
0000
FFFF
0000
FFFF
FFFF
0000
0000
0000
0000
FFFF
FFFF
0000
0000
0000
0000
0000
0000
0000
0000
0000
0000
0000
0000
0000
0000
0000
0000
0000
0000
0000
FFFF
FFFF
0000
FFFF
0000
FFFF
FFFF
0000
0000
0000
0000
0000
0000
0000
0000
0000
0000
0000
0006
0079
0000
0000
0000
0000
0000
0000
0000
0000
FFFF
FFFF
FFFF
0000
FFFF
FFFF
FFFF
0000
0000
0000
0000
0000
0000
0012
0000
000D
0000
0004
001C
0000
0032
001D
0000
0000
0000
0000
0000
FFFF
FFFF
FFFF
FFFF
0000
0000
FFFF
0000
0000
0000
0000
0001
001F
004A
0000
007F
0000
001D
000A
0000
0000
0000
004D
0000
0000
0017
0000
0000
0000
0000
FFFF
0000
FFFF
0000
FFFF
0000
0000
0000
0000
0000
0000
000B
0023
0000
0025
003E
001E
0041
0034
002E
0000
003B
002E
0012
0000
0000
0000
0000
0000
FFFF
FFFF
FFFF
0000
FFFF
0000
0000
0019
0000
0000
0000
001B
0018
0000
0023
0007
002A
0000
0004
0000
0017
0000
000F
0000
0000
0000
0000
0000
FFFF
FFFF
0000
FFFF
FFFF
0000
0000
002F
0000
0045
0000
0041
0000
0000
0000
0000
0000
0000
0000
0019
0031
0000
0040
0062
0000
0000
0000
FFFF
FFFF
FFFF
FFFF
0000
0000
0010
0000
0000
0000
0004
0000
003B
000B
0072
0003
0034
002B
0018
0000
0000
0000
0000
001F
0006
0000
0000
0000
0000
FFFF
FFFF
FFFF
FFFF
0000
0000
0000
0000
0014
0000
001C
0050
0000
0000
0000
0000
0000
000F
0000
0003
0061
0000
002A
0004
0000
0000
0000
FFFF
FFFF
0000
FFFF
FFFF
0000
0000
0000
0001
0000
0000
0014
0000
0023
001F
0018
0000
0024
0000
0016
0000
000E
0017
003D
0000
0000
0000
FFFF
FFFF
0000
FFFF
FFFF
FFFF
0000
0000
0000
0000
000E
0043
0000
0000
0019
0000
0031
0051
0000
0023
0066
0031
0000
0000
0010
0000
0000
0000
FFFF
FFFF
0000
FFFF
FFFF
0000
0000
0000
0000
0023
0000
0000
0059
0000
002E
0000
0013
0001
0000
002C
005A
0000
002F
0003
0000
0000
0000
0000
FFFF
FFFF
FFFF
0000
FFFF
FFFF
FFFF
0000
0000
0000
0000
002D
001B
0000
0000
002D
0000
000B
0030
0000
0000
0000
0027
0062
0005
003C
0000
0000
0000
FFFF
0000
FFFF
FFFF
FFFF
0000
0000
0000
0000
0000
0000
0000
0000
0000
0000
003F
000F
0000
0014
0000
0000
0027
001A
0000
0005
0000
0000
0000
0000
0000
0000
0000
FFFF
FFFF
0000
0000
0000
0000
0008
0000
001A
0000
0031
0003
0038
0033
0007
0027
0049
0066
0000
003A
0000
0000
0000
0000
0000
FFFF
FFFF
FFFF
FFFF
0000
0000
0000
0000
003B
0000
0000
0000
0008
0000
0000
0000
0000
0029
0000
0000
0027
0011
001A
0000
0000
0000
0000
0000
FFFF
FFFF
FFFF
FFFF
FFFF
0000
0000
0000
0000
000F
0000
0026
000E
000D
0000
0000
0048
0000
0000
003B
0000
001A
0041
002C
0000
0000
0000
0000
FFFF
FFFF
0000
FFFF
0000
0000
0000
0003
0000
0000
003F
0000
0015
000B
0000
000A
0004
0000
0000
0000
0041
0037
0000
0000
0000
0000
0000
0000
0000
FFFF
FFFF
FFFF
0000
0000
0000
0068
0028
0000
0000
003B
0009
001F
0000
0000
0000
0000
0000
002D
0000
0000
0000
0000
0000
0000
FFFF
0000
FFFF
FFFF
0000
0000
0000
0000
0000
0009
0019
0000
0000
0000
0030
0000
0049
0000
0061
0000
0000
0000
0010
0000
0000
0000
0000
0000
0000
0000
FFFF
FFFF
FFFF
0000
0000
0000
0000
0000
001C
0015
001E
0032
0038
0000
0000
0013
0029
000A
0043
0000
0000
0000
0000
0000
0000
FFFF
FFFF
FFFF
0000
FFFF
FFFF
FFFF
FFFF
0000
0000
0000
0000
0000
0000
0000
0000
0002
0000
0031
0000
0000
0000
0000
0000
0000
0000
0000
0000
FFFF
FFFF
0000
0000
0000
FFFF
0000
FFFF
FFFF
0000
0000
0000
0000
0022
0000
0000
0033
0000
001E
0000
0000
0000
0000
0000
FFFF
0000
FFFF
FFFF
FFFF
FFFF
FFFF
FFFF
0000
FFFF
0000
FFFF
FFFF
0000
0000
FFFF
0000
0000
0000
0000
0000
0000
0000
0000
0000
0000
FFFF
0000
FFFF
0000
0000
FFFF
FFFF
0000
FFFF
FFFF
FFFF
0000
0000
FFFF
0000
0000
0000
FFFF
0000
FFFF
FFFF
FFFF
0000
0000
0000
0000
0000
FFFF
FFFF
FFFF
FFFF
0000
FFFF
FFFF
0000
0000
FFFF
FFFF
