FFFF
FFFF
FFFF
FFFF
FFFF
FFFF
0000
0000
FFFF
0000
FFFF
FFFF
FFFF
0000
0000
FFFF
0000
0000
FFFF
FFFF
0000
FFFF
FFFF
0000
FFFF
0000
FFFF
0000
FFFF
0000
0000
FFFF
0000
FFFF
0000
FFFF
0000
0000
FFFF
0000
0000
FFFF
FFFF
FFFF
FFFF
FFFF
FFFF
FFFF
FFFF
0000
FFFF
0000
FFFF
FFFF
FFFF
FFFF
FFFF
FFFF
FFFF
0000
0000
0000
FFFF
FFFF
FFFF
0000
0000
0000
0000
0000
FFFF
0000
0000
0000
0000
0000
FFFF
0000
FFFF
0000
FFFF
0000
FFFF
FFFF
FFFF
0000
FFFF
FFFF
FFFF
FFFF
FFFF
0000
0000
0000
0000
0000
0000
0000
0000
0000
0000
0000
0000
0000
0000
0000
0000
FFFF
FFFF
0000
FFFF
0000
0000
0000
FFFF
FFFF
FFFF
0000
0000
0000
0000
0000
0000
0000
0000
0015
0000
0052
0000
0000
0021
0040
0000
0000
0000
0000
0000
FFFF
0000
0000
0000
FFFF
FFFF
0000
0000
0000
0000
0000
0000
0000
0000
0035
0005
0068
0000
0027
0000
000C
004A
0000
0027
0061
0000
0000
FFFF
FFFF
FFFF
FFFF
FFFF
0000
FFFF
FFFF
0000
0000
0000
0000
0000
0000
000F
0000
0000
0004
0000
0000
0000
000E
0025
004A
0062
001B
0032
0000
0000
0000
0000
FFFF
FFFF
0000
FFFF
FFFF
FFFF
FFFF
0000
0000
0025
0000
0048
0000
0000
0000
0060
0000
0000
0029
0020
0048
0000
0000
002E
0000
0000
0000
0000
0000
FFFF
FFFF
FFFF
FFFF
0000
0000
0023
004E
0087
0037
0000
0035
000A
0000
0000
0000
0000
0000
0000
0034
0000
0000
0062
0000
0000
0000
0000
FFFF
0000
0000
FFFF
FFFF
0000
0000
0000
0000
0000
0099
0013
000A
0033
0023
0000
0000
0000
002A
0086
004F
0021
002A
002F
0000
0000
0000
FFFF
FFFF
FFFF
0000
0000
FFFF
0000
0000
0010
0000
0000
0039
0000
0018
0000
0017
0000
002B
0047
002B
0000
0000
0000
0011
0000
0000
0000
0000
FFFF
FFFF
FFFF
FFFF
FFFF
0000
0000
0000
007C
0000
005A
0000
004A
0015
0000
0015
001F
005E
0008
0000
0048
0000
0000
0000
001E
0029
0000
0000
0000
FFFF
0000
FFFF
FFFF
FFFF
0000
0000
0000
0007
0000
0025
0002
0000
0000
0000
0060
0032
0000
0000
0000
0000
0000
0000
0000
0000
0000
FFFF
FFFF
FFFF
FFFF
0000
FFFF
0000
0000
0000
00A5
0015
0020
002D
0022
0000
0024
0000
000E
0056
0000
0000
0011
0040
0000
0000
0028
0000
0000
0000
0000
0000
FFFF
FFFF
0000
0000
0000
0000
0000
0024
0000
0000
0000
0031
0000
0000
003D
0000
0000
0049
0028
0000
0000
0000
0000
0000
0000
FFFF
FFFF
FFFF
FFFF
FFFF
FFFF
FFFF
0000
0000
0000
000C
0049
0000
0000
0001
0000
0000
004A
0000
000D
0000
000F
0000
0015
0000
003F
0000
0000
0000
FFFF
0000
FFFF
0000
0000
0000
0000
0011
0000
0000
0058
0000
0000
0000
0000
0000
0000
0029
0000
0024
0049
0006
0025
002B
000D
0015
0000
0000
0000
0000
FFFF
0000
FFFF
FFFF
0000
0000
0000
0000
003A
0000
0000
0059
0004
0069
002A
0031
001B
0000
0000
003F
002C
0000
0000
0000
0000
0000
0000
FFFF
0000
FFFF
FFFF
0000
0000
0000
0000
0050
001E
0000
004A
0000
0040
0019
0000
0030
0000
0000
0000
003A
0000
000D
0000
0000
0000
0000
0000
FFFF
FFFF
FFFF
FFFF
FFFF
0000
001C
0005
0000
0000
0033
0000
0023
0000
0000
0000
0046
0000
004E
0000
0067
0000
0007
0000
0000
0000
0000
0000
0000
FFFF
0000
FFFF
0000
0000
0004
0023
0000
0036
0000
0065
0035
0000
0000
0000
000B
0000
0079
0010
0000
0000
0000
0000
0000
0000
0000
0000
0000
FFFF
FFFF
FFFF
0000
0000
0000
004B
000B
0000
0000
0000
0000
0000
0000
0028
000C
0000
0007
0000
0000
0012
0000
0000
0000
0000
0000
FFFF
0000
FFFF
0000
0000
0000
0000
0000
002A
0000
0000
0011
0026
002D
0000
0053
0006
0000
0000
000F
001A
0000
0000
0000
0000
0000
0000
FFFF
0000
FFFF
FFFF
FFFF
0000
0000
0000
0000
0000
0000
0035
002B
0000
0000
0024
0000
004F
0000
002C
0029
0022
000A
0000
0000
0000
0000
0000
0000
FFFF
0000
0000
0000
0000
FFFF
0000
0000
0000
0000
002F
004E
0007
0048
0000
0000
0005
0000
0046
0009
0000
0000
0042
0000
0000
0000
FFFF
FFFF
0000
FFFF
0000
FFFF
FFFF
FFFF
0000
0000
0000
0000
0000
0000
0000
0000
0002
0044
0000
0000
0000
0000
0000
0000
0000
0000
FFFF
FFFF
FFFF
FFFF
0000
FFFF
0000
FFFF
FFFF
FFFF
FFFF
FFFF
FFFF
FFFF
0000
0000
0000
0000
0000
0000
0000
0000
0000
0000
0000
0000
FFFF
0000
0000
FFFF
FFFF
0000
0000
FFFF
FFFF
0000
FFFF
0000
FFFF
FFFF
0000
FFFF
0000
FFFF
FFFF
FFFF
0000
0000
0000
0000
0000
FFFF
FFFF
FFFF
FFFF
0000
FFFF
FFFF
0000
0000
FFFF
FFFF
