FFFF
0000
FFFF
FFFF
FFFF
FFFF
FFFF
0000
FFFF
0000
FFFF
FFFF
FFFF
0000
FFFF
FFFF
0000
FFFF
FFFF
FFFF
FFFF
0034
0000
0000
FFFF
0000
FFFF
0000
FFFF
0000
0000
FFFF
0000
FFFF
0000
FFFF
0000
0000
FFFF
0000
0000
FFFF
FFFF
FFFF
FFFF
FFFF
FFFF
0000
0062
0000
FFFF
0000
FFFF
FFFF
FFFF
0000
FFFF
FFFF
FFFF
0000
0000
0000
FFFF
FFFF
FFFF
0000
FFFF
0000
0000
0000
0000
0000
0000
0000
0000
0000
FFFF
0000
0000
0000
FFFF
FFFF
FFFF
FFFF
0000
FFFF
0000
FFFF
006F
FFFF
0000
0000
0000
0000
0000
0000
0000
0000
0000
0000
0088
0000
FFFF
0000
0000
0000
0000
0000
0000
FFFF
FFFF
0000
0000
0000
FFFF
FFFF
0000
0000
0000
0000
0000
0000
0000
0008
0000
0000
001D
0000
0000
0000
0002
0000
0000
0000
0000
0000
0000
FFFF
0000
0000
0000
FFFF
FFFF
0000
0000
0000
0000
0000
0000
0049
0046
0000
001A
0000
0000
0000
0000
0049
000C
0016
0000
0000
0000
0000
FFFF
FFFF
FFFF
FFFF
FFFF
0000
FFFF
FFFF
0000
0000
0000
0000
0000
0019
0000
000A
0011
0028
0000
002D
0009
0039
0000
0000
0000
0000
0000
0000
0000
0000
0000
0000
FFFF
0000
FFFF
FFFF
FFFF
0000
001C
0043
0000
0013
0003
0018
0000
0000
0000
0005
0021
0000
0000
0048
0000
0000
003D
0000
0000
0000
0000
0000
FFFF
FFFF
FFFF
FFFF
0000
0000
0025
0000
0000
0039
0014
0003
0009
0017
006C
0000
0023
0000
0000
003F
0006
0000
0000
0000
0000
0000
0000
FFFF
FFFF
0000
FFFF
FFFF
0000
0000
0000
0000
0000
0000
0000
002B
0000
0000
0060
0000
0000
0061
00AA
006D
0000
0000
0011
0000
0000
0000
FFFF
FFFF
FFFF
0000
0000
001F
0000
0000
0000
0000
0035
0047
0000
0000
0005
0000
002F
0000
0069
0000
0005
0011
0038
0038
0000
0000
0000
0000
0028
0000
FFFF
FFFF
FFFF
0000
0000
0000
0000
0000
0000
0000
002A
0009
0000
0000
0041
000D
0000
0019
0000
006A
0000
0003
0000
0000
0000
0000
0000
0059
0040
FFFF
FFFF
FFFF
0000
0000
000F
0007
0001
0031
0000
0000
0000
005B
0000
0003
0000
0029
0000
000A
0000
0055
002C
0000
0000
FFFF
FFFF
FFFF
FFFF
0000
FFFF
0000
0000
000C
0013
0000
0000
0018
001E
0000
0000
0019
0037
0036
0058
0008
001E
0000
0029
0000
0000
0000
0000
FFFF
FFFF
0000
FFFF
0000
0000
0000
0000
0000
0042
0002
0000
0022
0000
000F
0000
0042
0018
000F
000C
0000
002B
0000
0000
0000
0000
0000
0000
FFFF
0000
FFFF
FFFF
FFFF
FFFF
FFFF
0000
0000
0000
0013
0046
0000
0031
0000
0000
0006
000B
0000
0000
0000
0000
0031
0082
0000
0000
0000
000B
0000
FFFF
0000
FFFF
0000
0000
0000
0000
0000
0006
0003
003C
0000
0000
0022
0000
002C
0044
0062
0018
0054
0012
004D
0001
0000
0000
0000
0000
0000
0000
0000
0000
0000
FFFF
FFFF
0000
0000
0032
0000
0099
0000
0007
002E
0002
0049
0000
002B
0025
0061
0000
003C
0000
0000
000C
0000
0000
0000
0000
FFFF
FFFF
0000
FFFF
0000
0000
0000
0000
0000
0002
0006
0000
0008
001E
001D
0000
0000
0010
0000
003E
000B
0000
0000
0000
0000
0000
0000
0000
FFFF
FFFF
FFFF
FFFF
FFFF
0000
0000
0000
0000
0000
0000
0010
0000
0000
0002
0043
0000
0063
0000
0000
0000
002B
0000
0000
0000
0000
0000
0000
0000
FFFF
0000
FFFF
0000
0000
0000
0006
0008
0000
001C
0001
0000
004A
0026
0073
0021
0008
0047
0000
0000
0045
0029
0000
0000
0000
0000
0000
0000
FFFF
0000
FFFF
0000
0000
0000
001A
0000
0000
006C
0000
0000
0031
0000
0000
0049
004A
003E
0000
003D
004B
0000
0000
0000
0000
FFFF
FFFF
0000
FFFF
0000
0000
0000
0000
0000
0000
001B
0000
0000
0061
000E
0000
0000
003D
0000
0000
0000
0060
0000
001E
0000
0000
0000
0000
0000
0000
FFFF
FFFF
FFFF
0000
0000
0000
0000
0000
0000
0000
002D
0000
0000
0000
002B
0000
001E
0021
0000
0000
0000
0000
002C
0000
0000
0000
0000
FFFF
0000
0000
0000
0000
FFFF
0000
0000
0000
0000
0000
0000
0072
001D
0043
0051
0004
0000
0000
0027
0000
0000
FFFF
FFFF
0000
0000
FFFF
FFFF
0000
FFFF
0000
FFFF
FFFF
FFFF
0000
0000
0000
0000
0000
0000
0000
0000
0000
0000
001E
0000
0000
0000
0000
0000
0000
0000
FFFF
FFFF
FFFF
FFFF
0000
FFFF
0000
FFFF
FFFF
FFFF
0000
FFFF
0000
0000
0000
0000
0000
0000
0000
0000
0000
0000
0000
0000
0000
0000
FFFF
0000
FFFF
FFFF
FFFF
0000
0000
FFFF
FFFF
0000
FFFF
0000
0048
FFFF
0000
FFFF
0000
FFFF
FFFF
0000
0000
0000
0000
0000
0000
0000
FFFF
FFFF
FFFF
0000
FFFF
FFFF
0000
0000
FFFF
0000
