FFFF
0000
FFFF
FFFF
FFFF
FFFF
0000
0000
FFFF
0000
FFFF
FFFF
FFFF
0000
FFFF
FFFF
0000
FFFF
FFFF
FFFF
0000
FFFF
0000
0000
FFFF
0000
FFFF
0000
FFFF
0000
0000
FFB9
0000
FFFF
0000
FFFF
0000
FFFF
FFFF
0000
0000
FFFF
FFFF
0000
FFFF
FFFF
FFFF
FFFF
FFFF
0000
FFFF
0000
FFFF
FFFF
FFFF
0000
FFFF
FFFF
FFFF
0000
0000
0000
FFFF
FFFF
FFFF
0000
FFFF
0000
0000
0000
0000
0000
0000
0000
0000
0000
0000
0000
FFFF
0000
FFFF
FFFF
FFFF
FFFF
0000
FFFF
0000
0000
FFFF
FFFF
0000
0000
0000
0000
0000
0000
0000
0000
0000
0000
0000
0000
0000
0000
0000
0000
0000
0000
0000
FFFF
FFFF
0000
0000
0000
FFFF
0000
FFFF
0000
0000
0000
0000
0000
0000
0000
0000
0000
0000
0000
0011
0000
0000
0000
0000
0000
0000
0000
0000
FFFF
FFFF
004C
0000
FFFF
FFFF
0032
008A
0000
0000
0000
0000
0000
0019
0000
000A
0030
0000
0000
0000
00B0
0000
0012
0000
0000
0000
0000
0000
FFFF
FFFF
FFFF
FFFF
0000
FFFF
FFFF
0000
0000
0000
0000
003B
0000
0000
0000
000B
002D
0029
0000
0001
0000
0000
0000
0000
0000
0001
004B
0000
0000
FFFF
0000
FFFF
0000
FFFF
FFFF
0000
0000
0000
000B
0016
001F
0000
004C
0025
0002
0061
0036
003D
0030
0086
0000
0000
0018
0000
0000
0000
0000
0000
005E
FFFF
FFFF
FFFF
FFFF
0000
0000
0000
0015
0000
001D
0000
005C
0000
0000
0000
0041
0040
0026
0000
0000
0033
005C
000C
0000
0000
0000
0000
FFD7
FFFF
0000
FFFF
FFFF
0000
0000
0000
0001
0036
0035
0000
002C
0075
0030
0000
0000
0047
000C
0000
0000
0000
0007
0020
0000
0000
0000
FFFF
FFFF
FFFF
FFFF
0000
0000
0000
0000
0000
0000
0008
0000
0009
0000
0000
0000
002E
0000
002A
004B
0000
0000
0037
0000
0050
0000
0000
0000
0000
0000
FFFF
FFFF
FFFF
0000
0000
0000
0000
0000
0043
0000
0004
0000
0024
0035
0000
001C
0000
0001
0000
001A
0000
003A
0025
0000
0000
0000
0000
FFFF
0000
FFFF
FFFF
FFFF
0000
0000
0000
0000
0000
0024
004D
004C
0000
0000
0004
0062
0000
001C
0000
0000
0000
0000
0000
0000
0000
FFFF
FFFF
FFFF
FFFF
0000
FFFF
0000
0000
0000
0031
0000
0000
001F
0000
0000
000B
0037
0021
0000
009E
0009
0000
0000
003F
0000
0000
001F
0000
FFFF
FFFF
0000
FFFF
0000
0000
0000
0000
0000
0011
0000
0017
0000
0000
0070
0016
0045
0011
0015
0000
0017
001F
0000
0000
006C
0042
0000
0000
FFFF
0000
FFFF
FFFF
FFFF
FFFF
FFFF
0000
0032
0000
001C
0000
0004
0000
006A
0000
0000
0000
001A
0067
0000
0043
0056
0000
0048
0022
0000
0000
0000
FFFF
0000
FFFF
0000
004D
0000
0000
0019
0023
0009
0018
0000
002D
0000
005B
0000
0000
001F
0000
0043
002F
0011
0000
0018
0000
0000
0000
0000
0000
0000
0000
0000
FFFF
FFFF
0039
0006
005D
0041
0013
0000
0000
0000
0000
0030
000B
000D
0000
003E
007F
0000
0019
0000
0000
0000
0000
0000
0000
FFFF
0000
FFFF
FFFF
0000
0000
0000
0000
0021
003E
0000
0000
0000
0015
0000
001D
002B
0000
0000
0000
0000
002B
000F
0000
0000
0000
0000
0000
FFFF
FFFF
FFFF
FFFF
0000
0000
0000
000D
0054
0000
0000
0000
0000
0000
0000
0000
0029
003E
0000
003B
0073
001D
0000
0000
0000
0000
0000
0000
0000
FFFF
0000
FFFF
0000
0000
0000
0000
0000
0044
0017
0000
0053
0034
0000
0000
0000
0019
0000
0004
0003
0054
0000
0000
0000
0000
0000
0000
0000
FFFF
0000
FFFF
0000
0000
0000
0000
0000
0005
0000
0000
0000
0000
003A
0000
0058
0000
0000
0002
0062
0000
0017
0000
0000
0000
0047
FFFF
0000
FFFF
0000
0000
0000
0000
001C
0000
0000
002E
0061
0000
0000
0009
001F
0000
0010
0000
000A
0000
0000
0000
0000
0000
0000
0000
0000
0000
FFFF
FFFF
FFFF
0000
0000
0000
0000
0000
000C
0000
002B
002D
0010
000D
0000
0000
000D
0009
0025
0027
001B
0000
0000
0000
0000
FFFF
003E
FFFF
0000
0000
FFFF
0000
FFFF
0000
0000
0000
0000
0069
0009
0041
0018
0000
001E
0015
0000
0000
0000
0000
0000
FFFF
FFFF
0000
0000
FFFF
FFFF
0000
FFFF
0000
FFFF
FFFF
FFFF
FFFF
0000
0000
0000
0000
0000
0000
0000
0000
0000
0000
0000
0000
0000
0000
0000
0000
0039
FFFF
FFFF
FFFF
FFFF
005E
FFFF
0000
FFFF
FFFF
FFFF
0000
FFFF
0000
0000
0000
0000
0000
0000
0000
0000
0000
0000
0000
0000
0000
0000
FFFF
0000
FFFF
FFFF
FFFF
0000
FFFF
FFFF
FFFF
0000
FFFF
0070
FFFF
0000
0000
FFFF
0000
FFFF
FFFF
0000
0000
0000
0000
0000
0000
FFFF
FFFF
FFFF
FFFF
0000
FFFF
FFFF
0000
0000
FFFF
FFFF
