0000
FFFF
FFFF
FFFF
FFFF
FFFF
0000
0000
FFFF
0000
0000
FFFF
0000
0000
FFFF
0000
0000
0000
FFFF
FFFF
FFFF
FFFF
FFFF
0000
FFFF
0000
FFFF
0000
FFFF
0000
0000
FFFF
0000
FFFF
0000
FFFF
0000
0000
0000
0000
0000
FFFF
0000
0000
FFFF
FFFF
FFFF
0000
FFFF
0000
0000
0000
FFFF
FFFF
FFFF
FFFF
FFFF
FFFF
FFFF
0000
0000
0000
FFFF
FFFF
FFFF
0000
0000
0000
0000
0000
FFFF
0000
0000
0000
0000
0000
FFFF
0000
0000
0000
FFFF
FFFF
FFFF
FFFF
0000
0000
0000
0000
FFFF
FFFF
FFFF
0000
0000
0000
0000
0000
0000
0011
0000
0000
0000
0000
FFFF
0000
0000
0000
0000
0000
0000
FFFF
FFFF
0000
0000
FFFF
FFFF
FFFF
FFFF
0000
0000
0000
0000
0000
0000
0011
0025
0000
0000
0027
0000
0010
001C
0000
002E
0000
0000
0000
0000
FFFF
0000
FFFF
0000
FFFF
FFFF
FFFF
0000
0000
0000
0000
0000
0000
0021
0000
0000
0070
0041
0000
0000
0000
0000
0000
0000
0027
0000
0000
FFFF
FFFF
FFFF
FFFF
0000
0000
FFFF
FFFF
0000
0000
0000
0000
005A
0009
0000
0000
005F
0000
0000
0000
0000
0065
0012
003F
0000
0000
0000
0000
0000
0000
FFFF
0000
FFFF
0000
FFFF
FFFF
FFFF
FFFF
0000
0000
0004
0000
001E
0027
0035
0033
0000
0013
0045
0008
0000
0000
0000
002E
0000
0000
0000
0000
0000
FFFF
FFFF
FFFF
0000
FFFF
0000
0000
FFFF
0000
0002
0018
0000
000D
0000
0000
0027
0037
0013
001D
0020
0000
0000
0000
0031
0000
0000
0000
0000
FFFF
FFFF
0000
FFFF
FFFF
0000
0000
0000
0000
0005
0015
0004
004B
0000
0002
0000
0000
0000
0000
0000
0003
0008
0039
0007
0000
0000
0000
FFFF
FFFF
FFFF
0000
0000
0000
0000
FFFF
0000
0000
0000
0000
0000
0058
0000
0031
0018
0019
0000
0000
0000
0024
000D
004A
0000
0000
0000
0000
0000
FFFF
FFFF
FFFF
FFFF
0000
0000
0000
0000
0000
0000
0000
0000
0013
0033
007A
0029
0000
0026
0061
0090
0034
0010
0000
0000
0016
0000
0000
0000
FFFF
0000
FFFF
FFFF
0000
0000
0000
0000
0044
0018
0000
002C
0093
0000
0000
0011
006B
0049
002C
0005
0017
0062
0000
0000
0000
0000
FFFF
FFFF
FFFF
FFFF
0000
FFFF
FFFF
0000
0000
000C
000E
0000
0000
0000
0000
0000
0000
0003
0000
0000
0000
0000
0000
0000
0000
0000
0000
0000
FFFF
FFFF
0000
FFFF
FFFF
0000
0000
0000
003F
0000
0000
0000
0000
0000
0000
0030
0000
0007
0026
0000
0000
0016
0000
0000
0000
0000
0000
0000
0000
FFFF
FFFF
0000
FFFF
FFFF
FFFF
0000
0000
0000
001C
0000
0000
0000
0041
0000
0033
0000
0000
0000
0000
0000
003E
0000
006B
0000
0000
0000
0000
FFFF
FFFF
FFFF
FFFF
FFFF
0000
0000
000B
0000
0000
0036
0000
0043
002C
0000
0000
0000
0010
0000
0000
0020
0000
0000
0012
0000
0000
0000
0000
0000
0000
0000
0000
FFFF
FFFF
0000
0000
0030
0006
000E
0000
0000
0000
0000
0000
0020
0045
0021
0035
0024
0000
001A
003B
000C
0000
0000
0000
0000
FFFF
FFFF
FFFF
FFFF
0000
0000
0011
000D
0000
0000
005F
0023
0000
0024
0000
0007
0000
0000
0009
0000
0000
005D
0000
0000
0000
0000
0000
0000
FFFF
FFFF
0000
FFFF
FFFF
0000
0000
0010
0007
0000
0000
0034
002D
0004
0000
0000
0000
0010
0000
0014
0000
0076
000D
0000
0000
0000
0000
0000
0000
FFFF
0000
FFFF
0000
0000
0000
0000
0023
004E
0000
0028
001E
0046
0000
000D
0000
0000
0000
001B
001E
0000
0045
0000
0000
0000
0000
0000
0000
FFFF
FFFF
FFFF
FFFF
0000
0000
0000
001E
001D
0075
0000
0022
0000
0058
0000
001B
0000
001F
0004
0023
0000
0000
0000
0000
0000
FFFF
0000
0000
FFFF
0000
0000
0000
0000
0000
0000
0000
0000
0030
0008
0025
0000
0003
0021
0000
0000
0000
0065
0009
0016
0000
0000
0000
0000
0000
0000
FFFF
FFFF
FFFF
0000
0000
FFFF
0000
0000
003A
0000
0000
0039
0000
0020
000E
0000
0000
0000
0000
0009
0000
0000
0000
0000
0000
0000
FFFF
FFFF
0000
FFFF
0000
FFFF
FFFF
0000
0000
0000
0000
0000
0000
0000
0022
0025
002F
0000
0000
0000
0000
0000
0000
FFFF
0000
0000
0000
FFFF
FFFF
0000
FFFF
0000
FFFF
0000
FFFF
FFFF
0000
0000
0000
0000
0000
0000
0000
0000
0000
0000
0000
0000
0000
0000
0000
FFFF
0000
FFFF
FFFF
FFFF
FFFF
FFFF
FFFF
0000
FFFF
0000
FFFF
0000
0000
0000
0000
0000
0000
0000
0000
0000
0000
0000
0000
0000
0000
FFFF
0000
FFFF
0000
0000
FFFF
FFFF
0000
0000
FFFF
FFFF
0000
0000
FFFF
FFFF
0000
0000
FFFF
0000
FFFF
FFFF
FFFF
0000
0000
0000
0000
0000
0000
FFFF
FFFF
FFFF
0000
FFFF
FFFF
0000
0000
FFFF
FFFF
