0000
0000
FFFF
FFFF
FFFF
FFFF
FFFF
0000
FFFF
FFFF
FFFF
FFFF
FFFF
0000
FFFF
FFFF
0000
FFFF
0041
003D
FFFF
FFFF
0000
0000
FFFF
0000
FFFF
0000
FFFF
0000
0000
FFFF
0000
FFFF
0000
FFFF
0000
FFFF
0000
0000
0000
FFFF
FFFF
0000
FFFF
FFFF
FFFF
0000
FFFF
0000
FFFF
0000
FFFF
FFFF
FFFF
0000
FFFF
FFFF
FFFF
0000
0000
0000
FFFF
FFFF
FFFF
0000
FFFF
0000
0000
0000
FFFF
0000
0000
0000
0000
0000
0000
0000
0000
0000
0000
0000
FFFF
FFFF
FFFF
FFFF
FFFF
0000
FFFF
FFFF
0000
0000
FFFF
0000
0000
0000
0000
0000
0000
0000
0000
0000
0000
0000
0000
0000
0000
0000
0000
0000
FFFF
0000
FFFF
FFFF
FFFF
FFFF
FFFF
0000
FFFF
0000
0000
0000
0000
0000
0000
0000
000B
0000
0011
0052
000F
0000
0000
0000
0000
0000
0000
FFFF
FFFF
FFFF
0000
FFFF
FFFF
FFFF
0000
0000
0000
0000
0000
0000
0000
0000
0003
0000
0012
0024
0006
000C
0004
0024
000D
0036
0000
0000
FFFF
FFFF
FFFF
FFFF
0000
0000
FFFF
0000
0000
0000
0000
0000
0000
0001
000B
0000
000C
0000
0000
000D
0000
0021
0019
0000
0000
0000
0000
0000
0000
0000
FFFF
FFFF
FFFF
0000
FFFF
FFFF
0000
FFFF
0000
0000
0000
0018
0000
0014
0000
001E
0036
0000
0063
0000
0027
002D
0000
0000
0023
0000
0000
FFFF
0000
FFFF
FFFF
FFFF
FFFF
FFFF
0000
0000
0000
0000
0036
0000
0005
0000
0000
0013
0016
0059
001E
0000
0000
0000
0000
0020
0022
0000
0000
0000
0000
FFFF
FFFF
0000
FFFF
FFFF
0000
0000
0000
0000
002F
0000
0000
0000
004B
000D
001F
003C
0051
0000
0000
0014
0000
0000
0000
0000
0000
0000
FFFF
FFFF
FFFF
FFFF
0000
FFFF
0000
0000
0000
0050
0000
0000
0035
0055
0000
0000
0000
0000
0000
0014
003F
0010
002E
0005
000F
0000
0000
0000
FFFF
0000
FFFF
FFFF
FFFF
0000
0000
0000
0000
0041
0004
0029
0000
0030
0000
0013
0000
000E
0000
0000
0005
0000
0000
0000
0042
0000
0000
0000
0000
FFFF
0000
FFFF
FFFF
0000
0000
0000
0000
001D
0044
002B
0000
0000
0014
0002
0000
0000
0000
0000
0000
0000
0000
0000
0000
0000
0000
0000
FFFF
FFFF
FFFF
FFFF
FFFF
0000
0000
0000
0033
0000
0000
0019
0000
006A
003C
0000
0024
0046
0000
0014
0033
0043
004E
0000
0000
0000
0000
008A
009B
0000
FFFF
0000
0000
0000
0000
0000
0025
000B
0007
0000
0000
0000
0020
0008
0000
0000
0095
0032
0010
004F
0000
0000
0004
0000
0000
FFFF
0000
FFFF
FFFF
FFFF
FFFF
FFFF
0000
0000
0041
0000
003E
0037
0013
0027
0000
0000
001E
0000
0025
005A
0000
0026
0017
0000
0011
0000
0000
0000
FFFF
0000
FFFF
0000
FFFF
0000
0000
0000
0020
0000
0000
0000
0000
0000
0028
0005
000A
0024
0034
0014
0014
0000
004F
002B
0000
0000
0000
0000
0000
0000
FFFF
0000
FFFF
FFFF
0000
0000
0009
0000
0025
0000
0000
0008
0017
0000
0018
0000
0000
0033
0000
0000
0033
0000
0000
0000
0000
0000
0000
FFFF
FFFF
FFFF
0019
0000
0000
0000
0018
002D
001A
001F
0000
0000
0003
0000
0004
0000
0000
0000
0000
0000
0000
0040
0000
0000
0000
FFFF
FFFF
FFFF
FFFF
FFFF
FFFF
0000
0000
0000
0000
0000
0000
0000
0000
003B
0000
0055
0004
004A
0005
0000
002F
000C
0000
0000
0000
0000
0000
FFFF
0000
0000
FFFF
0000
FFFF
0000
0000
0000
0000
0000
0000
0027
0000
0000
0000
000F
000D
0000
003A
005E
0000
0000
0000
0000
0000
0000
0000
0000
0000
0000
FFFF
0000
FFFF
0000
0000
0000
0000
0000
0000
0004
0000
0000
0022
0050
005D
0019
0056
0000
0000
0000
0000
0000
0000
0000
0000
FFFF
0000
0000
FFFF
0000
0000
0000
0000
0000
0000
0000
0000
0000
0000
0000
0041
0000
0000
0000
001F
0000
0000
0000
0000
0000
0000
0000
0000
FFFF
0000
FFFF
FFFF
FFFF
0000
0000
0000
0000
0000
0000
0028
006F
0001
0000
0032
0000
0043
0000
0000
0000
0022
0000
0000
FFFF
0000
FFFF
FFFF
FFFF
FFFF
0000
0000
FFFF
0000
FFFF
0000
0000
0000
0000
0000
005F
0009
0000
0000
0000
000F
0026
0016
0008
0000
0000
0000
FFFF
0000
0000
FFFF
FFFF
0000
0000
0000
FFFF
FFFF
FFFF
0000
0000
0000
0000
0000
0000
0000
001A
0000
0000
0000
0000
0000
0000
0000
0000
FFFF
FFFF
FFFF
FFFF
FFFF
FFFF
FFFF
FFFF
0000
FFFF
FFFF
0000
FFFF
FFFF
0000
0000
0000
0000
0000
0000
0000
0000
0000
0000
0000
0000
0000
FFFF
FFFF
0000
FFFF
FFFF
FFFF
0000
FFFF
FFFF
FFFF
0000
FFFF
FFFF
FFFF
0000
0000
FFFF
0000
003C
FFFF
0000
0000
0000
0000
0000
0000
FFFF
FFFF
FFFF
FFFF
0000
FFFF
FFFF
0000
0000
FFFF
0000
