0000
FFFF
FFFF
0000
FFFF
FFFF
FFFF
0000
FFFF
0000
0000
FFFF
FFFF
0000
0000
FFFF
FFFF
FFFF
FFFF
FFFF
FFFF
0000
FFFF
0000
FFFF
0000
FFFF
0000
FFFF
0000
FFFF
FFFF
0000
FFFF
0000
FFFF
0000
0000
0000
0000
0000
FFFF
FFFF
0000
0000
0000
FFFF
0000
FFFF
0000
FFFF
0000
FFFF
FFFF
FFFF
FFFF
FFFF
0000
FFFF
0000
0000
0000
FFFF
FFFF
0000
0000
FFFF
0000
0000
0000
0000
FFFF
0000
0000
0000
0000
FFFF
0000
0000
0000
FFFF
FFFF
FFFF
FFFF
0000
0000
0000
0000
FFFF
FFFF
0000
0000
0000
0000
0000
0000
0000
0000
0000
0000
0000
0000
0000
0000
0000
0000
0000
0000
0000
FFFF
0000
0000
0000
FFFF
FFFF
0000
FFFF
0000
FFFF
0000
0000
0000
0000
0000
0000
0000
001D
0000
0000
0000
0000
0000
0000
0000
0000
0000
0000
FFFF
FFFF
0000
0000
FFFF
FFFF
0000
FFFF
FFFF
FFFF
FFFF
0000
0000
0000
0004
001C
0061
0023
00B7
0007
0000
0000
0000
0006
0000
0000
0000
FFFF
0000
FFFF
0000
0000
0000
FFFF
0000
FFFF
FFFF
0000
0000
0000
000A
0026
003B
001C
0008
0011
0015
0020
0000
0033
0032
002B
001A
0000
0000
0000
0000
0000
0000
FFFF
0000
0000
0000
0000
FFFF
0000
0000
0000
0000
0000
000C
0000
0000
0050
0029
0000
0055
0000
0008
0018
001D
001B
0000
0000
0000
0000
FFFF
FFFF
FFFF
0000
FFFF
0000
0000
FFFF
0000
0000
0002
0013
0000
0022
0022
0005
0000
0017
0018
002A
004B
003B
0013
0000
0000
0000
0000
0000
FFFF
FFFF
0000
FFFF
FFFF
FFFF
FFFF
0000
0000
0026
0016
0000
0000
0006
004A
0037
0034
0030
0032
0000
004D
0000
0000
001F
0000
0000
0000
FFFF
FFFF
FFFF
0000
0000
0000
0000
FFFF
0000
0000
0000
0009
000A
0013
0000
0004
0000
000C
0000
004E
000E
0000
0000
0000
0000
0000
0000
0000
0000
FFFF
FFFF
FFFF
FFFF
0000
0000
0000
0000
0000
0010
001F
0013
0042
0000
0000
0000
0000
0000
0080
0000
0000
0033
0000
0000
0000
0000
0000
FFFF
FFFF
0000
FFFF
FFFF
0000
0000
0000
0000
0017
0025
0000
0000
0000
0033
0000
0042
003E
0000
0000
0000
0015
0000
001F
002B
0000
0000
FFFF
FFFF
0000
FFFF
0000
FFFF
0000
0000
0000
0000
001B
0000
0000
0004
0000
0008
0000
006B
0000
0000
0000
0000
0009
0003
0000
0019
0000
0000
FFFF
FFFF
0000
FFFF
FFFF
0000
0000
0000
0000
0000
009C
0000
0000
0080
0000
0000
0005
0000
0000
0000
0000
0000
0000
0014
001F
002F
0000
0000
FFFF
FFFF
FFFF
FFFF
0000
FFFF
FFFF
0000
0000
002E
003C
0000
0054
0000
0000
0017
0000
0000
0000
0000
0000
0000
0007
0000
0000
0054
0000
0000
0000
FFFF
0000
FFFF
0000
0000
0000
0000
0000
0000
0042
0000
0027
0000
0000
0000
0020
0000
0000
0000
0000
0000
0000
0000
0000
0000
0000
0000
0000
0000
0000
0000
0000
FFFF
FFFF
0000
002C
0076
0000
001A
0000
0010
0008
0035
0000
0000
0000
0000
0000
0000
0000
0020
000E
0000
0000
0000
0000
0000
FFFF
FFFF
FFFF
FFFF
0000
0000
0000
001A
0000
0000
001D
005E
0000
0067
0000
0019
0027
0071
0071
0019
0000
0000
0000
0002
0000
0000
0000
0000
0000
FFFF
FFFF
FFFF
0000
0000
0000
0036
0000
0000
0000
0000
0000
0006
0008
004B
0002
0051
0000
0011
001B
0005
0000
000E
0000
0000
0000
0000
0000
FFFF
0000
FFFF
0000
0000
0000
0004
0026
0000
0022
0026
000C
0009
0029
000A
0000
0000
0000
0005
0000
005D
0000
0000
0000
0000
0000
0000
0000
FFFF
FFFF
0000
0007
0000
0000
0053
0000
0000
001A
0007
0000
0000
0000
0000
0000
0000
0000
0022
0000
0000
0000
0000
0000
0000
FFFF
0000
0000
0000
0000
0000
0000
0000
0000
003E
0000
002E
0000
0040
0016
003D
0000
0002
003C
0000
001C
0000
0000
0000
0000
0000
0000
0000
0000
0000
FFFF
FFFF
FFFF
0000
0000
0000
0000
0000
0000
001F
0000
000A
0000
0000
0002
0000
0000
002A
0055
0000
0000
0000
0000
0000
FFFF
FFFF
0000
FFFF
0000
0000
0000
0000
FFFF
0000
0000
0000
0000
0000
0003
0000
0000
0050
0000
0031
0019
0040
0000
0000
0000
FFFF
FFFF
0000
0000
0000
FFFF
0000
FFFF
0000
FFFF
0000
FFFF
FFFF
0000
0000
0000
0000
0000
0000
0000
0000
0000
0000
0000
0000
0000
0000
0000
0000
0000
FFFF
FFFF
FFFF
FFFF
FFFF
FFFF
0000
FFFF
0000
FFFF
FFFF
0000
0000
0000
0000
0000
0000
0000
0000
0000
0000
0000
FFFF
0000
0000
0000
FFFF
0000
FFFF
FFFF
FFFF
0000
0000
FFFF
FFFF
0000
0000
FFFF
FFFF
0000
0000
FFFF
0000
FFFF
FFFF
FFFF
0000
0000
0000
0000
0000
FFFF
FFFF
FFFF
FFFF
0000
FFFF
FFFF
0000
0000
FFFF
0000
