FFFF
FFFF
FFFF
FFFF
FFFF
FFFF
FFFF
0000
FFFF
0000
0000
FFFF
FFFF
0000
0000
FFFF
0000
FFFF
FFFF
FFFF
0000
FFFF
0000
0000
FFFF
0000
FFFF
0000
FFFF
0000
0000
FFFF
0000
FFFF
0000
FFFF
0000
0000
0000
0000
0000
FFFF
FFFF
FFFF
FFFF
0000
FFFF
0000
FFFF
0000
0000
0000
FFFF
FFFF
FFFF
FFFF
FFFF
0000
FFFF
0000
0000
0000
FFFF
FFFF
FFFF
0000
FFFF
0000
0000
0000
FFFF
0000
0000
0000
0000
0000
FFFF
FFFF
FFFF
0000
0000
FFFF
FFFF
FFFF
0000
0000
0000
0000
FFFF
FFFF
0000
0000
0000
0000
0000
0000
0000
0000
0000
0000
0000
0000
0000
0000
0000
FFFF
0000
0000
0000
FFFF
0000
0000
0000
0000
FFFF
0000
0000
0000
FFFF
0000
0000
0000
0000
0023
0000
0000
0066
0059
0015
0048
001A
0000
0000
0000
0000
0000
0000
FFFF
FFFF
0000
0000
FFFF
FFFF
0000
FFFF
FFFF
FFFF
0000
0000
0023
0013
0000
002B
0017
0066
0000
0066
0000
0000
0022
0029
0000
0000
0000
FFFF
FFFF
FFFF
0000
FFFF
0000
FFFF
0000
FFFF
FFFF
0000
0000
0000
0000
0000
0000
001F
0000
002B
0010
0000
0000
0000
0016
003D
0006
0000
0000
0000
0000
FFFF
0000
FFFF
0000
0000
0000
FFFF
FFFF
0000
0000
0000
0000
0000
0042
0000
003B
0012
0032
0004
0000
0024
002A
0022
0012
0093
0000
0000
0000
0000
0000
FFFF
0000
0000
FFFF
FFFF
0000
0000
0000
0000
0000
0016
0029
0057
0000
0000
0000
0000
0011
0045
0000
0013
004E
0005
0000
0000
0000
0000
FFFF
FFFF
0000
FFFF
FFFF
FFFF
FFFF
0000
004B
000B
0000
0000
0008
0000
0000
0016
001A
0000
003E
000F
002D
0000
0000
0000
0000
0000
0000
FFFF
FFFF
FFFF
0000
0000
FFFF
0000
0000
0000
0063
0000
0000
0000
0000
0000
0012
0000
0032
0000
001A
0000
0007
001B
0000
0000
0000
0000
0000
0000
FFFF
FFFF
FFFF
FFFF
0000
0000
0000
0000
000B
001D
0000
0069
0000
0062
0000
0000
003F
003C
002B
0059
0000
0037
0012
0078
0000
0000
0000
0000
FFFF
0000
FFFF
FFFF
FFFF
0000
0000
0000
0000
0028
0043
0000
0000
0000
002A
000B
0064
0026
0011
004D
0000
0023
0020
0000
0000
0000
FFFF
FFFF
FFFF
FFFF
0000
FFFF
0000
0000
0000
0000
0000
0000
0000
0037
0000
0000
0018
001D
0000
001A
0000
0000
005E
0017
0000
0000
0000
0000
FFFF
FFFF
0000
FFFF
0000
0000
0000
0000
0000
0016
0016
0015
0000
0000
0000
0000
000B
0026
0000
0008
002A
0009
0000
0000
0022
0000
0000
0000
FFFF
FFFF
FFFF
FFFF
0000
FFFF
FFFF
0000
0000
0000
0000
0007
0036
0046
0000
0011
0044
0000
0022
0000
0011
0000
0011
0000
000D
0000
0000
0000
0000
FFFF
0000
FFFF
0000
0000
0000
0000
002E
0000
0025
0003
0042
008F
0000
0000
0000
0014
0000
001B
0000
0000
0000
0010
0011
0008
0000
0000
0000
0000
0000
0000
0000
FFFF
FFFF
0000
0018
0063
0078
0045
0006
002F
0000
0000
0000
0005
0000
0009
0002
0001
0000
0000
0033
000B
0001
0000
0000
0000
FFFF
0000
FFFF
FFFF
0000
0000
0003
0038
0059
0000
000A
0000
002D
0000
0000
0022
0000
0024
0000
0000
0000
0000
0000
0000
0010
0000
0000
0000
FFFF
FFFF
FFFF
FFFF
0000
0000
0000
0000
0042
0031
0007
0000
0000
0000
0000
000E
003A
003F
002B
0000
0000
0009
004A
0021
0000
0000
0000
0000
0000
FFFF
0000
FFFF
0000
0000
0000
001F
0000
0020
000F
001D
0022
0000
0000
0000
0000
0017
0000
0033
0016
0000
0016
0000
0000
0000
0000
0000
0000
FFFF
FFFF
0000
0000
0000
0032
0000
0014
0017
0003
0044
0047
0000
0003
002E
0000
0002
0000
001D
004B
0000
0005
0000
0000
0000
FFFF
0000
0000
FFFF
0000
0000
0000
0000
0000
0000
0000
001A
0005
0030
0031
0001
0000
0000
0000
0036
0000
0000
000A
0000
0000
0000
0000
0000
0000
0000
FFFF
FFFF
FFFF
0000
0000
0000
0000
0000
0000
0000
002B
0000
0023
0000
002F
0029
0000
0025
0044
0000
0000
0000
0000
0000
FFFF
FFFF
0000
FFFF
0000
0000
0000
0000
FFFF
0000
0000
0000
0000
0000
0000
0000
0005
0039
001C
0000
0062
0000
0000
0000
0000
FFFF
0000
0000
0000
FFFF
FFFF
0000
FFFF
0000
FFFF
0000
FFFF
FFFF
0000
0000
0000
0000
0000
0000
0000
0000
0000
0000
0000
0000
0000
0000
0000
0000
0000
FFFF
FFFF
FFFF
FFFF
0000
FFFF
0000
FFFF
0000
FFFF
0000
0000
0000
0000
0000
0000
0000
0000
FFFF
FFFF
0000
0000
0000
0000
0000
0000
FFFF
0000
0000
FFFF
FFFF
0000
0000
FFFF
FFFF
0000
0000
0000
FFFF
0000
0000
FFFF
0000
FFFF
FFFF
FFFF
0000
0000
0000
0000
0000
FFFF
FFFF
FFFF
FFFF
0000
FFFF
FFFF
0000
0000
FFFF
FFFF
