FFFF
0000
FFFF
FFFF
FFFF
FFFF
0000
0000
0000
FFFF
FFFF
FFFF
FFFF
0000
0000
FFFF
0000
0000
FFFF
FFFF
0000
FFFF
FFFF
0000
FFFF
0000
FFFF
0000
0000
0000
0000
0000
0000
FFFF
0000
0000
0000
0000
FFFF
0000
0000
FFFF
FFFF
FFFF
FFFF
0000
FFFF
FFFF
FFFF
0000
FFFF
0000
FFFF
FFFF
FFFF
0000
FFFF
0000
FFFF
0000
0000
0000
0000
0000
FFFF
0000
0000
0000
0000
0000
FFFF
FFFF
FFFF
0000
0000
0000
0000
0000
0000
0000
0000
FFFF
FFFF
FFFF
0000
0000
FFFF
0000
FFFF
FFFF
0000
0000
0000
0000
0000
0000
0000
0000
0000
0000
0000
0000
0000
0000
0000
0000
0000
0000
0000
0000
0000
0000
0000
0000
FFFF
FFFF
0000
0000
FFFF
0000
0000
0000
0000
0000
0000
0000
0000
0000
0000
0000
0000
0000
0000
0000
0000
0000
0000
FFFF
FFFF
0000
0000
FFFF
FFFF
0000
0000
0000
0000
0000
0000
0000
0000
0000
0000
0031
0000
0000
0000
0028
0000
004E
000B
0000
0000
0000
FFFF
FFFF
FFFF
0000
FFFF
0000
FFFF
0000
0000
0000
0000
0000
0000
0000
001A
0000
0000
0000
0000
0000
0000
000E
0000
0000
0037
001C
003C
0000
0000
0000
0000
FFFF
FFFF
0000
0000
FFFF
FFFF
0000
0000
0000
000B
0000
0000
0000
0000
001C
0056
0009
000C
0010
000F
0000
0032
0000
0000
0000
0000
0000
0000
0000
FFFF
FFFF
FFFF
FFFF
0000
0000
0000
0000
0000
005B
0000
0018
0000
0019
0000
0059
003E
000B
0000
002A
0075
0010
0008
0000
0000
0000
0000
0000
FFFF
0000
FFFF
FFFF
0000
0000
0000
0000
0007
0018
0000
001B
0000
0000
0000
002A
0000
0033
0000
0000
0000
0000
0021
0000
0000
0000
FFFF
FFFF
FFFF
0000
0000
0000
0000
0000
0000
001F
0042
0032
0036
0001
0009
0000
002A
0000
0000
0000
0066
0055
0000
0007
0000
0000
0000
0000
0000
0000
FFFF
FFFF
0000
0000
0000
0000
003D
0000
005D
002C
0033
001C
000C
006A
0000
0000
0006
0000
0000
0030
002F
0037
0039
0015
0000
0000
0000
FFFF
FFFF
FFFF
FFFF
FFFF
0000
0000
0021
005A
005A
0000
0005
0000
0000
000A
0019
0000
001C
0010
002A
0000
0000
0000
0000
0000
0000
0000
FFFF
FFFF
FFFF
FFFF
FFFF
0000
0000
0000
0000
0000
002E
0000
0044
0019
0000
0000
001A
0000
0003
0005
0000
003B
0000
0000
0053
005A
0000
FFFF
FFFF
0000
FFFF
0000
0000
0000
0000
0000
0012
0000
005F
002B
0000
0000
0021
0000
0011
0000
003C
0023
0011
0000
0000
0038
0022
0000
0000
FFFF
0000
FFFF
FFFF
0000
FFFF
FFFF
0000
0000
005E
0011
000F
0005
0000
0000
0010
0004
0000
0000
0015
0000
0013
0000
0000
0000
0000
000A
0000
0000
FFFF
0000
FFFF
0000
0000
0000
0000
0037
0000
0016
0064
0006
0000
0000
0044
002A
0000
0000
0029
0000
0000
0000
002D
0000
0010
0000
0000
0000
0000
0000
FFFF
0000
FFFF
FFFF
0000
0000
0000
0000
0013
0000
000E
0000
0000
0035
0000
0024
000D
0000
0049
000C
0000
002E
0022
0000
0000
0000
0000
FFFF
0000
FFFF
FFFF
0000
0000
0000
0000
000B
0000
0000
0000
0000
0000
0027
0000
0000
0000
0000
0015
0035
0020
0000
0004
0000
0000
FFFF
FFFF
FFFF
FFFF
FFFF
0000
0000
0000
0000
0034
0000
0000
0000
0000
0003
0000
0000
0000
0000
002D
0000
0020
0012
001C
0003
0000
0000
0000
FFFF
FFFF
0000
FFFF
0000
FFFF
0000
0000
0000
005C
0014
0000
0029
0000
0000
003D
0005
0000
0044
0000
0011
0064
0000
0036
0000
0000
0000
0000
0000
0000
0000
FFFF
0000
0000
0000
0000
0000
0000
000C
0027
0024
0000
0000
0001
0000
0042
0026
0000
0010
005C
0000
0000
0000
0000
0000
0000
FFFF
FFFF
0000
FFFF
0000
0000
0000
0000
0000
0044
0000
001E
0000
0010
005F
0017
0000
0056
0022
0000
0000
004E
0000
0000
0000
FFFF
FFFF
FFFF
FFFF
0000
FFFF
0000
FFFF
0000
0000
0000
0000
0000
0000
0030
0000
002E
0000
001D
000E
0000
0000
0000
0000
0000
0000
0000
0000
0000
FFFF
FFFF
0000
0000
0000
0000
0000
0000
FFFF
0000
0000
0000
0000
0000
000D
0077
0000
0011
0000
0000
000F
0000
0000
0000
0000
FFFF
0000
0000
0000
0000
FFFF
0000
FFFF
0000
FFFF
FFFF
FFFF
0000
0000
0000
0000
0000
0000
0000
0000
0007
0000
0000
0000
0000
0000
0000
0000
0000
0000
FFFF
FFFF
0000
FFFF
0000
FFFF
0000
0000
FFFF
0000
0000
FFFF
0000
0000
0000
0000
0000
001F
0000
0000
0000
0000
0000
0000
FFFF
0000
FFFF
0000
0000
FFFF
FFFF
0000
0000
FFFF
FFFF
0000
FFFF
0000
FFFF
0000
0000
FFFF
0000
FFFF
FFFF
0000
0000
0000
0000
0000
0000
FFFF
FFFF
FFFF
0000
0000
FFFF
FFFF
FFFF
0000
FFFF
0000
