FFFF
FFFF
FFFF
0000
FFFF
FFFF
FFFF
0000
FFFF
FFFF
0000
FFFF
FFFF
0000
FFFF
FFFF
0000
FFFF
FFFF
FFFF
FFFF
FFFF
0000
0000
FFFF
0000
0000
0000
FFFF
0000
0000
FFFF
FFFF
FFFF
0000
FFFF
0000
0000
FFFF
0000
0000
FFFF
FFFF
FFFF
0000
0000
FFFF
FFFF
FFFF
0000
FFFF
0000
FFFF
FFFF
FFFF
FFFF
FFFF
0000
0000
0000
0000
0000
FFFF
FFFF
0000
0000
0000
0000
FFFF
0000
FFFF
FFFF
0000
0000
0000
0000
0000
0000
0000
0000
0000
0000
FFFF
FFFF
0000
FFFF
0000
0000
FFFF
FFFF
0000
0000
0000
0000
0000
0000
0000
0000
0000
0000
0000
0000
0000
0000
0000
0000
0000
0000
0000
0000
0000
0000
FFFF
FFFF
FFFF
0000
FFFF
0000
0000
0000
0000
0000
0000
0000
0000
0000
0000
0000
0046
001A
0000
0000
0000
0000
0000
0000
0000
FFFF
FFFF
FFFF
0000
FFFF
FFFF
FFFF
FFFF
FFFF
0000
0000
0000
0000
0008
000D
0000
0000
0000
0000
001D
0000
0038
0006
0000
0000
0000
0000
FFFF
FFFF
FFFF
0000
FFFF
FFFF
FFFF
0000
FFFF
FFFF
0000
0000
0000
0000
000E
0000
0000
0000
0030
0000
0000
0000
0000
0000
0000
0005
0000
0000
0000
0000
0000
0000
FFFF
FFFF
0000
FFFF
0000
FFFF
0000
0000
0000
0006
0045
0000
0033
0040
004A
0000
0000
0003
001C
0000
0034
0000
0000
0000
0000
0000
0000
FFFF
FFFF
0000
FFFF
FFFF
0000
0000
0000
0028
0028
0000
0029
0000
0000
0000
0000
0000
0000
0000
0000
0013
0010
003D
001C
0000
0000
0000
0000
FFFF
FFFF
0000
FFFF
FFFF
0000
0000
0000
0038
0021
0000
0000
0011
0000
0022
0005
0000
001A
0000
005F
0033
001A
0000
0000
0000
0000
0000
FFFF
FFFF
0000
0000
0000
FFFF
0000
0000
0000
000A
0031
0017
003B
0015
0000
0000
0006
000B
0053
0000
0032
0000
0000
0000
0000
0000
0000
0000
FFFF
FFFF
0000
FFFF
FFFF
0000
0000
0000
0000
005D
002D
0000
0000
0000
0000
0000
0000
0000
0000
0000
0035
0000
0000
000A
0000
0000
0000
0000
0000
FFFF
0000
0000
FFFF
FFFF
0000
0000
0000
0000
0002
0000
002D
0055
000F
0000
0027
004E
0000
0000
003E
0068
001B
0000
0000
0000
0000
FFFF
FFFF
FFFF
FFFF
0000
FFFF
0000
0000
0000
0000
0000
0000
001F
0004
0008
0047
001F
0055
0000
002E
001E
0044
0000
0003
0000
0000
0000
0000
FFFF
FFFF
FFFF
FFFF
0000
0000
0000
0000
0000
0000
005E
0000
0009
0000
0000
0047
0000
0017
0000
004A
0000
0011
003F
001C
0000
0000
0000
0000
FFFF
0000
FFFF
FFFF
0000
FFFF
FFFF
0000
0000
0042
0000
0000
0000
001D
0038
0022
0000
0000
0000
000D
003B
0000
0049
0000
0000
0000
0000
0000
0000
FFFF
0000
FFFF
0000
FFFF
0000
0000
0000
0000
0001
0000
0000
0008
003F
0013
0000
0000
000F
0000
000B
0016
000B
001D
0000
0000
0000
0000
0000
0000
FFFF
0000
0000
FFFF
FFFF
0000
0000
0000
0000
0000
0000
0011
000C
0000
0000
0053
0000
001A
0000
001B
0000
0000
0000
0000
0000
0000
0000
FFFF
FFFF
FFFF
FFFF
FFFF
0000
0000
0000
0000
000A
000B
0014
001F
0000
001B
0064
0019
003D
0000
004B
0016
000F
0000
0035
0000
0000
0000
0000
0000
0000
FFFF
FFFF
FFFF
0000
0000
0000
0000
0000
0058
0004
0000
0014
0038
0017
0000
0021
0008
0004
0010
0000
0001
0010
0000
0000
0000
0000
0000
0000
FFFF
0000
FFFF
0000
0000
0000
0000
0021
0000
0000
0000
0025
0000
0000
0000
0000
0000
000F
0000
0000
000C
0000
0000
0000
0000
0000
0000
001E
FFFF
FFFF
0000
0000
0000
0000
0000
0000
0003
0000
0025
0000
0015
0000
0042
0020
0007
0015
0000
0000
0000
0000
0000
0000
0000
FFFF
FFFF
0000
0000
0000
0000
0000
0000
0000
0000
0000
0000
000E
0000
0000
0046
0000
0000
001C
0000
000C
0000
003A
0000
0000
0000
0000
0000
0000
0000
FFFF
0000
FFFF
0000
0000
0000
0000
0000
0000
0000
0000
0000
0005
000F
000A
001C
0002
0000
0000
0000
0000
0000
0000
0000
0000
FFFF
0000
FFFF
0000
0000
0000
0000
FFFF
FFFF
0000
0000
0000
0000
0000
004E
003E
0013
000D
000C
0021
0000
0000
0000
0000
FFFF
FFFF
0000
0000
0000
FFFF
0000
0000
0000
FFFF
0000
FFFF
0000
FFFF
0000
0000
0000
0000
0000
001C
0000
0042
0000
0000
0000
0000
0000
0000
0000
FFFF
FFFF
FFFF
0000
FFFF
FFFF
FFFF
0000
FFFF
0000
0000
0000
FFFF
0000
0000
0000
0000
0000
0000
0000
0000
0000
0000
0000
0000
0000
0000
FFFF
0000
FFFF
FFFF
FFFF
0000
FFFF
FFFF
FFFF
0000
FFFF
FFFF
FFFF
0000
0000
FFFF
0000
FFFF
FFFF
0000
0000
0000
0000
FFFF
0000
FFFF
FFFF
FFFF
FFFF
FFFF
FFFF
FFFF
0000
0000
FFFF
FFFF
