FFFF
0000
FFFF
0000
FFFF
FFFF
0000
0000
0000
0000
0000
FFFF
FFFF
0000
0000
0000
0000
FFFF
FFFF
FFFF
0000
0000
FFFF
0000
FFFF
0000
FFFF
0000
FFFF
0000
0000
0000
0000
FFFF
0000
FFFF
0000
FFFF
0000
0000
0000
FFFF
0000
0000
FFFF
0000
FFFF
FFFF
FFFF
0000
0000
0000
FFFF
FFFF
0000
0000
FFFF
FFFF
FFFF
0000
0000
0000
FFFF
0000
FFFF
0000
0000
0000
0000
0000
0000
0000
0000
0000
0000
0000
FFFF
FFFF
FFFF
0000
FFFF
FFFF
FFFF
FFFF
0000
0000
0000
FFFF
FFFF
FFFF
FFFF
0000
FFFF
0000
0000
0000
0000
0000
0000
0000
0000
0000
0000
0000
0000
FFFF
0000
0000
0000
0000
FFFF
0000
0000
0000
FFFF
0000
0000
0000
0000
0000
0000
0000
0000
0000
000D
0021
0000
0011
0055
0000
0000
0000
0000
0000
0000
0000
0000
FFFF
FFFF
0000
0000
FFFF
FFFF
0000
0000
0000
0000
0000
0000
000E
0014
0000
0000
0020
0000
002D
0000
0034
0039
0000
0000
0000
0000
FFFF
FFFF
FFFF
FFFF
FFFF
FFFF
0000
0000
0000
0000
0000
0000
0076
0072
0018
0000
0000
0000
004D
0006
0000
0071
0000
0000
0000
0042
0000
0019
0000
0000
0000
FFFF
0000
FFFF
0000
0000
0000
0000
0000
0036
0000
0023
0000
0000
0012
0000
000A
0003
0000
0000
001B
0000
0000
0036
0000
0000
0000
0000
0000
0000
0000
FFFF
FFFF
0000
FFFF
0000
0000
0000
0000
000F
0000
0000
0000
0000
0013
0028
005F
0012
0044
0046
0000
006B
0000
0032
0000
0000
0000
0000
FFFF
0000
0000
FFFF
FFFF
0000
0000
002D
0000
0000
002E
0004
0000
0000
0002
0000
0069
0042
0011
0000
0000
0000
0000
005F
0000
0000
0000
FFFF
FFFF
FFFF
FFFF
0000
0000
0000
0000
0000
0012
0000
001F
0012
000B
0000
000C
0039
0038
0000
0000
0000
0030
0012
000C
0000
0000
0000
0000
0000
0000
FFFF
FFFF
FFFF
0000
0000
0000
0000
0000
0025
0000
0000
0000
0015
000C
0000
0023
0005
0051
0018
0000
0000
0025
0000
0000
0000
0000
0000
FFFF
0000
FFFF
FFFF
FFFF
0000
0000
0000
002C
0007
0069
0000
0000
0048
0000
0000
0000
0000
001B
001F
0000
004A
0000
0000
004A
0000
0000
FFFF
0000
FFFF
0000
FFFF
0000
0000
0000
0000
0038
0000
0000
001C
000A
0000
0000
0000
0000
002C
0000
0016
0000
000F
0000
0000
0014
0000
FFFF
FFFF
0000
FFFF
0000
0000
0000
0000
0000
001C
0000
0001
0000
003A
001F
0000
000C
0030
0000
0000
0000
0000
0000
0000
0000
0000
0000
0000
0000
0000
FFFF
FFFF
FFFF
FFFF
FFFF
0000
0000
0015
0000
0013
0000
001C
0014
003A
0000
0000
0003
0039
0000
0000
0000
0000
005E
0000
0000
0000
0000
FFFF
0000
FFFF
0000
0000
0000
0000
0000
0000
001D
0000
0000
0000
0000
0000
001A
0000
0000
0001
0005
0000
0000
0000
0000
0000
0000
0000
0000
0000
FFFF
0000
0000
FFFF
FFFF
0000
0000
0013
004A
0000
0000
0000
0000
0000
0000
0000
0031
0000
0002
0000
0025
000B
0000
0000
0000
0000
0000
0000
FFFF
0000
FFFF
FFFF
0000
0000
0012
0000
0000
0000
004A
0004
0000
0000
0000
000D
004A
0000
001C
007D
0000
0000
0000
0000
0000
0000
0000
0000
0000
FFFF
FFFF
FFFF
FFFF
0000
0000
0027
0053
000B
0000
0025
0000
0028
0000
0002
0033
0000
0011
0000
0014
0057
0000
0000
0000
0000
0000
0000
0000
FFFF
0000
FFFF
0000
0000
0078
0000
0000
0009
0000
003D
0014
0006
0000
001B
003D
0000
0000
0033
000C
0000
0000
0000
0000
0000
0000
0000
0000
FFFF
0000
0000
FFFF
0000
0022
0000
005B
0000
004E
0037
0000
000B
0000
0000
0000
0000
0048
0054
0000
0052
0014
0000
0000
0000
FFFF
0000
0000
0000
0000
0000
0000
0000
0000
003C
0000
000B
0000
0032
003C
0000
0000
000B
0041
0000
0000
0000
0039
0000
0000
0000
0000
0000
0000
0000
FFFF
FFFF
FFFF
0000
0000
0000
0000
0000
0000
0000
0000
0000
0000
0000
002C
0039
0024
0046
0000
0000
0000
0000
0000
0000
0000
FFFF
0000
FFFF
0000
0000
FFFF
0000
FFFF
0000
0000
0000
0000
0000
0000
0000
001D
0000
0001
0034
0005
001E
0000
0000
0000
0000
FFFF
0000
0000
FFFF
FFFF
0000
FFFF
0000
FFFF
0000
FFFF
FFFF
0000
0000
0000
0000
0000
0000
0000
0000
0000
0000
0000
0000
0000
0000
0000
0000
0000
FFFF
FFFF
FFFF
FFFF
0000
FFFF
0000
FFFF
0000
FFFF
FFFF
0000
FFFF
0000
0000
0000
0000
0000
0000
0000
0000
0000
FFFF
0000
0000
0000
FFFF
0000
FFFF
FFFF
FFFF
0000
FFFF
FFFF
FFFF
0000
0000
0000
FFFF
0000
0000
FFFF
0000
FFFF
FFFF
0000
0000
0000
0000
0000
0000
FFFF
FFFF
FFFF
FFFF
FFFF
FFFF
FFFF
FFFF
0000
FFFF
FFFF
