0000
FFFF
FFFF
0000
FFFF
FFFF
FFFF
0000
0000
0000
FFFF
FFFF
FFFF
0000
0000
FFFF
0000
0000
FFFF
FFFF
0000
0000
FFFF
0000
FFFF
0000
FFFF
0000
FFFF
0000
0000
0000
0000
FFFF
0000
FFFF
0000
0000
0000
0000
0000
FFFF
FFFF
FFFF
FFFF
0000
FFFF
0000
FFFF
0000
FFFF
0000
FFFF
FFFF
FFFF
FFFF
FFFF
0000
FFFF
0000
0000
0000
0000
FFFF
FFFF
0000
FFFF
0000
0000
0000
FFFF
0000
0000
0000
0000
0000
FFFF
0000
0000
0000
0000
FFFF
FFFF
FFFF
FFFF
0000
FFFF
0000
FFFF
FFFF
FFFF
0000
0000
0000
0000
0000
0000
0000
0000
0000
000C
0000
0000
0000
0000
0000
0000
0000
0000
FFFF
0000
0000
0000
0000
FFFF
0000
0000
0000
FFFF
0000
0000
0000
0000
0000
0000
0000
0000
0000
0054
004A
0000
0000
0000
0000
0000
0000
0000
FFFF
FFFF
0000
0000
FFFF
004A
0000
FFFF
FFFF
FFFF
0000
0000
000E
0000
0000
0004
0000
0008
007E
0000
0024
0000
0018
0000
0000
0000
0000
FFFF
FFFF
FFFF
0000
0000
0000
FFFF
0000
FFFF
0000
0000
0000
0000
0000
003A
0000
0071
0000
0014
0000
002C
0000
0000
0000
0000
0000
0000
0000
0000
0000
0000
FFFF
FFFF
0000
0000
FFFF
FFFF
0000
0000
001E
0000
0055
0057
0000
004C
0000
0000
002E
0024
0000
004E
0000
0000
0000
0000
0000
0000
0000
0000
FFFF
FFFF
FFFF
FFFF
0000
0000
0000
0000
0000
0000
0000
0027
0039
0000
0002
0000
0000
005E
0000
0000
0016
0010
0000
0000
0000
0000
0000
0000
0000
FFFF
0000
0000
FFFF
0000
0000
0000
0000
0000
004B
0000
004F
0000
0000
0000
0013
002D
0000
0000
0000
0043
0000
006C
0000
0000
0000
FFFF
FFFF
0000
0000
0000
0000
0000
FFFF
0000
0000
0000
0000
0000
0000
000F
0018
0004
0000
000A
0000
0000
0000
0000
0000
0021
0000
0000
0000
0000
FFFF
FFFF
FFFF
0000
0000
0000
0000
0000
0000
002F
0000
0000
004F
0000
0000
0071
0000
000A
0000
000A
001E
002F
0000
002D
0000
0000
0000
0000
FFFF
0000
FFFF
FFFF
0000
0000
0000
0000
0084
002C
0013
0037
0000
0000
0003
0000
0000
0000
0000
0000
0000
0000
0000
0000
0000
0000
0000
FFFF
FFFF
FFFF
0000
FFFF
0000
0000
0000
0000
0022
0000
0000
004F
000D
0000
0000
0031
0000
000F
0000
0000
0000
004B
0004
0000
0028
0020
FFFF
FFFF
0000
FFFF
FFFF
0000
0000
0000
0000
0000
000B
0032
0063
0050
0017
0000
0000
0000
0041
0008
0026
0028
0020
0000
0047
0057
002E
0000
FFFF
FFFF
FFFF
FFFF
0000
FFFF
FFFF
0000
0002
0000
0000
0000
0000
0000
0000
0000
0025
0037
0000
0000
0000
0002
006B
000C
0028
002A
0000
0000
0000
FFFF
0000
FFFF
0000
0000
0000
0000
0019
006D
002D
0000
0028
0000
0019
0066
001C
0030
0056
0000
0007
0005
0000
002A
0033
0000
0000
0000
0000
0000
0000
FFFF
0000
FFFF
FFFF
0000
003F
0015
0000
0044
0019
0000
0000
0000
000B
0008
0000
0000
0048
0000
0000
0000
0000
0017
0000
0000
0000
0000
FFFF
0000
0000
FFFF
0000
0000
0000
0057
0000
0031
0000
0000
0000
0000
004D
0000
0010
0000
0000
0000
0005
005D
005A
0000
0000
0000
0000
0000
0000
FFFF
FFFF
FFFF
FFFF
0000
0000
0000
0000
0000
0000
0000
002E
0023
0003
0020
0000
0000
0000
0000
003F
0000
0000
0000
0000
0000
0000
0000
0000
FFFF
0000
0000
0000
0000
0000
0000
0000
0000
0000
004F
001C
0000
0032
0000
0000
0000
000C
0030
0000
0000
0000
0000
0000
0000
0000
0000
0000
FFFF
FFFF
0000
FFFF
0000
0000
0000
0000
001B
0004
0005
0000
0007
0000
000A
0000
0047
0000
0000
0000
000B
0000
0000
0000
0000
FFFF
FFFF
0000
0000
0000
0000
0000
0000
0000
0000
0000
0000
0000
0000
0023
0000
000C
0000
0031
0026
000C
0000
0000
0000
0000
0000
0000
0000
FFFF
0000
FFFF
FFFF
FFFF
0000
0000
FFFF
0000
0000
0000
0000
0000
0000
0040
0000
0005
0008
0000
0000
0000
0000
0000
0000
0000
0000
FFFF
FFFF
0000
FFFF
0000
0000
0000
0000
FFFF
0000
0000
FFFF
0000
FFFF
0000
0000
001F
0002
001C
0000
0000
0000
0000
0000
0000
0000
0000
0000
0000
0000
FFFF
0000
FFFF
0000
FFFF
FFFF
FFFF
FFFF
FFFF
0000
FFFF
0000
0000
0000
0000
0000
0000
0000
0000
0000
0000
0000
0000
0000
0000
FFFF
FFFF
FFFF
FFFF
FFFF
FFFF
0000
FFFF
FFFF
FFFF
0000
FFFF
0000
0000
0000
0000
0000
0000
FFFF
FFFF
0000
0000
0000
0000
0000
0000
FFFF
0000
FFFF
FFFF
FFFF
0000
0000
FFFF
FFFF
0000
FFFF
FFFF
FFFF
0000
0000
FFFF
0000
FFFF
FFFF
FFFF
0000
0000
0000
0000
0000
0000
FFFF
FFFF
0000
0000
0000
FFFF
0000
0000
FFFF
0000
