FFFF
0000
FFFF
FFFF
FFFF
FFFF
0000
0000
0000
0000
FFFF
FFFF
FFFF
0000
FFFF
FFFF
0000
FFFF
FFFF
FFFF
FFFF
0000
0000
0000
FFFF
0000
FFFF
0000
FFFF
0000
0000
FFFF
0000
FFFF
FFFF
FFFF
0000
004E
0000
0000
0000
FFFF
FFFF
FFFF
0000
FFFF
FFFF
FFFF
FFFF
0000
FFFF
0000
FFFF
FFFF
FFFF
0000
FFFF
FFFF
0000
0000
0000
0000
FFFF
FFFF
0000
0000
0000
0000
FFFF
0000
FFFF
0000
0000
0000
0000
0000
FFFF
0000
FFFF
0000
0000
FFFF
FFFF
FFFF
FFFF
0000
FFFF
0000
FFFF
FFFF
0000
0000
0000
0000
0000
0000
0000
0000
0000
0000
0000
0000
FFFF
0014
0000
0000
0000
0000
0000
FFFF
FFFF
0000
0000
FFFF
FFFF
0000
FFFF
0000
FFFF
0000
0000
0000
0000
0000
0000
0000
0000
0000
0000
0015
0000
0000
0000
0000
0000
0000
0000
FFFF
FFFF
0000
0000
FFFF
FFFF
0000
0000
0000
0000
0000
0000
0000
0000
0000
0000
0000
002F
0000
0000
0023
0000
0001
0000
0000
0000
0000
0000
FFFF
FFFF
FFFF
FFFF
FFFF
FFFF
0000
0000
0000
0000
0000
0000
0000
0000
0000
0000
0000
0000
0000
002D
000E
002A
0046
0000
0000
0009
0000
0000
0000
FFFF
FFFF
FFFF
0000
0000
FFFF
FFFF
0000
0000
0000
0000
0000
0000
0000
0005
0000
0000
0000
0000
0047
0000
0038
0000
0000
001D
0000
0000
FFFF
0000
0000
FFFF
FFFF
FFFF
FFFF
0000
0000
0000
0000
0002
0000
0010
0016
001B
0048
0000
000A
0005
0000
003D
0015
0000
0000
0000
0000
0000
0000
0000
FFFF
FFFF
0000
FFFF
FFFF
0000
0000
0000
0000
0000
0000
0000
0000
0000
0000
0000
0000
000E
0000
0000
0018
0000
0002
0000
0000
0000
0000
FFFF
0000
FFFF
0078
0000
0000
0000
0000
0000
0000
0000
0000
0033
0000
007F
0000
0014
0068
0000
0000
0000
0028
0000
0000
0004
0000
0000
0000
0000
0000
FFFF
FFFF
FFFF
0000
0000
0000
0000
0000
0034
0000
0000
0007
0000
002E
001E
0003
0000
0000
0000
0000
0023
0025
0005
0000
0000
0000
0000
FFFF
0000
FFFF
FFFF
FFFF
0000
0000
0000
0000
0000
004C
0000
0000
0000
0011
0010
003E
0000
000A
0033
000F
0000
0000
0000
0000
0000
0000
FFFF
FFFF
FFFF
FFFF
FFFF
0000
0000
0000
0000
0000
0013
0000
0000
0000
0042
0000
0000
0000
0000
0000
0003
0000
0000
0000
0000
0000
0000
FFFF
FFFF
0000
FFFF
0000
0000
0000
0000
0000
0000
0060
0000
004A
0007
0000
0000
0000
0000
0028
0048
001B
0000
0013
0000
0000
0000
0000
0000
FFFF
0000
FFFF
FFFF
FFFF
FFFF
FFFF
0000
0000
0000
0000
0000
0000
005C
0004
0032
0000
0000
0000
0058
0000
0060
001E
0000
0003
0000
0000
0000
0000
FFFF
0000
FFFF
FFFF
0000
002E
0000
0000
0000
0000
0000
0037
0041
0000
0000
0000
000A
0000
0000
0000
0000
0000
0011
0000
0000
0000
0000
0000
0000
FFFF
FFFF
0000
FFFF
FFFF
0000
0000
000F
002A
0025
0000
0000
0000
0000
0024
0000
0015
0000
0032
0084
001F
0000
002A
0000
0000
0000
0000
0000
FFFF
FFFF
0000
FFFF
0000
0000
001E
0015
003D
0000
0000
0000
0019
0000
0004
0000
0015
000E
0010
004A
0079
0034
0000
0000
0000
0000
0000
0000
FFFF
FFFF
FFFF
FFFF
0000
0000
000F
0000
0045
0021
0016
0000
000C
0000
0000
000E
0000
0046
0000
0029
0049
0000
0000
0000
0000
0000
0000
0000
0000
FFFF
0000
FFFF
0000
0000
0000
0004
000A
0000
0049
000A
0000
0000
0000
002B
004F
0001
0000
0000
0000
0000
0000
0000
0000
0000
0000
0000
0000
FFFF
0000
FFFF
0000
0000
0000
0000
0000
0035
006D
004D
0000
0016
0011
0000
0000
001C
0000
0000
0000
0000
0000
0000
0000
0000
FFFF
0000
0000
FFFF
0000
0000
0000
0000
0000
0000
0018
000F
0000
0008
0000
001D
0043
0020
0000
0000
0057
0000
0000
0000
0000
0000
0000
FFFF
FFFF
0000
FFFF
FFFF
FFFF
0000
0000
0000
0000
0000
0000
0000
0000
0000
0002
0000
0007
0000
0000
0000
0000
0000
0000
0000
0000
0000
0000
FFFF
0000
FFFF
0000
FFFF
0070
FFFF
FFFF
0000
0000
0000
0000
0000
0000
0000
0001
004A
0000
0000
0000
0000
0000
0000
0000
0000
0000
0000
0000
FFFF
0000
0000
FFFF
0000
FFFF
FFFF
FFFF
0000
FFFF
0000
FFFF
0000
0000
0000
0000
0000
0000
0000
0000
0000
0000
0000
0000
0000
0000
FFFF
FFFF
FFFF
FFFF
0000
FFFF
0000
FFFF
FFFF
0000
0000
FFFF
0000
0000
0000
0000
0000
0000
FFFF
0000
0000
0000
0000
0000
0000
0000
FFFF
0000
FFFF
FFFF
FFFF
0000
0087
FFFF
FFFF
0000
FFFF
0000
FFFF
0000
FFFF
FFFF
0024
FFFF
FFFF
0000
0000
FFFF
0000
0000
0000
0000
FFFF
FFFF
FFFF
FFFF
FFFF
FFFF
0000
0000
FFFF
0000
