FFFF
FFFF
FFFF
FFFF
FFFF
FFFF
FFFF
FFFF
FFFF
FFFF
FFFF
FFFF
FFFF
0000
FFFF
FFFF
0000
0000
FFFF
FFFF
0000
0000
0000
0000
FFFF
0000
0000
0000
FFFF
0000
0000
FFFF
0000
FFFF
0000
FFFF
0000
FFFF
0000
0000
0000
FFFF
FFFF
0000
0000
0000
FFFF
FFFF
FFFF
0000
FFFF
0000
FFFF
FFFF
FFFF
FFFF
FFFF
0000
0000
0000
0000
0000
0000
FFFF
0000
0000
FFFF
0000
FFFF
0000
FFFF
0000
0000
0000
0000
0000
0000
0000
FFFF
0000
FFFF
0000
FFFF
FFFF
0000
FFFF
0000
FFFF
FFFF
FFFF
0000
0000
FFFF
0000
0000
0000
0000
0000
0000
0012
0000
003C
0000
0000
0000
0000
0000
0000
0000
FFFF
0000
0000
0000
FFFF
FFFF
FFFF
FFFF
0000
FFFF
0000
0000
0000
0000
001A
0004
0048
001A
0015
0070
000A
0000
0044
0009
0000
0000
0000
0000
FFFF
FFFF
0000
0000
FFFF
FFFF
0000
0000
0000
0000
0000
0000
0000
0000
002E
0000
0013
0000
0000
0000
0000
0000
0000
0003
0000
0000
0000
FFFF
FFFF
FFFF
0000
FFFF
FFFF
FFFF
0000
0000
0000
0000
0000
0000
001F
0000
0005
0000
0000
0024
0000
0000
0012
0005
000D
0018
0000
0000
0000
0000
0000
FFFF
0000
FFFF
FFFF
0000
FFFF
FFFF
0000
0000
0000
000A
0000
000C
0000
0000
0058
0000
0035
0000
0019
000B
0000
0012
0066
0080
0009
0000
0000
0000
0000
FFFF
0000
FFFF
FFFF
0000
0000
0000
0000
0000
0021
000F
0000
0000
0000
0000
0000
002C
0000
0000
0000
0021
0000
0000
003E
0000
0000
0000
FFFF
0000
0000
FFFF
0000
0000
0000
0000
0000
0000
0027
0000
0000
0012
0000
0000
002D
0041
0004
0000
0000
0000
0000
0040
0032
0000
0000
FFFF
FFFF
FFFF
FFFF
0000
0000
0000
0000
0000
0059
000C
0016
0039
0010
0000
0022
001F
0000
0030
0000
0000
0000
0000
0010
0000
0000
0000
0000
0000
FFFF
0000
0000
FFFF
0000
0000
0000
0000
0005
0000
0000
0000
0002
0015
0000
000A
0000
0000
0031
004B
0008
000F
0000
0054
0000
0000
0000
FFFF
FFFF
0000
0000
FFFF
FFFF
0000
0000
0000
0041
001D
0000
0040
0000
0034
0000
0026
003D
0000
001C
0027
0000
007D
0005
0000
0000
0000
0000
FFFF
FFFF
FFFF
FFFF
FFFF
0000
0000
0000
0017
0000
0000
0010
000F
0044
000D
0000
0000
0054
0015
0015
0000
004A
0015
0023
0000
0000
0000
FFFF
FFFF
0000
FFFF
FFFF
0000
0000
0000
0000
0000
0000
0000
0000
0000
0018
0028
0000
0000
0000
0003
0016
0067
0000
0000
0000
0037
0000
0000
FFFF
FFFF
0000
FFFF
0000
FFFF
FFFF
0000
0000
0037
0000
005F
0000
001F
0000
0000
0000
0000
005A
0001
0020
0004
0009
0000
0000
0000
0000
0000
0000
FFFF
0000
FFFF
FFFF
0000
FFFF
0000
0000
0010
0000
0000
0000
0000
0000
0000
005A
0000
0000
0045
0000
0000
0000
0004
0000
0000
0000
0000
0000
0000
FFFF
0000
0000
FFFF
FFFF
0000
0000
0031
0000
0000
0000
006D
0039
000B
0000
0000
0000
000C
001B
0000
0000
0000
0000
0000
0000
0000
0000
0000
FFFF
0000
0000
FFFF
0000
0000
0052
0000
0018
0000
0011
004F
0032
0000
0042
0000
0000
0000
0006
000D
0046
0000
0000
0000
0000
0000
0000
0000
FFFF
FFFF
FFFF
FFFF
FFFF
0000
0000
0000
0032
0000
001B
0006
0000
0000
0000
0000
0048
0014
003F
0000
0000
0045
0000
0000
0000
0000
0000
0000
0000
FFFF
0000
FFFF
0000
0000
0000
0000
0000
0000
0000
0006
0000
0000
0000
000F
0000
000C
0000
0000
004E
0018
0000
0000
0000
0000
0000
0000
0000
FFFF
FFFF
0000
0000
0000
0000
0046
0055
0017
0003
0009
0000
0008
005E
0063
0000
0019
0000
0039
0017
0010
0000
0000
0000
0000
FFFF
0000
0000
FFFF
0000
0000
0000
0000
0010
0000
002F
0000
002C
0008
0015
0000
0000
0000
0000
0000
0050
0000
0000
0000
0000
0000
0000
0000
0000
0000
FFFF
FFFF
0000
0000
0000
FFFF
0000
0000
0049
001D
0000
000F
0000
0000
0030
0000
0000
0009
0000
0000
0000
0000
0000
0000
0000
FFFF
0000
FFFF
0000
FFFF
FFFF
FFFF
FFFF
0000
0000
0000
0000
0000
0000
0000
0000
0000
0000
0000
0000
0000
0000
0000
0000
0000
0000
0000
0000
0000
0000
0000
0000
0000
FFFF
FFFF
FFFF
FFFF
FFFF
0000
0000
0000
0000
0000
0000
0000
0000
0000
0000
0000
0000
0000
0000
0000
0000
FFFF
FFFF
FFFF
FFFF
0000
FFFF
0000
FFFF
FFFF
0000
FFFF
FFFF
0000
0000
0000
0000
0000
0000
FFFF
0000
0000
0000
FFFF
0000
0000
0000
FFFF
0000
FFFF
FFFF
FFFF
0000
FFFF
FFFF
FFFF
0000
FFFF
FFFF
FFFF
0000
0000
FFFF
0000
FFFF
FFFF
FFFF
0000
0000
0000
0000
0000
FFFF
FFFF
FFFF
0000
FFFF
FFFF
FFFF
0000
FFFF
FFFF
0000
