FFFF
FFFF
FFFF
FFFF
FFFF
FFFF
0074
0000
003C
0000
FFFF
FFFF
FFFF
0000
0044
FFFF
0000
FFFF
FFFF
FFFF
0000
FFFF
FFA1
0000
FFFF
0000
FFFF
0000
0069
0000
0000
0052
0000
0060
0000
0054
0000
0000
0000
0000
0000
FFFF
FFFF
FFFF
FFFF
FFFF
0085
0000
FFFF
0000
FFFF
0000
FFFF
FFFF
FFFF
FFFF
FFFF
FFFF
FFFF
0033
0000
0000
FFFF
FFFF
FFFF
0000
0000
0000
0000
0000
0000
0000
0000
0000
0000
0000
0000
0000
FFFF
0000
FFFF
FFFF
FFFF
FFFF
0000
0026
0000
FFFF
FFFF
FFFF
0000
0000
FFFF
0000
0000
0000
0000
0000
0000
0000
0000
0039
0000
0000
0000
0000
0000
0000
0000
0000
FFFF
0000
0000
FFFF
FFFF
FFFF
FFFF
0000
0000
0000
0000
0000
001A
0000
0056
0000
0000
0000
0011
0000
0047
0035
0000
0000
0000
0000
0000
FFFF
FFFF
0000
0000
FFFF
FFFF
0000
0000
0000
0000
0000
0000
0038
001E
0000
0014
0027
0078
0000
0000
0000
0027
0016
000A
0000
002D
0000
FFFF
FFFF
005F
FFFF
FFFF
0000
FFFF
FFFF
0000
0000
0000
0000
0038
0000
002A
0000
0000
0000
0000
0000
0010
000B
000C
0000
0026
0000
0007
0000
0000
0000
FFFF
0000
FFFF
0000
FFFF
FFFF
0000
0000
0000
0000
0016
0039
0020
0033
002F
0012
0000
0000
0027
0058
0007
0000
0016
0047
0024
0000
0000
0000
0000
0000
FFFF
FFFF
FFFF
FFFF
0000
0000
0000
0012
0000
000C
0000
004F
0011
0000
0000
0000
0073
0031
0000
0000
0000
0000
0040
0005
0000
0000
0000
005F
FFFF
0000
FFFF
FFFF
0000
0000
0036
0000
0068
006F
0057
0000
003F
0000
003A
0036
0000
0029
0000
0016
0000
0000
0000
0000
0000
0000
FFFF
FFFF
FFFF
FFFF
0000
FFFF
0000
0000
0000
0000
0049
002F
0048
0000
0045
000D
0042
0000
0000
0039
005F
0000
0015
0049
0046
0069
0000
0000
FFFF
FFFF
FFFF
FFFF
0051
0009
0000
0000
0000
0000
0000
0029
005A
0000
00B8
0038
004D
0000
0051
0000
001E
0000
0000
0000
0000
0000
0000
0000
0000
FFFF
FF9E
FFFF
FFFF
FFFF
0000
0000
0000
003C
0000
0043
0000
002B
0000
0016
0064
0000
0000
0000
0000
0008
0000
0000
0000
0000
0000
0037
FFFF
FFFF
FFFF
FFFF
FFFF
FFFF
0000
0000
0000
004D
0013
0000
003E
0005
0040
000C
0000
000C
0000
0000
0000
003B
0000
001B
0000
0000
0000
FFFF
FFFF
0000
FFFF
FFFF
0000
0000
0000
0000
0000
006B
0000
0000
0000
0000
0011
0000
002B
0000
0000
0011
0000
0039
0040
0000
0000
0000
0000
FFFF
FFFF
FFFF
FFFF
FFFF
0065
FFFF
0000
0000
0000
0014
000A
0000
002C
0000
0001
003A
0000
0049
000D
0000
0001
0000
0000
0000
0013
0000
0000
0000
FFFF
0000
FFFF
0000
0000
0000
0000
0008
0000
0000
0000
0014
0000
0016
001E
0000
0000
0059
003D
006B
0048
0069
0000
0006
0000
0000
0000
0000
0000
0000
FFFF
0000
FFFF
FFFF
0000
0010
0000
000D
0000
0000
000A
0000
0000
0000
0000
0000
005B
0015
0000
0000
0000
0000
0000
0000
0000
0000
0000
FFFF
0000
FFFF
FFFF
0000
0000
0000
0000
0000
0000
0000
0000
003A
0000
0001
0000
0067
0066
0016
0049
001F
0012
000F
0042
0000
0000
0034
0000
FFFF
FFFF
FFFF
FFFF
FFFF
0000
0000
001B
000C
0000
0000
0031
0023
000E
000D
0000
0000
0000
0056
0038
0053
0030
000D
0000
0000
0000
0000
0000
0000
FFFF
0000
FFFF
0000
0000
0000
0000
0000
000B
0049
0000
0032
0022
0087
0006
001E
0047
0000
0038
0006
0004
0023
0000
0000
0000
0000
0000
0000
FFFF
FFFF
FFFF
FFFF
0000
0000
0000
0000
0000
000F
0012
0000
0000
0046
0043
0000
0004
0000
0021
000E
0000
0000
0000
0000
0000
FFFF
FFFF
0000
FFFF
0000
0000
0000
0000
0000
0000
0040
0037
0000
0000
006B
0000
0003
0000
001B
0000
0018
0000
0000
0000
0000
0000
0000
0000
0000
0000
FFFF
FFFF
FFFF
0000
0000
0000
0000
0000
0000
0074
0000
0000
0035
0032
0000
001D
003A
0000
0000
0000
0000
0000
0000
0000
FFFF
FFFF
0000
FFFF
0000
0000
FFFF
0000
FFFF
0000
0000
0000
0000
0000
0000
0000
002E
0000
002C
005A
0055
0000
0000
0000
0000
0000
0000
0000
0000
FFFF
FFFF
0000
FFCC
0000
FFFF
FFFF
FFFF
0000
0000
0000
0000
0000
0000
0000
0007
0000
0000
0000
0000
0015
0028
0000
0000
FFFF
0000
FFFF
FFFF
FFFF
FFFF
0000
FFFF
0000
FFFF
FFFF
FFFF
0000
FFFF
0000
FFFF
0000
0000
002B
0000
0000
0045
0000
0000
0000
0000
0000
0020
FFFF
0000
0000
FFFF
FFFF
0000
FFFF
FFFF
FFFF
0000
FFFF
FFFF
FFFF
0000
0000
FFFF
0000
FFFF
FFFF
FFFF
0000
0000
0000
0000
0000
FFFF
FFFF
FFFF
FFFF
0000
FFFF
FFFF
FF71
0000
FFFF
FFFF
