0000
FFFF
FFFF
0000
FFFF
FFFF
0000
0000
FFFF
FFFF
FFFF
FFFF
FFFF
0000
0000
FFFF
0000
FFFF
FFFF
FFFF
FFFF
0000
FFFF
0000
FFFF
0000
FFFF
0000
FFFF
0000
0000
0000
0000
FFFF
0000
FFFF
0000
FFFF
0000
0000
0000
FFFF
FFFF
0000
0000
FFFF
FFFF
0000
FFFF
0000
FFFF
0000
FFFF
FFFF
FFFF
FFFF
FFFF
FFFF
FFFF
0000
0000
0000
FFFF
FFFF
0000
0000
FFFF
0000
0000
0000
0000
0000
0000
0000
0000
001E
0000
0000
FFFF
0000
FFFF
FFFF
FFFF
FFFF
0000
0000
0000
0000
FFFF
FFFF
0000
0000
FFFF
0000
0000
0000
0000
0000
0000
0000
0000
0000
0000
0000
0000
0000
0000
0000
0000
FFFF
FFFF
0000
0000
0000
FFFF
FFFF
0000
0000
0000
0000
0000
0000
0007
0000
0050
0041
0000
0000
0000
0000
0000
0000
0000
0000
0000
0000
0000
FFFF
FFFF
FFFF
0000
FFFF
FFFF
FFFF
0000
0000
0000
0000
0000
0000
002F
0026
0000
0000
0000
0000
0000
0040
001F
0000
0012
002D
0000
0000
FFFF
FFFF
FFFF
FFFF
0000
0000
FFFF
FFFF
0000
0000
0000
0000
0027
003B
0010
0000
0055
0001
0000
0000
0000
000B
0000
004A
0000
000F
0000
0000
0000
0000
FFFF
0000
FFFF
0000
FFFF
FFFF
0000
0000
0000
0001
0000
0008
0000
0069
0000
0087
0059
000F
0039
0039
0000
0034
0000
0000
0000
0000
0000
0000
0000
FFFF
FFFF
FFFF
FFFF
FFFF
0000
0000
0000
0028
001B
0000
0002
0000
0028
0044
0000
0000
0000
0015
005C
0000
0000
0012
0000
0000
0000
0000
0000
FFFF
FFFF
0000
FFFF
FFFF
0000
0000
0000
0021
001C
0000
0000
0011
0000
0000
004A
0000
0000
0000
0000
0050
001B
0034
0000
0000
0000
0000
FFFF
FFFF
FFFF
FFFF
0000
0000
0000
0000
0000
0029
0000
0000
0000
0010
0000
001F
0000
009D
002C
0026
005A
0000
0066
0000
0000
0000
0000
0000
0000
FFFF
FFFF
FFFF
FFFF
0000
0000
0000
0000
0010
0000
0023
0012
0000
0085
0000
0000
0000
0013
0034
0012
0000
0000
002A
0064
0000
0000
0000
FFFF
FFFF
0000
FFFF
FFFF
0000
0000
0000
0000
0000
0000
0000
0000
0000
0006
0000
0030
0000
002D
0000
0000
0005
004B
0000
0000
0000
0000
0000
FFFF
FFFF
FFFF
FFFF
FFFF
0000
0000
0000
0000
0000
0000
0000
0000
0013
002F
0023
0003
0000
0000
0008
0000
0026
0000
0000
002F
0000
0000
0000
FFFF
0000
FFFF
FFFF
0000
0000
0000
0000
0000
0000
0000
0000
0011
0000
0051
0050
0035
0000
0000
0018
0021
0000
0000
0042
0000
0000
0000
FFFF
FFFF
FFFF
0000
FFFF
FFFF
FFFF
0000
0000
0000
0000
0004
0000
0000
0036
000B
000C
005D
0000
0000
0000
0029
0000
002E
001D
0000
0000
0000
0000
FFFF
0000
FFFF
FFFF
FFFF
0000
0000
0000
003B
0000
0039
0000
0000
0000
0011
0031
0000
0003
0000
0022
0000
001A
0000
0000
0000
0000
0000
0000
0000
0000
0000
0000
FFFF
FFFF
0000
0000
0000
0000
0047
0003
0000
0000
0055
0000
0000
0000
0000
0000
0023
0000
0047
0000
0000
0000
0000
0000
0000
FFFF
FFFF
0000
FFFF
0000
0000
0000
0000
0007
0000
002C
0000
0000
0000
004D
0000
004B
002D
003A
0028
0004
0000
001A
0000
0000
0000
0000
0000
0000
FFFF
FFFF
FFFF
FFFF
0000
0020
0000
0000
0000
0008
002C
00A4
0000
0000
0000
0000
0000
0033
0028
0000
0000
001C
0006
0000
0000
0000
0000
FFFF
FFFF
0000
FFFF
0000
0000
0000
0048
0031
0000
0000
0000
0000
002A
0007
0000
0000
0000
008E
0000
0031
0000
0000
0000
0000
0000
0000
0000
0000
FFFF
FFFF
FFFF
0000
0000
0000
0006
0000
0000
0034
002F
001A
0000
0000
0000
0014
0000
0013
0000
0013
001E
0000
0000
0000
0000
FFFF
FFFF
FFFF
0000
0000
0000
0000
0000
0000
0023
0000
0000
000A
0000
004B
0030
000D
002F
0000
0020
0006
0000
008F
0000
0000
0000
0000
0000
0000
0000
FFFF
FFFF
FFFF
0000
0000
0000
0000
0000
002A
0000
0016
0008
0000
0000
001D
0000
0000
0032
0000
0000
0000
0000
0000
0000
FFFF
FFFF
0000
FFFF
0000
FFFF
FFFF
FFFF
0000
0000
0000
0000
0000
0000
0000
0015
0000
0015
0020
0000
0000
0000
0000
0000
0000
FFFF
FFFF
0000
0000
FFFF
FFFF
0000
FFFF
0000
FFFF
FFFF
FFFF
0000
FFFF
0000
0000
0000
0000
0000
0000
0000
0000
0000
0000
0000
0000
0000
0000
FFFF
FFFF
FFFF
FFFF
FFFF
FFFF
FFFF
FFFF
0000
FFFF
FFFF
FFFF
FFFF
FFFF
0000
FFFF
0000
0000
0000
0000
0000
0000
0000
0000
FFFF
0000
FFFF
0000
FFFF
0000
FFFF
FFFF
FFFF
0000
FFFF
FFFF
FFFF
0000
FFFF
FFFF
FFFF
0000
0000
FFFF
0000
FFFF
FFFF
FFFF
0000
0000
0000
0000
0000
FFFF
FFFF
FFFF
FFFF
0000
FFFF
FFFF
0000
0000
FFFF
0000
