0000
FFFF
FFFF
FFFF
FFFF
FFFF
0000
0000
FFFF
0000
0000
FFFF
FFFF
0000
0000
FFFF
0000
FFFF
FFFF
FFFF
FFFF
FFFF
0000
0000
FFFF
0000
FFFF
0000
FFFF
0000
0000
FFFF
0000
FFFF
0000
FFFF
0000
FFFF
0000
0000
0000
FFFF
FFFF
FFFF
FFFF
FFFF
FFFF
0000
FFFF
0000
FFFF
0000
FFFF
FFFF
FFFF
FFFF
FFFF
FFFF
0000
0000
0000
0000
FFFF
FFFF
FFFF
0000
0000
0000
0000
0000
FFFF
0000
0000
0000
0000
0000
0000
0000
0000
0000
0000
0000
FFFF
FFFF
0000
0000
0000
0000
FFFF
FFFF
0000
0000
0000
0000
0000
0000
0000
0000
0000
0000
0000
0000
FFFF
0000
0000
0000
0000
0000
0000
0000
FFFF
0000
0000
0000
FFFF
0000
FFFF
0000
FFFF
0000
0000
0000
0000
0000
001F
0014
0017
0000
0000
002F
0053
003C
0000
0000
0000
0000
0000
FFFF
FFFF
0000
0000
FFFF
FFFF
0000
0000
0000
0000
0000
0000
0000
0000
0000
000B
0000
0061
000A
000F
0000
0032
0000
0000
0000
0000
0000
0000
FFFF
FFFF
FFFF
0000
0000
FFFF
FFFF
0018
0000
0000
0000
002E
0053
0000
0014
0009
0018
0000
0008
0010
0000
0000
0034
000D
004A
005D
0000
0000
0000
FFFF
0000
FFFF
0000
FFFF
FFFF
FFFF
0000
0010
0000
0000
0000
0000
0025
0000
0000
0025
0000
001F
0000
0000
0000
005F
0013
000F
000B
0000
0000
0000
0000
FFFF
FFFF
FFFF
FFFF
0000
0000
0000
0000
001F
0007
0000
0000
0000
0019
0000
000A
000B
001B
0030
0000
0000
0000
001C
002D
0000
0000
0000
FFFF
FFFF
0000
FFFF
FFFF
FFFF
0000
0000
0049
0000
0029
0000
0035
0008
0000
0033
0000
0000
0000
0000
0000
001B
0000
0029
0000
0019
0000
FFFF
0000
FFFF
FFFF
0000
FFFF
0000
0000
0000
0015
0000
0025
0000
0028
004A
001D
0000
0000
0000
006E
0000
0017
006F
0000
0001
0000
0000
0000
0000
FFFF
FFFF
FFFF
FFFF
0000
0000
0000
0015
0059
0000
0000
0020
0000
0000
003F
0000
0000
0000
0006
0020
004B
0000
0000
0000
0000
0000
0000
0000
FFFF
0000
FFFF
FFFF
0000
0000
0000
0006
0000
0007
0000
003A
0000
0000
0000
0019
000E
0000
0008
0022
0000
0000
0000
002E
0000
0000
0000
FFFF
FFFF
FFFF
0000
FFFF
0000
0000
000A
0021
000F
0018
003B
0000
0000
0000
005B
0000
0015
0034
000F
0000
002B
0001
004A
0000
0000
0000
FFFF
FFFF
0000
FFFF
0000
0000
0000
0000
0000
0005
000E
0000
0000
0029
0002
0000
0050
004C
0000
0000
0000
0006
0014
0059
0000
0000
0000
0000
FFFF
0000
FFFF
FFFF
FFFF
FFFF
FFFF
0000
0000
000D
0000
0000
0026
0010
0000
0000
0025
0000
0000
0031
0028
0000
0000
0000
0000
0000
0000
0000
0000
FFFF
0000
FFFF
FFFF
0000
0000
0000
0000
0000
0000
004C
0041
0029
0051
0027
0000
0000
0000
0038
000C
0020
0023
006B
0000
0000
0000
0000
0000
0000
0000
0000
0000
FFFF
FFFF
0000
001D
0016
0000
0000
001F
0000
0002
0037
0000
002B
0009
0000
0000
0000
0000
0000
001E
0000
0000
0000
0000
0000
FFFF
FFFF
FFFF
FFFF
0000
0000
0000
002B
0024
0096
000E
000D
0000
0003
0057
0000
0027
0026
0000
0000
0025
0002
0000
0000
0000
0000
0000
008A
FFFF
FFFF
FFFF
FFFF
0000
0000
0056
0000
000C
0026
0047
0003
004A
0004
0000
0027
0000
0031
0002
0046
0000
0000
0000
0000
0000
0000
0000
0000
FFFF
FFFF
0000
FFFF
0000
0000
0000
0018
0018
0000
0000
0000
0000
0004
004B
0000
0000
0051
0055
002F
0000
0000
0028
0016
0000
0000
0000
0000
0000
FFFF
FFFF
FFFF
0000
0000
0000
001C
0027
0006
0013
0000
0004
001F
0000
0075
0011
0000
001F
000E
0058
0000
0009
0000
0000
0000
FFFF
0000
FFFF
FFFF
0000
0000
0000
0000
0000
0000
0000
0000
0000
0033
0036
002E
0032
0060
0000
0000
0029
0000
0000
0000
0000
0000
0000
0000
0000
0000
FFFF
FFFF
FFFF
0000
0000
0000
0000
0000
0000
0016
0029
0034
003E
0000
0000
0011
0000
0007
0043
005E
0000
0000
0000
0000
0000
FFFF
0000
FFFF
0000
FFFF
FFFF
FFFF
FFFF
0000
0000
0000
0000
0000
0000
0000
0028
001F
0000
0000
0000
002A
0000
0000
0000
FFFF
0000
0000
0000
FFFF
FFFF
0000
0000
0000
FFFF
0000
FFFF
0000
0000
0000
0000
0000
0000
0000
0000
0000
0000
0000
0000
0000
0000
0000
0000
FFFF
0000
FFFF
FFFF
FFFF
0000
0000
FFFF
0000
FFFF
0000
0000
FFFF
0000
0000
0000
0000
0000
0000
0000
0000
0000
0000
0000
FFFF
0000
0000
0000
FFFF
0000
0000
FFFF
FFFF
0000
FFFF
FFFF
FFFF
0000
0000
0000
FFFF
0000
0000
FFFF
0000
FFFF
FFFF
0000
0000
0000
0000
0000
0000
FFFF
FFFF
FFFF
FFFF
0000
FFFF
FFFF
0000
0000
FFFF
FFFF
