FFFF
FFFF
FFFF
FFFF
FFFF
FFFF
FFFF
0000
FFFF
0000
0000
FFFF
FFFF
0000
FFFF
FFFF
0000
0000
FFFF
FFFF
0000
0000
FFFF
0000
FFFF
0000
FFFF
0000
FFFF
0000
0000
0000
0000
FFFF
0000
FFFF
0000
0000
0000
0000
0000
FFFF
FFFF
FFFF
FFFF
0000
FFFF
0000
FFFF
0000
0000
0000
FFFF
FFFF
FFFF
FFFF
FFFF
FFFF
FFFF
0000
0000
0000
0000
FFFF
FFFF
0000
FFFF
0000
0000
0000
FFFF
0000
0000
0000
0000
0000
0000
0000
FFFF
0000
0000
FFFF
FFFF
FFFF
0000
0000
0000
0000
FFFF
FFFF
0000
0000
0000
0000
0000
0000
0000
0000
0054
0000
0009
0000
0000
0000
0000
0000
0000
0000
0000
0000
FFFF
0000
0000
0000
FFFF
0000
0000
0000
0000
0000
0000
0000
0000
0000
0000
002F
0040
0012
001B
0004
0000
0000
0000
0000
0000
0000
0000
FFFF
FFFF
FFFF
0000
FFFF
FFFF
FFFF
0000
0000
0000
0000
0000
0089
0056
000E
0000
0021
004F
009B
0003
0007
0011
0009
0024
0000
0000
0000
FFFF
FFFF
FFFF
FFFF
FFFF
0000
FFFF
0000
0000
0000
0000
0021
0009
0001
0053
0000
000C
0000
0000
0041
0000
0037
0016
0000
0000
002A
0000
0000
0000
0000
0000
0000
FFFF
0000
0000
FFFF
0000
0000
0000
002C
002B
0051
0000
000B
003F
0000
0009
0000
002C
0000
0000
0000
004C
0031
0000
0000
0000
FFFF
0000
FFFF
FFFF
FFFF
0000
FFFF
0000
0000
0012
0043
0047
0000
0025
0000
0000
0024
0014
0000
000D
0013
0000
000A
005B
0000
0018
0000
0000
0000
0000
FFFF
FFFF
0000
FFFF
FFFF
0000
0000
0008
003A
0000
001C
0010
0000
005E
0000
0000
0000
0000
0000
0000
000C
0000
0046
000A
0000
0000
0000
FFFF
FFFF
FFFF
FFFF
0000
0000
0000
001A
004A
002B
0012
0000
0000
0000
0021
0000
0004
0000
0000
0020
0000
0000
0049
0000
000C
0000
0000
0000
0000
FFFF
FFFF
FFFF
FFFF
0000
0000
0000
0000
0013
0000
0000
0000
003D
0034
000A
0001
000B
0042
0000
0054
0000
0000
0000
0000
0000
0000
0000
0000
FFFF
0000
FFFF
FFFF
FFFF
0000
0000
0000
0000
0000
0000
0010
0005
0003
0000
0000
0059
0000
0000
0000
0000
0021
0000
0021
0020
0000
FFFF
FFFF
FFFF
FFFF
0000
FFFF
0000
0000
0000
003D
0000
0000
0000
0002
0000
0000
0000
0000
001D
001C
003C
0018
0000
0005
0000
0000
0000
0000
FFFF
FFFF
0000
FFFF
FFFF
0000
0000
0000
0000
0000
0000
004A
0018
0000
0008
0004
0000
001B
0000
0007
0000
0000
000F
0017
0004
0000
0000
0000
FFFF
FFFF
FFFF
FFFF
FFFF
FFFF
FFFF
0000
0011
002E
002D
0000
0000
0000
0000
0000
0012
0000
0000
0012
0000
0038
003F
0050
0000
0035
0000
0000
0000
FFFF
0000
FFFF
0000
FFFF
0000
0000
0000
002E
0000
0021
0000
0044
0054
002F
0033
002F
0000
000C
0000
0000
0037
0052
0036
0000
000C
0000
0000
0000
0000
0000
0000
FFFF
FFFF
0000
0011
0000
004D
0000
002D
0006
0000
0000
001F
0000
0000
001E
0041
006A
0000
0000
0005
001A
001E
0000
0000
0000
FFFF
0000
FFFF
FFFF
0000
0000
0011
004A
0014
003A
0000
0000
001E
0000
0007
000E
0030
0024
0011
0000
0015
0060
0000
0000
0000
0000
0000
0000
FFFF
FFFF
FFFF
FFFF
0000
0000
0050
0000
0000
0000
0000
0000
001F
003B
0021
001F
0027
0000
0000
0000
0000
0000
000C
004D
0000
0000
0000
0000
0000
FFFF
0000
FFFF
0000
0000
0000
0000
001B
0047
0000
0000
0014
005A
0012
0000
0026
000C
0000
000D
0000
0046
0064
001F
0000
0000
0000
0000
0000
FFFF
FFFF
0000
0000
0000
0000
0034
0028
0004
0000
0000
0021
0000
0069
0023
0029
0055
001F
0003
0015
003C
0024
004A
0000
0000
FFFF
0000
0000
FFFF
0000
0000
0000
0000
0000
0004
0000
0000
0003
0041
0000
0014
0000
0068
0000
002E
0023
0000
0000
0000
0000
0000
0000
0000
0000
0000
FFFF
0000
FFFF
0000
0000
0000
0000
001E
005B
0007
0042
0000
0000
0000
0000
0023
0000
0026
0000
0000
0000
0000
0000
0000
0000
FFFF
FFFF
FFFF
0000
0000
FFFF
0000
FFFF
0000
0000
0000
0000
0000
0000
0004
0051
0000
0040
0000
0000
0000
0000
0000
0000
0000
FFFF
0000
0000
FFFF
FFFF
0000
FFFF
0000
FFFF
0000
FFFF
FFFF
0000
0000
0000
0000
0000
0000
0000
0000
0000
0000
0000
FFFF
0000
0000
0000
0000
FFFF
FFFF
FFFF
0000
FFFF
FFFF
FFFF
0000
0000
0000
FFFF
0000
0000
0000
0000
0000
0000
0000
0000
0000
0000
0000
0000
0000
0000
0000
0000
FFFF
0000
FFFF
0000
FFFF
0000
FFFF
FFFF
FFFF
0000
0000
FFFF
FFFF
0000
0000
FFFF
0000
FFFF
FFFF
FFFF
0000
0000
0000
0000
0000
0000
FFFF
FFFF
0000
0000
FFFF
FFFF
0000
0000
FFFF
0000
