0000
0000
FFFF
FFFF
FFFF
FFFF
0000
FFFF
FFFF
0000
0000
FFFF
FFFF
0000
FFFF
FFFF
0000
0000
FFFF
FFFF
0000
0000
0000
0000
FFFF
0000
FFFF
0000
FFFF
0000
0000
0000
0000
FFFF
0000
FFFF
0000
FFFF
0000
0000
0000
FFFF
FFFF
0000
FFFF
FFFF
FFFF
0000
FFFF
0000
FFFF
0000
FFFF
FFFF
0000
0000
FFFF
FFFF
FFFF
0000
0000
0000
0000
FFFF
FFFF
0000
0000
0000
0000
0000
0000
0000
0000
0000
0000
0000
0000
0000
FFFF
0000
FFFF
FFFF
FFFF
FFFF
0000
0000
0000
0000
FFFF
FFFF
FFFF
0000
0000
0000
0000
0000
0000
0000
0000
0000
0000
0000
0000
0000
0000
0000
0000
0000
0000
0000
FFFF
0000
0000
FFFF
FFFF
0000
FFFF
0000
FFFF
0000
FFFF
0000
0000
0000
0000
0000
0000
0000
0000
0039
0027
0000
0000
0000
0000
0000
0000
FFFF
FFFF
FFFF
0000
FFFF
FFFF
FFFF
0000
0000
0000
0000
0000
0000
0000
0009
0007
0000
0000
0012
0017
0058
001A
001E
0000
0051
0000
FFFF
FFFF
FFFF
FFFF
FFFF
0000
0000
0000
0000
0000
0000
0000
0000
0000
0000
0000
0000
0000
001D
0048
0000
0000
0024
0026
0016
0000
0025
0000
0000
0000
0000
FFFF
0000
FFFF
0000
FFFF
0000
FFFF
0000
0000
0000
0000
0029
0000
0047
0020
0000
003A
0029
0000
0000
002E
0001
0000
0011
0000
0000
0000
0000
0000
FFFF
FFFF
FFFF
0000
FFFF
0000
0000
0000
0000
0003
0000
002F
0000
0000
0000
0000
0000
0000
0000
0000
0000
0037
0000
002C
0000
0000
0000
0000
FFFF
FFFF
0000
FFFF
FFFF
FFFF
0000
0000
0008
0001
0000
0000
0000
0000
0000
0000
0057
0000
0000
0000
0000
000A
0025
005B
0000
0000
0000
FFFF
0000
FFFF
FFFF
0000
0000
0000
0000
0000
0000
0000
001C
0000
0000
0000
0000
0049
0000
0000
0000
000E
0000
0000
0000
0000
0000
0000
0000
0000
0000
FFFF
FFFF
FFFF
0000
0000
0000
0000
0000
0000
0031
0031
0001
0000
0000
0000
0000
0019
0000
0018
0000
0017
0000
0023
0000
0000
0000
0000
FFFF
0000
FFFF
FFFF
0000
0000
0000
0000
0066
0063
0000
0000
0000
002A
0000
0000
0000
0000
0000
0000
001A
0000
0021
0009
0000
0000
0000
FFFF
0000
FFFF
0000
FFFF
0000
0000
0000
0000
0000
000A
0003
002C
0044
0000
0027
002B
0003
0000
0000
0002
0000
0000
0001
0000
0000
0000
FFFF
FFFF
0000
FFFF
0000
0000
0000
0000
0000
0014
0000
0092
0000
0000
0003
0035
0021
0006
004F
0029
0000
0040
0000
0024
0000
0000
0000
0000
FFFF
0000
FFFF
0000
FFFF
FFFF
FFFF
0000
0000
0000
0000
0020
0000
002E
0026
0008
0006
0000
0000
0000
0000
0002
002F
0054
0000
0000
0000
0000
0000
FFFF
0000
FFFF
FFFF
FFFF
FFFF
0000
0000
0067
0000
0000
0000
000E
000B
0000
0000
0000
0000
0003
002D
0056
0000
0000
000D
0000
0000
0000
0000
0000
0000
0000
0000
FFFF
FFFF
0000
0000
0000
005D
0000
0000
001B
0000
0000
0000
0003
0026
002D
000A
0028
0000
002E
0000
003D
0000
0000
0000
0000
FFFF
0000
FFFF
FFFF
0000
0000
0000
001E
0028
001B
0000
000A
0007
0022
0000
0000
0000
0000
0012
0057
004D
0000
0053
0000
0000
0000
0000
FFFF
FFFF
FFFF
FFFF
FFFF
0000
0000
0002
0000
0000
0016
0000
0008
0000
0000
0008
0017
0000
0054
0000
0000
0002
0008
0000
0000
0000
0000
FFFF
0000
FFFF
FFFF
0000
FFFF
0000
0000
0026
0000
0000
0000
0000
002C
0000
0000
002B
0046
0018
0000
0000
001F
0000
0000
0000
0000
0000
FFFF
0000
FFFF
0000
FFFF
0000
FFFF
FFFF
0000
0000
0005
005F
0000
0000
0000
0000
0035
0037
0040
0000
0000
0060
0000
001D
0002
0000
0000
FFFF
FFFF
FFFF
0000
FFFF
FFFF
0000
0000
0000
0000
0000
0000
0004
0049
0000
0000
0096
0016
0000
0012
0000
0021
0000
0000
002B
0000
0000
FFFF
FFFF
FFFF
0000
0000
FFFF
FFFF
FFFF
0000
0000
0000
0000
0000
0000
0000
002B
006A
0009
0000
0000
0021
0000
0021
002F
0000
0000
0000
0000
0000
FFFF
FFFF
FFFF
FFFF
0000
FFFF
FFFF
FFFF
FFFF
0000
0000
0000
0000
0000
0033
0033
0000
005A
001B
000B
0000
0000
0000
0000
0000
0000
FFFF
0000
0000
FFFF
FFFF
0000
0000
0000
FFFF
0000
FFFF
FFFF
0000
0000
0000
0000
0000
0000
0000
0000
0000
0000
0000
0000
0000
0000
0000
0000
FFFF
FFFF
FFFF
FFFF
0000
FFFF
FFFF
0000
FFFF
0000
FFFF
0000
0000
0000
FFFF
0000
0000
0000
0000
FFFF
FFFF
0000
0000
FFFF
0000
0000
0000
FFFF
0000
FFFF
FFFF
FFFF
0000
FFFF
FFFF
FFFF
0000
0000
FFFF
FFFF
0000
0000
FFFF
FFFF
FFFF
FFFF
0000
0003
0000
0000
0000
0000
FFFF
FFFF
FFFF
0000
0000
FFFF
FFFF
0000
FFFF
FFFF
FFFF
