FFFF
FFFF
FFFF
FFFF
FFFF
FFFF
FFFF
0000
FFFF
0000
FFFF
FFFF
FFFF
0000
FFFF
FFFF
0000
FFFF
FFFF
FFFF
FFFF
FFFF
0000
0000
FFFF
0000
FFFF
0000
FFFF
FFFF
0000
FFFF
0000
FFFF
0000
FFFF
0000
FFFF
0000
0000
0000
FFFF
FFFF
FFFF
FFFF
0000
FFFF
FFFF
FFFF
0000
FFFF
0000
FFFF
FFFF
FFFF
FFFF
FFFF
FFFF
FFFF
0000
0000
0000
FFFF
FFFF
FFFF
0000
0000
0000
0000
0000
0000
0000
0000
0000
0000
0000
0000
0000
FFFF
0000
0000
0000
FFFF
FFFF
0000
FFFF
0000
FFFF
FFFF
FFFF
0000
0000
0000
0000
0000
0000
0000
0000
0000
0000
0000
0000
0000
0000
0000
0000
0000
0000
0000
FFFF
FFFF
0000
0000
FFFF
FFFF
FFFF
FFFF
0000
0000
0000
0000
0000
0000
0000
0000
0012
0000
0012
0000
0003
001C
0016
0000
0000
0000
0000
0000
FFFF
FFFF
0000
0000
FFFF
FFFF
0000
0000
0000
0000
0000
0000
0000
0022
0000
0000
0014
0005
0000
0000
0000
0000
0000
0043
0000
0000
0000
FFFF
FFFF
FFFF
FFFF
FFFF
0000
FFFF
0000
0000
0000
0000
0000
0000
002C
0054
001C
0000
009C
001C
0035
0001
0000
0000
0000
0000
003A
0000
002F
0000
0000
0000
FFFF
FFFF
FFFF
0000
FFFF
FFFF
FFFF
0000
0000
0000
0000
0029
0019
0000
0000
0000
000F
0000
0000
0000
0000
0000
0000
0000
0000
0000
0000
0000
0000
FFFF
FFFF
FFFF
FFFF
0000
0000
FFFF
002A
0006
0000
0000
001A
0000
0000
0000
0000
001E
002D
0000
0000
0000
0000
0000
0015
0000
0000
0000
FFFF
FFFF
0000
FFFF
FFFF
0000
0000
0000
0000
0021
0020
0000
0000
0000
0081
0000
0064
0017
0000
0007
007D
0000
0017
0000
0000
0000
0000
FFFF
FFFF
FFFF
FFFF
0000
0000
0000
0000
002E
002A
0024
0021
0000
0013
003C
0034
000E
002C
005E
0000
0040
0000
003D
0000
0002
0000
0000
0000
0000
FFFF
FFFF
FFFF
FFFF
0000
0000
0000
0018
0000
0065
001F
004A
0058
003F
0000
0000
000D
0000
002F
0000
0028
0016
0000
0000
0000
0000
0000
0000
FFFF
0000
FFFF
FFFF
FFFF
0000
0000
0000
0000
003F
0002
0000
0000
0027
0000
0000
0000
0037
0000
0000
0000
0000
0000
0000
0000
0000
FFFF
FFFF
FFFF
FFFF
FFFF
FFFF
0000
0000
0000
0030
002B
0047
005A
0000
0016
0000
0000
0000
001F
0020
0055
0000
0000
0000
000A
0019
003B
0000
FFFF
FFFF
FFFF
FFFF
0000
0000
0000
0000
004D
0023
0000
0000
0025
003E
0002
0012
0000
0032
0000
0055
0000
0000
0000
0000
0017
003B
000D
0000
FFFF
FFFF
FFFF
FFFF
FFFF
FFFF
FFFF
0000
0000
0000
0000
0000
0005
0000
0000
005C
002E
001D
0000
0016
0000
0047
004C
0000
0040
0000
0013
0000
0000
FFFF
0000
FFFF
0000
0000
0000
0000
0000
0015
0016
0000
0036
000A
0000
0006
0011
0000
0000
0042
0061
0018
0064
0000
0000
0000
0000
0000
0000
0000
FFFF
FFFF
0000
FFFF
FFFF
0000
0000
0032
0007
0025
0000
0000
0041
0000
0000
0000
0001
001D
0000
001F
0000
0000
003F
003A
0000
0000
0000
0000
FFFF
FFFF
FFFF
FFFF
0000
0000
0000
000E
000F
0000
0000
004D
006C
0027
0000
0025
000C
005F
0005
0023
0000
0038
0000
0000
0000
0000
0000
0000
FFFF
FFFF
FFFF
FFFF
FFFF
0000
0000
0000
0077
0000
0000
000F
0011
0046
0000
0016
006D
0000
0026
0000
0029
003A
0000
0000
0000
0000
0000
0000
0000
FFFF
0000
FFFF
0000
0000
0000
0072
0000
0000
0017
003C
0034
0000
0000
0006
0032
0000
0043
0000
0000
000D
0000
0000
0000
0000
0000
0000
0000
FFFF
FFFF
FFFF
0000
0000
0000
0000
0020
0000
0000
001C
0000
0032
0000
0000
002C
0000
0000
0000
0000
0000
0000
0000
0000
0000
FFFF
0000
0000
FFFF
0000
FFFF
FFFF
0000
0000
0000
0000
0000
002F
0000
001A
0016
003B
0000
0027
0000
0000
0000
0000
0000
0000
0000
0000
0000
FFFF
0000
0080
FFFF
FFFF
0000
0000
FFFF
0000
0000
0000
000C
0000
0000
0000
0000
0000
001D
0000
0009
000C
0000
0051
0000
0000
0000
0000
FFFF
0000
FFFF
0000
0000
FFFF
0000
0000
FFFF
FFFF
FFFF
0000
0000
0000
0000
0039
0053
0000
0000
0000
0004
0000
0000
0000
FFFF
FFFF
0000
0000
FFFF
FFFF
0000
0000
0000
FFFF
FFFF
FFFF
FFFF
FFFF
0000
FFFF
0000
0000
0000
0000
0000
0000
0000
0020
0000
0000
0000
0000
0000
0000
FFFF
FFFF
FFFF
FFFF
0000
FFFF
0000
FFFF
FFFF
FFFF
FFFF
FFFF
0000
FFFF
0000
0000
0000
0000
0000
0000
0000
0000
0000
0000
0000
0000
FFFF
0000
FFFF
FFFF
FFFF
0000
FFFF
FFFF
FFFF
0000
FFFF
0000
FFFF
0000
0000
FFFF
0000
FFFF
FFFF
FFFF
0000
0000
0000
0000
0000
FFFF
FFFF
FFFF
FFFF
FFFF
FFFF
FFFF
0042
0000
FFFF
FFFF
