0000
FFFF
FFFF
0000
FFFF
FFFF
0000
0000
FFFF
0000
0000
FFFF
FFFF
0000
FFFF
FFFF
0000
FFFF
FFFF
FFFF
0000
0000
0000
0000
FFFF
0000
FFFF
0000
FFFF
0000
0000
FFFF
0000
FFFF
0000
FFFF
0000
FFFF
FFFF
0000
0000
FFFF
FFFF
0000
FFFF
FFFF
FFFF
0000
0000
0000
FFFF
0000
FFFF
FFFF
FFFF
FFFF
FFFF
FFFF
FFFF
0000
0000
0000
FFFF
0000
FFFF
0000
0000
0000
0000
0000
0000
0000
0000
0000
0000
0000
0000
0000
FFFF
0000
FFFF
0000
FFFF
FFFF
0000
FFFF
0000
0000
FFFF
FFFF
0000
0000
0000
0000
0000
0000
0000
0000
0000
0000
0000
0000
0000
0000
0000
0000
0000
0000
0000
0000
FFFF
0000
0000
0000
FFFF
0000
FFFF
0000
0000
0000
0000
0000
0000
0000
002F
0012
0020
0000
002B
0051
0000
0071
0041
0000
0000
0000
0000
FFFF
0000
0000
0000
FFFF
FFFF
0000
0000
0000
0000
0000
0000
0000
0085
005F
0000
0000
0000
0000
0000
002F
003B
0000
0053
003C
0000
0000
FFFF
FFFF
FFFF
FFFF
0000
0000
FFFF
FFFF
0000
0000
0000
0000
0000
0000
0018
0000
006A
0010
0000
0000
0069
0000
0025
001B
005B
0000
0000
0000
0000
0000
FFFF
0000
FFFF
0000
FFFF
0000
0000
0000
0000
0000
0000
0000
0000
0000
0060
0000
0000
000C
0011
0022
0000
0000
001D
003A
001B
0000
0000
0000
0000
0000
FFFF
FFFF
0000
FFFF
0000
0000
0000
0000
0000
0000
0000
004C
0000
0000
0000
004A
0025
0000
0015
0000
0000
0000
0000
0000
0000
0000
0000
FFFF
FFFF
0000
FFFF
FFFF
FFFF
0000
0000
0033
0000
0002
0000
0013
0001
0030
0000
0034
0045
0000
0000
0000
0000
0000
0011
0000
0000
0000
FFFF
FFFF
FFFF
FFFF
0000
0000
0000
0000
0000
0000
002E
004B
004F
0000
0000
0000
004E
0000
0022
0035
0000
0000
0000
0020
0033
0000
0000
0000
0000
FFFF
FFFF
FFFF
FFFF
0000
0000
0000
001D
0000
0000
0009
0000
0000
0021
0017
0000
0000
0000
0000
0000
0011
005B
0038
0000
003C
0000
0000
0000
0000
0000
FFFF
FFFF
0000
0000
0000
0000
0000
0000
0000
0044
0000
0065
0000
001F
0000
005A
0040
0000
0019
0000
001D
0014
0000
0000
FFFF
FFFF
FFFF
FFFF
FFFF
FFFF
FFFF
0000
0000
0059
0000
002D
0038
0016
000B
0000
003C
001C
0049
003C
0000
0000
0004
0044
0027
0000
000B
0000
0000
0000
0000
FFFF
FFFF
0000
0000
0000
0005
000C
0009
0000
0000
0000
002B
0000
0000
0048
0000
0000
0020
0000
003D
0000
0000
0031
0000
0000
FFFF
FFFF
FFFF
FFFF
FFFF
FFFF
FFFF
0000
000A
0000
0032
0006
0034
0000
0000
0012
0000
0033
0000
0010
0026
0002
0000
0022
0008
00B4
0000
0000
0000
FFFF
FFFF
FFFF
FFFF
0000
0000
0000
0000
0000
0008
0000
0060
0015
0054
0009
0006
0000
000C
002C
0000
002C
0000
0049
0000
0000
0000
0000
0000
0000
0000
0000
0000
FFFF
FFFF
0000
0000
0030
0030
0000
0000
0000
0000
000E
0017
004D
0000
0020
0000
004D
0000
0030
0036
006E
0000
0000
0000
0000
FFFF
0000
FFFF
FFFF
0000
0000
0035
0000
0066
0044
0000
0000
0000
0000
0016
0024
0077
001A
0038
0000
0000
00B1
0011
0000
002A
0000
0000
0000
FFFF
FFFF
FFFF
003B
0000
0000
003C
0000
0039
0000
0010
0000
0000
0011
0000
0000
0000
0009
0032
003B
0000
0033
0009
0000
0000
0000
0000
0000
0000
FFFF
0000
FFFF
FFFF
0000
0000
0000
0002
0000
000B
001B
0045
0000
0000
0045
0000
001D
005E
0015
0000
0000
0000
0000
0000
0000
0000
0000
0000
FFFF
FFFF
FFFF
0000
0000
0026
0025
0000
0000
0000
0040
0054
000D
001D
0022
0004
0007
0000
002B
0000
0028
0000
0000
0000
0000
FFFF
FFFF
0000
0000
0000
0000
0000
0000
0000
0038
0000
0000
0009
0000
0000
0043
0000
000F
0020
0009
0010
0000
002E
0000
0000
0000
0000
0000
0000
0000
FFFF
FFFF
FFFF
0000
0000
002F
0000
0000
0017
0000
0057
0000
000A
0000
0003
0000
000A
0000
0000
0000
0000
002A
0000
0000
0000
0000
0000
FFFF
0000
FFFF
FFFF
FFFF
FFFF
0000
0000
0000
0000
0000
0000
0015
0000
0000
0000
0000
0001
0045
0000
0000
FFFF
FFFF
0000
0000
0000
FFFF
FFFF
0000
FFFF
0000
FFFF
0000
FFFF
003C
0000
0000
0000
0000
0000
0000
0000
0000
0000
0000
0000
0000
0000
0000
FFFF
FFFF
0000
FFFF
FFFF
FFFF
FFFF
0000
FFFF
0000
FFFF
0000
FFFF
0000
FFFF
0000
FFFF
0000
0000
FFFF
0000
0000
0000
0000
0000
0000
0000
FFFF
FFFF
FFFF
0000
0000
FFFF
FFFF
0000
FFFF
FFFF
FFFF
0000
FFFF
0000
0000
0000
0000
FFFF
0000
FFFF
FFFF
FFFF
0000
0000
0000
0000
0000
FFFF
FFFF
FFFF
FFFF
0000
FFFF
FFFF
0000
0000
FFFF
FFFF
