FFFF
FFFF
FFFF
FFFF
FFFF
FFFF
0000
0000
FFFF
0000
FFFF
FFFF
FFFF
0000
0000
FFFF
0000
FFFF
FFFF
FFFF
FFFF
FFFF
0000
0000
FFFF
0000
FFFF
0000
FFFF
0000
0000
FFFF
0000
FFFF
0000
FFFF
0000
0000
0000
0000
0000
FFFF
FFFF
0040
FFFF
FFFF
FFFF
FFFF
FFFF
0000
FFFF
0000
FFFF
FFFF
FFFF
FFFF
FFFF
FFFF
FFFF
0000
0000
0000
FFFF
FFFF
FFFF
0000
0000
0000
0000
0000
0000
0000
0000
0000
0000
0000
FFFF
0000
FFFF
0000
0000
0000
FFFF
FFFF
0000
0000
0000
0000
FFFF
FFFF
FFFF
0000
0000
0000
0000
0000
0000
0000
0000
0034
0000
0000
0000
0000
0000
0000
0000
0000
0000
0000
FFFF
0000
FFFF
FFFF
FFFF
0000
FFFF
0000
FFFF
0000
0000
0000
0000
0000
0020
0018
008E
0000
0001
000F
0035
0000
0000
0000
0000
0000
0000
FFFF
0000
0000
0000
FFFF
FFFF
0000
0000
0000
0000
0000
0000
0007
000F
0049
0075
0000
0000
001E
0014
0067
0000
0000
0018
0000
0000
0000
FFFF
FFFF
FFFF
FFFF
FFFF
0000
FFFF
0000
0000
0000
0000
0000
0000
0000
0000
001C
0000
0000
0000
0029
0047
001E
0054
0000
0000
0018
0022
0000
0000
0000
FFFF
0000
FFFF
0000
FFFF
FFFF
0000
0000
0000
0000
0024
0000
0000
0000
0000
0000
0006
0000
0000
000F
0000
0019
0037
0000
0000
0000
0000
FFFF
0000
0000
FFFF
FFFF
FFFF
FFFF
0000
0000
0000
003F
000C
0000
0061
0000
0018
0000
0001
0000
0016
000A
0000
0088
0000
0000
0000
0000
0000
0000
0000
FFFF
FFFF
0000
FFFF
FFFF
0000
0000
0000
0000
0000
001A
0027
000D
0000
0002
0010
0000
0004
0064
000C
0000
0000
004E
0000
0000
0000
0000
FFFF
FFFF
FFFF
0000
0000
0000
0000
0000
0000
0000
0059
001B
0020
0049
0000
0053
0028
001C
0000
0000
0021
003A
0029
0008
0001
0000
0000
0000
0000
FFFF
FFFF
FFFF
FFFF
0000
0000
0000
0027
0000
0000
0034
0000
0000
0042
0000
0000
0022
0000
0055
001B
0000
0000
0000
0030
0000
0000
0000
0000
FFFF
0000
FFFF
FFFF
FFFF
0000
0000
0000
0018
0030
000D
0052
0000
0012
0000
0000
0038
0000
0022
0000
003A
0000
0000
0000
0000
0000
0000
FFFF
FFFF
FFFF
FFFF
FFFF
0000
0000
0000
0000
0000
000D
0000
0000
0056
0010
0000
0001
0000
0000
0000
0000
0000
0000
0000
002C
0000
0000
FFFF
FFFF
0000
FFFF
0000
0000
0000
0000
0000
0000
003B
0000
001D
0000
0000
002A
0000
0003
0000
0000
002B
0020
0022
003E
0000
0000
0000
0000
FFFF
0000
FFFF
FFFF
FFFF
FFFF
FFFF
0000
0000
0000
0013
0056
0003
0000
0043
0061
0015
0009
0000
0017
0001
001F
000D
0000
0020
0031
0000
0000
0000
FFFF
FFFF
FFFF
FFFF
0000
0000
0000
0000
0000
0024
004D
003F
0047
0000
0031
0000
0014
0000
000A
0037
003A
0000
0012
0008
003C
0000
0000
0000
0000
0000
0000
0000
FFFF
FFFF
0000
0000
0000
0000
0009
0000
004C
0000
0000
0021
0000
0000
0012
0033
0000
0048
005A
0000
0026
0000
0000
0000
0000
FFFF
FFFF
FFFF
FFFF
0000
0000
0000
0005
0042
0000
0022
0011
0000
0000
0002
0000
000D
0000
002A
0000
0000
001C
0000
0000
0000
0000
0000
0000
FFFF
FFFF
FFFF
FFFF
0000
0000
0000
0000
0000
0012
0000
0000
0000
003D
0000
002F
004E
0029
0000
0028
0015
0000
0000
0000
0000
0000
0000
0000
FFFF
FFFF
0000
FFFF
0000
0000
0000
0000
0000
0059
0000
0051
0000
0000
0000
000D
0061
0016
0017
0000
004E
0000
0027
0000
0000
0000
0000
0000
0000
FFFF
FFFF
FFFF
0000
0000
001B
0067
0000
0051
0008
0000
0000
0000
002A
0000
003E
0000
002E
0000
0000
0000
0000
0000
0000
0000
FFFF
0000
FFFF
FFFF
0000
0000
0000
0000
0000
0033
0012
0005
0000
0000
0011
0008
0000
0000
000E
000C
0000
0007
0000
0000
0000
0000
0000
0000
0000
0000
FFFF
FFFF
FFFF
0000
0000
0000
0000
0000
0004
0000
002F
0000
0000
001E
0053
0000
0000
003F
0020
0000
0000
0000
0000
0000
0000
0000
0000
FFFF
0000
FFFF
0000
FFFF
FFFF
0000
0000
0000
0000
0000
0000
0035
0000
0000
0000
0000
0000
0000
0000
0000
0000
FFFF
0000
0000
0000
FFFF
FFFF
0000
FFFF
0000
FFFF
FFFF
FFFF
FFFF
FFFF
0000
FFFF
0000
0000
0000
0000
0000
0000
0000
0000
0000
0000
0000
0000
0000
0000
FFFF
FFFF
FFFF
FFFF
0000
FFFF
0000
FFFF
FFFF
FFFF
FFFF
FFFF
0000
0000
0000
0000
0000
0000
0000
0000
0000
0000
0000
0000
0000
0000
FFFF
0000
0000
FFFF
FFFF
0000
FFFF
FFFF
FFFF
0000
0000
0000
FFFF
0000
0000
FFFF
0000
FFFF
FFFF
FFFF
0000
0000
0000
0000
0000
FFFF
FFFF
FFFF
FFFF
0000
FFFF
FFFF
0000
0000
FFFF
FFFF
