FFFF
0000
FFFF
FFFF
FFFF
FFFF
FFFF
0000
FFFF
0000
FFFF
FFFF
FFFF
0000
FFC8
FFFF
0000
FFFF
FFFF
FFFF
0000
FFFF
0000
0000
FFFF
0000
FFFF
0000
FFEB
0000
0000
FFFF
0000
FFFF
0000
FFFF
0000
0000
FFFF
0000
0000
FFFF
FFFF
FFFF
FFFF
FFFF
FFFF
FFFF
FFFF
0000
FFFF
0000
FFFF
FFFF
0000
0000
FFFF
FFFF
FFFF
0000
0000
0000
FFFF
FFFF
FFFF
0000
FFFF
0000
0000
0000
0000
0000
0000
0000
0000
0000
0000
0000
0000
0000
0000
0000
FFFF
FFFF
FFFF
FFFF
FFFF
FFFF
FFFF
FFFF
0000
0000
0000
0000
0000
0000
0000
0000
0000
0000
0000
0000
0000
0000
0006
0000
0000
0000
0000
0000
FFFF
0000
FFFF
FFFF
FFFF
FFFF
FFFF
0000
0000
0000
0000
0000
000B
0000
0027
0014
002A
0000
0025
000A
0027
0000
0000
0000
0000
0000
0000
FFFF
FFFF
0000
0000
FFFF
FFFF
0000
0000
0000
0000
0000
0026
0000
0009
0048
0039
001B
0000
0000
0026
000D
000A
0000
0000
0000
0000
0000
FFFF
FFFF
FFFF
FFFF
FFFF
FFFF
0000
0000
0000
0006
0000
006D
0016
0000
0000
002A
004D
0000
0000
0000
0000
001C
0000
0000
0000
0000
0000
0000
0000
0000
0000
FFFF
FFFF
0000
0000
FFFF
FFFF
0000
0000
0072
0021
0000
0024
0000
000B
0000
0045
0023
0000
0000
0003
0036
0000
0000
0000
0000
0000
0000
0000
0000
FFFF
FFFF
FFFF
FFFF
0000
0000
0028
0000
0000
0093
0084
0000
0000
0000
0000
0000
0000
0017
0000
002B
000E
0000
0000
0000
0000
0000
0000
FFFF
FFFF
0000
FFFF
FFFF
0000
0000
0000
0000
0006
0000
0000
0021
0058
0014
003A
0000
0000
003F
0000
0000
0000
0022
0000
0000
0000
0000
FFFF
FFFF
FFFF
0000
0000
FFFF
0000
0000
0000
0000
0000
0000
0000
004F
0008
0000
0000
0061
0000
0000
002E
0023
0000
001F
0000
0000
0000
0000
FFFF
0000
FFFF
FFFF
FFFF
FFFF
0000
0000
000D
0053
0000
0000
0000
002C
0000
0000
0000
0013
0000
0000
0000
0028
0000
0000
0000
0000
0000
0000
0000
FFFF
0000
0000
FFFF
FFFF
0000
0000
000C
000E
0010
001B
0023
0000
0022
0033
0000
0000
0000
0000
0000
0025
0027
000E
0019
0000
0000
FFFF
FFFF
FFFF
FFFF
FFFF
FFFF
0000
0000
0000
0000
001F
000A
0000
0055
0000
0001
001F
0000
0013
0031
0030
0053
003A
0000
0053
0077
0000
0000
FFFF
FFFF
0000
FFFF
0000
0000
0000
0000
0000
0000
003A
0002
0013
0000
004E
003F
003A
0000
0000
0000
004C
0000
0003
0000
0000
002A
0000
0000
FFFF
0000
FFFF
FFFF
FFFF
FFFF
FFFF
0000
0000
0022
0011
0000
0000
0000
002B
0000
0000
0000
0059
0000
0000
002D
0000
002F
003B
0044
0000
0000
0000
FFFF
0000
FFFF
0000
0000
0000
0000
0000
0000
001C
0006
0000
007D
003A
0044
0031
001A
001C
0000
0000
0000
0000
0018
0000
0020
0000
0000
0000
0000
FFFF
FFFF
0000
FFFF
FFFF
0000
0038
0000
0000
0032
000F
0018
000F
0000
003C
0031
0000
004C
0000
0000
0000
0004
0000
0013
0000
0000
0000
0000
FFFF
0000
FFFF
FFFF
0000
0000
004A
005D
0000
0000
0000
000F
0045
0000
000C
0021
0038
0000
005B
0000
003F
001B
0000
0000
0000
0000
0000
0000
FFFF
FFFF
FFFF
FFFF
FFFF
0000
0000
002C
0000
0039
0008
0036
0000
0000
005D
0000
003E
0000
0000
0007
0000
0010
001C
0000
0000
0000
0000
0000
0000
FFFF
0000
FFFF
0000
0000
0064
0000
002F
0000
0000
0000
0000
0051
0006
0019
0096
0005
0008
0051
0000
0000
0001
0000
0000
0000
0000
0000
0000
FFFF
0000
FFFF
0000
0000
0000
0000
0000
0016
0019
0000
0000
0037
0009
0000
0047
000E
0079
001E
0000
0006
0006
0000
0000
0000
FFFF
FFFF
0000
FFFF
0000
0000
0000
0000
0000
0000
0000
0000
0000
0000
002E
0057
000D
001C
0000
0010
0000
0000
0036
0000
0000
0000
0000
0000
FFFF
0000
FFFF
FFFF
FFFF
0000
0000
0000
0000
0000
0000
0004
0027
0000
0001
0041
0036
0000
009E
0000
0000
0000
0000
0000
0000
0000
0000
FFFF
0000
FFFF
0000
0000
0000
0000
FFFF
FFFF
0000
0000
0000
0000
0042
0027
0000
0000
0000
002D
0025
0000
0034
0000
0000
FFFF
FFFF
0000
0000
FFFF
0033
0000
0000
0000
FFFF
FFFF
FFFF
0000
0000
0000
0000
0000
0000
0000
0000
0000
0000
0021
0000
0000
0000
0000
0000
0000
0000
FFFF
FFFF
FFFF
FFFF
0000
FFFF
0000
FFFF
FFFF
FFFF
FFFF
FFFF
0000
0000
0000
0000
0000
0000
0000
0000
0000
0000
0000
0000
0000
0000
FFFF
0000
FFFF
FFFF
FFFF
0000
0000
FFFF
FFFF
0000
FFFF
0000
FFFF
0000
0000
FFFF
0000
FFFF
FFFF
0000
0000
FFFF
0000
0000
0000
FFFF
FFFF
FFFF
FFFF
FFFF
FFFF
FFFF
0017
0000
FFFF
FFFF
