0000
FFFF
FFFF
FFFF
FFFF
FFFF
FFFF
0000
FFFF
FFFF
0000
FFFF
0000
0000
FFFF
FFFF
0000
FFFF
FFFF
FFFF
0000
0000
FFFF
0000
FFFF
0000
FFFF
0000
FFFF
0000
0000
FFFF
0000
FFFF
0000
FFFF
0000
0000
FFFF
0000
0000
FFFF
FFFF
FFFF
0000
0000
FFFF
0000
FFFF
0000
FFFF
0000
FFFF
FFFF
FFFF
FFFF
FFFF
0000
FFFF
0000
0000
0000
FFFF
0000
0000
0000
FFFF
0000
0000
0000
0000
0000
0000
002E
0000
0000
FFFF
0000
0000
0000
FFFF
FFFF
FFFF
FFFF
0000
FFFF
0000
0000
FFFF
FFFF
0000
0000
0000
0000
0000
0000
0000
0000
0000
0049
0000
0000
0000
0000
0000
0000
0000
0000
0000
0000
0000
0000
0000
FFFF
FFFF
0000
FFFF
0000
0000
0000
0000
0000
0000
0000
0033
0060
0000
000C
0000
0000
0013
0000
0000
0000
0000
0000
0000
FFFF
0000
FFFF
0000
FFFF
FFFF
FFFF
0000
0000
0000
0000
0000
0000
0000
0000
0000
0002
0002
0000
0000
0000
001E
001E
000E
0013
0000
0000
FFFF
FFFF
FFFF
0000
0000
0000
FFFF
0000
0000
0000
0000
0000
0000
0000
0000
0047
0010
0036
0000
0000
0001
0000
0000
003A
0067
0000
0000
0000
0000
0000
0000
0000
FFFF
0000
0000
0000
0000
FFFF
0000
0000
0011
001C
0012
0027
0026
004C
0000
000D
0029
0041
0000
0000
0000
0000
0001
0000
0000
0000
0000
FFFF
FFFF
FFFF
0000
FFFF
0000
0000
0000
0000
0053
004D
0017
0023
0000
0000
0000
0000
0000
0000
0000
0000
0000
0000
0000
0000
0000
0000
0000
FFFF
FFFF
0000
FFFF
FFFF
0000
0000
0000
0000
0000
0000
001F
0033
0000
0009
002D
0001
0000
0049
002A
000E
0000
0069
0016
0000
0000
0000
FFFF
FFFF
0000
FFFF
0000
0000
0000
0000
0000
0073
0000
0000
000F
0000
0026
002F
0020
0000
0000
0000
0000
0000
0007
0000
003E
0000
0000
0000
0000
FFFF
FFFF
FFFF
FFFF
FFFF
0000
0000
0000
0000
0000
0000
0000
0000
0026
0000
0000
0000
0000
0000
001A
000E
0000
0035
0042
0000
0000
0000
FFFF
0000
0000
FFFF
FFFF
0000
0000
0000
001A
005B
0000
0026
0000
000E
0000
001C
0024
005F
0000
0035
003B
0000
0000
0000
0000
0000
0000
FFFF
FFFF
0000
FFFF
FFFF
FFFF
0000
0000
0000
0000
0000
0000
0000
0065
001E
0000
0000
0000
0007
0013
005C
0030
0000
0025
0073
0000
0000
0000
FFFF
FFFF
0000
FFFF
FFFF
0000
FFFF
0000
0000
0000
0000
0007
0008
0025
0000
0049
0000
0020
0001
0000
0000
0032
003C
0000
003E
002A
0000
0000
FFFF
FFFF
FFFF
0000
0000
FFFF
FFFF
0000
0028
002A
0000
0000
0070
004B
0000
0000
0000
0000
0002
0013
0000
0028
0040
0000
0024
001A
0000
0000
0000
FFFF
0000
FFFF
0000
FFFF
0000
0000
0025
0073
0000
0000
0000
0000
0004
003A
005F
0006
0001
0000
0000
0021
006F
0010
0044
000C
0007
0000
0000
0000
0000
0000
0000
FFFF
FFFF
0000
001E
0000
001A
0000
0012
0000
0033
0023
0036
0000
0000
0000
0000
0026
0000
0000
0000
0018
0000
0000
0000
0000
FFFF
0000
0000
FFFF
0000
0000
0000
0000
0010
001B
001D
0055
0070
0000
0000
0000
001D
0011
004E
008A
0022
0000
0000
0000
0000
0000
0000
0000
FFFF
FFFF
0000
FFFF
0000
0000
0000
0055
0000
0000
0000
0007
0011
0000
0000
0044
0000
0000
0056
0058
0030
0000
0002
0000
0000
0000
0000
0000
0000
FFFF
0000
FFFF
0000
0000
0000
0000
0000
0000
003F
0001
0060
0000
000E
0000
0000
0000
0060
0024
0000
0000
0000
0012
0000
0000
0000
0000
0000
FFFF
FFFF
0000
0000
0000
002A
0033
0000
0027
0018
0000
0000
0000
0065
0022
0026
0000
0017
003A
0009
0000
000A
0000
0000
0000
FFFF
FFFF
0000
FFFF
0000
0000
0000
0000
0000
0000
0029
0000
0000
0005
0000
0000
0000
002D
0000
0000
0000
002B
003D
0000
0000
0000
0000
0000
0000
0000
FFFF
0000
FFFF
0000
0000
0000
0000
0000
0000
0045
0015
0000
002A
0030
0000
0000
0000
0000
0000
0000
0000
0000
0000
0000
0000
0000
FFFF
FFFF
0000
0000
FFFF
0000
FFFF
0000
0000
0000
0000
0000
0000
0028
001A
0058
0021
0035
0021
0000
0000
0000
0000
FFFF
FFFF
0000
0000
0000
FFFF
0000
FFFF
0000
FFFF
0000
FFFF
0000
0000
0000
FFFF
0000
0000
0000
0000
0000
0000
0000
0000
0000
0000
0000
0000
0000
FFFF
FFFF
FFFF
0000
FFFF
FFFF
FFFF
0000
FFFF
0000
FFFF
0000
FFFF
0000
0000
0000
0000
0000
0000
0000
0000
0000
0000
0000
0000
FFFF
FFFF
FFFF
0000
FFFF
FFFF
FFFF
0000
FFFF
FFFF
FFFF
0000
FFFF
FFFF
0000
0000
0000
FFFF
0000
FFFF
FFFF
FFFF
0000
0000
0000
0000
0000
0000
FFFF
FFFF
FFFF
0000
FFFF
FFFF
0000
0000
FFFF
0000
