FFFF
0000
FFFF
FFFF
FFFF
FFFF
0000
0000
FFFF
0000
0000
0067
FFFF
0000
FFFF
FFFF
FFFF
FFFF
FFFF
FFFF
0000
FFFF
0000
0000
FFFF
0000
FFFF
0000
FFFF
0000
0017
FFFF
0000
FFFF
0000
FFFF
0000
0000
FFFF
0000
0000
FFFF
FFFF
FFFF
FFFF
FFFF
FFFF
FFFF
FFFF
0000
FFFF
0000
FFFF
FFFF
FFFF
0000
0050
FFFF
FFFF
0000
0000
0000
FFFF
FFFF
FFFF
0000
FFFF
0000
0000
0000
FFFF
0000
0000
0000
0000
0000
FFFF
0000
FFFF
0000
001E
0000
FFFF
FFFF
0000
0000
0000
0000
FFFF
004D
0000
0000
0000
0000
0000
0000
0000
0000
0000
0000
0000
0000
FFFF
0000
0000
0000
0000
0000
0000
FFFF
FFFF
0000
FFFF
FFFF
FFFF
0000
FFFF
0000
0000
0000
0000
0000
0000
0000
0000
0000
0000
0007
0000
008E
0000
0000
0000
0000
0000
0000
0000
0057
FFFF
0000
0000
FFFF
FFFF
0000
FFFF
FFFF
FFFF
0000
0000
0000
001B
0000
0000
0000
0002
002D
0000
0000
0013
001C
0050
0000
0000
0006
002D
FFFF
FFFF
FFFF
FFFF
0000
FFFF
FFFF
FFFF
FFFF
0000
0000
0039
0000
0009
0079
0000
0055
0038
0000
0000
0000
0061
004C
0000
0000
0001
0000
0000
0000
FFFF
0000
FFFF
FFFF
FFFF
FFFF
0000
0000
0000
004E
003D
0032
0000
0032
0009
0012
0004
0000
0030
004C
0098
0000
000F
0000
0032
0000
0000
0000
0000
FFFF
FFFF
FFFF
0000
FFFF
0000
0000
0033
001B
0003
0000
0000
0041
0000
0000
001A
0000
0053
0000
0000
0021
0030
0030
0015
0055
0000
0000
0000
FFFF
FFFF
0000
FFFF
FFFF
0000
0000
0000
0000
0012
0012
0042
0000
0010
0000
0028
0000
0000
0053
0000
000A
0000
003B
0000
0023
0000
0000
FFFF
FFFF
FFFF
FFFF
0000
0000
0000
0000
0000
005E
0000
000E
0002
0000
0000
003D
0000
0028
0000
0000
0024
0004
0000
001C
0021
002B
0000
0000
0000
0000
FFFF
FFFF
FFFF
0000
0000
0000
0000
0000
0005
0000
0000
0000
0012
0037
0000
0000
0000
0066
0019
0000
0049
0000
003E
0000
0000
0000
0000
FFFF
0000
FFFF
FFFF
FFFF
0000
0000
0033
0015
0050
0025
0000
0030
0047
0000
0000
004F
000B
0025
0000
0023
000A
0008
0008
0000
0000
0000
005F
FFFF
FFFF
0000
FFFF
0000
0000
0000
0000
0002
0017
0017
0046
0056
0020
0000
0045
000B
0000
0000
004B
0000
0000
0019
0000
0000
0000
0000
0000
0000
FFFF
0000
0000
0000
0000
0000
0000
0000
0000
0000
0044
003E
0000
0000
0041
0051
0000
0034
0001
0002
0000
0000
0000
0000
0000
FFFF
0000
FFFF
FFFF
FFFF
FFFF
0002
0000
0000
0016
005B
0000
004D
0000
0000
0032
003A
001C
0046
0000
0048
0000
0000
0000
0000
0000
0082
0000
0000
FFFF
0000
FFFF
FFFF
0000
0000
0000
0000
0000
000F
0000
0000
0044
0002
0033
0028
003A
0002
0000
0000
002A
003B
0000
000F
0010
0000
0000
0000
0000
FFFF
0000
0000
FFFF
FFFF
0000
0000
0000
002D
0010
0013
0000
0041
000A
0000
0000
0022
0026
003A
0000
0012
0000
0043
0077
0000
0000
0000
0000
FFFF
0000
FFFF
FFFF
0000
0000
0011
0075
0000
0030
0000
0000
0000
0000
0034
002B
0001
0000
0000
0038
0000
000E
0000
0000
0000
0000
0000
0000
FFFF
FFFF
FFFF
FFFF
001E
0000
0012
000F
0000
0000
0029
000D
0000
0000
005B
0006
0000
0000
0000
0000
0000
0000
000B
0000
0000
0000
0000
0000
FFFF
003F
0000
FFFF
0000
0000
0000
0000
0000
0000
0008
0000
0016
002B
001C
0000
0000
0000
0055
0000
0000
000D
0000
0000
0000
0000
0000
FFFF
0000
FFFF
FFFF
FFFF
0000
0000
0000
0000
0009
0000
0000
0036
0018
0002
0000
0000
0000
0050
0000
0000
0000
0000
0000
0000
0000
0000
FFFF
FFFF
FFFF
FFFF
0000
0034
0000
0000
0000
0000
004C
0015
0024
0028
0000
001A
004A
0000
0022
0000
0000
0000
002B
0000
0000
0000
0000
0000
0000
0000
FFFF
FFFF
FFFF
0000
0000
0000
0000
0030
0000
007E
006C
0000
0041
0021
000D
0000
0020
0022
001F
0036
0000
0000
0000
0000
0000
FFFF
0000
0039
0000
FFFF
FFFF
FFFF
FFFF
0000
0000
0000
0038
0000
0000
0000
0029
0005
0000
0015
001A
0063
0000
0000
0000
0000
FFFF
0000
0000
FFFF
FFFF
0000
0000
0000
0041
0000
FFFF
FFFF
0000
0000
0017
0000
0000
00AA
0000
0000
0000
0000
0000
0000
0000
0000
0000
0000
0000
007A
FFFF
FFFF
FFFF
FFFF
FFFF
0000
FFFF
0000
FFFF
FFFF
FFFF
0000
0000
0000
0000
0000
0000
0000
0000
0000
0000
0000
0000
FFFF
0000
FFFF
0000
FFFF
FFFF
FFFF
0000
FFFF
FFFF
FFFF
0000
FFFF
FFFF
FFFF
0000
0000
FFFF
0000
FFFF
006E
0000
0000
0000
0000
FFFF
0000
FFFF
FFFF
FFFF
FFFF
FFFF
FFF5
FFFF
0000
0000
FFFF
0000
