FFFF
FFFF
FFFF
FFFF
FFFF
FFFF
FFFF
0000
0000
0000
FFFF
FFFF
FFFF
0000
0000
FFFF
0000
0000
FFFF
FFFF
FFFF
FFFF
FFFF
0000
FFFF
0000
FFFF
0000
FFFF
0000
0000
0000
0000
FFFF
FFFF
FFFF
0000
0000
0000
0000
0000
FFFF
FFFF
0000
FFFF
0000
FFFF
FFFF
FFFF
0000
0000
0000
FFFF
FFFF
FFFF
FFFF
FFFF
0000
FFFF
0000
FFFF
0000
FFFF
FFFF
FFFF
0000
FFFF
0000
0000
0000
FFFF
0000
0000
0000
0000
0000
0000
0000
0000
0000
FFFF
FFFF
FFFF
FFFF
FFFF
0000
FFFF
0000
FFFF
FFFF
FFFF
0000
FFFF
0000
0000
0000
0000
0000
0000
0000
0000
0000
0000
0000
0000
0000
0000
0000
0000
FFFF
0000
0000
0000
0000
FFFF
0000
0000
0000
0000
0000
0000
0000
0000
0000
0000
0039
0000
0000
0000
0000
004E
0000
0000
0000
0000
0000
0000
FFFF
FFFF
0000
0000
FFFF
FFFF
0000
0000
0000
0000
0000
0000
0000
0003
002F
0000
0040
0005
0034
003B
0000
0000
0010
0000
004C
0000
0000
FFFF
FFFF
FFFF
0000
FFFF
0000
FFFF
0000
0000
0000
0000
0000
0000
0000
0000
0000
0000
0000
0051
0000
0000
0000
004A
0000
0000
0041
0026
0000
0000
0000
FFFF
FFFF
FFFF
0000
0000
FFFF
FFFF
0000
0000
0000
0000
0000
0017
0015
001D
0000
0018
0000
0000
0041
0000
0055
0031
0000
0000
0000
0000
0000
0000
0000
FFFF
FFFF
FFFF
FFFF
0000
0000
0000
0000
0003
0000
002C
001E
0000
0004
003B
0000
0012
005E
0000
0000
0000
001F
0000
0000
0000
0000
0000
FFFF
0000
0000
FFFF
FFFF
0000
0000
0000
0000
0000
0000
0000
0034
0082
0000
0000
0005
001A
0022
004E
000E
0032
0000
003C
0000
0000
0000
FFFF
FFFF
0000
0000
0000
FFFF
0000
0000
0000
0000
0000
0000
0038
0000
0028
0000
0000
0066
001A
0000
0034
0000
0000
0000
0000
0000
0000
0000
0000
FFFF
FFFF
FFFF
FFFF
0000
0000
0000
0000
0000
0000
0000
0003
002D
000F
0000
0010
0000
0000
0031
0000
0000
0000
0012
007E
0015
0000
0000
0000
FFFF
FFFF
FFFF
FFFF
FFFF
0000
0000
0000
0006
0012
000C
003A
0000
0000
0000
001D
0000
0000
0019
0000
0020
005F
0000
0083
0000
0000
0000
FFFF
FFFF
FFFF
FFFF
FFFF
0000
0000
0000
004D
000D
0000
0000
0000
003F
0000
0026
0000
0000
0000
0008
0000
0022
0014
0030
0000
0049
0000
FFFF
FFFF
0000
FFFF
0000
0000
0000
0000
0000
0000
0015
004F
0000
0000
0000
000D
0021
0000
0000
0037
0000
0033
0000
001D
0013
0001
001A
0000
FFFF
FFFF
FFFF
FFFF
0000
FFFF
FFFF
0000
0061
0000
0000
0000
0000
0034
0000
0036
0047
0000
0000
0009
000E
0000
0000
0000
003D
005F
0000
0000
0000
FFFF
0000
FFFF
0000
0000
0000
0000
0000
0000
001C
0000
0000
0000
0000
0007
002E
0000
003F
0013
0000
001B
0031
0025
001F
0000
002C
0000
0000
0000
FFFF
FFFF
0000
FFFF
FFFF
0000
000B
0053
000A
0000
0000
000A
0000
0000
0000
0023
0003
0000
0000
0024
0000
0030
0000
0000
0000
0000
0000
0000
FFFF
FFFF
FFFF
FFFF
0000
0000
0000
0000
0000
000C
0000
0007
0000
0049
0000
0032
0000
002F
0019
0019
0000
0003
0014
0000
0000
0000
0000
0000
FFFF
FFFF
FFFF
FFFF
0000
0000
0000
0022
0000
000D
0095
0000
001A
0000
0038
0000
0000
0000
0000
0000
009C
004E
0000
0000
0000
0000
0000
0000
0000
FFFF
0000
FFFF
0000
0000
0000
0013
003D
0000
0000
0030
0000
0000
0000
0033
0000
0000
0000
0014
002F
0045
0000
0000
0000
0000
0000
0000
0000
FFFF
FFFF
0000
0000
0000
0000
0000
0062
000E
0000
0000
0000
0066
0014
0000
005C
000C
001F
0000
0019
0034
0000
0000
0000
0000
FFFF
0000
0000
FFFF
0000
0000
0000
0000
0000
0000
0007
0046
001F
0010
0000
0032
0000
000F
003D
0021
0000
0000
0000
0022
0000
0000
0000
0000
FFFF
0000
FFFF
0000
FFFF
0000
0000
0000
0000
0000
003F
003A
0000
0000
0000
0037
008F
0000
0000
0001
0000
0000
0000
0000
0000
0000
0000
FFFF
0000
FFFF
0000
0000
0000
0000
FFFF
0000
0000
0000
0000
0000
0000
0000
0000
0017
0000
0000
0000
0000
0000
0000
FFFF
FFFF
FFFF
0000
0000
0000
FFFF
0000
FFFF
0000
FFFF
FFFF
FFFF
FFFF
0000
0000
0000
0000
0000
0000
0000
0000
0000
0000
0000
0000
0000
0000
0000
0000
0000
FFFF
FFFF
0000
FFFF
0000
FFFF
0000
FFFF
FFFF
FFFF
FFFF
0000
0000
0000
0000
0000
0000
0000
0000
0000
0000
0000
0000
0000
FFFF
0000
FFFF
0000
FFFF
FFFF
FFFF
0000
FFFF
FFFF
FFFF
0000
0000
0000
FFFF
0000
FFFF
FFFF
0000
FFFF
FFFF
0000
0000
FFFF
0000
0000
0000
0000
FFFF
FFFF
FFFF
FFFF
FFFF
FFFF
0000
0000
FFFF
FFFF
