FFFF
FFFF
FFFF
005E
FFFF
FFFF
FFFF
0000
FFFF
FFFF
0000
FFFF
FFFF
0000
FFFF
FFFF
0000
FFFF
FFFF
FFFF
FFFF
FFFF
0000
0000
FFFF
0000
FFFF
0000
FFFF
0000
0000
FFFF
0000
FFFF
0000
FFFF
0000
0000
0000
0000
0000
FFFF
FFFF
FFFF
FFFF
FFFF
FFFF
0000
FFFF
0000
FFFF
0000
FFFF
FFFF
FFFF
FFFF
FFFF
FFFF
FFFF
0000
0000
0000
FFFF
FFFF
FFFF
0000
FFFF
0000
0000
0000
0000
0000
0000
0000
0000
0000
FFFF
0000
0000
0000
0000
FFFF
FFFF
FFFF
0000
FFFF
0000
0000
FFFF
FFFF
FFFF
0000
0000
0000
0000
0000
0000
0000
0005
0000
0000
0000
0000
0000
0000
0000
0000
0000
0000
FFFF
FFFF
0000
0000
0000
FFFF
0003
0000
0000
0000
0000
0000
0000
0000
0003
0000
0020
001F
0015
0000
0014
0000
0000
0000
0000
0000
0000
0000
FFFF
FFFF
FFFF
0000
FFFF
FFFF
0000
0000
0000
0000
0000
0000
0000
0000
0000
0002
0022
0000
0002
0000
00AE
0000
004D
0000
0000
0000
0000
FFFF
FFFF
FFFF
FFFF
FFFF
FFFF
FFFF
0000
0000
0000
0000
0000
0024
005F
004C
0000
008F
0001
0000
0086
0000
0000
0046
0000
0000
0000
0000
0000
0000
0000
FFFF
0000
FFFF
0000
FFFF
0000
000B
0000
0000
0000
0000
001E
0000
0025
000A
0000
000E
0000
0000
0000
0013
0000
001E
0000
0000
0000
0000
0000
0000
FFFF
FFFF
FFFF
0000
FFFF
0000
0000
0000
0000
0000
0039
0000
0008
0000
0000
0006
0014
0000
001B
0023
0000
0000
001E
0000
0000
0000
0000
0000
FFFF
FFFF
0000
FFFF
FFFF
0000
0000
0000
003F
0000
0048
0000
0003
002C
0002
0015
0000
0000
0000
0026
0000
0000
0000
0000
0000
0000
0000
FFFF
FFFF
FFFF
0000
0000
0000
0000
0000
0000
0000
0000
0012
0016
0052
003E
0071
001D
0000
0000
0000
0000
004F
0000
003A
0000
0000
0000
0000
0000
FFFF
FFFF
FFFF
FFFF
0000
0000
0000
000C
0028
0002
000D
000B
0013
0006
0000
001C
0000
0018
0009
0000
0000
0000
0007
0004
0000
0000
0000
0000
FFFF
0000
FFFF
FFFF
FFFF
0000
0000
0000
0000
0011
0039
0003
0022
0042
0006
0003
0000
005D
0043
0000
0046
0000
003B
0015
0000
0000
0000
FFFF
0000
FFFF
0000
FFFF
0000
0000
0000
0000
0000
0020
001F
0004
0000
001D
001B
0000
0058
0000
0046
004A
0000
0000
0000
0000
0000
0000
FFFF
FFFF
0000
FFFF
0000
0000
0000
0000
0000
002B
0000
0000
0063
0026
0023
0000
000E
0041
0000
000A
0000
002A
0000
0000
0029
0000
0000
0000
FFFF
0000
FFFF
FFFF
FFFF
FFFF
FFFF
0000
0000
0000
0006
0038
0002
0014
0000
0010
0000
0000
0000
0047
0044
002F
0057
005B
0069
0026
0000
0000
0000
FFFF
0000
FFFF
FFFF
FFFF
0000
0000
0000
0000
0000
0001
0089
0003
0000
0000
000E
0020
0030
0000
0000
0000
0000
003C
0000
0000
0000
0000
0000
0000
0000
0000
0000
FFFF
FFFF
0000
0000
0000
0000
0000
0000
0000
001B
0023
0000
0011
002F
0000
002B
00AD
0000
004D
0021
0037
0000
0000
0000
0000
FFFF
FFFF
FFFF
FFFF
0000
0000
0022
0000
0000
0000
0025
000A
0000
0016
0039
0000
0000
0000
0025
000D
0000
0000
000E
0000
0020
0000
0000
0000
0049
FFFF
FFFF
FFFF
0000
0000
0018
0000
0004
0000
0010
0010
0001
002D
0025
002E
0001
0011
004F
0000
0018
0012
0000
001B
0000
0000
0055
0000
0000
FFFF
0000
FFFF
0000
0000
0000
0000
000B
000A
0000
0003
0033
0030
0000
0014
0000
0057
0000
0000
0003
0000
0000
0000
0000
0000
0000
0000
0000
FFFF
FFFF
FFFF
0000
0000
0000
0000
0000
0059
0000
0000
007D
0005
0004
000D
0001
0025
0006
0056
0026
0000
0000
0000
0000
0000
FFFF
FFFF
0000
0048
0000
0000
0000
0000
0000
0000
0015
0034
0014
0012
0000
0007
0000
0000
0000
000F
001C
0000
0045
004D
0000
0000
0000
0000
0000
0000
FFFF
FFFF
FFFF
0000
0000
0000
0000
0000
0000
0022
0010
0000
0000
003F
0000
0000
0000
0001
0004
0036
0000
0000
0000
0000
0000
FFFF
0000
FFFF
0000
FFFF
0000
FFFF
FFFF
0000
0000
0000
0000
0000
0000
0000
0000
0000
0000
0000
0000
0000
0000
0000
0000
FFFF
0000
0000
0000
FFFF
FFFF
0000
0000
0000
FFFF
0000
FFFF
FFFF
0000
0000
0000
0000
0000
0000
0000
0000
0000
0000
0000
0000
0000
000B
0000
FFFF
0000
FFFF
FFFF
FFFF
FFFF
FFFF
FFFF
0000
FFFF
0000
FFFF
FFFF
FFFF
0000
0000
0000
0000
0000
0000
0000
0000
0000
0000
0000
0000
FFFF
FFFF
FFFF
0000
0000
FFFF
FFFF
0000
0000
FFFF
FFFF
0000
FFFF
FFFF
FFFF
0000
0000
FFFF
0000
FFFF
FFFF
0000
0000
0000
0000
0000
0000
FFFF
FFFF
FFFF
FFFF
0000
FFFF
FFFF
0000
0000
FFFF
FFFF
