FFFF
FFFF
FFFF
FFFF
FFFF
FFFF
FFFF
0000
FFFF
0000
0000
FFFF
FFFF
0000
FFFF
FFFF
0000
FFFF
FFFF
FFFF
FFFF
FFFF
0000
0000
FFFF
0000
FFFF
0000
FFFF
0000
FFFF
FFFF
0000
FFFF
0000
FFFF
0000
0000
FFFF
0000
0000
FFFF
FFFF
FFFF
FFFF
FFFF
FFFF
0000
FFFF
0000
FFFF
0000
FFFF
FFFF
FFFF
FFFF
FFFF
FFFF
0000
0000
0000
0000
FFFF
FFFF
FFFF
0000
0000
0000
0000
0000
0000
0000
0000
0000
0000
0000
FFFF
0000
FFFF
0000
FFFF
FFFF
FFFF
FFFF
0000
FFFF
0000
0000
FFFF
FFFF
0000
0000
FFFF
0000
0000
0000
0000
0000
0000
0026
0000
0000
FFFF
0000
0000
0000
0000
0000
0000
0000
FFFF
0000
0000
FFFF
FFFF
0000
FFFF
0000
0000
0000
0027
0000
0000
0075
0013
0054
0000
0000
002E
0005
0091
0007
0000
0000
0000
0000
0000
FFFF
FFFF
FFFF
0000
FFFF
FFFF
0000
0000
0000
0000
0000
0000
0000
0000
0000
000B
0023
0016
0000
0042
0000
0000
0000
0000
0000
0000
0000
FFFF
FFFF
FFFF
FFFF
FFFF
0000
FFFF
FFFF
0000
0000
0000
0040
0000
0010
0000
0000
0000
0000
0018
0000
0000
0024
002E
0000
0009
0000
0000
0000
0000
0000
0000
0000
FFFF
0000
FFFF
FFFF
0000
0000
0000
002A
0000
001F
0000
0000
0000
003C
0000
0014
0000
0000
0007
0020
0023
0014
0020
0000
0000
0000
0000
FFFF
FFFF
FFFF
FFFF
FFFF
0000
0000
0000
000E
0000
0000
0006
0014
001C
0000
0000
0000
0000
002E
0000
0000
003E
000A
0000
0000
0000
0000
0000
FFFF
FFFF
0000
FFFF
FFFF
0000
0000
0012
005C
0001
000F
0014
007E
0017
0039
002F
0000
0000
0021
0009
0000
0050
0034
0014
0021
0000
0000
FFFF
FFFF
FFFF
FFFF
0000
FFFF
0000
0000
0000
0000
0032
0038
0000
0000
0009
0000
0000
003E
0000
0046
0000
0054
0000
0007
0000
0000
0000
0000
FFFF
FFFF
FFFF
FFFF
FFFF
FFFF
0000
0000
0000
0000
0000
0000
002F
0000
0045
0011
0045
003E
0031
001A
001E
0004
0000
0069
001D
0000
0000
0000
0000
FFFF
0000
0000
FFFF
FFFF
0000
0000
0046
0050
0000
006B
0028
0000
0000
0087
003C
0041
0000
0000
0000
0000
0020
0000
0000
0076
0000
FFFF
FFFF
FFFF
FFFF
0000
FFFF
0000
0000
0000
002F
0000
0000
001C
0056
0000
0000
003E
002F
001D
0000
0069
0031
0000
000F
0000
0047
0000
0000
FFFF
FFFF
0000
FFFF
0000
0000
0000
0000
0000
0017
0000
0015
0000
0000
0000
0000
0037
0021
0000
0000
0019
0000
0000
0000
0000
0030
0000
0000
FFFF
FFFF
FFFF
FFFF
FFFF
FFFF
FFFF
0000
0000
0000
000F
0006
0006
0000
0000
0000
0000
0068
0000
0034
0000
0080
0031
004A
0062
0000
0000
0000
0000
FFFF
FFFF
FFFF
0000
FFFF
0000
0000
0028
0060
000E
000E
0025
0001
007B
0000
0000
0015
0037
0084
0000
0011
0090
0000
0000
001A
0000
0000
0000
0000
0000
0000
0000
FFFF
FFFF
0000
0000
0011
0000
000A
0014
0000
002D
0007
0000
0019
0000
0000
0000
003B
0000
001E
0000
003C
0000
0000
0000
0000
FFFF
FFFF
FFFF
FFFF
0000
0000
0001
0000
0000
003A
0001
0000
0014
0065
0000
007A
0000
008A
0000
0000
0028
0000
003C
003B
0000
0000
0000
0000
FFFF
FFFF
FFFF
FFFF
0000
0000
0021
0021
0029
001D
0047
0000
0000
0000
0000
0007
0045
0064
0037
0028
005F
0022
0000
0052
0000
0000
0000
0000
0000
FFFF
0000
FFFF
0000
0000
000B
0029
0000
0018
0045
0000
0013
0026
000E
0000
0000
0000
0031
0040
0000
001A
0000
0042
0000
0000
0000
0000
0000
FFFF
FFFF
FFFF
0000
0000
0000
0000
0029
0000
0000
0000
0000
0000
0000
0012
0000
0001
0000
0000
0025
002F
0029
0000
0000
0000
FFFF
FFFF
0000
FFFF
0000
0000
0000
0000
0000
0000
000E
003B
0000
0016
0000
0078
0000
0036
0000
0021
0000
0000
0000
0020
0000
0000
0000
0000
0000
0000
FFFF
FFFF
FFFF
0000
0000
0000
0000
0000
0000
0000
005E
0019
0007
0000
0000
0064
0000
002E
0060
000A
0003
0000
0000
0000
0000
FFFF
0000
FFFF
0000
0000
FFFF
0000
FFFF
0000
0000
0000
0000
0000
0000
0000
0000
0000
0000
0000
0000
0000
0000
0000
0000
FFFF
0000
0000
0000
FFFF
FFFF
0000
FFFF
0000
FFFF
0000
FFFF
0000
0000
0000
0000
0000
0000
0000
0000
0000
0000
0000
0000
0000
0000
0000
0000
0000
0000
FFFF
FFFF
FFFF
FFFF
FFFF
FFFF
0000
FFFF
0000
0000
0000
FFFF
0000
FFFF
0000
0000
0000
0000
0000
0000
0000
0000
0000
0000
FFFF
0000
FFFF
0000
0000
FFFF
FFFF
0000
FFFF
FFFF
FFFF
0000
FFFF
FFFF
FFFF
0000
0000
FFFF
0000
FFFF
FFFF
0000
0000
0000
0000
0000
0000
FFFF
FFFF
FFFF
FFFF
0000
FFFF
FFFF
0000
0000
FFFF
FFFF
