0000
0000
FFFF
FFFF
FFFF
FFFF
FFFF
0000
FFFF
0000
FFFF
FFFF
FFFF
0000
FFFF
FFFF
FFFF
FFFF
FFFF
FFFF
FFFF
FFFF
FFFF
0000
FFFF
0000
FFFF
0000
FFFF
FFFF
0000
FFFF
0000
FFFF
0000
FFFF
0000
0000
0000
0000
0000
FFFF
FFFF
FFFF
0000
0000
FFFF
0000
FFFF
0000
FFFF
0000
FFFF
FFFF
FFFF
0000
FFFF
FFFF
FFFF
0000
0000
0000
FFFF
FFFF
0000
0000
FFFF
0000
0000
0000
FFFF
0000
0000
0000
0000
0000
FFFF
0000
FFFF
0000
0000
0000
FFFF
FFFF
FFFF
0000
FFFF
0000
FFFF
FFFF
0000
0000
0000
0000
0000
0000
0000
0000
0000
0000
0000
0000
FFFF
FFFF
0000
0000
0000
0000
0000
FFFF
FFFF
0000
FFFF
0000
FFFF
FFFF
0000
0000
FFFF
0000
0000
0000
0000
0000
0000
0024
0000
0000
000F
0000
0000
0000
0000
0000
0000
0000
0000
FFFF
FFFF
0000
0000
FFFF
FFFF
0000
0000
0000
0000
0000
0000
0000
0052
0031
0011
0000
0000
0000
0025
0005
0000
0000
0025
0014
0000
0000
FFFF
FFFF
FFFF
FFFF
0000
0000
FFFF
0000
0000
0000
0000
0000
0000
0000
0013
0000
001B
002D
0000
0000
0031
0000
0000
0000
0000
0031
0000
0000
0000
0000
0000
FFFF
FFFF
0000
0000
FFFF
FFFF
0000
0000
0000
0008
0000
0000
0000
0047
002B
0000
008C
0000
0027
0011
0000
0000
0002
000F
0000
0000
0000
0000
0000
FFFF
FFFF
FFFF
FFFF
0000
0000
0000
0000
0000
0000
0000
0000
002A
001A
0000
0000
0002
0000
001E
0000
0000
0000
0021
0043
0000
0000
0000
FFFF
FFFF
0000
FFFF
FFFF
0000
0000
0000
0040
0000
0012
001C
002C
0000
0000
0000
0000
0000
002C
0000
0000
0062
0046
0000
0000
0000
0000
FFFF
FFFF
FFFF
FFFF
0000
FFFF
0000
0000
0000
0000
0000
0000
0055
0033
0016
0000
000B
0000
0000
0000
0014
0044
0000
0004
000A
0000
0000
0000
0000
0000
FFFF
FFFF
FFFF
0000
0000
0000
0000
0011
0026
000B
0038
005C
0000
0009
0000
0000
0000
0004
0014
0038
002F
0000
0000
0000
0000
0000
0000
FFFF
0000
FFFF
FFFF
0000
0000
0000
0000
0003
0000
0071
003F
001C
0078
0000
0000
0007
0008
0000
0053
0003
0000
0000
0000
0000
0000
0000
FFFF
FFFF
FFFF
0000
FFFF
0000
0000
0000
005B
0000
0033
0000
0049
0005
001C
0017
0000
0003
003B
0000
006A
0036
0000
0000
0066
0000
0000
FFFF
FFFF
0000
FFFF
0000
0000
0000
0000
0000
0000
0007
0000
0000
000D
0000
0000
0021
0004
0052
0037
0000
0000
0000
0051
0058
0000
0000
0000
FFFF
0000
FFFF
0000
FFFF
FFFF
FFFF
0000
0000
0000
0033
000F
0000
000F
0000
0002
0016
0037
001F
0000
0000
0027
0000
0000
000C
0000
0000
0000
0000
FFFF
0000
FFFF
0000
0000
0000
0000
0000
0035
000A
0058
0000
0000
0008
0000
0000
0013
0000
0000
004F
0009
0000
0000
0014
0000
0000
0000
0000
0000
0000
FFFF
0000
FFFF
FFFF
0000
0000
003E
0030
0005
0000
0000
0000
0002
0019
0026
000A
003B
0015
0017
000E
0031
0023
006A
0000
0000
0000
0000
FFFF
FFFF
FFFF
FFFF
0000
0000
000E
0000
0038
0000
0000
0021
0000
0000
000B
000E
001A
001A
0000
001F
0015
0024
0000
0000
0000
0000
FFFF
FFFF
FFFF
FFFF
FFFF
FFFF
FFFF
0000
0044
0000
0000
0000
0001
0017
0000
0000
0000
0030
0000
002D
0000
0000
0000
0000
0016
0000
0000
0000
FFFF
FFFF
0000
FFFF
0000
FFFF
0000
0000
0041
0000
0000
0000
0017
0000
0000
0000
0000
0039
001A
0002
0049
0017
0000
0008
0000
0000
0000
FFFF
0000
0000
0000
FFFF
0000
0000
0000
0000
0073
0060
0000
0012
0005
0003
0000
0000
0000
0008
0015
0070
0000
0000
0000
0000
0000
0000
0000
0000
FFFF
0000
0000
FFFF
0000
0000
0000
0000
0000
0000
003F
000F
0066
0005
0000
0046
0000
0000
000D
0045
0001
0025
0000
0000
0000
0000
0000
FFFF
FFFF
0000
FFFF
FFFF
FFFF
0000
0000
0000
0000
0000
000D
0055
002D
003D
0009
0000
005B
0000
0068
0027
000F
0047
0000
0000
0000
0000
0000
FFFF
0000
FFFF
0000
0000
FFFF
0000
0000
0000
0000
0000
0000
0000
0000
004B
0000
0000
0000
0011
0000
0000
000E
0000
0000
0000
FFFF
0000
0000
FFFF
FFFF
0000
FFFF
0000
FFFF
FFFF
FFFF
0000
0000
0000
0000
0000
0000
0000
0000
0000
0001
0048
000F
0000
0000
0000
0000
0000
0000
FFFF
FFFF
FFFF
FFFF
0000
FFFF
0000
FFFF
FFFF
0000
FFFF
FFFF
0000
FFFF
0000
0000
0000
0000
0000
0000
0000
0000
0000
0000
0057
0000
FFFF
0000
FFFF
FFFF
FFFF
0000
FFFF
FFFF
FFFF
0000
FFFF
FFFF
FFFF
0000
0000
FFFF
0000
FFFF
FFFF
0000
0000
0000
0000
0000
0000
FFFF
FFFF
FFFF
FFFF
0000
FFFF
FFFF
0000
0000
FFFF
0000
