FFFF
FFFF
FFFF
FFFF
FFFF
FFFF
FFFF
0000
FFFF
0000
FFFF
FFFF
FFFF
0000
FFFF
FFFF
0000
FFFF
FFFF
FFFF
FFFF
FFFF
0000
0000
FFFF
0000
FFFF
0000
FFFF
0000
0000
FFFF
0000
FFFF
0000
FFFF
0000
0000
004B
0000
0000
FFFF
FFFF
FFFF
FFFF
FFFF
FFFF
FFFF
FFFF
0000
00BC
0000
FFFF
FFFF
FFFF
FFFF
FFFF
FFFF
FFFF
0000
0000
0000
FFFF
FFFF
FFFF
0000
FFFF
0000
0000
0000
0000
0000
0000
0000
0000
0000
FFFF
0000
0000
0000
FFFF
FFFF
FFFF
FFFF
0000
FFFF
0000
0000
FFFF
FFFF
FFFF
0000
FFFF
0000
0000
0000
0000
0000
0000
0000
0000
0000
FFFF
0000
0000
0000
0000
0000
0000
FFFF
FFFF
0000
FFFF
0000
FFFF
0000
FFFF
0000
0000
0000
0000
0017
0000
0000
0000
0000
0026
0000
0000
0000
0031
0000
0000
0000
0000
0000
0000
FFFF
0000
FFFF
0000
FFFF
FFFF
FFFF
0000
0000
0000
0000
0000
0000
0042
0000
0025
005F
0018
0001
0000
0000
002E
002A
0010
0000
0000
0000
FFFF
FFFF
FFFF
FFFF
FFFF
0000
FFFF
FFFF
0000
0000
0000
0000
0000
0026
0000
0000
0000
0044
0000
0005
000F
0071
0000
0008
0000
003F
0000
0000
0000
0000
0000
0000
FFFF
0000
FFFF
FFFF
FFFF
0000
0000
001C
0040
0000
0000
0000
0000
000C
0000
0000
001D
0049
0050
0000
0000
0000
0000
0038
0000
0000
0000
FFFF
FFFF
FFFF
FFFF
FFFF
0000
0000
0000
0015
0017
0007
0054
0016
0000
0000
004E
003E
002B
0021
0046
0002
0000
0000
0000
0000
0000
0000
0000
FFFF
FFFF
0000
FFFF
FFFF
0017
0000
005F
0000
0017
006B
0000
0000
0001
0000
0006
004C
0000
0000
00A9
0000
003C
0000
0000
0000
0000
0000
FFFF
FFFF
FFFF
0000
0000
FFFF
0000
0000
0006
0000
0017
0000
002C
0000
0000
0000
0000
0000
0045
0000
0000
0000
0011
0057
0000
0000
0000
0000
FFFF
FFFF
FFFF
FFFF
FFFF
0000
0000
0000
0000
0051
0000
0023
000D
000A
001D
0000
0000
0000
0000
0000
0058
0000
000A
003F
0000
0000
0000
0000
0000
FFFF
0000
FFFF
FFFF
FFFF
0000
0000
0000
001C
0000
0000
0015
0000
0000
0000
0000
007B
0000
0021
0018
0000
0000
0036
0000
0000
0000
FFFF
FFFF
FFFF
FFFF
0000
FFFF
FFFF
0000
0021
0000
0001
0000
0015
0017
0023
002D
0000
0032
0004
0000
0026
0046
0000
0000
0004
0000
0000
0000
FFFF
FFFF
0000
FFFF
FFFF
0000
0000
0000
0000
0020
0000
0035
003B
0000
0000
004F
0046
0000
0000
0015
0000
0000
0000
0000
0000
000C
0000
0000
FFFF
FFFF
FFFF
FFFF
FFFF
FFFF
FFFF
0000
0000
0014
0000
0030
0012
0000
0017
0000
0062
0023
004C
0000
0071
0005
002C
0000
0000
0000
0000
0000
0000
FFFF
0000
FFFF
0000
FFFF
0000
0000
0000
0000
0000
0000
0000
0000
000A
0000
0025
0000
0053
002D
006C
0000
0000
0000
0000
0000
0000
0000
0000
0000
0000
FFFF
0000
FFFF
FFFF
0000
0008
0017
0044
0000
002B
004A
0000
0000
0036
003E
0023
0000
0011
0000
0000
0015
0000
0000
0000
0000
0000
0000
FFFF
FFFF
FFFF
FFFF
0000
0000
0000
005D
0047
0017
0041
000D
0000
0028
0000
0017
0007
0048
0000
002D
002E
0000
0000
0000
0000
0000
0000
0000
FFFF
FFFF
FFFF
FFFF
0000
0000
0000
0000
0000
0000
0000
0000
0003
0000
0000
0000
0004
0000
0000
0043
0069
000A
0000
0000
0000
0000
0000
0000
0000
FFFF
0000
FFFF
0000
0000
005B
0007
003B
0000
0006
000C
0000
000D
0012
002D
0000
0000
0000
0040
0017
0000
0000
0000
0000
0000
0000
0000
0000
FFFF
FFFF
FFFF
0000
0000
0000
0070
0000
0007
0000
0000
0017
0026
0000
0000
0000
0000
0000
0000
0000
0025
0000
0000
0000
0000
FFFF
0037
0000
FFFF
0000
0000
0000
0000
0000
0000
0000
0051
0000
0000
000D
0069
0000
0000
003B
0000
000B
0000
0058
0000
0000
0000
0000
0000
0000
0000
FFFF
FFFF
FFFF
0000
0000
0000
0000
0000
004F
0012
0000
0018
0033
001F
0009
000D
0000
000A
0000
0017
0000
0000
0000
0000
FFFF
0000
FFFF
FFFF
0000
0000
0000
0000
FFFF
0000
0000
0000
0017
0000
0055
0000
0035
0000
0026
0000
0014
0000
004D
0000
0000
FFFF
FFFF
0000
0000
FFFF
FFFF
0000
FFFF
0000
FFFF
FFFF
FFFF
0000
0000
0000
0000
0000
0008
0000
0000
0000
0000
0000
0000
0000
0000
0000
0000
FFFF
FFFF
FFFF
FFFF
FFFF
FFFF
FFFF
FFFF
0000
FFFF
FFFF
FFFF
0000
0093
0000
FFFF
0000
0000
0000
0000
0000
0000
0000
0000
0000
0000
FFFF
FFFF
FFFF
0000
FFFF
FFFF
FFFF
0000
0000
FFFF
FFFF
0000
0076
FFFF
FFFF
0031
0000
FFFF
0000
FFFF
FFFF
FFFF
0000
0000
0000
0000
0000
0000
FFFF
FFFF
FFFF
FFFF
FFFF
FFFF
0000
0000
FFFF
0000
