FFFF
0000
FFFF
FFFF
FFFF
FFFF
FFFF
0000
FFFF
0000
FFFF
FFFF
0000
0000
FFFF
FFFF
FFFF
FFFF
FFFF
FFFF
FFFF
0000
0000
0000
FFFF
0000
FFFF
0000
FFFF
0000
0000
FFFF
0000
FFFF
0000
FFFF
0000
0000
FFFF
0000
0000
FFFF
FFFF
0000
FFFF
0000
FFFF
FFFF
FFFF
0000
FFFF
0000
FFFF
FFFF
FFFF
0000
FFFF
0000
FFFF
0000
0000
0000
FFFF
0000
FFFF
0000
0000
0000
0000
0000
0000
0000
0000
0000
0000
0000
FFFF
0000
00A0
0000
0000
FFFF
FFFF
FFFF
0000
0000
0000
0000
FFFF
FFFF
0000
0000
0000
0000
0000
0000
0000
0000
0000
0000
0000
0000
0000
0000
0000
0000
0000
FFFF
FFFF
0000
0000
0000
0000
0000
FFFF
0000
0000
0000
FFFF
0000
0000
0000
0000
0000
0000
0000
0000
0015
0076
0000
0011
0000
0000
0000
0000
0000
0000
FFFF
0000
0000
0000
FFFF
FFFF
0000
0000
0000
0000
0000
0000
0000
0000
0000
002F
0034
005C
0000
0022
000B
0000
004C
0021
0000
0000
FFFF
FFFF
FFFF
FFFF
0000
FFFF
0000
FFFF
0000
0000
0000
0000
0000
0000
0024
0021
0000
006F
003D
0000
0000
003C
0000
004E
0000
0000
0000
0000
0000
0000
0000
FFFF
0000
FFFF
0000
0000
FFFF
FFFF
0000
0000
0000
003F
000E
0010
0000
0010
0000
0019
0002
0000
0007
0000
0000
002C
0000
0000
0000
0000
0000
0000
0000
FFFF
FFFF
FFFF
FFFF
0000
0000
0027
0000
0000
001A
003F
003B
0016
0010
0007
0000
0000
0000
0000
0017
003D
002D
0000
0000
0000
0000
0000
FFFF
FFFF
0000
FFFF
FFFF
0000
0000
0000
0000
0000
0000
0000
0024
0000
0017
0021
0000
0039
0034
0000
0000
0027
0000
000B
0000
0000
0000
FFFF
0000
0000
0000
0000
0000
0000
FFFF
0000
000A
0018
0000
005F
0000
002A
002D
0000
00A6
0012
004F
000D
0000
0024
003D
0000
0000
0000
0000
0000
0000
FFFF
FFFF
FFFF
0000
0000
0000
0024
0027
000F
0000
0000
0000
0023
0013
0000
0000
002C
0000
0000
0000
001D
0000
0000
0000
0000
0000
0000
FFFF
0000
FFFF
FFFF
FFFF
0000
0000
004C
0031
0000
0000
000A
0000
0016
003E
0000
0022
0000
0000
0019
000A
0033
0000
0021
0000
0000
FFFF
FFFF
FFFF
FFFF
0000
FFFF
0000
0000
0000
0000
0007
000E
0000
0000
0000
0041
0000
0000
0000
0000
0000
0000
0032
0000
000F
0016
0000
0000
FFFF
FFFF
0000
FFFF
0000
0000
0000
0000
0000
0000
0000
0000
0066
0000
0000
0000
0000
0001
0000
0008
0000
0000
004C
0078
0000
0000
0000
0000
FFFF
0000
FFFF
FFFF
0000
FFFF
FFFF
0000
0000
0000
0000
0000
0000
0000
0009
0010
0000
0000
0000
0045
002C
0000
0033
0036
0004
000C
0000
0000
0000
FFFF
0000
FFFF
FFFF
0000
0000
0000
0000
0000
0000
0000
0000
0000
0000
0000
0029
0000
0000
0002
0024
0000
003C
000E
001A
000E
0000
0000
0000
0000
FFFF
FFFF
0000
FFFF
FFFF
0000
0010
0037
0093
0000
0029
000B
0000
0000
0000
0000
0000
0000
0000
003E
0036
001B
0000
0000
0000
0000
0000
0000
FFFF
FFFF
FFFF
FFFF
0000
0000
0034
0005
0063
000F
0000
006D
0000
0000
002D
0056
000B
002D
0019
002B
0042
0000
002F
000A
0000
0000
0000
0000
FFFF
FFFF
0000
FFFF
0000
0000
0000
0000
0000
00AE
0000
000F
0000
0011
0057
0000
0000
0012
0024
0036
003C
0000
0037
0000
0000
0000
0000
0000
FFFF
0000
0000
0000
0000
0000
0000
0017
0022
0000
0000
0024
0000
0000
0000
0000
0000
0000
004F
0000
0053
0000
0000
0000
0000
0000
0000
0000
0000
FFFF
0000
0000
FFFF
0000
0000
002C
003E
0000
0043
005F
0000
0017
000A
0000
0000
0000
002E
006F
0000
0000
0006
0000
0000
0000
FFFF
FFFF
FFFF
FFFF
0000
0000
0000
0000
0000
0000
0000
0000
000E
0000
0000
0000
0000
0016
0000
006E
0035
0000
0003
0000
0000
0000
0000
0000
0000
0000
FFFF
FFFF
FFFF
0000
0000
0000
0000
0000
0000
0000
0000
0000
0011
0000
0016
0017
003C
0000
0000
0000
0000
0000
0000
0000
0000
0000
0000
0000
0000
FFFF
0000
FFFF
FFFF
0000
0000
0000
0000
0000
0000
0000
0000
0035
0000
0018
0000
0000
0000
0000
0000
0000
0000
0000
0000
0000
FFFF
0000
0000
0000
0000
FFFF
FFFF
FFFF
FFFF
0000
FFFF
FFFF
FFFF
FFFF
FFFF
FFFF
0000
0000
0000
0000
0000
0000
0000
0000
0000
FFFF
FFFF
FFFF
0000
0000
0000
0000
FFFF
FFFF
FFFF
FFFF
FFFF
0000
0000
0000
0000
FFFF
0000
FFFF
FFFF
0000
0000
0000
0000
0000
0000
FFFF
0000
FFFF
FFFF
FFFF
0000
0000
FFFF
FFFF
0000
FFFF
FFFF
FFFF
0000
0000
FFFF
0000
FFFF
FFFF
0000
0000
0000
0000
0000
0000
0000
FFFF
FFFF
FFFF
FFFF
FFFF
FFFF
0000
0000
FFFF
FFFF
