0000
FFFF
FFFF
FFFF
FFFF
FFFF
FFFF
0000
FFFF
0000
0000
FFFF
FFFF
0000
FFFF
FFFF
0000
FFFF
FFFF
FFFF
FFFF
0000
0000
0000
FFFF
0000
FFFF
0000
FFFF
0000
0000
FFFF
0000
FFFF
0000
FFFF
0000
FFFF
FFFF
0000
0000
FFFF
FFFF
0000
FFFF
FFFF
FFFF
0000
FFFF
0000
FFFF
0000
FFFF
FFFF
FFFF
FFFF
FFFF
FFFF
FFFF
0000
0000
0000
FFFF
FFFF
FFFF
0000
FFFF
0000
0000
0000
0000
0000
0000
0000
0000
0000
FFFF
0000
0000
0000
FFFF
FFFF
FFFF
FFFF
0000
FFFF
0000
0000
FFFF
FFFF
0000
0000
FFFF
0000
0000
0000
0000
0000
0000
0000
0000
0000
0000
0000
0000
0000
0000
0000
0000
0000
FFFF
0000
0000
0000
FFFF
FFFF
FFFF
0000
0000
0000
0000
0000
0000
0000
0000
0000
0002
0000
0016
0003
0010
0000
0000
0000
0000
0000
0000
FFFF
FFFF
0000
0000
FFFF
FFFF
0000
0000
0000
0000
0000
0000
0000
0003
0025
0001
0040
0000
0000
0028
001E
0000
0032
0007
0005
0000
0000
0000
FFFF
FFFF
FFFF
0000
0000
FFFF
FFFF
0000
0000
0000
0000
004D
000D
0000
0000
0000
0000
0026
0004
001D
0021
0000
0000
0019
0000
0000
0000
0000
0000
0000
0000
FFFF
0000
FFFF
FFFF
FFFF
0000
0000
0000
0006
0000
0031
0000
0000
0000
0000
001F
0069
0015
0000
0000
0000
0000
0000
004E
0000
0000
0000
0000
FFFF
0028
FFFF
FFFF
0000
0000
0000
001F
004A
002F
0000
0000
000E
0030
0000
002E
0000
0000
0000
0007
004F
0000
0000
0000
0000
0000
0000
FFFF
FFFF
0000
FFFF
005D
0000
0000
0024
0000
000E
0048
0000
0005
0011
003B
0000
0002
0030
0064
0000
0000
0000
0049
0026
0000
0000
0000
FFFF
FFFF
FFFF
FFFF
0000
0000
0000
0000
0000
0000
0000
0000
0000
0025
0000
0080
0018
0000
0052
0014
0059
0000
0000
000B
0000
0000
0000
0000
0000
FFFF
0072
003F
FFFF
FFFF
0000
0000
0000
0000
0000
0000
0036
0000
0000
0040
0023
0000
0031
0000
002E
0000
0000
001B
0000
0000
0000
0000
FFFF
FFFF
0000
FFFF
FFFF
0000
0000
0000
0000
0047
0000
0000
000E
0000
0000
0000
000B
0000
001F
003B
006A
0000
0057
0000
0000
0000
0000
FFFF
FFFF
FFFF
FFFF
0000
FFFF
0000
0000
0000
0000
0000
0011
0000
0015
0009
0024
0042
0039
0094
0000
0010
0024
0021
006D
0000
0000
0000
0000
FFFF
FFFF
0000
FFFF
FFFF
0008
0000
0000
0000
0000
0000
0000
0032
000A
0000
0037
0000
0000
003A
003D
0015
0000
0000
0000
0016
0000
0000
0000
FFFF
FFFF
006E
0000
FFFF
FFFF
FFFF
0000
0000
0000
0062
0004
0000
0000
0026
002B
0000
002A
0000
0000
0000
0012
0000
0033
0000
0009
0000
0000
0000
FFFF
0000
FFFF
0000
0000
0000
0000
0000
0010
0000
0000
0000
0000
0000
0041
0015
0000
0000
0002
0027
0020
0023
0000
0000
0005
0000
0000
003A
0000
0000
0000
0000
FFFF
FFFF
0000
004A
0000
0000
0000
0000
0000
0032
0000
001A
000C
007C
000C
0042
0000
0000
0000
0000
0000
0000
0000
0000
0000
FFFF
FFFF
FFFF
FFFF
0000
0000
0000
0000
001D
0028
0018
0000
0013
0002
0000
0000
0000
0000
0051
0000
0000
004D
0003
0000
0000
0000
0000
0000
FFFF
FFFF
FFFF
FFFF
0000
0000
002C
0000
0000
0012
0000
0033
0000
000B
0000
0000
0075
0052
003A
003B
0000
0029
0035
0000
0000
0021
0000
0000
0000
FFFF
0000
FFFF
0000
0000
0000
0000
0000
0024
0071
0002
0010
0000
0009
0000
0000
004F
0000
0000
001C
0000
0000
0011
0000
0000
0000
0000
0000
FFFF
FFFF
FFFF
0000
0000
001D
0000
003C
001F
000B
0000
0000
0021
0008
002F
0019
0029
0048
0000
004A
0000
0000
0000
0000
0000
FFFF
FFFF
0000
FFFF
0000
0000
0000
0000
0000
0000
0000
0003
0068
000A
0056
002D
0000
0061
0000
0000
0000
001D
0072
0000
0000
000F
0000
0000
0000
0000
FFFF
FFFF
0033
0000
0000
0000
0000
0000
0016
003A
000E
0000
0070
0000
0032
0000
0019
0000
0000
0000
0000
0000
0000
0000
FFFF
FFFF
0000
FFFF
0000
0000
FFFF
0000
FFFF
0000
0000
0000
0000
0000
000B
0008
0000
0000
0000
0000
0000
0000
0000
0083
0000
FFFF
FFFF
0000
0000
FFFF
FFFF
0000
FFFF
0000
FFFF
0000
FFFF
0000
0000
0000
0000
0000
0000
0000
0010
0000
0000
0000
0000
0000
0000
0000
0000
0000
0000
FFFF
FFFF
FFFF
FFFF
0000
FFFF
0000
FFFF
0000
FFFF
0000
FFFF
0000
FFFF
0000
0000
0000
0000
0000
0000
0000
0000
0000
0000
0000
0000
FFFF
0000
FFFF
FFFF
FFFF
0000
FFFF
FFFF
FFFF
0000
FFFF
FFFF
FFFF
0000
0000
FFFF
0000
FFFF
FFFF
FFFF
0000
0000
0000
0000
0000
FFFF
FFFF
FFFF
FFFF
0000
FFFF
FFFF
0000
0000
FFFF
FFFF
