FFFF
FFFF
FFFF
FFFF
FFFF
FFFF
FFFF
0000
FFFF
FFFF
FFFF
FFFF
FFFF
0000
FFFF
FFFF
0000
0000
FFFF
FFFF
0000
FFFF
0000
0000
FFFF
0000
FFFF
0000
FFFF
0000
0000
FFFF
0000
FFFF
FFFF
FFFF
0000
0000
FFFF
0000
FFFF
FFFF
FFFF
0000
FFFF
FFFF
FFFF
FFFF
FFFF
0000
FFFF
0000
FFFF
FFFF
FFFF
FFFF
FFFF
FFFF
FFFF
0000
0000
0000
0000
FFFF
FFFF
0000
FFFF
0000
0000
0000
0000
0000
0000
0000
0000
0000
FFFF
0000
0000
0000
FFFF
FFFF
FFFF
FFFF
FFFF
FFFF
FFFF
FFFF
FFFF
FFFF
FFFF
0000
FFFF
0000
0000
0000
0000
0000
0000
0000
0000
0000
FFFF
0000
0000
0000
0000
0000
0000
FFFF
FFFF
0000
FFFF
FFFF
FFFF
FFFF
FFFF
0000
FFFF
0000
0000
0000
0000
0000
0000
0052
0000
0013
0043
0026
0000
0000
0000
0000
0000
0000
0000
FFFF
FFFF
FFFF
0000
FFFF
0000
FFFF
FFFF
FFFF
0000
0000
0000
0007
0000
0077
001A
0000
001C
003F
005D
000E
0000
0000
0000
0000
0000
0000
FFFF
FFFF
FFFF
FFFF
FFFF
0000
FFFF
0000
FFFF
FFFF
0000
0000
0000
0007
0096
0000
0000
0032
0000
0021
0000
0017
0000
0000
0011
0000
0000
0000
0000
0000
0000
FFFF
FFFF
FFFF
0000
FFFF
FFFF
0000
0000
0047
002B
0000
0000
0022
001D
0026
001C
0000
0000
0000
002A
0002
0000
0000
0024
0000
0000
0000
0000
FFFF
FFFF
0000
FFFF
FFFF
0000
0000
0000
0000
0020
0000
0038
0035
0000
0018
0021
0000
0000
002E
000D
0000
0000
0000
0000
0000
0000
0000
0000
FFFF
FFFF
0000
FFFF
FFFF
0000
0000
0051
0051
0000
0000
0000
0050
0000
0000
0020
002B
0000
0000
002D
0010
0000
0000
0002
0000
0000
0000
FFFF
FFFF
FFFF
FFFF
0000
FFFF
0000
0000
001E
0000
0000
0000
0024
0004
0034
0000
0000
0077
0038
0007
0020
000F
003D
000A
0000
0000
0000
0000
0000
FFFF
0000
FFFF
FFFF
0000
0000
0000
0031
0014
003C
0000
0008
0000
002D
0022
0000
003D
0024
0000
0000
0035
000F
001B
0000
0000
0000
0000
FFFF
FFFF
0000
FFFF
FFFF
FFFF
0000
0000
0000
0037
0019
0000
0033
004E
0000
001C
0000
004A
0000
0001
00A3
0000
0000
006A
0000
0000
0000
FFFF
FFFF
FFFF
FFFF
0000
FFFF
0000
0000
0000
0000
0000
0000
0000
0010
0000
0000
000E
0015
0044
0013
0000
0000
0000
0000
0000
0000
0000
0000
FFFF
FFFF
0000
FFFF
FFFF
0000
0000
0000
0000
0000
0015
0000
0034
0000
0000
0027
0000
0000
007B
0039
0012
0019
0000
0000
0000
0000
0000
0000
FFFF
FFFF
0000
FFFF
FFFF
FFFF
FFFF
0000
0000
003D
0000
0000
0005
0000
001E
0045
0047
0000
000D
002A
0000
0000
0000
0000
0000
0004
0000
0000
0000
FFFF
0000
FFFF
0000
FFFF
0000
0000
0000
0000
0000
0000
0000
0000
0038
0024
0032
0000
0000
0000
0000
0000
000F
0000
0038
0000
0000
0000
0000
0000
FFFF
FFFF
0000
FFFF
FFFF
0000
0000
0000
0000
0015
0000
0000
000E
0009
001C
0000
0035
0000
0011
0003
0004
0000
0000
0000
003C
0000
001E
0000
FFFF
0000
FFFF
FFFF
0000
0000
0000
0000
0024
0000
0039
0000
0016
0000
00D2
006B
001C
0000
0000
0000
0000
0000
0000
0000
0000
0000
0000
0000
FFFF
FFFF
FFFF
FFFF
FFFF
0000
0000
0000
0020
000F
0021
0000
0000
003A
0000
007D
0000
002B
0014
0004
001D
0000
0000
0000
0000
0000
0000
0000
0000
FFFF
0000
FFFF
0000
0000
0000
0000
0000
0000
0022
0000
002C
0000
0000
004F
000B
0000
002D
0000
0018
0000
0000
0000
0000
0000
0000
0000
0000
FFFF
FFFF
FFFF
0000
0000
0000
0000
0000
002A
0000
0028
0000
0000
0000
0000
0000
0000
0000
008E
0000
0000
0000
0000
0000
0000
FFFF
FFFF
0000
FFFF
0000
0000
0000
0000
0000
001C
0000
0000
0035
0000
0000
003B
004A
0000
0021
0008
000F
0000
0000
0011
0000
0000
0007
0000
FFFF
0000
FFFF
FFFF
FFFF
0000
0000
0000
0000
0000
0000
0000
0029
0057
0041
0000
0023
0000
0029
005F
0007
0028
0000
0000
0000
0000
FFFF
FFFF
FFFF
FFFF
0000
0000
FFFF
0000
FFFF
0000
0000
0000
0000
0000
0037
002D
0000
0016
0000
0000
0052
0000
0000
0000
0000
FFFF
FFFF
0000
0000
FFFF
FFFF
0000
FFFF
0000
FFFF
FFFF
FFFF
FFFF
0000
0000
0000
0000
0000
0000
0000
0000
0000
0000
0000
0000
0000
0000
0000
FFFF
FFFF
FFFF
FFFF
FFFF
FFFF
FFFF
FFFF
0000
FFFF
FFFF
FFFF
0000
FFFF
0031
FFFF
0000
0000
0000
0000
0000
0000
0000
0000
0000
0000
FFFF
FFFF
FFFF
0000
FFFF
FFFF
FFFF
003C
FFFF
FFFF
FFFF
0000
FFFF
FFFF
FFFF
0000
FFFF
FFFF
0000
FFFF
FFFF
FFFF
0000
FFFF
0000
0000
0000
FFFF
FFFF
FFFF
0000
FFFF
FFFF
FFFF
0000
0000
FFFF
FFFF
