0000
FFFF
FFFF
FFFF
FFFF
FFFF
FFFF
0000
FFFF
0000
0000
FFFF
FFFF
0000
FFFF
0000
0000
0000
FFFF
FFFF
FFFF
0000
0000
0000
0000
0000
FFFF
0000
FFFF
0000
0000
FFFF
0000
FFFF
0000
FFFF
0000
0000
0000
0000
0000
FFFF
0000
FFFF
FFFF
0000
FFFF
0000
FFFF
0000
FFFF
0000
FFFF
FFFF
FFFF
FFFF
FFFF
FFFF
FFFF
0000
0000
0000
FFFF
FFFF
FFFF
0000
FFFF
0000
0000
0000
0000
0000
0000
0000
0000
0000
FFFF
0000
0000
0000
0000
0000
FFFF
FFFF
0000
FFFF
0000
0000
FFFF
FFFF
0000
0000
0000
0000
0000
0011
0000
0000
0000
0000
0000
0000
FFFF
0000
0000
0000
0000
0000
0000
0000
FFFF
0000
0000
0000
0000
0000
FFFF
0000
0000
0000
0000
0000
0000
0000
0001
0000
0005
0000
0014
0000
0000
0000
0000
0000
0000
0000
0000
FFFF
FFFF
0000
0000
FFFF
FFFF
0000
0000
0000
0000
0000
000A
0000
0000
0000
0014
0068
0036
0000
0013
0019
0000
0000
0028
0000
0000
0000
FFFF
FFFF
FFFF
FFFF
0000
FFFF
FFFF
0000
0000
0000
0000
0000
003B
0015
0000
001A
0042
002C
000A
0025
0036
0000
0000
0000
0009
0000
0000
0000
0000
0000
0000
0000
FFFF
0000
0000
FFFF
FFFF
0000
0000
0000
0000
0009
001B
0000
0000
0000
0000
0000
0000
004A
0003
0010
0008
003E
0000
0000
0000
0000
0000
0000
FFFF
FFFF
0000
FFFF
0000
0000
0000
0000
0000
0000
0000
0000
003B
0000
0024
0000
0005
0000
0000
0000
0000
0010
0000
0000
0000
0000
0000
FFFF
0000
0000
FFFF
FFFF
0000
0000
0000
0000
0000
0022
0025
0011
0000
001D
000D
0000
0010
003A
0000
0000
0071
002F
0000
0000
0000
0000
FFFF
FFFF
FFFF
0000
0000
0000
0000
0000
002A
0000
0000
004A
001F
0000
0000
0041
006D
000E
0021
0026
0000
0000
0000
0000
009B
0000
0000
0000
0000
FFFF
FFFF
FFFF
FFFF
0000
0000
0000
0000
003B
0012
0000
0000
0000
0000
0032
0000
0000
0030
001A
0000
0022
007C
000C
003E
0000
0000
0000
0000
FFFF
0000
FFFF
FFFF
0000
0000
0000
0000
0000
0030
0001
0000
0000
002C
0000
0027
005E
0000
0000
0000
0004
0051
0017
0000
002A
0000
0000
FFFF
FFFF
FFFF
0000
FFFF
0000
0000
0000
0015
0050
003F
0007
0031
0000
0007
0013
001F
0000
0006
0017
0026
004F
0000
0000
0000
0000
0000
FFFF
FFFF
0000
FFFF
FFFF
0000
0000
0000
0000
0002
0020
0000
0000
000C
0000
0000
0016
0000
0000
0036
0014
001D
0000
001B
0019
0000
0000
0000
0000
FFFF
FFFF
0000
FFFF
FFFF
FFFF
0000
0008
0030
0000
0006
0000
0000
001E
0001
001E
0027
0010
0000
0000
0055
0066
0032
002D
0000
0000
0000
0000
FFFF
0000
FFFF
0000
0000
0000
0000
008A
0000
0000
002F
0000
0000
0068
0000
006C
007E
0043
0000
004E
000C
0000
000A
0000
0056
0000
0000
0000
0000
0000
0000
0000
FFFF
FFFF
0000
0000
0000
0000
0000
0000
002A
0000
001E
0000
000D
001C
0000
001D
0000
0006
002F
0039
0035
0000
0000
0000
0000
FFFF
FFFF
0000
FFFF
0000
0000
0000
0043
0016
0000
0000
0000
0029
0000
0000
0003
000D
000E
0000
0000
0041
0000
0000
001E
0000
0000
0000
0000
FFFF
FFFF
FFFF
FFFF
0000
0000
0037
000E
0000
000D
000C
0054
001D
0000
002F
000B
0024
003F
0000
002B
0000
0065
0000
0003
0000
0000
0000
0000
0000
FFFF
0000
FFFF
0000
0000
0000
0000
003D
0043
0000
0015
0011
0050
0037
0000
000B
002B
0000
0024
0020
003A
0000
0000
0000
0000
0000
0000
0000
FFFF
FFFF
0000
0000
0000
0053
0014
0006
000E
0025
0000
0000
0000
0000
0000
0000
0000
0069
0039
0000
0000
0000
0000
0000
0000
FFFF
FFFF
0000
FFFF
0000
0000
0000
0000
0000
0000
0000
0000
0000
0000
0040
0000
0000
0000
0000
002D
0000
0000
0000
0000
0000
0000
0000
0000
0000
0000
FFFF
FFFF
FFFF
0000
0000
0000
0000
0000
0062
003B
0000
0033
0000
0000
0000
0005
0000
000E
0020
0000
0000
0000
0000
0000
0000
FFFF
0000
FFFF
0000
0000
0000
0000
FFFF
0000
0000
0000
0000
0000
0000
001C
001A
0000
006A
0000
0033
0007
0000
0000
0000
FFFF
FFFF
0000
0000
FFFF
FFFF
0000
FFFF
0000
FFFF
0000
FFFF
FFFF
0000
0000
0000
0000
0000
0000
0000
0000
0000
0000
0000
0000
0000
0000
FFFF
FFFF
0000
FFFF
FFFF
FFFF
FFFF
0000
FFFF
0000
0000
0000
FFFF
0000
FFFF
FFFF
0000
0000
0000
0000
0000
0000
0000
0000
0000
0000
0000
FFFF
0000
FFFF
0000
FFFF
0000
FFFF
0000
0000
FFFF
FFFF
0000
FFFF
0000
FFFF
0000
0000
FFFF
0000
FFFF
FFFF
FFFF
0000
0000
0000
0000
0000
0000
FFFF
FFFF
FFFF
0000
FFFF
FFFF
0000
0000
FFFF
0000
