FFFF
FFFF
FFFF
FFFF
FFFF
FFFF
FFFF
0000
FFFF
FFFF
0000
FFFF
FFFF
0000
FFFF
FFFF
0000
FFFF
FFFF
FFFF
0000
0000
0000
0000
FFFF
0000
FFFF
0000
FFFF
0000
FFFF
FFFF
0000
FFFF
0000
FFFF
0000
0000
FFFF
0000
0000
FFFF
FFFF
FFFF
FFFF
FFFF
FFFF
0000
FFFF
0000
FFFF
0000
FFFF
FFFF
FFFF
FFFF
FFFF
FFFF
FFFF
0000
0000
0000
FFFF
FFFF
FFFF
0000
FFFF
0000
0000
0000
0000
0000
0000
0000
0000
0000
FFFF
0000
0000
0000
FFFF
0000
FFFF
FFFF
0000
FFFF
0000
0000
FFFF
FFFF
0000
0000
0000
0000
0000
0000
0000
0000
0000
0000
0000
0000
FFFF
0000
0000
0000
0000
0000
0000
FFFF
FFFF
0000
FFFF
0000
FFFF
0000
FFFF
0000
FFFF
0000
0000
0000
0000
0000
0000
0000
0045
0000
0000
0005
0000
0000
0000
0000
0000
0000
0000
FFFF
FFFF
FFFF
0000
FFFF
FFFF
0000
0000
0000
0000
0000
0000
0000
0000
0000
0000
0000
0000
0000
0000
0031
0000
0000
0028
0000
0000
0000
0000
FFFF
FFFF
FFFF
FFFF
0000
FFFF
FFFF
0000
0000
0000
0000
0000
0003
0063
002C
0000
0018
0000
0000
0007
0015
0000
0028
0000
0005
0000
0000
0000
0000
0000
0000
FFFF
0000
FFFF
0000
FFFF
001E
0000
0002
0000
0001
001C
004C
001E
0000
0049
0000
0014
0053
0000
0000
000F
0059
004C
0000
0000
0000
0000
FFFF
0038
FFFF
0000
FFFF
0000
0000
0000
0000
0005
0000
0000
0000
0073
0012
0042
0021
0070
0000
0019
0000
0001
0000
0000
000F
0000
0000
0000
FFFF
FFFF
0000
FFFF
FFFF
0000
0000
0049
0014
0000
0000
0000
0000
000B
000B
0000
0030
0025
0000
0018
0000
0075
0000
0064
0000
0000
0000
FFFF
FFFF
FFFF
0000
0000
0000
0000
0000
0000
001D
0020
0007
003F
0000
0073
0000
0000
001F
0000
0000
0000
003A
0000
0000
0000
0000
0000
0000
0000
FFFF
FFFF
FFFF
FFFF
FFFF
0000
0000
0000
0000
0006
0000
0020
0000
0000
001C
0019
006A
0011
0048
0039
0000
0000
0000
000E
0000
0000
0000
0000
FFFF
0000
FFFF
0031
FFFF
0000
0000
005F
0000
0042
000C
0000
0000
002A
0023
0000
0024
0006
0032
0000
002E
0046
0000
0030
0000
0000
FFFF
FFFF
FFFF
FFFF
0000
FFFF
0000
0000
0000
0000
0056
0000
0000
0053
0017
001D
0000
001A
0042
002B
0000
0083
0000
0002
0000
0000
0000
0000
FFFF
FFFF
0000
FFFF
FFFF
0000
0000
0000
0000
0000
006F
0000
0000
0042
004C
0000
000A
0046
0000
0016
0000
0000
000F
0000
0001
0000
0000
0000
FFFF
FFFF
FFFF
FFFF
FFFF
FFFF
FFFF
0000
0000
0043
0000
005D
0000
0010
0000
002D
0000
0047
0014
001E
0000
0026
001A
005A
001C
0005
0000
0000
0000
FFFF
0000
FFFF
0000
FFFF
0000
0000
0000
0000
001E
0000
002E
0000
001E
0000
0000
0000
0000
003C
0000
0028
0000
0000
0000
003E
0000
0000
0000
FFFF
0000
0000
0000
002F
FFFF
0000
0000
0000
0011
0000
0004
0000
0000
0000
0007
006C
005F
0019
0000
001E
0000
0005
0043
0000
0000
0000
0000
0000
005A
0000
0000
FFFF
0000
0000
0000
0062
0000
0000
002B
000D
0000
002E
0028
0000
0020
0075
0040
0022
0000
0000
0029
0011
0000
0000
0000
0000
FFFF
FFFF
FFFF
FFFF
0000
0000
0000
003B
0000
0000
0045
0000
0043
001A
0000
0009
0000
0011
0023
0000
0000
0020
0000
0000
0000
0000
0000
0000
0000
FFFF
0000
FFFF
0000
0000
0000
0015
0000
0000
0000
0000
000D
0000
0000
0025
0007
004E
0000
0046
002A
0012
0006
0000
0000
0000
0000
0000
0000
FFFF
FFFF
FFFF
0000
0000
0000
0018
007C
0000
0075
001E
004B
0004
0001
0000
000B
0000
0000
001C
0000
0000
0000
0000
0000
0000
FFFF
FFFF
0000
FFFF
0000
0000
0000
0000
0000
0000
0000
0000
0000
0000
0000
0000
0014
0000
0042
0000
0000
002D
0000
0000
0000
0000
0000
0000
0000
0000
FFFF
FFFF
FFFF
0000
0000
0000
0000
0000
0050
0000
0000
0032
0006
0000
002D
0031
004C
004E
0029
0007
0000
0000
0000
0000
002E
FFFF
0000
FFFF
0000
0000
0000
0000
FFFF
0000
0000
0000
0000
0000
0087
0000
0000
0000
0000
0000
0037
0000
001E
0000
0000
FFFF
0000
0000
0000
FFFF
FFFF
0000
FFFF
0000
FFFF
0000
FFFF
0000
0000
0000
0000
0000
0000
0000
0042
0000
003E
0058
0000
0000
0000
0000
001D
0000
0000
FFFF
FFFF
FFFF
FFFF
FFFF
FFFF
0000
FFFF
0000
FFFF
0000
FFFF
0000
0000
0000
0000
0000
0000
0000
0000
0000
0000
0000
0000
0000
0000
0044
0000
0000
FFFF
FFFF
0000
0000
FFFF
0078
0000
FFFF
FFFF
0000
FFFF
0000
FFFF
0000
FFFF
FFFF
FFFF
0000
0000
0000
0000
0000
FFFF
FFFF
0011
FFFF
0000
FFFF
FFFF
0000
0000
FFFF
0000
