FFFF
0000
FFFF
FFFF
FFFF
FFFF
FFFF
0000
FFFF
FFFF
FFFF
FFFF
FFFF
0000
0000
FFFF
0000
FFFF
FFFF
FFFF
FFFF
FFFF
FFFF
0000
FFFF
0001
FFFF
0000
FFFF
FFFF
FFFF
0000
0000
FFFF
FFFF
FFFF
0000
0000
0000
0000
0000
FFFF
FFFF
FFFF
FFFF
FFFF
FFFF
FFFF
FFFF
0000
FFFF
0000
FFFF
FFFF
0000
0000
FFFF
FFFF
FFFF
0000
FFFF
0000
FFFF
FFFF
FFFF
0000
FFFF
FFFF
FFFF
0000
FFFF
0000
0000
0000
0000
0000
FFFF
0000
0000
0000
FFFF
0000
FFFF
FFFF
FFFF
0000
FFFF
0000
FFFF
FFFF
FFFF
0000
FFFF
0000
0000
0000
0000
0000
0000
0000
0000
0000
0000
0000
0000
0000
0000
0000
0000
FFFF
FFFF
0000
FFFF
0000
FFFF
0000
FFFF
0000
FFFF
0000
0000
0000
0000
0000
0000
003E
001C
0000
0007
0000
0000
0000
0000
0000
0000
0000
0000
FFFF
0026
FFFF
0000
FFFF
FFFF
FFFF
FFFF
0000
FFFF
0000
0000
0000
0000
000A
001F
0011
0037
0000
0019
0017
0037
0000
0034
000D
0000
0000
FFFF
FFFF
FFFF
FFFF
FFFF
0000
0000
0000
FFFF
FFFF
0000
0000
0000
0025
0000
0017
0005
0000
002D
0021
0000
0000
0025
0027
0056
001B
006E
0000
0000
0000
FFFF
FFFF
FFFF
0000
0000
FFFF
0000
0000
0000
0000
0033
0000
002A
0000
0000
002F
003A
0062
0035
0023
0000
0016
0060
0000
0000
0000
0000
FFFF
0000
FFFF
FFFF
FFFF
FFFF
FFFF
0000
0000
0000
0000
0000
0015
0000
0000
0005
001B
0000
0000
0011
0000
0029
0000
0007
0023
0000
0000
0000
0000
0000
FFFF
FFFF
0000
FFFF
FFFF
0000
0000
0000
0000
0000
000B
0005
0026
000B
0066
000C
0000
0000
0000
0012
0000
0000
0000
0000
0000
0000
0000
FFFF
FFFF
FFFF
0000
0000
FFFF
0000
0000
002E
0034
0022
0002
0000
0000
0000
0016
0000
0000
0000
0000
0000
0011
0000
000B
0020
0000
0000
0000
FFFF
0000
FFFF
FFFF
FFFF
0000
0000
0000
0028
0000
0040
009D
0000
0045
0041
0000
000C
0000
0000
0000
0025
0065
0000
0000
0005
0000
0000
0000
0000
FFFF
0000
FFFF
FFFF
FFFF
0000
0000
0020
0025
0046
0014
0000
0000
0000
0000
0000
0004
0000
0000
0002
0063
0028
0000
0000
0000
0000
0000
FFFF
FFFF
FFFF
0000
FFFF
0000
0000
0000
000C
0000
0000
0000
002E
0000
0027
002A
0000
0028
0038
003F
0000
005F
0031
0030
0000
0000
0000
FFFF
FFFF
0000
FFFF
0000
0000
0000
0000
0000
000F
0000
0008
0000
0000
0000
001C
0000
001E
0000
0033
0008
0000
0028
0004
0035
0000
0000
0000
FFFF
0000
FFFF
FFFF
FFFF
FFFF
FFFF
0000
0000
0042
0000
0000
007C
0000
0041
000E
0073
001A
002A
002E
0000
0000
0032
0000
0025
0000
0000
0000
0000
FFFF
0000
FFFF
FFFF
FFFF
0000
0000
0000
0000
0000
003C
0000
0000
006D
0079
0017
0000
0000
0000
0005
0041
0000
0000
0003
0000
0000
0000
0000
0000
FFFF
FFFF
0000
FFFF
FFFF
0000
0000
0000
0011
0000
002A
000F
0000
0000
0000
002B
002F
0038
0000
0000
0028
0000
002B
0023
0000
0000
0000
0000
FFFF
FFFF
0000
FFFF
0000
0000
0000
0000
0000
0029
001C
0000
0018
0000
0000
0000
0000
0000
0000
0032
000C
0000
0000
000F
0000
0000
0000
0000
FFFF
FFFF
FFFF
FFFF
0000
0000
0000
001D
0000
0000
004A
0000
003B
0000
0041
0000
0000
0000
0000
0022
0000
0004
0000
0000
0000
0000
0000
0000
FFFF
FFFF
0000
FFFF
0000
0000
0000
0000
0000
0000
0000
0015
000D
0026
000A
0000
0000
0000
000F
0005
0000
0000
0000
0000
0000
0000
0000
FFFF
0000
FFFF
0000
FFFF
0000
0000
0000
0000
0000
0000
0029
003D
0012
0000
0013
0000
0000
0000
0000
0000
0060
0068
0000
0000
0000
0000
FFFF
FFFF
FFFF
FFFF
0000
0000
0000
0000
0000
0000
002C
0000
0000
0000
0038
002D
0000
0000
0000
0055
0000
0001
0052
0018
0000
0000
0000
0000
FFFF
0000
FFFF
FFFF
FFFF
0000
0000
0000
0000
0000
0000
0000
0000
0013
0004
0009
002D
0006
0000
0000
000E
0000
0000
0000
0000
0000
0000
0014
FFFF
FFFF
0000
FFFF
0000
FFFF
FFFF
0000
0000
0000
0000
0000
0000
0000
0000
001F
0000
0000
0000
0024
0000
0000
0000
FFFF
0000
0000
0000
FFFF
FFFF
0000
FFFF
0000
FFFF
FFFF
FFFF
FFFF
0000
0000
0000
0000
0000
0000
0000
0000
0000
0000
0000
0000
0000
0000
FFFF
FFFF
0000
FFFF
FFFF
FFFF
FFFF
FFFF
FFFF
0000
FFFF
FFFF
0000
FFFF
FFFF
0000
FFFF
0000
0000
0000
0000
FFFF
0000
0000
0000
0000
0000
FFFF
0000
0000
0000
FFFF
FFFF
FFFF
0000
0000
FFFF
FFFF
0000
FFFF
FFFF
FFFF
0000
FFFF
FFFF
0000
FFFF
FFFF
0000
0000
FFFF
0000
0000
0000
0000
FFFF
FFFF
FFFF
0000
FFFF
FFFF
0000
0000
FFFF
0000
