FFFF
FFFF
FFFF
FFFF
FFFF
0051
FFFF
0000
FFFF
0000
FFFF
FFFF
FFFF
0000
FFFF
FFFF
0000
FFFF
FFFF
FFFF
FFFF
FFFF
0000
0000
FFFF
0000
FFFF
0000
FFFF
0000
FFFF
FFFF
0000
FFFF
0000
FFFF
0000
0000
0000
0000
0000
FFFF
FFFF
0000
FFFF
FFFF
FFFF
FFFF
FFFF
0000
FFFF
0000
FFFF
FFFF
FFFF
FFFF
FFFF
FFFF
FFFF
0000
0000
0000
FFFF
FFFF
FFFF
FFFF
FFFF
0000
0000
0000
0000
0000
0000
0000
FFFF
0000
0000
0000
0000
0000
FFFF
FFFF
FFFF
FFFF
FFFF
FFFF
FFFF
0000
FFFF
FFFF
FFFF
0000
0000
0000
0013
0000
0000
0000
0000
0000
0000
0000
0000
0000
0000
0000
0000
001E
0000
FFFF
FFFF
0000
0000
FFFF
FFFF
0000
FFFF
0000
000E
0000
0000
0000
0000
0000
003B
001E
001C
0027
0000
001D
0000
001B
0000
0000
0007
0000
0000
FFFF
FFFF
0000
0000
0059
FFFF
0000
0000
0000
0000
0000
0000
0023
0000
000F
0006
001E
0000
0023
0000
0011
0044
0046
0007
0000
0000
0000
FFFF
FFFF
FFFF
FFFF
FFFF
0000
FFFF
FFFF
0000
0000
0000
0000
0000
0000
000F
0000
0000
0000
0000
0000
0000
005A
0013
002F
0027
000F
0009
0000
0000
0000
0000
FFFF
FFFF
0000
FFFF
FFFF
FFFF
0000
0000
0000
0000
0000
0000
0016
0055
0000
0000
0016
0021
0000
0000
0000
0000
0000
0000
0000
0000
0000
0000
0000
FFFF
FFFF
FFFF
FFFF
0000
0000
0000
0000
0000
0000
0004
0057
007B
001F
0013
0033
0029
0005
0000
001A
0000
0000
004C
0018
0000
0000
0000
FFFF
FFFF
0000
FFFF
FFFF
0000
0000
0000
003C
0000
0000
0000
0000
0001
006F
0000
0016
0011
0018
0043
0000
004D
001F
0000
006B
0000
0000
004A
FFFF
FFFF
FFFF
0000
FFFF
0000
0000
0000
0063
001F
0000
0000
0011
0000
005E
0000
0000
0001
0000
0019
0048
0033
0000
0000
0000
0000
0000
0000
FFFF
FFFF
FFFF
FFFF
0000
0000
0000
0000
0000
0000
002B
0000
002D
0000
001F
0000
0000
0037
0036
0000
0000
0000
0000
001F
0000
0000
0000
FFFF
FFFF
0000
0000
FFFF
FFFF
0000
0000
0000
0043
0049
0002
008D
0053
0000
0000
0000
0000
0022
0000
0000
0015
0043
002D
0037
0000
0000
0000
FFFF
FFFF
FFFF
0000
FFFF
FFFF
0000
0000
000A
0000
001C
0000
0000
0000
0000
0005
0014
0000
0049
0000
0019
0000
0034
0062
0023
0000
0000
FFFF
FFFF
0000
0022
FFFF
0000
0000
0000
0000
0028
0003
0037
0028
0022
0000
0062
0000
0000
0036
0000
0000
001E
0048
0000
0000
0021
0004
0000
FFFF
FFFF
FFFF
FFFF
FFFF
FFFF
FFFF
0000
0000
0047
0028
0021
004A
0000
0000
0000
0000
0011
0002
0000
0000
0000
0000
0000
0000
0022
0000
0000
0000
006E
0000
FFFF
0000
0000
0000
0000
0000
0000
0000
0000
0000
0000
001A
0000
0000
006B
005E
002C
000C
0000
0018
000B
0006
0089
0024
0000
0000
0000
FFFF
FFFF
0000
FFFF
FFFF
0000
0010
0000
0000
0021
001A
0000
0029
0000
0000
0000
0026
0009
0000
004C
0000
0000
004A
0000
002B
0000
0000
0000
FFFF
FFFF
FFFF
FFFF
0000
0000
0004
0000
0000
0000
001B
0067
002B
003C
0002
0064
0000
003A
0000
0000
0028
0000
0000
0000
0000
0000
0000
0000
FFFF
FFFF
FFFF
FFFF
0000
0000
0000
002A
0028
005D
0000
0012
0050
0000
0035
003B
0000
0000
0014
0055
000B
0000
0035
004E
0052
0000
0000
0000
0000
FFFF
0000
FFFF
FFFF
0001
003E
0032
0000
0076
0000
0000
0027
0036
004F
0088
0045
0026
0000
001F
0000
0008
0048
0000
0000
0000
0000
0000
0000
006D
FFFF
FFFF
0000
0000
0000
0000
0049
0016
0000
0000
0026
0006
0000
0000
0000
0006
0000
0000
0000
0000
0023
0000
0000
0000
FFFF
FFFF
0000
FFFF
0000
0000
0000
0000
0000
001C
0000
0052
0014
0000
00BF
004C
0045
0001
0000
0056
0000
0000
0000
0000
0000
0000
0000
000A
FFFF
0000
FFFF
FFFF
FFFF
0000
0000
0000
0000
001D
0000
0000
0040
0000
0029
0000
0054
0000
0000
0000
0000
0000
000E
0000
0000
0000
0000
FFFF
0000
FFFF
0000
0000
FFFF
0000
FFFF
0000
0000
0000
0000
0052
0000
0012
0025
0000
0032
0009
0036
0000
0000
0000
0000
FFFF
0000
0000
0000
FFFF
FFFF
0000
0000
0000
FFFF
FFFF
FFFF
0000
0000
0000
0000
0000
0000
0000
0000
0004
0000
0000
0000
0000
0000
0000
0000
FFFF
0000
FFFF
FFFF
FFFF
FFFF
0000
FFFF
0000
FFFF
FFFF
FFFF
FFFF
FFFF
FFFF
0000
0000
0000
0000
0000
0000
0000
0000
0000
0000
0000
0000
FFFF
0000
0000
0050
FFFF
0041
0000
FFFF
004F
FFFF
0000
FFFF
0000
FFFF
0000
0000
003C
0000
FFFF
FFFF
FFFF
0000
0000
0000
0000
0000
FFFF
0067
FFFF
FFFF
0000
0081
0053
0000
0000
FFFF
FFFF
