0000
0000
FFFF
FFFF
0000
FFFF
0000
0000
0000
FFFF
FFFF
FFFF
FFFF
0000
0000
FFFF
0000
FFFF
FFFF
FFFF
0000
0000
FFFF
0000
FFFF
0000
FFFF
0000
FFFF
0000
0000
FFFF
0000
FFFF
0000
FFFF
0000
0000
0000
0000
0000
FFFF
FFFF
0000
0000
0000
FFFF
0000
FFFF
0000
FFFF
0000
FFFF
FFFF
0000
0000
FFFF
FFFF
FFFF
0000
0000
0000
0000
0000
0000
0000
FFFF
0000
0000
0000
FFFF
0000
0000
0000
0000
0000
0000
FFFF
FFFF
0000
0000
0000
0000
FFFF
FFFF
0000
FFFF
0000
FFFF
FFFF
0000
0000
FFFF
0000
0000
0000
0000
0000
0000
0000
0000
0000
FFFF
0000
FFFF
FFFF
FFFF
FFFF
FFFF
0000
0000
0000
0000
0000
FFFF
0000
0000
0000
0000
0000
0000
0000
0000
0000
0000
0000
0000
0000
0000
0014
0000
0000
0000
0000
0000
0000
0000
FFFF
FFFF
0000
0000
FFFF
0000
0000
0000
0000
0000
0000
0000
0000
0000
0000
0005
003B
0000
0018
0014
003E
0025
0006
0036
0000
0000
0000
0000
FFFF
FFFF
0000
0000
FFFF
0000
0000
0000
0000
0000
0000
0000
000D
0000
0000
0000
0045
005A
0030
0000
0008
0000
0023
0000
002F
0000
0000
0000
0000
FFFF
FFFF
FFFF
0000
0000
FFFF
0000
0000
0000
0000
0000
0050
000A
002A
0000
0000
0000
0047
000D
0000
0000
0000
0000
0043
003D
0032
0000
0000
0000
0000
FFFF
FFFF
FFFF
FFFF
0000
0000
0000
0000
0000
0051
0000
005C
0024
0000
0000
0000
0022
0000
0000
0000
000F
0000
007D
0000
0000
0000
0000
FFFF
FFFF
0000
FFFF
FFFF
0000
0000
0000
0000
002A
0000
0000
003B
0096
0000
0000
000D
0066
0012
0032
0014
0001
002C
0012
0000
0000
0000
FFFF
FFFF
FFFF
0000
0000
0000
0000
0000
0000
0000
0000
0000
0000
0000
0000
0000
0008
0000
0000
0000
0000
005E
0000
0053
0081
0060
0000
0000
0000
0000
FFFF
FFFF
FFFF
0000
0000
0000
0000
0057
0052
0000
0040
0000
0004
0013
0000
004A
0006
0018
0000
0000
001E
0030
0000
0000
0000
0000
0000
FFFF
0000
FFFF
FFFF
FFFF
0000
0000
0000
000A
0042
0056
0000
0007
0000
0000
0000
0002
0000
0026
0008
0045
0000
0019
0000
0027
0000
0000
FFFF
FFFF
FFFF
0000
FFFF
0000
0000
0000
0000
0000
0000
007D
0000
0000
0000
0041
0009
0000
0000
0000
001A
0000
0000
0010
001F
0000
0000
FFFF
FFFF
0000
FFFF
0000
0000
0000
0000
0000
0073
0000
0000
0000
000A
0000
002C
003A
006A
0023
001E
0000
0000
001B
0022
0000
0007
0000
0000
FFFF
0000
FFFF
FFFF
0000
FFFF
FFFF
0000
0000
0038
001F
0000
0000
0042
002B
0000
0000
0000
0000
0000
0009
0020
001E
0048
0000
0000
0000
0000
0000
FFFF
0000
FFFF
FFFF
0000
0000
0000
0000
0027
0000
0000
0012
0047
0000
0000
0012
0000
0000
0000
0000
0000
0000
0000
0000
0017
0000
0000
0000
0000
0000
FFFF
0000
FFFF
FFFF
0000
0010
000F
0000
0000
0000
0000
0010
000F
0015
0000
002A
0000
0029
0000
0025
001B
0000
001B
0000
0000
0000
FFFF
FFFF
0000
FFFF
FFFF
0000
0000
0000
0045
0000
0000
0000
0007
0004
0000
0000
0000
004A
0000
0000
000B
006B
001A
0010
0002
0000
0000
0000
0000
FFFF
0000
FFFF
FFFF
FFFF
0000
0000
0048
0018
0000
0063
0000
0024
0000
0016
0000
005F
0033
001D
0049
006C
0008
004D
002E
0000
0000
0000
0000
FFFF
0000
0000
FFFF
0000
0000
0033
002A
0000
0000
0036
0017
0013
0005
0000
0015
0000
0000
0000
0004
0000
0000
002E
0000
0000
0000
0000
FFFF
0000
FFFF
0000
0000
0000
0018
0000
0000
0000
003E
0022
0027
000B
0000
000A
0000
0000
0000
0000
0021
0043
0000
0000
0000
0000
0000
0000
0000
FFFF
FFFF
0000
0000
0000
0000
0000
001E
0000
0000
0050
001D
000B
0000
000D
002A
002E
0033
0000
0075
0030
0000
0000
0000
0000
0000
FFFF
0000
FFFF
FFFF
FFFF
0000
0000
0000
0000
0000
0013
0027
0000
0000
0000
0000
0000
0000
0000
0000
0000
0000
0000
0000
0000
0000
0000
FFFF
0000
0000
0000
FFFF
0000
FFFF
0000
0000
0000
0000
0000
0004
0036
0000
0035
0000
0000
000B
0017
0004
0000
0000
0000
0000
0000
0000
0000
FFFF
FFFF
0000
FFFF
0000
0000
FFFF
FFFF
FFFF
0000
0000
0000
0000
0000
0000
0000
0000
0000
0000
0000
0000
0000
0000
0000
FFFF
0000
FFFF
0000
FFFF
FFFF
0000
FFFF
0000
FFFF
FFFF
FFFF
FFFF
0000
FFFF
0000
0000
0000
0000
0000
0000
0000
0000
0000
0000
0000
0000
0000
FFFF
0000
0000
FFFF
FFFF
0000
0000
FFFF
FFFF
0000
0000
0000
FFFF
0000
0000
FFFF
0000
FFFF
FFFF
0000
0000
0000
0000
0000
0000
FFFF
FFFF
FFFF
0000
0000
FFFF
FFFF
FFFF
0000
FFFF
FFFF
