FFFF
FFFF
FFFF
FFFF
FFFF
FFFF
FFFF
FFFF
FFFF
0000
0000
FFFF
FFFF
0000
FFFF
FFFF
0000
0000
0000
0000
0000
0000
0000
0000
FFFF
0000
FFFF
0000
FFFF
0000
0000
0000
0000
FFFF
0000
FFFF
0000
0000
0000
0000
0000
FFFF
FFFF
0000
0000
0000
FFFF
0000
FFFF
0000
0000
0000
FFFF
FFFF
FFFF
FFFF
FFFF
0000
FFFF
0000
0000
0000
0000
0000
0000
FFFF
FFFF
0000
0000
0000
0000
0000
0000
0000
FFFF
0000
0000
FFFF
FFFF
0000
0000
FFFF
FFFF
FFFF
0000
0000
0000
FFFF
FFFF
FFFF
0000
0000
FFFF
0000
0000
0000
0000
0000
0000
0000
0000
0000
0000
0000
0000
0000
0000
FFFF
0000
0000
0000
0000
0000
0000
FFFF
0000
0000
0000
0000
0000
0000
0000
002C
0000
0058
0018
0000
005E
0000
0025
0000
0000
0000
0000
FFFF
0000
0000
FFFF
0000
0000
0000
FFFF
FFFF
0000
0000
0000
0000
0000
0000
0023
0000
0000
001D
0000
0000
0000
0003
0000
0025
0000
0000
0000
0000
0000
FFFF
FFFF
FFFF
0000
FFFF
0000
FFFF
0000
0000
0000
0000
0002
0000
001E
0003
0000
0000
0003
0000
000C
0000
0000
0028
0022
0000
0000
0000
0000
0000
0000
0000
0000
FFFF
0000
0000
0000
FFFF
0000
FFFF
0000
0036
0004
0000
0000
0000
0000
0000
0009
0004
0021
0000
0000
002B
0000
0000
0000
0000
0000
0000
0000
0000
FFFF
0000
FFFF
0000
0000
FFFF
0000
0000
0008
0000
0000
0000
0024
0000
0000
005D
0002
0000
0000
0013
0000
0000
0000
0000
0000
0000
FFFF
0000
0000
FFFF
FFFF
0000
FFFF
FFFF
0000
0025
0000
0000
0000
0000
0008
0000
0044
0002
0000
0000
0000
0000
0000
0000
0000
0000
0000
FFFF
0000
FFFF
FFFF
0000
0000
0000
FFFF
0000
0000
0032
0000
0000
001D
0022
0021
0060
0000
0002
0000
0000
002F
0000
0008
0000
0000
0000
0000
0000
FFFF
FFFF
FFFF
FFFF
0000
0000
0000
0000
0000
0000
0000
005B
0010
0012
0000
004C
003F
0000
0031
001E
0000
0005
0000
0000
0000
0000
0000
FFFF
FFFF
0000
0000
0000
FFFF
0000
0000
0000
0000
0000
000E
0000
0000
0000
0000
0026
0000
0028
000F
004D
0000
0000
0000
0000
0000
0000
0000
FFFF
0000
FFFF
FFFF
FFFF
0000
0000
0000
0000
0000
0000
002E
0000
002F
0000
001E
0012
0000
0025
0000
0022
0000
0000
0000
0000
0000
0000
0000
0000
0000
FFFF
FFFF
0000
0000
0000
0000
0000
0018
0006
0002
0000
0000
0000
000C
0000
0005
0000
0000
0035
0018
0000
0000
0000
0000
0000
FFFF
FFFF
FFFF
FFFF
0000
FFFF
FFFF
0000
0000
0000
0000
0000
000F
0000
0000
0000
0003
0002
001A
0000
001A
0009
0000
0009
0036
0030
0000
0000
0000
FFFF
0000
FFFF
0000
0000
0000
0000
0000
0000
0035
0015
0000
004D
0000
0000
0000
0000
0000
0047
0000
002F
001B
0000
001D
0000
0000
0000
0000
0000
0000
0000
0000
0000
FFFF
0000
0000
0000
0039
0000
0060
0006
0039
0000
0000
0000
0000
0000
0000
0000
0000
0000
0000
002E
0000
0000
0000
0000
0000
0000
FFFF
0000
0000
0000
0000
001F
000C
000D
0000
0000
0058
0000
0000
0000
0000
000C
0030
0019
0000
0016
0027
004D
001D
0000
0000
0000
FFFF
FFFF
FFFF
0000
FFFF
0000
0000
0000
0000
0000
002D
0013
0015
0000
004A
000A
0019
002C
0000
0000
0043
005B
001C
0000
0000
0000
0000
0000
0000
FFFF
0000
FFFF
0000
0000
0000
004D
000D
004B
000D
0017
0019
0000
0047
0007
0000
0004
0000
000E
0018
0073
0026
0000
0000
0000
0000
0000
0000
FFFF
FFFF
0000
0000
0000
0000
0000
0000
0000
0000
00A6
0000
001D
0000
0000
0000
004B
003D
0000
0000
0000
0000
0000
0000
0000
FFFF
0000
0000
FFFF
0000
FFFF
FFFF
0000
FFFF
0000
0000
0013
0017
0000
005D
0017
0000
0000
002F
0000
0012
0057
0000
0000
0000
0000
0000
0000
0000
0000
FFFF
0000
FFFF
0000
FFFF
FFFF
FFFF
0000
0000
0000
0008
0000
001A
0034
0000
0000
0000
0000
0000
0000
0000
0000
0000
FFFF
0000
0000
0000
FFFF
0000
0000
FFFF
0000
FFFF
FFFF
0000
0000
FFFF
0000
0000
003D
0046
007A
0000
0000
0000
FFFF
0000
0000
0000
FFFF
FFFF
0000
0000
0000
0000
0000
FFFF
0000
FFFF
0000
FFFF
0000
0000
0000
FFFF
0000
0000
0000
0000
0000
FFFF
FFFF
FFFF
FFFF
0000
0000
0000
0000
0000
FFFF
FFFF
0000
FFFF
0000
FFFF
0000
FFFF
0000
FFFF
0000
0000
FFFF
0000
0000
0000
0000
0000
0000
FFFF
0000
0000
0000
0000
0000
0000
0000
0000
FFFF
FFFF
FFFF
0000
FFFF
FFFF
0000
0000
0000
FFFF
FFFF
0000
0000
FFFF
0000
0000
FFFF
FFFF
0000
0000
0000
0000
0000
FFFF
FFFF
0000
0000
0000
FFFF
FFFF
FFFF
FFFF
FFFF
FFFF
