0000
FFFF
FFFF
FFFF
FFFF
FFFF
FFFF
0000
FFFF
FFFF
FFFF
FFFF
FFFF
0000
FFFF
0000
0000
0000
FFFF
FFFF
0000
0000
FFFF
0000
FFFF
0000
FFFF
0000
FFFF
FFFF
0000
FFFF
0000
FFFF
0000
FFFF
0000
0000
0000
0000
0000
FFFF
0000
FFFF
FFFF
0000
FFFF
0000
FFFF
0000
FFFF
0000
FFFF
FFFF
FFFF
FFFF
FFFF
0000
FFFF
0000
0000
0000
FFFF
FFFF
FFFF
0000
0000
0000
0000
0000
FFFF
0000
0000
0000
0000
0000
0000
0000
FFFF
0000
FFFF
0000
FFFF
FFFF
0000
0000
0000
FFFF
FFFF
FFFF
FFFF
FFFF
FFFF
0011
0000
0000
0000
0000
0000
0000
0011
0000
FFFF
0000
0000
0000
0000
0000
0000
0000
0000
0000
0000
0000
FFFF
FFFF
0000
0000
0000
0000
0000
0000
0000
0000
002C
0000
0000
0013
0000
0086
0015
0000
0000
0000
0000
0000
0000
FFFF
FFFF
0000
0000
FFFF
FFFF
0000
0000
0000
0000
0000
0000
0000
0000
0000
002F
0047
0000
0026
0037
0000
0000
001C
0000
0000
0000
0000
FFFF
FFFF
FFFF
0000
0000
FFFF
FFFF
0000
0000
0000
0000
0000
0035
0006
0000
0000
0000
004F
0000
0000
0000
0000
0000
0000
0000
0000
0000
0000
0000
0000
FFFF
0000
FFFF
0000
0000
FFFF
0000
FFFF
0000
0000
0000
0025
0025
0013
0000
0000
0065
0000
0001
000B
0000
000B
0056
001E
0021
0000
0000
0000
0000
0000
FFFF
FFFF
FFFF
FFFF
0000
0000
0009
0000
0000
0046
0033
0000
0000
0064
0001
0000
0000
0030
0012
0000
0000
0000
0013
0000
0000
0000
0000
FFFF
FFFF
0000
FFFF
FFFF
0000
0000
0044
0000
0049
001E
0000
0030
002E
006E
0013
0089
0001
0000
0000
0000
0013
0000
0000
0000
0000
0000
FFFF
FFFF
0000
0000
0000
0000
0000
0000
0022
0000
0000
0000
001E
0057
0000
0000
0000
0000
0005
003C
0000
0000
003C
0000
0025
0000
0000
0000
0000
FFFF
FFFF
FFFF
FFFF
0000
0000
0000
0000
000C
0028
0000
0013
0000
0000
0053
0000
0032
0000
001C
0001
0018
0030
0041
0000
0000
0000
0000
0000
FFFF
0000
FFFF
FFFF
FFFF
0000
0000
0000
0000
0000
0000
0022
0000
0000
0000
0000
0000
004F
0031
0024
0000
0000
0000
0000
0000
0000
FFFF
FFFF
FFFF
FFFF
0000
FFFF
0000
0000
0000
0000
0000
002D
0010
0000
0000
0000
0000
002E
0001
0017
0046
0000
0000
0000
0000
0000
0000
0000
FFFF
FFFF
0000
FFFF
0000
0000
0000
0000
0000
0000
0023
0000
0000
0019
0000
0000
0000
0050
0000
002C
0023
0000
0057
0000
007B
0000
0000
0000
0000
0000
FFFF
FFFF
0000
FFFF
FFFF
0000
0000
002C
004A
0000
001D
0015
0000
0000
0000
002A
0000
0017
0000
0000
0008
0000
0000
0000
0000
0000
0000
FFFF
0000
FFFF
FFFF
0000
0000
0000
0013
000B
0000
0000
0090
0000
0000
0000
0000
0000
0000
0000
0000
0000
003F
004E
0000
0006
0009
0000
0000
0000
0000
0000
0000
FFFF
FFFF
0000
0000
0023
001D
0000
0065
0041
0000
0000
0001
0055
0000
0000
0000
007A
0000
0000
0023
0000
0000
0000
0000
0000
FFFF
0000
FFFF
FFFF
0000
0000
002B
000E
0000
0001
0000
0020
0005
0000
0020
0000
0052
0000
0016
0029
0000
0004
0041
0000
0000
0000
0000
0000
FFFF
FFFF
FFFF
FFFF
FFFF
0000
0000
0015
0068
001A
000F
0018
0045
0000
0000
001C
0000
0000
0000
0000
0017
001A
001B
001B
0000
0000
0000
0000
FFFF
FFFF
0000
FFFF
0000
0000
0000
0034
000E
0012
0000
0000
0000
0000
0016
0000
0007
0000
0000
0000
0000
0000
001B
0007
0000
0000
0000
0000
0000
FFFF
FFFF
0000
0000
0000
0000
0000
001C
0000
000A
0000
0000
004B
0000
0032
0000
0000
0000
0000
0039
0000
0000
0000
0000
0000
0000
0000
FFFF
FFFF
0000
0000
0000
0000
0000
0032
0000
0000
0008
003D
0007
005E
0028
0000
0012
0000
0024
0006
0000
003F
0000
0000
0000
0000
0000
0000
FFFF
FFFF
FFFF
0000
0000
0000
0000
0000
0000
0024
0034
0000
0000
0000
0000
0000
0000
002E
0073
001F
0000
0000
0000
0000
0000
FFFF
0000
FFFF
0000
FFFF
0000
FFFF
FFFF
0000
0000
0000
0000
0000
0000
0000
0000
0000
0000
0000
0000
0000
0000
0000
0000
0000
0000
0000
0000
0000
FFFF
0000
FFFF
0000
FFFF
FFFF
FFFF
FFFF
0000
0000
0000
0000
0000
0000
0000
0000
0000
0000
0000
0000
0000
0000
0000
0000
0000
FFFF
FFFF
FFFF
FFFF
0000
FFFF
0000
FFFF
0000
FFFF
004D
FFFF
0000
FFFF
0000
0000
0000
0000
0000
0000
0000
0000
0000
0000
0000
0000
FFFF
0000
0000
FFFF
FFFF
0000
FFFF
FFFF
FFFF
0000
0000
0000
FFFF
0000
0000
FFFF
0000
FFFF
FFFF
0000
0000
0000
0000
0000
0000
FFFF
FFFF
FFFF
FFFF
0000
FFFF
FFFF
0000
0000
FFFF
FFFF
