0000
0000
FFFF
FFFF
FFFF
FFFF
FFFF
FFFF
0000
0000
FFFF
FFFF
FFFF
0000
0000
FFFF
0000
FFFF
FFFF
FFFF
0000
FFFF
FFFF
0000
FFFF
0000
FFFF
0000
FFFF
0000
0000
0000
0000
FFFF
0000
FFFF
0000
FFFF
FFFF
0000
0000
FFFF
FFFF
FFFF
FFFF
0000
FFFF
0000
FFFF
0000
FFFF
0000
FFFF
FFFF
FFFF
0000
FFFF
0000
0000
0000
0000
0000
FFFF
0016
FFFF
0000
FFFF
0000
0014
0000
FFFF
0000
0000
0000
0000
0000
FFFF
FFFF
FFFF
0000
FFFF
FFFF
FFFF
FFFF
FFFF
0000
FFFF
0000
FFFF
FFFF
FFFF
0000
0000
0000
0000
0000
0000
0000
0000
0000
0000
0000
0000
0000
0000
FFFF
0000
0000
FFFF
007C
0000
0000
0000
FFFF
FFFF
FFFF
FFFF
0000
0000
0000
0000
0000
0000
0000
002F
0000
0000
0023
0000
0000
0000
0000
0000
0000
0000
0000
0000
FFFF
FFFF
FFFF
0000
FFFF
FFFF
FFFF
0000
0000
0000
0000
0000
0000
0000
005E
0000
0021
0000
0015
0000
0040
0037
0000
0000
0043
0000
0000
FFFF
FFFF
FFFF
0000
0000
FFFF
FFFF
0000
0000
0000
0000
0000
0000
0000
003A
0000
0000
0007
0000
0000
0000
0000
001D
0000
001C
0000
0000
0000
0010
0000
FFFF
FFFF
FFFF
0000
0000
FFFF
0000
0000
0000
0000
0023
0000
0000
0000
0013
003C
001F
000C
0000
001B
005F
0000
0000
0010
0000
0000
0000
0000
0000
FFFF
FFFF
FFFF
FFFF
FFFF
0000
0000
0012
0014
0000
000D
0011
0000
0030
004E
0000
001C
0086
0000
0000
001A
0026
0000
0000
0000
0000
0000
0000
0000
FFFF
0000
FFFF
FFFF
0000
0000
0000
001D
0056
0013
005B
0000
0000
002C
0000
0041
005B
000D
004B
0000
0000
0000
0000
0000
0000
0000
FFFF
FFFF
0000
FFFF
0000
FFFF
0000
0000
0000
0020
0044
0010
0000
0012
000C
0009
0000
0000
0000
005A
001C
0021
0000
0000
0000
0000
0000
0000
FFFF
0000
FFFF
FFFF
FFFF
0000
0000
0000
0000
0000
0000
0000
0000
0000
0000
001A
0000
0000
0022
0000
0056
005F
0000
0000
0000
0000
0000
0000
0000
FFFF
FFFF
0000
FFFF
0000
0000
0000
0000
0000
0000
0008
0000
000F
0000
0020
002E
0033
0011
0000
0018
0000
0044
0000
0000
0000
0000
0000
FFFF
FFFF
FFFF
FFFF
FFFF
0000
0000
0000
0000
0000
005D
0000
0000
005A
004B
002D
0000
0000
0000
0000
0005
0000
0000
0000
0000
0000
0000
FFFF
FFFF
0000
FFFF
0000
0000
0000
0000
0000
0000
0000
003E
0036
0000
0016
0000
005A
003A
0000
0000
0004
0000
001A
0000
0000
0000
0000
0000
FFFF
0000
FFFF
0000
0000
FFFF
FFFF
0000
0000
0000
0000
0000
0013
0010
0000
0014
0000
001E
0001
0000
0000
0001
0007
002D
0000
0000
0000
0000
0000
FFFF
0000
FFFF
0000
FFFF
0000
0000
0000
0079
0020
0010
0040
007D
0053
0054
0000
0000
0032
0000
0000
002C
0000
0000
0000
0000
0000
0000
0000
0000
0000
FFFF
0000
FFFF
FFFF
0000
0000
0000
0000
0000
0000
002A
000F
0000
000D
0011
0034
0020
0000
0012
0023
0009
002C
0000
0000
0000
0000
0000
FFFF
0000
FFFF
FFFF
0000
0000
0000
0000
0000
003A
0000
0000
0000
000C
0000
0000
0000
0027
0044
0000
0020
0015
0023
0000
0000
0000
0000
0000
FFFF
FFFF
FFFF
FFFF
FFFF
0000
0000
0000
0000
0000
0000
0010
0000
0000
0000
003E
0038
005C
0000
0012
0000
0020
0000
0000
0000
0000
0000
0000
0000
FFFF
0000
FFFF
0000
0000
0000
0000
002E
0000
0000
0000
0017
0007
0025
0018
000F
0000
0000
0000
001C
0000
0000
0000
0000
0000
0000
0000
0000
FFFF
0000
0000
0000
0000
0000
0000
0000
0051
0000
0000
0000
001A
0000
0000
0015
0000
0000
004D
0030
0017
0000
0000
0000
0000
FFFF
FFFF
0000
FFFF
0000
0000
0000
0000
0000
0000
001C
0000
0000
0022
0000
0000
0000
001C
0000
000C
0028
0000
0026
0000
0000
0000
0000
0000
FFFF
0000
0000
FFFF
FFFF
0000
0000
0000
0000
0000
0000
0000
0002
0019
0009
0000
0000
0010
0037
0000
0008
0000
0002
0000
0000
0000
0000
FFFF
FFFF
FFFF
0000
0000
FFFF
0000
FFFF
0000
0000
0000
0000
0000
0065
0000
0000
0005
0000
0000
0017
0000
0000
0000
0000
FFFF
0000
0000
0000
0000
FFFF
0000
FFFF
0000
FFFF
FFFF
FFFF
FFFF
FFFF
0000
0000
0000
0000
0000
0000
0000
0000
0000
0000
0000
0000
0000
0000
0000
0000
FFFF
FFFF
FFFF
FFFF
FFFF
FFFF
0000
FFFF
FFFF
0000
FFFF
FFFF
0000
0000
0000
0000
0000
0000
0000
0000
0000
002D
0000
0000
0000
0000
FFFF
0000
0000
FFFF
FFFF
0000
FFFF
FFFF
FFFF
0000
FFFF
FFFF
FFFF
0000
0000
FFFF
0000
FFFF
FFFF
0000
0000
0000
0000
0000
0000
FFFF
FFFF
FFFF
FFFF
0000
FFFF
FFFF
0000
0000
FFFF
FFFF
