0000
FFFF
FFFF
0000
FFFF
FFFF
FFFF
0000
FFFF
0000
FFFF
FFFF
FFFF
0000
FFFF
FFFF
0000
0000
FFFF
FFFF
0000
0000
FFFF
0000
FFFF
0000
FFFF
0000
FFFF
0000
0000
FFFF
0000
FFFF
FFFF
FFFF
0000
0000
0000
0000
FFFF
FFFF
FFFF
0000
FFFF
0000
FFFF
0000
FFFF
0000
FFFF
0000
FFFF
FFFF
FFFF
FFFF
FFFF
0000
FFFF
0000
FFFF
0000
FFFF
FFFF
FFFF
0000
FFFF
0000
0000
0000
FFFF
FFFF
0000
0000
0000
0000
FFFF
FFFF
FFFF
0000
FFFF
FFFF
FFFF
FFFF
FFFF
FFFF
FFFF
FFFF
FFFF
FFFF
FFFF
0000
0000
0000
0000
0000
0000
0000
0000
0000
0000
0000
0000
0000
0000
0000
FFFF
FFFF
FFFF
FFFF
0000
0000
0000
FFFF
FFFF
0000
FFFF
0000
0000
0000
0000
0000
0000
0000
0000
0000
0000
0000
0000
0000
0000
0001
0000
0000
0000
0000
0000
FFFF
FFFF
0000
0000
FFFF
0000
0000
0000
0000
0000
0000
0000
0000
0000
0000
0050
0058
0000
0004
000D
0000
0000
0000
0000
0000
0000
0000
0000
FFFF
FFFF
0000
0000
0000
FFFF
0000
0000
0000
0000
0000
0000
0000
0000
0000
0000
0087
0042
0000
005C
0045
001C
0075
0000
0000
0000
0000
0000
0000
0000
FFFF
FFFF
0000
0000
FFFF
0000
0000
0000
0000
002C
0028
006E
0013
0018
0000
0000
0000
0000
0000
0002
001F
0030
0002
0017
0000
0000
FFFF
0000
0000
FFFF
FFFF
FFFF
0000
0000
0000
001C
0044
002E
000A
0000
0000
0011
0000
007A
004B
001D
0010
0004
000E
000B
0000
004F
0000
0000
0000
0000
FFFF
FFFF
0000
0000
FFFF
0000
0000
0000
0000
0041
0000
0057
001B
0000
0000
0000
0023
0024
001F
0030
0000
0000
0000
0000
0000
0000
0000
FFFF
FFFF
0000
0000
0000
0000
0000
0000
002F
0000
0000
0000
0007
0027
0000
0000
000B
0000
003D
0014
0021
0000
0009
0044
0037
0000
0000
0000
0000
FFFF
FFFF
FFFF
FFFF
0000
0000
0000
0019
0000
0000
001E
002D
0000
0000
001B
0011
004F
0000
0005
0000
0000
0000
0000
0000
0000
0000
0000
0000
FFFF
0000
FFFF
FFFF
FFFF
0000
0000
0000
0000
0058
0000
001C
003C
0000
0000
0044
007A
0044
0000
0000
0035
0000
002B
0000
0000
0000
0000
FFFF
FFFF
FFFF
FFFF
FFFF
0000
0000
0000
0018
001D
0028
0025
001B
000E
000F
0002
0000
0013
0000
0000
0003
0000
0000
0000
002A
0000
0000
FFFF
FFFF
0000
FFFF
0000
0000
0000
0000
0000
0017
001A
0000
0010
0000
0030
0000
0000
0003
001C
0042
0007
0000
0000
0000
0000
0000
0000
0000
FFFF
FFFF
FFFF
FFFF
0000
FFFF
FFFF
0000
0000
001D
0000
0000
0000
0000
0017
0031
0000
0000
0030
0000
002B
002A
000F
006B
0000
0000
0000
0000
0000
FFFF
0000
FFFF
0000
0000
0000
0000
0000
0000
0000
0000
001A
0000
0047
0011
0000
0000
0000
0000
0000
0021
0000
0000
0003
003C
0000
0000
0000
0000
0000
FFFF
0000
FFFF
FFFF
0000
0000
0000
000F
0041
006B
0035
0000
0000
0000
0000
0000
0000
0000
0011
0000
0000
0000
0000
0000
0000
0000
0000
FFFF
0000
0000
FFFF
0000
0000
0000
0008
0000
0009
0000
0000
002A
0000
0025
0000
0000
0000
0000
0037
0000
0000
0000
0000
0000
0000
0000
0000
0000
FFFF
FFFF
FFFF
FFFF
0000
0000
0000
003E
0000
0000
0037
000A
000A
0000
0000
0000
0017
0000
0000
0000
0000
003E
0007
0000
0000
0000
0000
0000
FFFF
0000
0000
0000
0000
0000
0000
0000
0000
0000
0000
001C
0044
0000
0027
001C
0012
004E
002D
0000
000A
0047
0000
0000
0000
0000
0000
0000
FFFF
FFFF
0000
0000
0000
0000
0012
0023
0031
0004
0031
0013
0045
0000
000C
0011
003B
0000
0019
0000
008A
0058
0000
0000
0000
FFFF
0000
0000
0000
0000
0000
0000
0000
0000
0000
0004
0000
0000
0000
000D
0025
0037
0000
0000
0011
0000
0028
0057
004B
0000
0000
0000
0000
FFFF
0000
FFFF
FFFF
FFFF
0000
0000
0000
0000
0000
0000
000B
0000
0000
0002
0000
0027
0000
001C
0051
0000
001F
0037
0000
0000
0000
0000
FFFF
0000
FFFF
0000
0000
0000
0000
FFFF
0000
0000
0000
0000
0044
0044
0000
001D
004D
0000
0040
001A
004A
0000
0000
0000
0000
0000
0000
0000
0000
FFFF
0000
FFFF
0000
FFFF
FFFF
FFFF
FFFF
FFFF
0000
0000
0000
0000
0000
0000
0000
0000
0000
0000
0000
0000
0000
0000
0000
0000
FFFF
FFFF
FFFF
FFFF
0000
FFFF
0000
FFFF
FFFF
FFFF
0000
FFFF
0000
FFFF
0000
0000
0000
0000
0000
0000
0000
0000
0000
0000
0000
0000
FFFF
0000
0000
FFFF
FFFF
0000
FFFF
FFFF
FFFF
0000
0000
0000
FFFF
0000
FFFF
FFFF
0000
FFFF
FFFF
0000
0000
FFFF
0000
0000
0000
FFFF
FFFF
FFFF
FFFF
0000
FFFF
FFFF
0000
0000
FFFF
0000
