0000
0000
0000
0000
0000
FFFF
0000
FFFF
0000
0000
0000
0000
FFFF
0000
0000
FFFF
0000
0000
0000
0000
0000
0000
0000
0000
FFFF
0000
0000
0000
0000
FFFF
0000
0000
0000
0000
0000
0000
0000
FFFF
0000
0000
0000
0000
FFFF
0000
0000
FFFF
0000
0000
0000
0000
0000
0000
0000
0000
0000
0000
0000
FFFF
0000
0000
0000
0000
0000
FFFF
0000
0000
0000
0000
FFFF
0000
0000
0000
0000
0000
0000
0000
0000
0000
FFFF
0000
0000
FFFF
0000
FFFF
0000
0000
0000
0000
0000
0000
0000
0000
0000
0000
0000
0000
0000
0000
0000
0000
0000
0000
0000
FFFF
0000
0000
0000
FFFF
0000
FFFF
FFFF
0000
0000
0000
FFFF
0000
0000
0000
0000
0000
0000
0000
0000
0000
0000
0000
0000
0000
0000
0000
0000
0000
0000
0000
0000
0000
0000
0000
0000
0000
0000
FFFF
0000
0000
0000
0000
0000
0000
0000
0000
0000
0000
0000
0029
0000
001C
0016
000F
0000
0000
0000
0000
0000
0000
0000
0000
0000
FFFF
0000
0000
0000
FFFF
FFFF
0000
0000
FFFF
0000
0000
0000
0013
0000
0000
0000
0000
0000
0038
0000
0000
0000
0000
0000
0000
0000
0000
FFFF
0000
0000
0000
FFFF
0000
0000
0000
FFFF
0000
0000
0000
0000
0027
0000
0000
0000
0000
0000
0029
0000
0027
0061
0019
0000
0000
0000
0000
0000
0000
0000
0000
0000
FFFF
0000
0000
FFFF
0000
0000
0018
0000
000B
0000
0052
0000
001D
0000
0000
0000
0000
000F
0000
0000
0000
0000
0000
0000
0000
0000
0000
FFFF
0000
0000
0000
FFFF
0000
0000
0000
004B
0025
0000
0000
0000
0000
0000
0000
0019
0000
0000
003D
001A
0000
0000
0000
FFFF
0000
FFFF
FFFF
0000
0000
0000
0000
0000
0000
001B
0014
0036
0000
0000
0000
0000
0000
0000
0000
0010
0000
0000
0000
0000
0000
0000
0000
0000
0000
0000
0000
0000
0000
0000
0000
0000
0027
0000
0000
0000
0000
0000
0000
0000
0000
0000
0000
001F
0000
0000
0000
0000
0000
0000
0000
0000
0000
0000
0000
0000
0000
0000
0000
0000
0000
0044
005C
0000
001C
0000
0000
0000
0000
0000
0000
0007
0000
0000
0052
003B
0034
0000
0000
0000
0000
0000
FFFF
0000
FFFF
0000
0000
0018
0009
0000
0000
0009
000C
0000
0000
0000
0000
0000
0000
0000
000F
0000
0033
0000
0000
0000
0000
0000
0000
FFFF
0000
0000
0000
0000
0000
0000
0005
0003
0028
0050
0000
0000
0000
0000
001C
0000
0000
0000
0011
0022
0000
001E
0000
0000
FFFF
0000
0000
0000
FFFF
0000
0000
0000
0000
0000
000D
0019
0040
000C
0000
0000
0000
0000
0000
0000
002C
0000
0000
006F
0000
0006
0000
0000
0000
FFFF
0000
0000
FFFF
0000
FFFF
0000
0000
0000
0028
0000
0000
0000
0000
0000
0000
0000
0000
0000
0000
0000
0000
0005
0008
0000
0000
0000
0000
0000
0000
0000
0000
0000
0000
0000
0000
0000
0000
0000
0000
0000
0000
0000
0000
0000
002E
0000
0000
0000
0000
0009
0065
0000
0000
0000
0000
0000
0000
0000
0000
0000
0000
0000
0000
0003
007E
0000
0000
0000
0000
0025
001C
0000
0000
0000
0000
002D
0000
000A
0037
0087
0000
0000
0000
FFFF
0000
0000
FFFF
0000
0000
0000
0000
0000
0000
0000
0030
0050
0028
0000
0000
0000
000E
000D
0000
0012
002D
0000
0012
0000
0000
0000
0000
0000
FFFF
0000
0000
FFFF
0000
0000
0000
0000
0026
0000
0030
0015
0000
0000
0000
0000
0000
0000
0000
0000
0000
000B
0000
0000
0000
0000
0000
FFFF
0000
FFFF
0000
FFFF
0000
0000
0000
0000
000D
0000
0000
001C
0000
005D
0000
005E
0000
0000
0000
0000
0014
0000
0000
0000
0000
FFFF
0000
0000
FFFF
0000
0000
0000
FFFF
0000
0000
0000
0000
0000
0000
0000
000C
0000
0000
0000
0000
0000
0000
0000
0000
0000
0000
0000
0000
FFFF
0000
0000
FFFF
FFFF
0000
0000
0000
0000
FFFF
FFFF
0000
0000
0000
0000
0013
0000
0006
0014
0000
0000
0000
0000
0000
0000
0000
0000
0000
0000
0000
0000
0000
FFFF
FFFF
FFFF
0000
0000
0000
0000
0000
0000
0000
0000
0000
0000
0000
0000
0000
FFFF
0000
0000
0000
0000
0000
0000
0000
FFFF
0000
0000
0000
0000
0000
0000
0000
0000
0000
0000
0000
0000
0000
0000
0000
0000
0000
0000
FFFF
0000
0000
0000
0000
0000
0000
0000
0000
FFFF
0000
0000
0000
0000
FFFF
0000
0000
0000
0000
0000
FFFF
0000
FFFF
0000
FFFF
FFFF
0000
0000
FFFF
FFFF
0000
0000
0000
0000
0000
0000
FFFF
FFFF
0000
FFFF
FFFF
0000
0000
0000
0000
0000
0000
0000
FFFF
FFFF
0000
0000
0000
0000
0000
0000
0000
0000
FFFF
FFFF
0000
0000
0000
FFFF
FFFF
FFFF
FFFF
0000
0000
