FFFF
0000
FFFF
0000
FFFF
FFFF
FFFF
0000
FFFF
0000
FFFF
FFFF
FFFF
0000
FFFF
FFFF
0000
0000
FFFF
FFFF
FFFF
FFFF
0000
0000
0000
0000
0000
0000
FFFF
0000
0000
FFFF
0000
FFFF
0000
FFFF
0000
FFFF
0000
0000
003A
FFFF
FFFF
FFFF
FFFF
0000
FFFF
FFFF
FFFF
0000
FFFF
0000
0000
0000
FFFF
0000
FFFF
FFFF
FFFF
0000
0000
0000
FFFF
0000
FFFF
0000
FFFF
0000
0000
0000
FFFF
0000
0000
0000
0000
0000
FFFF
0000
FFFF
0000
FFFF
FFFF
FFFF
FFFF
FFFF
FFFF
FFFF
FFFF
FFFF
FFFF
FFFF
FFFF
FFFF
0000
0000
0000
0000
0000
0000
0000
0000
0000
0000
0000
0000
FFFF
0000
0000
0000
0000
0000
0000
0000
FFFF
0000
FFFF
FFFF
0000
FFFF
0000
0000
0000
0000
0000
0000
0004
001C
000B
0000
0019
0004
0000
0000
0000
0000
0000
0000
FFFF
FFFF
0000
0000
FFFF
0000
0000
0000
0000
0000
0000
0000
0000
0000
0040
0000
0000
002C
0000
0000
0000
0000
0000
0000
0026
0000
0000
FFFF
0000
FFFF
0000
FFFF
0000
FFFF
0000
0000
0000
0000
0000
0000
001C
0020
000C
002D
0000
0029
001E
0000
0014
0006
0019
0035
0000
0000
0000
0000
0000
FFFF
FFFF
FFFF
FFFF
0000
FFFF
FFFF
0000
0000
0000
001F
0005
0000
0000
0000
0000
0000
000F
0003
0017
0000
0033
0000
0000
0048
0027
0000
FFFF
0000
0000
FFFF
FFFF
FFFF
FFFF
0000
0000
0000
0035
0009
0013
0038
0071
0000
0000
0000
0000
0000
0000
0016
0004
0024
0000
0000
0000
0000
0000
0000
FFFF
FFFF
0000
FFFF
FFFF
0000
0000
0000
0000
0000
0033
004E
0000
0001
0000
0000
0007
0000
0000
0000
0000
0008
000D
0033
0000
0000
0000
FFFF
FFFF
FFFF
FFFF
0000
FFFF
0000
0000
0000
0000
0000
0000
0000
002F
0000
0000
0000
001C
0008
0008
003A
0006
0000
001F
0003
0000
0000
0000
FFFF
0000
FFFF
FFFF
FFFF
0000
0000
0000
0000
0000
0029
0000
0000
0000
0000
004F
0052
0000
0000
007C
000F
0000
0001
0028
0000
0000
0000
0000
0000
FFFF
0000
0000
FFFF
FFFF
0000
0000
0000
0000
0000
001E
0000
0000
004A
0034
0003
0000
000C
0000
0000
0020
0004
003F
0000
0000
0000
0000
FFFF
FFFF
FFFF
FFFF
FFFF
0000
0000
0000
0000
0003
0000
0000
0000
001B
0000
0047
0000
0000
0000
0072
0000
001F
0000
0000
0000
0000
0000
FFFF
FFFF
0000
FFFF
0000
0000
0000
0000
0000
0000
0000
0019
0000
001F
0000
0019
0003
0015
0014
006C
0000
0018
003C
0000
0000
0000
0000
0000
FFFF
0000
FFFF
FFFF
0000
FFFF
FFFF
0000
0000
0000
002E
0000
0000
0000
000F
0041
0000
0000
0000
0054
0019
0001
001E
0000
0020
0000
0000
0000
0000
FFFF
0000
FFFF
FFFF
0000
0000
0000
0000
0000
0000
0014
0000
0000
0000
0031
0000
0000
0000
0000
002D
001B
003B
0000
0000
0000
0000
0000
0000
0000
FFFF
FFFF
0000
FFFF
FFFF
0000
0000
0000
0000
0000
0000
0000
0000
0023
0011
0000
001A
0000
0022
0055
002C
0000
0014
0000
0000
0000
0000
0000
FFFF
FFFF
FFFF
FFFF
0000
0000
0004
0000
0032
0000
0028
0000
0009
0000
0000
0000
0014
0010
0067
0000
0000
0000
0000
0000
0000
0000
0000
0000
FFFF
FFFF
FFFF
FFFF
FFFF
0000
000C
0018
0023
0007
0022
0000
0000
0000
0000
0000
0000
000E
0000
0000
001F
000A
0000
0000
0000
0000
0000
0000
FFFF
FFFF
0000
FFFF
0000
0000
005E
0062
002C
0000
0000
0000
0000
0008
004F
0000
0030
0000
0000
0000
0000
0000
0000
0000
0000
0000
0000
0000
0000
FFFF
0000
0000
0000
0000
0000
0034
0000
003A
0000
008B
003D
006A
0000
0048
0000
0000
0000
001B
0000
002A
0000
0000
0000
0000
FFFF
0000
FFFF
FFFF
0000
0000
0000
0000
0000
0000
0002
0000
0011
0035
0000
0041
0000
001C
0000
002F
0000
0000
003A
0000
0000
0000
0000
FFFF
FFFF
0000
FFFF
FFFF
FFFF
0000
0000
0000
0000
0000
0000
0012
0007
0000
0000
0027
000A
0044
0004
005D
0000
0000
0003
0000
0000
0000
0000
FFFF
0000
FFFF
0000
FFFF
FFFF
FFFF
FFFF
0000
0000
0000
0000
0000
0001
0081
0000
0000
0023
000B
0000
0000
001D
0000
0000
0000
FFFF
0000
0000
FFFF
FFFF
0000
0000
0000
FFFF
FFFF
FFFF
FFFF
FFFF
0000
0000
0000
0000
0000
0000
0000
0000
0000
0000
0000
0000
0000
0000
0000
0000
FFFF
FFFF
FFFF
FFFF
0000
FFFF
0000
0000
FFFF
FFFF
0000
0000
FFFF
0000
0000
0000
0000
0000
0000
0000
0000
0000
0000
0000
0000
0000
FFFF
0000
FFFF
0000
FFFF
0000
FFFF
FFFF
FFFF
0000
0000
0000
FFFF
0000
0000
FFFF
0000
FFFF
FFFF
0000
0000
0000
0000
0000
0000
0000
FFFF
FFFF
FFFF
FFFF
FFFF
FFFF
0000
0000
FFFF
FFFF
