FFFF
0000
FFFF
FFFF
FFFF
FFFF
FFFF
FFFF
0000
0000
0000
FFFF
FFFF
0000
0000
FFFF
0000
FFFF
0000
0000
0000
0000
FFFF
0000
FFFF
0000
FFFF
0000
FFFF
0000
0000
0000
FFFF
FFFF
0000
FFFF
0000
0000
0000
0000
0000
FFFF
FFFF
FFFF
FFFF
0000
FFFF
FFFF
0000
0000
FFFF
0000
FFFF
FFFF
FFFF
0000
FFFF
0000
FFFF
0000
0000
0000
FFFF
FFFF
FFFF
0000
0000
0000
0000
0000
FFFF
0000
0000
0000
0000
0000
FFFF
0000
0000
0000
0000
FFFF
FFFF
FFFF
0000
0000
0000
FFFF
0000
FFFF
FFFF
0000
FFFF
0000
0000
0000
0000
0000
0000
0000
0000
0000
FFFF
0000
0000
0000
FFFF
0000
0000
0000
0000
0000
0000
FFFF
FFFF
0000
FFFF
0000
0000
0000
0000
0000
0000
0000
0000
0000
0000
0000
000F
0000
0000
0000
0000
0000
0000
0000
0000
FFFF
0000
0000
0000
FFFF
FFFF
0000
0000
0000
FFFF
FFFF
0000
0000
0000
0020
002A
000A
0031
0000
002E
0006
0000
0017
0000
0000
0000
0000
FFFF
FFFF
FFFF
0000
FFFF
0000
FFFF
0000
FFFF
FFFF
0000
0000
0000
0000
0000
0022
0000
0000
0000
0000
0037
0010
0000
0000
0000
0004
0000
0000
0000
0000
FFFF
0000
FFFF
0000
0000
FFFF
0000
0000
0000
0000
0000
0000
0001
0016
006B
0030
0000
005E
0000
0018
0020
0000
0000
002F
0000
0000
0000
0000
0000
0000
0000
FFFF
FFFF
0000
0000
0000
001B
001E
0042
0014
0003
0000
0000
0053
001F
0008
0005
0000
0000
0000
002F
002D
0000
001A
0000
0000
0000
0000
FFFF
0000
0000
FFFF
0000
0000
0000
0000
0076
0000
0000
0000
001F
000C
0027
0000
0026
004B
0000
0000
002E
002E
0000
0000
0000
0000
FFFF
FFFF
0000
0000
0000
0000
0000
0000
0018
0073
0000
0000
0017
003B
0000
0000
0000
0047
000C
0000
0016
0000
0003
0000
0000
0000
0000
0000
0000
FFFF
FFFF
FFFF
0000
0000
0000
0000
004E
0016
0000
0000
003B
0000
0000
0000
0006
0000
0000
0000
0003
0000
0000
0004
0047
0000
0009
0000
0000
0000
0000
FFFF
0000
FFFF
0000
0000
0027
0000
0012
0000
001B
0031
001E
0055
0056
0000
0000
0003
0000
0000
0006
0000
0000
0000
0000
0000
FFFF
FFFF
FFFF
FFFF
FFFF
0000
0000
0000
0000
0043
0000
0000
0040
0000
0038
0000
0000
0000
0021
0035
000B
0000
0023
0005
0000
0000
0000
0000
0000
0000
FFFF
0000
0000
0000
0000
0000
0011
0054
003D
0026
0030
0032
0006
0000
0005
0000
0000
0000
0000
005A
0047
001A
0016
0038
0000
FFFF
0000
FFFF
FFFF
0000
FFFF
FFFF
0000
0000
0000
002C
0000
0045
0000
0065
0027
0000
0003
0067
000E
0024
002E
0000
0015
0000
0006
0038
0000
0000
FFFF
FFFF
FFFF
FFFF
0000
0000
0000
0000
0011
0011
0074
0015
0000
0007
0000
0000
0000
000A
0000
001F
0000
0014
0000
0036
001E
0000
0000
0000
0000
0000
0000
0000
0000
FFFF
0000
0000
0000
0000
0000
001B
0006
006E
0000
0000
0000
0000
0024
0000
0000
0001
006C
0000
0000
0000
0000
0000
0000
0000
0000
FFFF
0000
0000
0000
0000
0000
0004
0000
0073
0006
0000
0000
0037
0000
0000
0062
0000
0000
0000
0035
001F
0022
0000
0000
FFFF
FFFF
FFFF
FFFF
FFFF
FFFF
FFFF
0000
0011
0042
0000
0003
0009
0001
0000
0016
0000
000F
0001
0000
0000
000D
0035
0000
0017
0000
0000
0000
FFFF
FFFF
FFFF
FFFF
0000
0000
0000
0000
0000
0034
0000
0000
0000
0035
0000
0016
0046
0022
0000
0038
0010
0000
0000
0000
0000
0000
0000
0000
0000
FFFF
0000
FFFF
0000
0000
0000
0000
0000
003C
0000
0008
002C
0000
001A
0000
0030
0047
0000
0000
0000
0000
0000
0000
0000
0000
0000
0000
FFFF
FFFF
FFFF
FFFF
0000
0000
0000
0000
0000
0000
0000
002B
0000
0000
0000
0000
0000
000B
0001
0000
0000
0000
0000
0000
0000
0000
0000
0000
0000
0000
FFFF
FFFF
FFFF
0000
0000
0000
0000
0000
0000
0000
0000
0000
000F
001A
0000
002E
0014
0000
0000
0000
0000
0000
0000
0000
0000
0000
0000
FFFF
0000
FFFF
0000
FFFF
FFFF
0000
0000
0000
0000
0000
0000
0000
0000
0000
0000
0002
0000
0065
0000
0000
0000
0000
0000
0000
0000
0000
FFFF
0000
FFFF
0000
FFFF
0000
FFFF
FFFF
0000
0000
FFFF
0000
0000
0000
0000
0000
0000
0000
0000
0000
0000
0000
0000
0000
0000
FFFF
FFFF
FFFF
FFFF
0000
FFFF
0000
FFFF
0000
0000
FFFF
FFFF
0000
0000
0000
0000
0000
0000
0000
0000
0000
0000
0000
0000
0000
0000
0000
0000
0000
FFFF
FFFF
0000
FFFF
FFFF
0000
0016
FFFF
0000
0000
0000
0000
FFFF
0000
0000
FFFF
0000
0000
0000
0000
0000
0000
FFFF
FFFF
0000
0000
0000
FFFF
FFFF
0000
FFFF
FFFF
0000
