FFFF
FFFF
FFFF
FFFF
FFFF
FFFF
FFFF
0000
FFFF
0000
FFFF
FFFF
FFFF
0000
FFFF
FFFF
0000
FFFF
FFFF
FFFF
FFFF
FFFF
0000
0000
FFFF
0000
FFFF
0000
FFFF
FFFF
0000
FFFF
0000
FFFF
FFFF
FFFF
0000
0000
FFFF
0000
0000
FFFF
FFFF
FFFF
FFFF
0000
FFFF
FFFF
FFFF
0000
FFFF
0000
FFFF
FFFF
FFFF
FFFF
FFFF
0000
0000
0000
0000
0000
FFFF
FFFF
FFFF
FFFF
0000
0000
0000
0000
0000
0000
003A
0000
0000
0000
FFFF
0000
0000
0000
0000
0000
FFFF
FFFF
FFFF
FFFF
FFFF
FFFF
FFFF
FFFF
0000
0000
FFFF
0000
0000
0000
0000
0000
0000
0000
0000
0000
0000
0000
0000
0000
0061
0000
0000
FFFF
0000
0000
FFFF
FFFF
FFFF
FFFF
FFFF
0000
FFFF
0000
0000
0000
0000
0000
0000
003B
0034
0000
0029
00AD
0000
0000
0000
0000
0000
0000
0000
FFFF
FFFF
0000
0000
FFFF
FFFF
0000
0000
0000
0000
0000
0000
0019
0000
0000
0071
0000
001F
0000
0000
0025
0000
0013
0000
0000
0000
0000
FFFF
FFFF
FFFF
0000
FFFF
FFFF
FFFF
0000
0000
0000
0000
0000
0000
0000
0000
000D
0000
0021
0017
0000
0000
0000
0000
0000
0000
0000
0000
0000
0000
0000
0000
FFFF
FFFF
0000
0000
FFFF
FFFF
0000
0000
0034
0028
0000
0077
0000
003D
0000
0000
001B
0000
0000
0004
0000
0000
0000
0000
0000
0000
0000
0000
0000
FFFF
FFFF
FFFF
FFFF
0000
0000
0000
004D
002C
000D
0002
002F
000F
001E
0000
001E
0002
002B
0000
0036
0000
0000
0008
0000
0000
0000
0000
FFFF
000E
0000
FFFF
FFFF
0000
0000
0000
0002
0015
0009
0056
0047
001C
0000
0014
0003
0000
0000
0000
000F
0000
0000
0019
0000
0000
0000
FFFF
FFFF
0000
FFFF
0000
FFFF
0000
0000
005C
0025
002A
0000
0000
002E
0026
0000
0000
002A
0000
004E
0021
001B
0000
0026
0000
0000
0000
0000
FFFF
FFFF
FFFF
FFFF
FFFF
FFFF
0000
0000
0000
0000
0039
0000
0000
0000
0013
0039
003C
0015
0000
0077
0014
0056
0000
003F
0000
0000
0000
0000
FFFF
FFFF
0000
0000
FFFF
FFFF
0000
0000
004C
0000
0000
0024
0040
0026
0026
0031
0000
0023
0000
0059
003D
001D
0000
0028
0000
0000
0000
FFFF
FFFF
FFFF
FFFF
0000
FFFF
0000
0000
0000
0000
0000
0014
0000
0027
0026
0000
004A
002D
0000
0054
001F
0000
0000
0000
0000
0000
0000
0000
FFFF
FFFF
0000
FFFF
FFFF
0000
0000
0000
0000
0000
0000
000F
0043
0014
0000
0003
0014
0004
0000
0000
0000
0045
001C
0032
0000
0000
0000
0000
FFFF
FFFF
FFFF
FFFF
0000
FFFF
FFFF
0000
0000
0000
0000
0000
0000
0027
0009
0044
002F
0000
0000
0000
0009
0000
0034
0000
0000
0000
0000
0000
007A
FFFF
FFFF
FFFF
0000
0000
0000
0000
0000
0000
001C
0000
0013
0077
0000
0000
0000
002D
0000
003C
0033
0000
0000
0013
005E
0000
0000
0000
0000
0000
0000
FFFF
0000
FFFF
FFFF
0000
0000
0038
0000
0026
0062
0000
0000
0020
0000
0000
0057
0000
0042
0000
0000
0039
0000
0000
0000
0000
0000
0000
FFFF
FFFF
FFFF
FFFF
0000
0000
0000
0046
0000
0005
0000
0027
0000
0000
0000
0027
003B
000C
0000
005E
0000
0000
0019
0000
0000
0000
0000
0000
FFFF
FFFF
FFFF
FFFF
FFFF
0000
0000
0044
0000
0000
0000
0000
0000
0000
0019
0018
0000
002B
0000
0000
0001
0000
0028
0000
0000
0000
0000
0000
0000
FFFF
0000
FFFF
0000
0000
0000
0000
000F
004F
0000
0012
0000
0052
0011
0004
0000
000A
000C
0000
0000
0008
0000
0000
0000
0000
0000
0000
0000
FFFF
FFFF
0000
0000
0000
0000
0000
002A
0000
0000
0000
0000
0034
0000
002D
0000
0012
002F
0027
0000
0000
0000
0000
0000
0000
FFFF
FFFF
0000
FFFF
0000
0000
0000
0000
0000
0000
0000
0000
0000
0000
000B
003B
002E
0000
0009
0000
0004
0000
0000
0008
0000
0000
0000
0000
FFFF
0000
FFFF
FFFF
FFFF
0000
0000
0000
0000
0000
0000
0000
0000
0000
0000
0000
0000
0000
0019
0027
0000
0000
0000
0000
0000
0000
0000
FFFF
0000
FFFF
0000
0000
FFFF
0000
FFFF
0000
0000
0000
0000
0000
0000
0000
0000
0000
0000
0000
0037
0010
0000
0000
0000
FFFF
0000
0000
0000
0000
FFFF
0000
0000
0000
FFFF
FFFF
FFFF
0000
0000
0000
0000
0000
0000
0021
0000
0000
0002
0000
0000
0000
0000
0000
0000
0000
0000
FFFF
FFFF
FFFF
FFFF
0000
FFFF
0000
FFFF
FFFF
0000
FFFF
FFFF
0000
0000
0000
0000
0000
0000
0000
0000
0000
0000
0000
0020
FFFF
FFFF
0000
0000
FFFF
FFFF
FFFF
0000
FFFF
FFFF
FFFF
0000
FFFF
0000
FFFF
FFFF
FFFF
FFFF
0000
FFFF
FFFF
FFFF
0000
FFFF
0000
0000
0000
FFFF
FFFF
FFFF
FFFF
0000
0000
FFFF
0000
0000
FFFF
FFFF
