FFFF
0000
FFFF
FFFF
FFFF
FFFF
FFFF
0000
FFFF
0000
0000
FFFF
FFFF
0000
FFFF
FFFF
0000
FFFF
0000
0000
FFFF
0000
0000
0000
FFFF
0000
FFFF
0000
FFFF
0000
0000
FFFF
0000
FFFF
0000
FFFF
0000
0000
FFFF
0000
0000
FFFF
FFFF
FFFF
FFFF
0000
FFFF
0000
0000
0000
FFFF
0000
FFFF
FFFF
FFFF
0000
FFFF
0000
FFFF
0000
0000
0000
FFFF
FFFF
FFFF
0000
FFFF
0000
0000
0000
FFFF
0000
0000
0000
0000
0000
FFFF
FFFF
FFFF
0000
0000
FFFF
FFFF
FFFF
0000
FFFF
0000
0000
0000
FFFF
0000
FFFF
FFFF
0000
0000
0000
0000
0000
0000
0000
0000
0000
FFFF
0000
0000
0000
0000
0000
0000
FFFF
0000
0000
FFFF
FFFF
FFFF
FFFF
FFFF
0000
0000
0000
0000
0000
0000
0000
0041
0000
002E
000A
0057
003C
0000
0000
0000
0000
0000
0000
0000
FFFF
0000
FFFF
0000
FFFF
FFFF
FFFF
0000
0000
0000
0000
0000
0000
000C
0000
0000
0000
0063
0000
0002
0000
0000
0013
0000
0000
0000
0000
FFFF
FFFF
FFFF
0000
FFFF
0000
FFFF
0000
0000
0000
0000
0000
0000
002E
0000
0000
000C
003C
0000
0000
0000
003D
0000
0000
0000
0000
0000
0000
0000
0000
0000
0000
FFFF
0000
0000
FFFF
0000
0000
0000
0000
0015
0000
0000
0000
0000
0029
0000
0000
0017
0000
0000
0000
0013
0000
0000
0000
0000
0000
0000
FFFF
FFFF
FFFF
0000
FFFF
0000
0000
0000
005D
0000
0037
0000
0000
0000
0017
001D
0000
004F
0045
0000
0003
0000
0000
0019
0000
0000
0000
0000
FFFF
FFFF
0000
FFFF
FFFF
0000
0000
0000
0000
002D
0000
001B
001A
001C
0000
0001
0007
0071
0001
0037
0000
001C
0035
0009
0000
0000
0000
FFFF
FFFF
FFFF
0000
0000
0000
0000
0000
0000
0014
0000
0049
002E
0022
0000
0000
0047
0000
001C
0000
0072
0000
0000
000D
0000
0000
0000
0000
0000
0000
FFFF
FFFF
FFFF
0000
0000
0000
0000
0000
0040
0007
002C
0000
004B
000B
0000
0000
0000
0000
0028
0000
0020
0002
0000
0000
0000
0000
0000
0000
0000
0000
FFFF
FFFF
0000
0000
0000
0040
0000
0000
0008
0000
0028
0036
0000
006B
0000
0000
0025
0000
0000
001D
0000
0000
0000
FFFF
FFFF
FFFF
FFFF
0000
FFFF
0000
0000
0000
0018
0025
0054
0011
0028
0000
0099
0052
0000
0000
0026
0000
0000
0000
002A
0000
0000
0000
0000
0000
0000
0000
FFFF
0000
0000
0000
0000
0000
0000
0000
0043
0043
0007
001D
0000
0006
0000
0016
0000
0000
0031
0020
0038
0003
0000
0000
0000
FFFF
0000
FFFF
FFFF
0000
FFFF
FFFF
0000
0000
0012
0000
001B
0000
0025
001F
0011
001B
0000
0000
0038
0002
0006
0000
0000
0012
0013
0000
0000
0000
FFFF
0000
FFFF
0000
FFFF
0000
0000
0000
0002
0000
0035
002E
0000
0025
003F
0015
0000
0010
006E
001E
0008
0000
004C
0000
0000
0000
0000
0000
0000
0000
0000
0000
FFFF
FFFF
0000
0000
000F
000E
0018
003B
0024
0031
001E
0000
003B
0008
0000
0000
000E
005C
0010
0013
0000
0000
0000
0000
0000
FFFF
FFFF
0000
0000
0000
0000
0000
0000
0000
0000
0025
0000
0000
0006
0030
0007
0000
0033
0000
0004
0000
006A
0003
0000
0000
0000
0000
0000
FFFF
FFFF
FFFF
0000
0000
0000
0000
0012
0000
0000
0000
0000
0000
0000
0000
0000
0000
0007
0007
0000
0000
0016
0000
0000
0000
0000
0000
0000
0000
FFFF
0000
FFFF
0000
0000
0000
0000
0000
0029
0005
0000
0005
0000
0000
0000
0038
0000
004F
0002
0000
003C
0011
0000
0000
0000
0000
0000
0000
FFFF
0000
0000
FFFF
0000
0000
0000
0000
002F
0000
0000
0042
0000
0031
000F
0000
0002
0000
0000
0011
0034
0000
0000
0000
0000
FFFF
FFFF
0000
FFFF
0000
0000
0000
0000
0000
0000
0058
0000
002F
0000
0037
0025
0003
0000
003A
002A
0034
000F
002F
0000
0000
0000
0000
0000
0000
0000
FFFF
FFFF
FFFF
0000
0000
0000
0000
0000
0000
0032
0000
0000
0039
0000
0000
004A
0000
0000
0000
0047
0000
0000
0000
0000
FFFF
0000
FFFF
FFFF
0000
0000
0000
0000
FFFF
0000
0000
0000
0000
0000
0000
0000
0012
0062
0000
0046
0000
0016
0000
0000
0000
0000
0000
0000
0000
0000
FFFF
0000
0000
0000
FFFF
0000
FFFF
0000
0000
0000
FFFF
0000
0000
0000
0000
0000
0000
0000
0000
0000
0000
0000
0000
FFFF
0000
FFFF
FFFF
FFFF
FFFF
FFFF
FFFF
0000
FFFF
0000
FFFF
0000
FFFF
FFFF
0000
0000
0000
0000
0000
0000
0000
0000
0000
0000
0000
0000
FFFF
FFFF
0000
0000
FFFF
FFFF
0000
0000
FFFF
FFFF
0000
FFFF
FFFF
0000
FFFF
0000
FFFF
0000
0000
FFFF
0000
0000
0000
0000
0000
0000
0000
FFFF
FFFF
FFFF
0000
FFFF
FFFF
0000
0000
FFFF
0000
