0000
0000
FFFF
FFFF
FFFF
FFFF
FFFF
0000
FFFF
0000
FFFF
FFFF
FFFF
0000
FFFF
FFFF
0000
FFFF
FFFF
FFFF
FFFF
FFFF
FFFF
0000
FFFF
0000
FFFF
0000
FFFF
0000
0000
FFFF
0000
FFFF
0000
FFFF
0000
0000
FFFF
0000
0000
FFFF
FFFF
FFFF
0000
FFFF
FFFF
0000
FFFF
0000
FFFF
0000
FFFF
FFFF
FFFF
FFFF
FFFF
FFFF
FFFF
0000
0000
0000
FFFF
FFFF
0000
0000
FFFF
0000
0000
0000
0000
0000
0000
0000
0000
0000
FFFF
0000
0000
0000
0000
0000
FFFF
FFFF
FFFF
FFFF
FFFF
0000
FFFF
FFFF
0000
FFFF
FFFF
0000
0000
0000
0000
0000
0000
0000
0000
0000
0000
0000
0000
0000
0000
0000
0000
FFFF
FFFF
0000
FFFF
FFFF
FFFF
0000
FFFF
0000
0000
0000
0000
0000
0000
0000
0000
0000
003B
0000
0000
006E
0000
0000
0000
0000
0000
0000
0000
FFFF
FFFF
FFFF
0000
FFFF
FFFF
FFFF
0000
0000
0000
001E
0000
0005
001F
0029
0032
002F
0000
000B
001B
0000
0000
0000
0000
002A
0000
0000
FFFF
0038
FFFF
FFFF
0000
0000
FFFF
0000
0000
0000
0000
003D
0000
0000
0000
0000
0029
0000
001B
0000
002E
0000
0002
0032
0000
0037
0010
0000
0000
0000
FFFF
FFFF
FFFF
0000
0000
FFFF
FFFF
0000
0000
0029
0000
0023
0037
0000
0032
0000
0053
0000
0015
006A
0000
0089
000F
0000
0022
0000
0000
0000
0000
FFFF
FFFF
FFFF
FFFF
FFFF
0000
0000
0044
005D
0000
0000
007A
0000
0021
0026
0000
0049
0000
000E
0000
002B
001F
0000
0000
0000
0000
0000
0000
FFFF
FFFF
0000
FFFF
FFFF
0000
0000
0000
0000
0000
0000
0000
0000
002C
002D
001E
0028
004E
0040
0000
0000
0000
0000
003A
0000
0000
0000
FFFF
FFFF
FFFF
FFFF
0000
FFFF
0000
0000
0000
0024
0000
0000
0000
0015
0005
0010
000A
0000
0025
004A
0000
001B
0000
0001
0038
0000
0000
0000
FFFF
FFFF
FFFF
FFFF
FFFF
0000
0000
0000
0000
0025
0002
0026
0000
0000
003D
0000
0037
001A
0018
002F
0000
0000
0000
0000
0000
0000
0000
0000
0000
FFFF
0010
FFFF
FFFF
0000
0000
0000
0000
0000
0000
000D
003A
002D
0032
0012
0000
0002
0028
0000
002B
003D
0000
0029
001E
0000
0000
0000
FFFF
FFFF
FFFF
0000
FFFF
0000
0000
0000
0000
0067
0000
0000
0012
0026
000B
0015
002F
0000
0000
002A
0000
0000
0057
0000
0030
0025
0000
0000
0000
0000
FFFF
0000
0000
0000
0000
0000
0000
0030
0000
002F
0012
0052
0023
0000
0000
000C
0000
0000
0000
0000
0000
0000
0000
0000
0000
FFFF
0000
FFFF
FFFF
FFFF
FFFF
FFFF
0000
0000
0000
004E
004B
0000
0000
000D
0000
0000
0000
0008
0050
000A
002F
0000
008F
0015
0000
0000
0000
0000
FFFF
FFFF
FFFF
FFFF
FFFF
0000
0000
0001
0000
0007
0038
0035
0002
0033
0020
0028
001A
0050
0057
0060
0042
001A
0000
0000
0005
0000
0000
0000
001C
0000
FFFF
0000
FFFF
FFFF
0000
0000
0022
0000
001C
0054
000C
000E
0000
0016
0000
002F
0000
0070
0000
0000
0000
0000
0000
0000
0000
0000
0000
FFFF
FFFF
0000
FFFF
0000
0000
0002
001E
0000
0000
0008
0023
0000
0019
0002
0066
0000
001A
0000
0078
0015
0000
0000
0043
0000
0000
0000
0000
FFFF
FFFF
FFFF
FFFF
0000
0000
0000
0020
0043
0013
000F
0000
0009
0026
0000
0010
0000
0000
0000
0039
0000
0037
0007
0000
0000
0000
0000
0000
FFFF
FFFF
0000
FFFF
0000
0000
0022
0023
0073
0000
0000
0000
0000
0000
0000
0017
0015
0000
0032
007C
003B
0000
0000
0000
0002
0000
0000
0000
0000
FFFF
0000
FFFF
0000
0000
0000
0000
0024
0001
0000
0000
0022
0000
0000
002D
0009
0005
003C
0000
000A
0000
0000
0000
0000
0000
FFFF
FFFF
FFFF
FFFF
0000
0000
0000
0000
0000
0000
0000
0031
0018
0000
000D
0000
0000
0000
0000
0027
002F
0000
000B
0001
0017
0000
0000
0000
FFFF
0000
FFFF
FFFF
FFFF
0000
0000
0000
0000
0000
000F
0000
0009
000D
0029
0000
0043
0028
0067
0000
0000
0031
0000
0000
0000
0000
FFFF
FFFF
FFFF
FFFF
0000
FFFF
FFFF
FFFF
FFFF
0000
0000
0000
0000
0000
0000
000A
0000
0009
0000
0000
0000
0014
000C
0033
0008
0000
0000
0000
0000
FFFF
FFFF
0000
FFFF
0000
FFFF
FFFF
FFFF
0000
FFFF
0000
0000
0000
0000
004A
0000
0000
0000
0000
0000
0000
0000
0000
0000
0000
0000
FFFF
FFFF
FFFF
FFFF
FFFF
FFFF
0000
0000
FFFF
FFFF
0000
FFFF
0000
0000
0000
0000
0000
0000
0000
0000
0000
0000
0000
0000
0000
0000
FFFF
0000
0000
0000
FFFF
0000
FFFF
FFFF
FFFF
0000
FFFF
FFFF
FFFF
0000
0000
FFFF
0000
FFFF
FFFF
0000
0000
0000
0000
0000
0000
FFFF
FFFF
FFFF
FFFF
0000
FFFF
FFFF
0000
0000
FFFF
0000
