0000
FFFF
FFFF
FFFF
FFFF
FFFF
FFFF
0000
FFFF
FFFF
FFFF
FFFF
FFFF
0000
0000
FFFF
0000
FFFF
FFFF
FFFF
0000
0000
0000
0000
FFFF
0000
FFFF
0000
FFFF
0000
0000
FFFF
FFFF
FFFF
FFFF
FFFF
0000
0000
0000
0000
0000
FFFF
FFFF
FFFF
FFFF
0000
FFFF
0000
0000
0001
0000
0000
FFFF
FFFF
FFFF
FFFF
FFFF
FFFF
FFFF
0000
0000
0000
0000
FFFF
FFFF
0000
0000
0000
0000
0000
FFFF
0000
0000
0000
0000
0000
FFFF
0000
FFFF
0000
0000
002E
FFFF
FFFF
FFFF
0000
FFFF
0000
0000
FFFF
FFFF
0000
FFFF
0000
0000
0000
0000
0000
0000
0000
0000
0000
0000
0000
0000
0000
FFFF
FFFF
FFFF
FFFF
FFFF
0000
0000
0000
FFFF
0000
0000
0000
FFFF
0000
0000
0000
0000
0006
0000
000C
0018
0019
0000
0000
0000
0000
0015
0000
0000
FFFF
0000
FFFF
FFFF
0000
0000
FFFF
FFFF
0000
0000
0000
0000
0000
0000
0000
0000
0000
0021
003F
0029
0022
0000
0025
0000
000F
0060
0000
0000
0000
FFFF
FFFF
FFFF
FFFF
0000
0000
FFFF
0000
0000
0000
0000
0000
0000
002F
0015
0054
0023
0000
0018
0000
0000
0000
0068
0004
000D
0000
0004
0000
0000
0000
0000
FFFF
FFFF
0000
0000
FFFF
0000
FFFF
0000
0000
0025
0000
0000
002E
0038
0000
0018
0004
0000
0000
0000
0000
0015
0006
0000
0000
0000
0000
0000
0000
FFFF
0000
FFFF
FFFF
0000
0000
FFFF
0000
0000
0046
004D
0000
0000
0007
0027
0006
0023
0000
0007
0000
0000
0049
0000
0000
0000
0000
0000
FFFF
FFFF
0000
FFFF
0000
FFFF
FFFF
0000
000F
0000
0000
0007
004A
003A
0000
0000
0000
0015
0000
0000
0000
001D
000A
0000
0000
0000
0000
FFFF
0000
FFFF
0000
0000
0000
0000
0000
0000
0048
0036
0047
0034
0000
001C
0000
004A
0005
0056
0000
0010
0000
0000
0068
0000
0000
0000
0000
0000
FFFF
0000
0000
FFFF
0000
0000
0000
0030
0022
001E
0000
0012
004C
0000
0000
0040
0020
0000
0019
0008
001D
0002
0000
005E
0000
0000
0000
0000
0000
0000
FFFF
FFFF
0000
0000
0000
0000
000D
0032
0031
0012
006D
000F
0000
0000
002B
0000
0000
0037
0000
0000
0000
0000
0000
0000
FFFF
FFFF
FFFF
FFFF
FFFF
FFFF
0000
0000
0000
0000
0000
0002
0023
0000
002E
0000
0000
0000
0000
0000
0000
0000
0000
0011
004C
0000
0000
0000
FFFF
FFFF
0000
FFFF
FFFF
0000
0000
0000
0000
0000
0000
0014
0038
000E
0000
0018
0000
0000
0000
0000
0000
0010
0002
0000
0019
0000
0000
0000
FFFF
FFFF
0000
0000
FFFF
FFFF
FFFF
0000
0000
0002
0000
0054
0008
0000
0000
0039
0000
003C
0000
0017
0000
0069
002B
0000
0000
0000
0000
0000
0000
FFFF
0000
FFFF
0000
0000
0000
0000
0000
0000
0028
0000
0000
0044
0004
001A
001B
002E
0000
0030
001D
0000
0000
0012
000C
0010
0000
0000
0000
0000
0000
FFFF
0000
FFFF
FFFF
0000
0022
0000
0000
0000
0004
0030
0052
0000
0000
0000
0000
0000
000E
0000
0000
0000
0000
0000
0000
0000
0000
0000
FFFF
0000
FFFF
FFFF
0000
0000
0075
0023
0000
0044
0000
003C
000D
0000
003F
0000
0001
0000
0031
0025
0029
0007
0032
0000
0000
0000
0000
0000
FFFF
FFFF
FFFF
FFFF
0000
0000
0069
0000
0000
0000
0036
0017
0010
0000
0000
0033
003D
0001
0000
0000
0000
0000
0000
006D
0000
0000
0000
0000
0000
FFFF
0000
FFFF
0000
0000
0068
0000
0000
0025
0073
001B
0047
0000
0000
0000
0000
002D
0000
0007
0000
0033
0000
0000
0000
0000
0000
0000
0000
FFFF
FFFF
FFFF
0000
0000
0000
0000
0000
0000
005D
0000
0031
0000
0000
0000
0015
0000
0000
0044
0026
0007
0000
0000
0000
0000
FFFF
0000
0000
FFFF
0000
FFFF
FFFF
FFFF
0000
0000
0000
0000
0000
0040
0000
002C
0000
0095
0051
0000
001E
0046
0000
0000
0000
0000
0000
0000
FFFF
0000
FFFF
FFFF
0000
0000
FFFF
FFFF
0000
0000
0000
0004
0066
0000
0000
0000
0000
0000
0000
003A
0000
0000
0000
0000
0000
0000
0000
FFFF
0000
FFFF
0000
0000
0000
0000
FFFF
0000
0000
0000
0000
0000
0000
0000
0000
0000
0000
0000
0000
0000
0000
0000
0000
FFFF
0000
0000
0000
FFFF
FFFF
0000
0000
0000
FFFF
FFFF
FFFF
FFFF
FFFF
0000
0000
0000
0000
0000
0000
0000
0000
0000
0000
0000
0000
0000
0000
FFFF
0000
FFFF
0000
FFFF
0000
0000
FFFF
0000
0000
FFFF
0000
FFFF
0000
0000
0000
0000
0000
0000
FFFF
0000
0000
0000
0000
FFFF
0000
0000
0000
FFFF
0000
FFFF
FFFF
FFFF
0000
0000
FFFF
FFFF
0000
0000
0000
0000
0000
FFFF
FFFF
0000
FFFF
FFFF
FFFF
0000
FFFF
0000
0000
0000
FFFF
FFFF
FFFF
0000
0000
0000
FFFF
0000
0000
FFFF
0000
