0000
FFFF
FFFF
0000
FFFF
FFFF
FFFF
0000
FFFF
FFFF
FFFF
FFFF
FFFF
0000
FFFF
FFFF
0030
0000
FFFF
FFFF
0000
0000
FFFF
FFFF
FFFF
0000
FFFF
0000
FFFF
FFFF
0000
FFFF
0000
FFFF
FFFF
FFFF
0000
0000
FFFF
0000
0000
FFFF
FFFF
0000
0000
0000
FFFF
0000
0000
0000
FFFF
0000
FFFF
FFFF
FFFF
FFFF
FFFF
0000
FFFF
0000
0000
0000
0000
FFFF
0000
0000
FFFF
0000
0000
0000
FFFF
FFFF
0000
0000
0000
0000
FFFF
0000
0000
0000
0000
FFFF
FFFF
FFFF
FFFF
FFFF
FFFF
0000
0000
FFFF
0000
FFFF
0000
0000
FFFF
0000
0000
0000
0000
0000
0000
0000
FFFF
0000
0000
0000
0000
0000
0000
FFFF
0000
0000
0000
FFFF
FFFF
0000
FFFF
0000
FFFF
0000
0000
0000
0000
0000
0000
0000
0003
0000
0040
0004
0000
002F
0000
0000
0000
0000
0000
FFFF
FFFF
0000
0000
FFFF
FFFF
0000
FFFF
FFFF
0000
FFFF
0000
0000
0000
0000
0000
000C
0000
0000
0027
0003
0023
0000
002C
0000
0000
0000
0000
FFFF
FFFF
0000
0000
0000
FFFF
0000
FFFF
0000
0000
FFFF
0000
0000
0009
0000
0024
0024
0000
0000
0000
0000
0021
001F
0000
0000
0000
0000
0000
0000
FFFF
FFFF
FFFF
0000
0000
FFFF
0000
0000
0000
0000
0000
0007
0001
0000
0000
0000
004B
0018
001C
002E
000A
0000
0000
001A
0000
0000
0000
0000
0000
0000
0000
FFFF
FFFF
FFFF
0000
0000
0000
0000
001F
0032
0007
000C
0000
0000
0000
001E
0000
0000
0091
0005
0000
0000
0040
0000
0000
0000
0000
FFFF
0000
0000
FFFF
FFFF
FFFF
0000
0000
0000
0004
0000
0020
0000
0038
0037
0003
0000
0000
003F
0014
0000
0009
0000
001A
0000
0000
0000
FFFF
FFFF
0000
0000
0000
0000
0000
FFFF
0000
0000
0000
000E
0000
0000
0016
0000
000F
0023
0000
0000
0000
0000
0000
000D
0025
0000
0000
0000
0000
FFFF
FFFF
FFFF
FFFF
0000
0000
0000
0000
0027
0000
0000
0026
0068
0000
0048
0000
0000
0000
0000
0000
0000
0000
003A
0001
0023
0000
0000
0000
0000
0000
0000
0000
0000
0000
0000
0000
0000
0000
0000
0000
0000
0021
0000
0000
0000
0000
0000
0000
0025
0000
000B
0010
0000
0000
FFFF
FFFF
FFFF
FFFF
FFFF
FFFF
0000
0000
0000
0000
0000
0046
0000
0020
0000
0000
004A
000F
004A
0006
001F
0039
0000
003E
005D
0019
0000
0000
FFFF
FFFF
0000
FFFF
0000
0000
0000
0000
0000
000A
0006
0000
000E
000C
0000
0016
0027
0000
0000
0045
0000
0000
0000
0000
0014
001C
0008
0000
FFFF
FFFF
FFFF
0000
0000
FFFF
FFFF
0000
0000
0030
000F
0000
0000
0008
0000
0000
0000
004B
0000
0011
0000
0000
006E
0000
003D
0000
004E
0000
0000
FFFF
FFFF
FFFF
0000
0000
0000
0000
0000
0000
0000
0000
0019
002E
0000
0000
0000
0000
0000
001D
0032
0006
0054
0000
0057
000C
003B
0000
0000
0000
0000
FFFF
0000
0000
FFFF
0000
0000
0021
0000
0016
002C
0000
0000
0000
0000
0000
0027
0008
0000
0018
001A
0000
003F
0050
0000
0000
0000
0000
0000
0000
FFFF
FFFF
0000
0000
005B
0000
001A
002E
0000
004B
0000
0000
003A
0000
0026
0000
0000
0000
0001
0000
0000
0000
0000
0000
FFFF
FFFF
0000
FFFF
FFFF
0000
FFFF
0000
000C
001B
0032
004A
0000
001E
0022
0000
0000
0007
0029
0000
001E
0005
0000
0000
0000
0000
0000
0000
0000
FFFF
0000
FFFF
0000
FFFF
0000
0000
0038
000C
001D
0023
0000
0000
0006
0024
0033
0000
0000
0003
0000
002D
0000
004C
0000
0000
0000
0000
0000
FFFF
0000
FFFF
FFFF
0000
0000
0000
0000
0000
0000
0010
0000
001C
0000
0000
001B
0000
0000
0009
0000
003F
0006
002D
0000
0000
0000
0000
FFFF
FFFF
0000
0000
0000
0000
0000
0000
0000
0000
0036
0000
0000
005B
0040
0000
0029
0000
0000
0000
0000
0009
0000
0000
0000
0000
0000
0000
FFFF
0000
FFFF
FFFF
FFFF
0000
0000
0000
0000
0000
0000
0000
0000
0000
0056
0000
0000
001C
0000
0000
0000
0000
0000
0000
0000
0000
0000
FFFF
0000
FFFF
0000
0000
0000
0000
FFFF
0000
0000
0000
0000
0000
0000
0000
000B
0010
0062
0000
0000
0000
0000
0000
0000
0000
FFFF
0000
0000
0000
0000
0000
FFFF
0000
FFFF
FFFF
FFFF
0000
0000
0000
0000
0000
0000
0000
0000
0000
0000
0000
0000
FFFF
FFFF
0000
0000
0000
0000
FFFF
FFFF
FFFF
FFFF
0000
FFFF
0000
FFFF
FFFF
FFFF
0000
FFFF
FFFF
FFFF
0000
0000
0000
0000
0000
0000
0000
0000
0000
0000
0000
0000
0000
0000
FFFF
FFFF
FFFF
0000
0000
FFFF
0000
0000
FFFF
0000
0000
0000
FFFF
FFFF
0000
FFFF
FFFF
FFFF
0000
FFFF
0000
0000
0000
0000
FFFF
0000
0000
0000
FFFF
FFFF
0000
0000
FFFF
FFFF
