FFFF
0000
0000
FFFF
FFFF
FFFF
0000
0000
FFFF
0000
0000
FFFF
FFFF
0000
FFFF
0000
0000
0000
FFFF
FFFF
FFFF
FFFF
0000
0000
FFFF
0000
FFFF
0000
FFFF
0000
0000
FFFF
0000
FFFF
0000
FFFF
0000
FFFF
0000
0000
0000
FFFF
0000
0000
0000
FFFF
FFFF
FFFF
FFFF
0000
0000
0000
FFFF
FFFF
0000
0000
FFFF
FFFF
FFFF
0000
0000
0000
FFFF
0000
0000
0000
0000
0000
0000
0000
0000
0000
0000
0000
0000
0000
0000
0000
FFFF
0000
0000
0000
FFFF
FFFF
0000
FFFF
0000
0000
FFFF
FFFF
0000
0000
FFFF
0000
0000
0000
0000
0000
0000
0000
0000
0000
0000
0000
0000
0000
0000
0000
0000
0000
FFFF
0000
FFFF
0000
FFFF
0000
0000
0000
FFFF
0000
0000
0000
0000
001A
0000
0001
0000
0003
0000
0000
001F
0000
0000
0000
0000
0000
0000
FFFF
0000
0000
0000
FFFF
FFFF
0000
0000
0000
0000
0000
0000
0029
0003
0009
0034
0000
0000
0006
0000
0000
003E
001E
0014
0000
0000
0000
FFFF
0000
FFFF
FFFF
FFFF
FFFF
0000
FFFF
0000
0000
0000
0000
0000
0000
00B0
0000
0015
0003
008C
000F
0003
0008
0000
0003
004F
0000
0009
0000
0000
0000
FFFF
0000
FFFF
FFFF
FFFF
0000
FFFF
0000
0000
0025
0000
0000
0000
0000
0000
0000
001B
0000
0032
002A
0000
001D
0029
003D
0000
0000
0000
0000
0000
0000
FFFF
FFFF
0000
FFFF
0000
0000
0000
0034
0024
002E
0000
0021
0000
0000
0000
0000
0000
0000
0000
0000
0000
0000
0000
0000
FFFF
0000
0000
FFFF
0000
0000
FFFF
FFFF
0000
0000
0000
000C
0000
0000
001A
0007
0000
0037
0000
000F
0000
0000
0004
0000
0000
0000
0000
0000
0000
0000
FFFF
0000
FFFF
FFFF
0000
FFFF
0000
0000
0000
0000
0000
003C
0000
0000
0005
0000
0000
0000
0019
0000
0000
0000
0000
0000
0000
0000
0000
0000
0000
0000
FFFF
FFFF
FFFF
0000
0000
0000
0003
0000
0000
0000
0000
0000
0000
003B
0000
0000
004E
0000
0000
0000
0042
000E
0000
0000
0000
0000
0000
FFFF
0000
0000
FFFF
FFFF
0000
0000
0000
0000
0000
0000
0018
0000
000A
0039
0023
001E
0000
0009
0015
0000
0000
0000
0000
0000
0000
FFFF
FFFF
0000
FFFF
0000
0000
FFFF
0000
0000
0000
0001
0000
0000
0000
0000
0000
0019
004C
0000
0000
0000
0000
002F
005B
0000
0000
0000
0000
FFFF
FFFF
FFFF
FFFF
0000
0000
0000
0000
0000
0000
0010
0000
000F
0035
0000
0000
0000
0000
004E
006D
0000
000F
0000
001E
0000
0000
0000
0000
0000
0000
FFFF
FFFF
FFFF
FFFF
FFFF
0000
0000
0000
0051
0011
0000
007D
0026
0000
0009
0039
0000
0000
0037
0005
0000
001C
0000
0000
0000
0000
0000
FFFF
0000
FFFF
FFFF
0000
FFFF
0000
0000
0000
0000
0000
0000
0000
0000
0037
0006
0000
0000
005B
0000
0035
0000
004C
001A
0000
0000
0000
0000
0000
FFFF
0000
0000
FFFF
FFFF
0000
0000
0015
0003
0000
0000
0062
002C
0000
0089
0000
0000
0000
0000
0031
0031
0000
0000
0000
0000
0000
0000
FFFF
FFFF
FFFF
0000
FFFF
0000
0000
0000
0049
0000
0000
0000
0000
0010
0000
0008
0008
000F
0000
0027
0000
0031
0046
005D
001A
0000
0000
0000
0000
FFFF
FFFF
FFFF
FFFF
0000
0000
0000
0000
000C
000F
0044
0036
0000
0010
001F
0000
0000
0000
0026
0000
0000
0024
0000
0000
0000
0000
0000
0000
FFFF
FFFF
0000
FFFF
0000
0000
0000
0000
0065
0000
0000
0000
003D
0046
001F
0000
0000
002F
0000
0000
0034
0013
0000
001A
0000
0000
0000
0000
0000
FFFF
0000
FFFF
0000
0000
0000
008C
0000
0000
0000
0000
0000
0000
0006
0000
0000
0002
0000
0000
0025
000A
0000
0000
0000
0000
FFFF
0000
FFFF
FFFF
0000
0000
0000
0000
0000
0000
0002
0000
0004
0030
002A
0000
0000
0000
004F
0000
001B
0015
004B
0000
0000
0000
0000
0000
0000
0000
FFFF
FFFF
FFFF
0000
0000
0000
0000
0000
0000
0037
0000
0000
0000
0054
0037
0027
0064
0000
0000
003D
0000
0000
0000
0000
0000
0000
0000
FFFF
0000
FFFF
FFFF
FFFF
FFFF
FFFF
0000
0000
0000
0000
0000
0000
0000
0000
0000
0000
001A
0000
0000
0000
0000
FFFF
0000
0000
0000
FFFF
0000
0000
0000
0000
FFFF
0000
FFFF
FFFF
0000
0000
FFFF
0000
0000
0000
0000
0000
0000
0000
0000
0000
0000
0000
FFFF
FFFF
0000
FFFF
FFFF
FFFF
0000
0000
0000
0000
FFFF
0000
FFFF
0000
0000
FFFF
0000
0000
FFFF
FFFF
0000
FFFF
FFFF
0000
0000
FFFF
0000
FFFF
FFFF
FFFF
0000
FFFF
FFFF
FFFF
0000
FFFF
FFFF
FFFF
0000
0000
0000
FFFF
0000
0000
FFFF
0000
FFFF
FFFF
0000
0000
0000
0000
0000
0000
FFFF
FFFF
FFFF
FFFF
FFFF
FFFF
FFFF
0000
0000
FFFF
0000
