FFFF
FFFF
FFFF
0000
FFFF
FFFF
FFFF
0000
FFFF
0000
0000
FFFF
FFFF
0000
0000
0011
0000
FFFF
FFFF
FFFF
0000
FFFF
FFFF
0000
FFFF
0000
FFFF
0000
FFFF
0000
0000
0000
0000
FFFF
0000
FFFF
0000
0000
FFFF
0000
0000
FFFF
000B
FFFF
FFFF
0000
FFFF
FFFF
FFFF
0000
FFFF
0000
FFFF
FFFF
FFFF
FFFF
FFFF
FFFF
FFFF
0000
0000
0000
0000
0000
FFFF
0000
FFFF
0000
0000
0000
FFFF
0000
0000
0000
0000
0000
FFFF
FFFF
FFFF
0000
FFFF
0000
FFFF
FFFF
0000
0000
0000
FFFF
FFFF
FFFF
FFFF
0000
FFFF
0000
0000
0000
0000
0000
0000
0000
0000
0000
FFFF
0000
0000
0000
0000
0000
0000
0000
0000
0000
FFFF
FFFF
FFFF
FFFF
FFFF
0000
FFFF
0000
0000
0000
0000
0000
000C
0005
0021
0033
0000
0000
0000
0000
0000
0000
0000
0000
0000
FFFF
0000
FFFF
0000
FFFF
0000
0000
FFFF
0000
FFFF
FFFF
0000
0000
0000
0000
0000
002B
0000
0000
0004
0000
0000
0002
0006
0000
0000
0000
0000
FFFF
FFFF
0000
FFFF
0000
FFFF
0000
FFFF
FFFF
0000
0000
0009
0000
0000
0034
003F
0000
0000
0000
0025
0000
0017
0000
001B
000C
0000
0000
0000
0000
0000
0000
FFFF
FFFF
0000
FFFF
0000
0000
0000
0000
0035
003F
000C
0000
0018
0006
004A
002F
0025
0000
000D
0008
0000
0000
0000
0000
0000
FFFF
0000
FFFF
FFFF
FFFF
FFFF
FFFF
0000
0000
0000
0000
0000
0000
0000
0000
0049
0000
0000
0000
0002
0000
0018
002D
0006
0021
0000
0000
0000
0000
0000
FFFF
FFFF
0000
FFFF
FFFF
0000
0000
0000
0000
0000
002A
0033
0016
0000
0028
0002
0000
000A
0007
0019
0000
002F
0000
0000
0000
0000
0000
FFFF
FFFF
FFFF
0000
0000
0000
0000
0000
0000
0049
0039
0012
0000
0010
0002
0000
0000
0000
0000
0000
0000
003E
0000
0000
0000
0000
0000
0000
0000
FFFF
FFFF
FFFF
FFFF
0000
0000
0000
0007
001D
001E
0000
0000
0055
004D
0000
0000
004E
0036
0000
0026
0016
0005
0000
0000
0000
0000
0000
0000
FFFF
0000
FFFF
FFFF
FFFF
0000
0000
0000
0030
0000
000C
0052
0000
0000
0000
0000
0036
0000
0000
002E
0000
0000
0000
0000
0000
0000
FFFF
FFFF
FFFF
FFFF
0044
FFFF
0000
0000
0000
0000
0000
003F
0000
0000
0000
0000
0015
0041
004D
002A
0021
0000
0000
0000
0000
0000
0000
0000
FFFF
FFFF
0000
FFFF
0000
0000
0000
0000
0000
0000
0012
0000
0000
0000
003F
0009
0000
0037
0037
0047
000A
0000
0000
0004
0000
0000
0000
0000
006A
FFFF
FFFF
FFFF
0000
FFFF
FFFF
0000
0000
004B
0033
0000
0007
0013
0000
0015
0000
0027
0048
0010
0000
0052
0000
0000
0000
0000
0000
0000
0000
FFFF
0000
FFFF
0000
FFFF
0000
0000
0000
0000
004C
0000
0000
000F
000F
0013
0007
0000
0000
003F
0015
0039
0000
0000
0000
0000
0000
0000
0000
0000
FFFF
0000
0000
FFFF
FFFF
0000
0000
0000
001F
0000
0033
004C
0000
0000
0003
0000
0014
0000
0000
0026
0000
0044
000B
0000
0000
0000
0000
0000
FFFF
0000
0000
FFFF
0000
0000
0000
0000
0000
0045
0000
0000
0000
0014
0000
0000
0007
0000
0000
002B
0000
0058
0028
0000
0000
0000
0000
0000
0000
FFFF
FFFF
FFFF
FFFF
0000
0000
0000
0000
0000
0079
0010
000C
0015
0000
0021
0033
0000
000E
0000
0010
0003
0000
0019
0000
0000
0000
0000
0000
FFFF
0000
FFFF
0000
0000
0000
0000
0000
0000
0000
000C
0000
0000
0009
002C
0022
003B
0026
0021
001F
0044
0000
0000
0000
0000
0000
0000
0000
FFFF
FFFF
0000
FFFF
0000
0000
0000
0003
0000
000C
0006
004C
0000
0000
002F
0004
0000
0000
002F
0060
001E
0000
0000
0000
0000
FFFF
FFFF
0000
0000
0000
0000
0000
0000
0000
0000
0000
0000
0000
0000
002A
0000
0026
0029
0000
0000
0000
0000
0000
002B
0000
0000
0000
0000
0000
0000
FFFF
FFFF
FFFF
0000
0000
0000
0000
0000
0000
0046
0000
0015
0000
0020
0024
0000
000D
000B
0000
0034
0002
0000
0000
0000
0000
0000
0000
FFFF
0000
0000
0000
0000
FFFF
0000
0000
0000
0000
0000
0016
0041
000C
0068
008C
0000
0000
0038
0000
0000
0000
0000
FFFF
0000
0000
FFFF
FFFF
0000
FFFF
0000
FFFF
0000
FFFF
FFFF
0000
0000
0000
0000
0000
0000
0000
0000
0000
0000
0000
0000
0000
0000
0000
0000
0000
FFFF
FFFF
0000
FFFF
FFFF
FFFF
0000
FFFF
0000
FFFF
0000
FFFF
0000
0000
0000
0000
0000
0000
0000
0000
0000
0000
0000
0000
0000
0000
FFFF
0000
FFFF
FFFF
FFFF
0000
FFFF
FFFF
FFFF
0000
FFFF
FFFF
FFFF
FFFF
0000
FFFF
0000
FFFF
FFFF
0000
0000
0000
0000
0000
0000
FFFF
FFFF
FFFF
0000
FFFF
FFFF
FFFF
0000
0000
FFFF
0000
