0000
0000
FFFF
FFFF
FFFF
FFFF
0000
0000
FFFF
0000
FFFF
FFFF
FFFF
0000
0000
FFFF
0000
FFFF
FFFF
FFFF
0000
FFFF
FFFF
0000
0000
0000
FFFF
0000
FFFF
0000
0000
FFFF
0000
FFFF
0000
FFFF
0000
0000
0000
0000
0000
FFFF
FFFF
FFFF
FFFF
FFFF
FFFF
0000
FFFF
0000
0000
0000
0000
0000
FFFF
0000
FFFF
FFFF
FFFF
0000
0000
0000
FFFF
FFFF
FFFF
0000
0000
0000
0000
0000
0000
0000
0000
0000
0000
0000
FFFF
0000
FFFF
0000
FFFF
0000
FFFF
FFFF
0000
0000
0000
0000
FFFF
FFFF
FFFF
0000
FFFF
0000
0000
0000
0000
0000
0000
0000
0000
0000
FFFF
0000
0000
0000
0000
0000
0000
FFFF
FFFF
0000
0000
0000
0000
0000
0000
0000
0000
0000
0000
0000
0000
0048
0005
002F
0000
0000
0005
0036
0069
0000
0000
0000
0000
0000
0000
FFFF
FFFF
0000
0000
FFFF
FFFF
0000
0000
0000
0000
0000
001C
003C
0000
0000
0000
003B
0000
0000
005C
0000
0047
0000
001D
0000
0000
0000
FFFF
FFFF
FFFF
FFFF
0000
FFFF
FFFF
FFFF
0000
0000
0000
0020
0000
008C
0043
0045
0000
0000
0000
0005
0004
0000
0000
0000
0039
0008
0000
0000
0000
0000
0000
0000
FFFF
0000
FFFF
FFFF
FFFF
0000
0000
0000
0003
0000
0032
0003
0000
0000
0032
0030
0030
0012
0000
0000
0004
0003
0015
0000
0000
0000
0000
0000
FFFF
0000
FFFF
FFFF
0000
0000
0000
0000
0000
0029
002F
0000
0000
000A
0000
0016
000D
003C
0000
000D
0028
0054
0010
0000
0000
0000
0000
FFFF
FFFF
0000
FFFF
FFFF
0000
0000
0000
0000
0000
0026
0000
0000
0000
0000
0000
0018
006F
0000
0070
002C
0000
0071
0028
0000
0000
0000
FFFF
FFFF
FFFF
0000
0000
0000
0000
0000
0000
0000
0000
0000
005A
000E
0052
0000
0030
0000
0014
0000
0000
0012
0000
0000
0000
0000
0000
0000
0000
0000
0000
FFFF
FFFF
0000
0000
0000
001F
0017
0009
0000
0000
001B
0000
0014
0000
0018
0000
001B
0000
001E
0000
0000
000E
0000
0000
0000
0000
FFFF
0000
FFFF
FFFF
0000
0000
0000
0000
0000
004D
0000
0028
0000
0000
0092
0000
0010
0000
0000
003D
0040
0011
000E
004F
003A
0000
FFFF
FFFF
FFFF
FFFF
0000
FFFF
0000
0000
0000
003C
0051
0018
0020
0044
0009
0000
0000
006E
0000
0000
0000
000B
0031
0000
001A
001C
0000
0000
FFFF
FFFF
0000
FFFF
0000
0000
0000
0000
0000
001C
0035
0052
0000
0058
000D
0013
0000
0000
0000
0000
0000
0046
0000
002D
0039
0000
0000
0000
FFFF
0000
0000
0000
FFFF
FFFF
FFFF
0000
0000
0000
003A
0000
0000
0000
0003
0028
003E
0023
0000
0020
0000
0000
0019
0040
0000
000C
0000
0000
0000
FFFF
0000
FFFF
0000
0000
0000
0000
0000
0000
003D
0000
0015
002B
0022
0000
0010
0017
0007
0039
000A
0000
005C
0000
0000
000B
0035
0000
0000
0000
0000
0000
0000
FFFF
FFFF
0000
001A
0000
0000
0000
0000
0059
000A
0000
0000
000B
0000
0000
0061
0000
0041
0089
0022
0000
0000
0000
0000
0000
FFFF
0000
FFFF
FFFF
0000
0000
0000
000E
0000
0000
0000
0024
0000
0002
000E
0074
0000
0022
0000
0017
0000
006A
0044
0000
0000
0000
0000
0000
FFFF
FFFF
FFFF
FFFF
0000
0000
0000
0000
0000
0034
0000
0000
001F
004E
001F
0016
0000
0016
000A
0012
0002
0000
0027
0000
0000
0000
0000
0000
0000
FFFF
0000
FFFF
0000
0000
0021
0000
0000
0000
004F
002E
0000
0000
0000
0020
0000
0000
0074
0000
0000
0000
0000
0004
0000
0000
0000
0000
0000
FFFF
0000
FFFF
0000
0000
0000
0000
0000
0000
0006
0043
0000
002B
0000
0000
000B
0026
0000
0000
002E
0000
0000
0000
0000
0000
FFFF
0000
0000
FFFF
0000
0000
0000
0000
0000
0000
0000
0000
0000
0000
005B
0072
0000
0000
0016
0000
0000
0067
001C
0000
0000
0000
0000
0000
0000
0000
FFFF
FFFF
FFFF
0000
0000
0000
0000
0000
0000
0000
0047
0021
0013
003E
0000
0000
0009
0014
001F
0000
0000
0000
0000
FFFF
FFFF
FFFF
0000
FFFF
0000
0000
0000
0000
FFFF
0000
0000
0000
0000
0000
0000
0000
0000
0000
0000
003F
0049
0017
0000
0000
0000
FFFF
0000
0000
0000
FFFF
FFFF
0000
FFFF
0000
FFFF
FFFF
FFFF
FFFF
0000
0000
0000
0000
0000
0000
0000
0000
0000
0000
0000
0000
0000
0000
0000
0000
0000
FFFF
FFFF
FFFF
FFFF
0000
FFFF
0000
0000
FFFF
FFFF
0000
0000
0000
FFFF
0000
0000
0000
0000
0000
0000
0000
0000
FFFF
0000
0000
0000
FFFF
0000
0000
0000
FFFF
0000
0000
FFFF
FFFF
0000
0000
0000
FFFF
0000
0000
FFFF
0000
FFFF
FFFF
0000
0000
0000
0000
0000
0000
FFFF
FFFF
FFFF
FFFF
0000
FFFF
FFFF
0000
0000
FFFF
FFFF
