FFFF
FFFF
FFFF
0000
FFFF
FFFF
FFFF
0000
FFFF
0000
FFFF
FFFF
FFFF
0000
0000
FFFF
0000
0000
FFFF
FFFF
0000
FFFF
FFFF
0000
FFFF
0000
FFFF
0000
FFFF
004E
FFFF
0000
0000
FFFF
0000
FFFF
0000
0000
FFFF
0000
0000
FFFF
FFFF
FFFF
FFFF
0000
FFFF
FFFF
FFFF
0000
FFFF
0000
FFFF
FFFF
FFFF
FFFF
FFFF
FFFF
FFFF
0000
0000
0000
0000
FFFF
FFFF
0000
FFFF
0000
0000
0000
0000
0000
0000
0000
0000
0000
FFFF
0000
FFFF
0000
FFFF
0000
FFFF
FFFF
FFFF
0000
FFFF
FFFF
FFFF
FFFF
FFFF
0000
0000
0000
0000
0000
0000
0000
0000
0000
0000
0000
0000
0000
0000
0000
0000
0000
FFFF
FFFF
FFFF
0000
0000
0000
FFFF
FFFF
0000
0000
FFFF
0000
0000
0000
0000
0000
003A
0034
0000
0063
0000
0000
0000
0000
0000
0000
0000
0000
0000
FFFF
FFFF
FFFF
0000
FFFF
FFFF
FFFF
0000
0000
0000
0000
0000
0000
0000
0000
0000
0000
0000
0000
0000
0000
0000
0000
0000
0000
0000
0000
FFFF
FFFF
FFFF
FFFF
FFFF
0000
FFFF
0000
0000
0000
0000
0000
0000
0000
0020
0076
0000
001F
0025
0014
0000
0000
0001
0000
001B
0000
0000
0000
0000
0000
FFFF
FFFF
FFFF
0000
0000
FFFF
FFFF
0000
0000
0000
0000
0000
0025
0000
0000
0000
0000
0000
003C
0000
0036
0000
0000
0008
0000
0000
0000
0000
0000
FFFF
FFFF
FFFF
FFFF
FFFF
0000
0000
FFFF
0000
0000
0042
0000
001A
0000
0033
0000
0018
0000
0000
0000
0000
0010
000C
0000
0000
0000
0000
0000
FFFF
FFFF
0000
FFFF
FFFF
0000
0000
0000
0020
0000
0026
0000
0050
0018
000E
0009
0000
0014
0005
0000
0000
0000
0000
0000
0000
0000
0000
FFFF
FFFF
FFFF
0000
0000
0000
0000
0000
0000
0000
004D
0012
0024
0012
000B
000D
001B
0022
0009
002B
001C
001C
0000
0008
0003
0000
0000
0000
0000
FFFF
FFFF
FFFF
FFFF
0000
0000
0000
0011
0067
0000
000D
0000
0000
0000
003F
0000
0000
0000
0004
0000
0006
0003
0000
002D
0000
0000
0000
0000
FFFF
0000
FFFF
FFFF
FFFF
0000
0000
001A
0000
003C
0000
0007
0000
0000
0015
0000
0046
0014
0000
0023
000E
0021
0000
0000
0000
0000
FFFF
FFFF
FFFF
FFFF
FFFF
FFFF
0000
0000
0000
0000
0074
002F
0000
0000
0000
0000
0000
0000
0051
0000
0000
0000
0000
003C
0000
0000
0000
0000
FFFF
FFFF
0000
FFFF
0000
0000
0000
0000
0000
0000
0000
0000
000B
000F
0000
0012
0029
0000
0000
0038
006A
0000
000E
0055
0000
0000
003C
0000
FFFF
0000
FFFF
FFFF
FFFF
FFFF
FFFF
0000
0000
0000
0000
002A
0023
0040
0034
0024
006D
0000
0000
0000
0000
0000
0024
003E
0000
0000
0000
0000
0000
FFFF
0000
FFFF
0000
FFFF
0000
0000
0000
0000
000D
0000
0000
0000
0000
0015
0020
0000
003B
0003
0000
0042
0000
0000
001A
0000
0000
0000
0000
0000
0000
FFFF
0000
FFFF
FFFF
0000
0000
000F
0000
0017
0000
002D
0000
001E
0058
0036
0000
000C
0000
0000
0000
004A
0000
0000
0000
0000
0000
0000
FFFF
0000
0000
FFFF
0000
0000
0000
0000
0000
002B
0000
0000
0000
0000
002C
004E
0014
0024
0000
002D
0022
0088
0000
0018
0000
0000
0000
0000
FFFF
FFFF
FFFF
FFFF
FFFF
0000
0000
0000
0021
0000
0043
0000
0000
004C
0000
0007
0025
0000
0000
0000
001D
0000
0034
0000
0000
0000
0000
0000
0000
FFFF
0000
FFFF
0000
0000
0000
0000
0000
0000
0000
0000
0012
005E
0000
0000
0000
0000
0000
0021
0000
0000
0011
0000
0000
0000
0000
0000
0000
FFFF
FFFF
0000
0000
0000
0000
0000
001F
005B
0000
0034
0000
0045
0020
0000
0007
0000
0000
0000
0047
0000
0000
0000
0000
0000
FFFF
FFFF
0000
FFFF
0000
0000
0000
0000
0000
0000
0000
001C
0008
0000
0026
000C
0000
0008
0035
0000
0000
0008
0077
0017
0000
0000
0000
0000
FFFF
0000
FFFF
FFFF
FFFF
0000
0000
FFFF
0000
0000
0000
0000
0000
0000
0050
0040
0000
0039
0032
0048
0000
0000
0000
0000
0000
0000
0000
FFFF
FFFF
FFFF
0000
0000
0000
0000
FFFF
0000
0000
0000
0000
0000
0000
006D
0004
001B
0000
0000
0000
0004
0000
0000
0000
FFFF
0000
0000
0000
FFFF
FFFF
0000
FFFF
0000
FFFF
FFFF
FFFF
FFFF
FFFF
0000
0000
0000
0000
0000
0000
0000
0000
0000
0000
0000
0000
0000
0000
FFFF
0000
FFFF
0000
FFFF
FFFF
FFFF
FFFF
0000
FFFF
FFFF
FFFF
0000
FFFF
0000
0000
0000
0000
0000
0000
0000
0000
0000
0000
0000
0000
FFFF
0000
FFFF
0000
0000
FFFF
FFFF
0000
FFFF
FFFF
FFFF
0000
FFFF
FFFF
FFFF
0000
0000
FFFF
0000
FFFF
FFFF
0000
0000
0000
0000
0000
0000
0000
FFFF
FFFF
0000
0000
FFFF
FFFF
0000
0000
FFFF
0000
