FFFF
0000
0000
FFFF
FFFF
FFFF
FFFF
0000
FFFF
0000
FFFF
FFFF
FFFF
0000
FFFF
FFFF
0000
FFFF
FFFF
FFFF
FFFF
FFFF
0000
0000
FFFF
0000
0000
0000
FFFF
0000
0000
0000
0000
FFFF
0000
FFFF
0000
0000
FFFF
0000
0000
FFFF
FFFF
FFFF
FFFF
0000
FFFF
0000
FFFF
0000
FFFF
0000
FFFF
FFFF
FFFF
0000
FFFF
0000
FFFF
0000
0000
0000
FFFF
FFFF
FFFF
0000
0000
0000
0000
0000
FFFF
FFFF
0000
0000
0000
0000
FFFF
0000
0000
0000
0000
FFFF
FFFF
FFFF
FFFF
0000
FFFF
FFFF
FFFF
FFFF
0000
0000
FFFF
0000
0000
0000
0000
0000
0000
0000
0000
0000
FFFF
0000
0000
0000
0000
0000
0000
0000
0000
0000
FFFF
FFFF
FFFF
FFFF
FFFF
0000
0000
0000
0000
0000
0000
0000
0000
0049
0047
0000
0057
0000
0020
0000
0000
0000
0000
0000
0000
FFFF
FFFF
FFFF
0000
FFFF
0000
FFFF
0000
0000
0000
0000
0000
0000
0000
0000
0026
0000
0000
0022
0011
001B
002D
001F
0003
0000
0000
0000
FFFF
FFFF
FFFF
0000
FFFF
0000
FFFF
0000
0000
0000
0000
0000
0000
0000
0000
0000
0000
0000
0042
0000
0000
002E
0000
0000
0000
006B
0000
0000
0000
0000
0000
FFFF
FFFF
0000
0000
FFFF
FFFF
0000
FFFF
0000
0000
0014
0012
0000
0000
0000
0005
0000
0003
0000
0000
0000
0000
0014
0069
0000
0000
0000
0000
FFFF
FFFF
FFFF
FFFF
FFFF
0000
0000
FFFF
0000
001C
0000
0000
0000
0007
0039
001B
0051
0000
0030
0000
0021
0000
0004
0000
0000
0000
0000
0000
FFFF
FFFF
0000
FFFF
FFFF
FFFF
FFFF
FFFF
0000
000D
0000
0043
0000
0000
006B
0000
001F
0027
0028
0000
0000
0023
0000
000D
0000
0000
0000
FFFF
0000
FFFF
0000
0000
FFFF
0000
FFFF
0000
0000
0004
0000
0012
004C
0000
001B
0012
000D
003C
0048
0029
0019
0000
0000
0000
0000
0000
0000
0000
0000
FFFF
FFFF
FFFF
0000
0000
0000
0000
0000
000F
0000
0061
0000
0000
0047
0000
0000
0000
0039
000D
0000
0023
0000
0024
0000
0000
0000
0000
FFFF
0000
0000
FFFF
FFFF
0000
0000
002F
0000
0000
0000
0007
0000
0038
0000
0000
00AF
0000
0000
0000
001A
0000
0000
002E
0000
0000
FFFF
FFFF
FFFF
0000
0000
0000
0000
FFFF
0000
0017
003B
0070
005B
000B
0000
0000
0000
0000
0000
005D
0000
0015
0000
0003
0000
001F
0000
0000
FFFF
FFFF
0000
FFFF
0000
0000
0000
0000
0000
003F
0034
0034
0020
002D
0028
0009
0000
0000
0000
0000
001D
0027
001B
0040
0058
0002
0013
0000
FFFF
0000
FFFF
FFFF
0000
FFFF
FFFF
0000
0000
0000
0073
0000
0000
0050
0000
0000
0035
004C
002D
0000
001C
0000
0000
0000
0017
0000
0000
0000
0000
FFFF
0000
0000
0000
FFFF
0000
0000
0000
003D
0000
0049
0008
0000
001F
0000
0000
000F
0025
0000
001C
0000
0001
0000
0030
000A
0001
0000
0000
0000
0000
FFFF
0000
FFFF
FFFF
0000
0000
001E
0034
0030
0000
0000
0000
007D
0000
000F
0000
0000
0000
0000
0000
0000
0000
0021
0000
0000
0000
0000
FFFF
FFFF
FFFF
FFFF
0000
0000
0042
0000
0000
0000
0005
0022
002F
0000
0000
0000
0044
000C
0000
0000
0047
0000
0000
0000
0000
0000
0000
FFFF
FFFF
FFFF
FFFF
FFFF
FFFF
0000
0000
0000
0000
0016
0009
0000
0000
0001
0000
0018
0000
0000
0001
0000
0000
0000
0000
0000
0000
0000
FFFF
FFFF
0000
FFFF
0000
FFFF
0000
0000
0000
0000
0000
0000
0000
0000
0013
000C
0000
0000
0022
001B
003F
0000
0044
0000
0000
0000
0000
0000
0000
0000
0000
FFFF
0000
0000
FFFF
0000
0000
0059
0000
0000
0003
0000
0000
0000
0007
0025
0000
003D
0001
0064
0000
0000
0000
0000
0000
0000
FFFF
FFFF
0000
FFFF
0000
0000
0000
0000
FFFF
0000
0003
000C
0000
0000
0000
0000
001A
0000
0028
0022
0000
000B
0000
0000
0000
0000
0000
0000
FFFF
0000
FFFF
FFFF
FFFF
0000
0000
0000
0000
0000
0000
0000
0000
004C
0000
001F
0000
0000
000F
0001
001A
0000
0000
FFFF
0000
0000
0000
FFFF
FFFF
FFFF
0000
0000
0000
0000
FFFF
0000
0000
0000
0000
0000
001D
0000
0012
0000
0000
0000
0000
0000
0000
0000
0000
0000
0000
0000
0000
0000
FFFF
0000
0000
0000
FFFF
FFFF
0000
0000
0000
0000
0000
0000
0000
0000
0000
0000
0000
0000
0000
0000
0000
0000
0000
0000
0000
FFFF
0000
0000
0000
FFFF
0000
0000
0000
FFFF
0000
FFFF
FFFF
0000
0000
0000
0000
0000
0000
0000
0000
0000
0000
0000
0000
0000
0000
FFFF
0000
0000
FFFF
FFFF
0000
0000
FFFF
FFFF
0000
FFFF
FFFF
FFFF
0000
0000
FFFF
0000
FFFF
FFFF
0000
0000
FFFF
0000
FFFF
0000
FFFF
FFFF
FFFF
FFFF
0000
FFFF
FFFF
0000
0000
FFFF
0000
