0000
FFFF
FFFF
FFFF
FFFF
FFFF
FFFF
0000
FFFF
FFFF
0000
FFFF
FFFF
0000
FFFF
FFFF
0000
FFFF
FFFF
FFFF
FFFF
FFFF
0000
0000
FFFF
0000
FFFF
0000
FFFF
0000
FFFF
FFFF
0000
FFFF
0000
FFFF
0000
0000
FFFF
0000
0000
FFFF
FFFF
FFFF
FFFF
0000
FFFF
0000
FFFF
0000
FFFF
0000
FFFF
FFFF
FFFF
FFFF
FFFF
FFFF
FFFF
0000
0000
0000
FFFF
FFFF
FFFF
0000
FFFF
0000
0000
0000
FFFF
FFFF
FFFF
0000
0000
0000
FFFF
FFFF
FFFF
0000
FFFF
FFFF
FFFF
FFFF
0000
FFFF
0000
0000
FFFF
FFFF
0000
0000
FFFF
0000
0000
0000
0000
0000
0000
0000
0000
FFFF
0000
FFFF
0000
FFFF
FFFF
FFFF
0000
0000
FFFF
0000
FFFF
0000
FFFF
FFFF
0000
0000
0000
0000
0000
0000
0000
0000
0000
0000
000D
0000
0000
0000
0000
0000
0000
0000
0000
0000
0000
FFFF
FFFF
FFFF
0000
FFFF
FFFF
FFFF
0000
0000
0000
0000
001D
0000
0022
0000
0000
006C
001A
0000
000F
0000
0006
0024
0000
0000
0000
0000
0000
FFFF
FFFF
FFFF
0000
0000
FFFF
0000
0000
0000
0000
0000
0040
000D
0014
0000
0000
0000
0000
0000
0026
0000
0000
0044
000C
0019
0000
0000
0000
0000
FFFF
0000
FFFF
0000
0000
0000
FFFF
0000
0000
002D
0060
0000
0018
0000
002A
004C
0000
006A
0029
0000
0000
0000
0000
0000
0000
0000
0000
0000
0000
FFFF
FFFF
FFFF
0000
FFFF
0000
0000
0000
0000
0008
0000
006B
0003
0000
0000
0001
0000
0051
0000
0000
0000
0009
0034
002D
0007
0000
0000
0000
FFFF
FFFF
0000
FFFF
FFFF
0000
0000
0000
001D
0000
0000
0064
0000
0000
0000
0000
0000
0000
0000
0000
0000
0000
0041
0036
0000
0000
0000
FFFF
FFFF
FFFF
0000
0000
0000
FFFF
0000
0000
0000
0000
000E
0000
0000
0000
001A
001F
000A
0000
0000
002B
0051
0066
0015
0000
0000
0000
0000
0000
FFFF
FFFF
FFFF
FFFF
0000
0000
0000
0000
0000
0054
0032
004F
0000
000D
0000
0000
0006
0023
0023
0000
000E
0000
001A
001F
0000
0000
0000
0000
FFFF
0000
FFFF
FFFF
FFFF
0000
0000
0000
0000
0000
0000
0020
0035
0025
0000
0000
003F
0057
0000
002A
0000
002C
0000
0000
0000
0000
0000
FFFF
FFFF
FFFF
FFFF
FFFF
0000
0000
0000
003D
000C
004B
0036
0000
0000
0000
0000
0000
0003
0000
006E
0000
002C
0000
0000
000A
0000
0000
FFFF
FFFF
0000
FFFF
0000
0000
0000
0000
0000
0000
0000
001A
0013
0000
0005
0037
0034
0000
0000
0026
0032
0000
0001
001E
0000
0000
0000
0000
FFFF
FFFF
FFFF
FFFF
FFFF
FFFF
FFFF
0000
0000
0000
001C
0000
0007
0000
0000
0000
0000
0000
0000
0020
0013
0000
0000
0000
0000
0000
0000
0000
0000
FFFF
0000
FFFF
0000
FFFF
0000
0000
0000
0020
0025
0000
0000
0000
0023
001E
0042
0000
0000
000C
002D
001D
0000
0000
0017
0000
0018
0000
0000
0000
0000
0000
0000
FFFF
FFFF
0000
0000
0005
0000
0000
0015
0000
003F
0000
0000
0027
0000
0000
000C
0005
0000
0015
001A
0000
0000
0000
0000
0000
FFFF
FFFF
0000
FFFF
0000
0000
0000
0000
0000
0000
0001
0026
0000
0000
005A
0040
0019
000B
0031
000F
000F
0023
0000
0000
0000
0000
0000
0000
FFFF
FFFF
FFFF
FFFF
0000
0000
0000
0005
0000
0032
0019
0000
0000
0000
0000
002B
0047
0041
0000
004D
0000
0000
0000
0000
0000
0000
0000
0000
0000
FFFF
0000
FFFF
0000
0000
0000
0000
0033
0000
0056
000A
0000
0000
0000
0019
0030
0000
0034
0000
003E
0056
0000
0031
0000
0000
0000
0000
0000
FFFF
FFFF
FFFF
0000
0000
0000
003F
0077
0000
0000
0035
0000
0000
0000
0000
0000
0000
0038
0040
003C
0000
0000
0000
0000
0000
FFFF
FFFF
0000
FFFF
0001
0000
0000
0000
0000
007A
004E
0029
0000
0000
0063
0026
0022
0050
0000
0017
005B
0000
0000
0000
0000
0000
0000
0000
0000
0000
FFFF
FFFF
FFFF
0000
0000
0000
0000
0000
0000
0000
0000
0062
0040
0000
0042
003A
0000
002A
0000
0024
0000
0000
0000
0000
0000
FFFF
FFFF
FFFF
0000
0000
0000
0000
FFFF
0000
0000
0000
0000
0000
0000
0000
0000
0025
0000
0020
0000
0000
0000
0000
0000
FFFF
FFFF
0000
0000
FFFF
FFFF
0000
FFFF
0000
FFFF
0000
FFFF
0000
0000
0000
0000
0000
0000
0000
006C
001F
0000
0000
0000
0000
0000
0000
0000
0000
FFFF
FFFF
FFFF
FFFF
FFFF
FFFF
FFFF
0000
FFFF
0000
FFFF
FFFF
FFFF
0000
0000
0000
0000
0000
0000
0000
0000
0000
0000
0000
0000
0000
0000
FFFF
0000
FFFF
FFFF
FFFF
0000
0000
FFFF
FFFF
0000
FFFF
FFFF
FFFF
0000
0000
FFFF
0000
FFFF
FFFF
FFFF
0000
0000
0000
0000
0000
FFFF
FFFF
FFFF
FFFF
0000
FFFF
FFFF
0000
0000
FFFF
0000
