FFFF
FFFF
0000
FFFF
FFFF
FFFF
0000
0000
0000
0000
FFFF
0000
0000
0000
0000
0000
0000
FFFF
FFFF
FFFF
FFFF
FFFF
0000
0000
FFFF
0000
0000
0000
0000
FFFF
0000
0000
0000
FFFF
FFFF
0000
0000
FFFF
0000
0000
0000
FFFF
0000
0000
FFFF
0000
FFFF
FFFF
FFFF
0000
FFFF
0000
FFFF
FFFF
FFFF
FFFF
0000
0000
FFFF
0000
FFFF
0000
FFFF
FFFF
FFFF
0000
0000
0000
0000
0000
FFFF
0000
0000
0000
0000
0000
FFFF
FFFF
FFFF
0000
0000
FFFF
FFFF
003D
FFFF
0000
FFFF
FFFF
FFFF
0000
FFFF
0000
0000
0000
0000
0000
0000
0000
0000
0000
0000
0000
FFFF
0000
0000
FFFF
0000
0000
0000
FFFF
0000
0000
FFFF
FFFF
FFFF
0000
FFFF
0009
0000
0000
0000
0000
0000
0000
0000
000E
0020
002B
0000
0000
0000
0024
0000
0000
0000
0000
0000
0000
0000
0000
0000
FFFF
0000
0000
0000
0000
0000
0000
0000
0000
0000
0019
0000
0020
0000
0001
0000
0000
001E
0000
0000
0000
0000
0000
0000
FFFF
FFFF
0000
FFFF
FFFF
FFFF
0000
0000
0000
0000
0000
0000
000B
0000
0021
0000
0043
0000
0000
0000
0000
000E
0000
0000
0000
0000
0000
0000
0000
FFFF
FFFF
FFFF
0000
0000
FFFF
FFFF
0000
0000
0000
0000
0000
0000
003D
0000
001C
0000
0000
0049
0000
0000
0002
0003
0000
0000
0000
0000
FFFF
0000
0000
FFFF
0000
FFFF
FFFF
0000
0000
FFFF
0000
0000
0000
0000
0000
0015
0016
0029
0000
0000
0023
0000
0070
0000
0007
0000
0000
0000
0000
0000
FFFF
0000
0000
FFFF
0000
FFFF
FFFF
FFFF
003D
0000
0000
0000
0030
0000
0000
0000
0000
0000
0000
0019
0000
0000
001B
0000
0000
0000
0000
FFFF
0000
FFFF
FFFF
0000
FFFF
0000
0000
0000
0000
0000
0000
000A
0000
0000
0049
0000
0030
0011
003D
0000
0000
0018
0000
0000
0000
0000
0000
FFFF
FFFF
0000
0000
0000
0000
0000
0000
0000
0000
000F
0000
0016
000C
0000
0000
0000
0045
0000
0000
0000
0000
0000
0000
0000
0000
0000
0000
0000
FFFF
FFFF
0000
FFFF
FFFF
0000
0000
0000
0010
0000
0000
0000
000E
004B
0017
0000
0000
0000
0097
0000
0018
0000
0000
0000
0000
0000
0000
0000
FFFF
0000
0000
0000
0000
0000
0000
0000
000C
0037
0045
001D
0000
0000
0011
0012
0015
0014
0000
0000
0000
0000
0008
0000
0000
0000
FFFF
FFFF
0000
FFFF
FFFF
0000
0000
0000
0000
0000
0047
0000
0018
002E
0000
0000
0000
0000
0000
0011
0000
000E
0000
0021
0070
0000
0000
0000
0000
FFFF
0000
FFFF
0000
FFFF
0000
0000
0000
003F
003B
0019
0000
0000
000C
000C
0000
0000
000F
0000
0001
0017
0029
0024
0000
0000
0000
0000
0000
FFFF
0000
0000
FFFF
0000
FFFF
0000
0000
0003
0000
0043
0043
0000
0000
0000
0000
0000
0000
0000
0000
000A
0015
0000
0051
0000
0000
0000
0000
0000
0000
FFFF
0000
FFFF
FFFF
0000
0000
0000
0000
0000
001E
0000
002B
0000
0000
0000
000B
0000
0000
000C
0017
0000
004A
0000
0000
0000
0000
FFFF
FFFF
FFFF
0000
FFFF
0000
0000
0000
0000
001A
0004
0000
0020
0000
0000
0000
0000
0000
0000
0019
000A
0000
0000
0002
0000
0000
0000
FFFF
FFFF
FFFF
FFFF
0000
FFFF
0000
0000
0000
0039
0000
0000
0000
0000
0000
0049
0000
0034
0008
0000
003C
0027
0005
0023
001F
0000
0000
0000
FFFF
FFFF
FFFF
0000
0000
FFFF
FFFF
0000
0000
0000
0000
0000
0000
0000
0000
0000
0000
003B
0000
0000
0000
002A
0060
0026
0000
0000
0000
0000
FFFF
FFFF
0000
FFFF
FFFF
0000
0000
0000
0000
0000
0017
0000
0000
004A
0000
0000
0005
0034
0065
003B
0000
0000
002D
0000
0000
0000
0000
0000
0000
0000
0000
FFFF
0000
0000
0000
0000
0000
0000
0015
0087
002C
001E
0035
000D
001D
0000
0000
0014
0000
0000
0000
0000
0000
0000
0000
FFFF
FFFF
0000
FFFF
FFFF
0000
0000
0000
0000
0000
0000
0000
0000
0000
000E
0000
0006
0031
0000
0000
0000
0000
0000
0000
0000
0000
0000
0000
0000
0000
0000
0000
FFFF
FFFF
FFFF
0000
FFFF
0000
0000
0000
0000
0000
0000
0000
0000
0002
0000
0000
0000
0000
0000
0000
0000
0000
0000
0000
0000
FFFF
0000
0000
0000
0000
FFFF
0000
FFFF
FFFF
0000
0000
0000
0000
0000
0000
0000
0000
0000
0000
0000
0000
0000
0000
0000
0000
0000
FFFF
FFFF
0000
0000
0000
0000
FFFF
FFFF
FFFF
0000
FFFF
0000
FFFF
0000
0000
0000
FFFF
FFFF
FFFF
0000
FFFF
0000
0000
FFFF
0000
FFFF
0000
FFFF
FFFF
FFFF
0000
FFFF
FFFF
FFFF
0000
FFFF
0000
FFFF
0000
FFFF
FFFF
0000
FFFF
0000
FFFF
0000
FFFF
0000
0000
0000
0000
FFFF
FFFF
FFFF
0000
FFFF
FFFF
FFFF
0000
FFFF
0000
