FFFF
0000
0000
FFFF
FFFF
FFFF
FFFF
0000
FFFF
0000
0087
FFFF
FFFF
0000
FFFF
FFFF
0000
0000
FFFF
FFFF
FFFF
FFFF
0000
0000
FFFF
0000
0000
0000
FFFF
0000
0000
FFFF
0000
FFFF
0038
FFFF
0000
FFFF
0000
0000
0000
0000
FFFF
0000
FFFF
FFFF
FFFF
0000
FFFF
0000
FFFF
0000
FFFF
FFFF
FFFF
0000
FFFF
FFFF
0000
FFFF
002D
0000
FFFF
FFFF
FFFF
0000
0000
0000
FFFF
0000
0035
0000
0000
0000
0000
0000
FFFF
FFFF
FFFF
0000
0000
FFFF
FFFF
FFFF
004E
FFFF
0050
FFFF
FFFF
FFFF
FFFF
0000
0000
0000
0000
0000
0000
0000
0000
0000
0000
0000
0000
0000
0000
FFFF
FFFF
FFFF
005B
0000
FFFF
0000
0000
FFFF
FFFF
FFFF
FFFF
0000
0000
0000
0000
0000
0000
0000
0000
0019
0000
0036
0000
0000
0000
0000
0000
0000
0000
0000
0000
FFFF
FFFF
0000
0000
FFFF
0000
0000
0000
0000
0000
0000
0000
0000
0000
0008
0027
0000
0000
0000
0000
0000
002D
0000
0000
0000
0000
FFFF
FFFF
0000
FFFF
FFFF
FFFF
0000
FFFF
FFFF
0000
0000
FFFF
0000
0000
0000
0035
0000
0000
004C
0000
0000
0000
0030
0000
0000
0010
0000
0000
0000
0000
0000
FFFF
0056
0000
0000
FFFF
0054
FFFF
FFFF
FFFF
0000
0000
000F
0000
0000
0027
0000
0004
0000
0023
001A
004E
0000
0000
0000
0000
0000
0000
00AA
0000
0000
FFFF
FFFF
0053
FFFF
0000
0000
FFFF
001E
0000
0000
002A
0025
004B
0043
0009
0013
0014
000E
0000
0000
0000
0000
0000
0000
0000
0000
0000
FFFF
FFFF
0000
FFFF
FFFF
0000
0000
0000
0000
0000
0000
0067
0000
0000
004E
0000
0003
0009
004F
0000
0018
0000
0023
0000
0000
0000
0000
FFFF
0000
FFFF
FFFF
0000
FFFF
0000
0000
0000
0000
0000
0000
0000
004B
0054
0025
0064
001A
0000
0000
0028
0000
0020
0010
0000
0000
0000
0000
FFFF
0000
FFFF
FFFF
FFFF
0000
0000
0000
0000
0044
003E
0000
0000
003B
0000
0020
0000
0000
0061
0052
0000
0000
0000
0040
0000
0000
0000
0000
0000
FFFF
0000
0000
FFFF
FFFF
0000
0000
0000
0000
0010
0000
0000
0000
0063
0000
0041
0000
005E
000B
0007
0000
002E
001A
0000
0000
0000
FFFF
FFFF
001B
0000
0000
0000
0000
0000
0000
0000
0000
0015
0000
0005
0000
0011
0000
0031
0000
000F
0000
002E
0000
0000
0000
0000
0000
0000
FFFF
FFFF
0000
FFFF
0000
0000
0000
0000
0000
0000
0000
0000
0000
0025
0010
0077
0009
003E
0000
0000
0000
0000
0000
0000
0000
0000
0000
0000
FFFF
0000
FFFF
FFFF
FFFF
FFFF
FFFF
0000
0000
0000
0000
0000
0000
0000
0000
0003
000A
0000
001F
0010
0022
0000
0000
0000
0000
0000
0000
0000
0000
FFFF
FFFF
0000
FFFF
0000
0000
0000
0000
0000
0037
0000
0032
0000
0023
0000
0000
0027
000A
0017
0000
0000
0000
0000
0000
0000
0000
0000
0000
0000
0000
005C
0000
FFFF
FFFF
0000
0000
0000
0000
0000
0066
0000
0000
003D
0000
0019
0022
0011
0000
0000
0000
0000
0000
0000
0000
0000
0000
0000
FFFF
FFFF
FFFF
FFFF
0000
0000
0000
0000
0000
0000
0000
0000
0000
0000
001E
0000
0000
0000
0000
0000
0039
0000
0000
0000
0000
0000
0000
0000
FFFF
FFFF
FFFF
FFFF
FFFF
0000
0000
0000
0000
0000
0000
0006
0000
0000
0000
003B
0000
0000
0007
0000
0000
0000
0000
0000
0000
0000
0000
0000
0000
FFFF
0000
FFFF
FFFF
0000
0000
0000
0021
0059
0000
0000
0000
0000
0000
0051
0032
0000
0000
0000
0000
0000
0000
0000
0000
0000
0000
FFFF
0000
FFFF
0000
FFFF
0000
FFFF
0000
0000
0000
0000
0000
0000
0025
0000
0000
0000
0018
0071
0000
0024
0000
0000
0000
0000
0000
0000
FFFF
0000
0000
FFFF
0000
0000
0000
0000
0000
0000
0000
0000
0027
0000
0029
0016
0041
0000
005F
0004
0000
0000
0000
0000
0000
0000
0000
0000
0054
0000
FFFF
FFFF
FFFF
0000
0000
0000
0000
0000
0000
0000
0000
0000
002A
0007
000A
0000
0009
0032
0042
0000
0000
0000
0000
0000
FFFF
FFFF
0000
FFFF
0000
FFFF
FFFF
FFFF
FFFF
0000
0000
0015
0000
0023
000F
0008
0000
0000
0019
0030
000E
0000
0000
0000
0000
FFFF
0000
0000
0000
FFFF
FFFF
0000
0000
0000
FFFF
0086
0000
0000
004F
0000
0000
0000
0000
0000
0001
0000
0000
0001
0033
0000
0000
0000
0000
0000
0000
FFFF
FFFF
FFFF
0000
0000
0000
0000
FFFF
007D
0000
FFFF
FFFF
0000
0000
0000
0000
0000
0000
0000
0000
0000
0000
0000
0000
0000
0000
FFFF
0000
FFFF
FFFF
FFFF
FFFF
FFFF
FFFF
FFFF
0000
FFFF
FFFF
FFFF
0000
0037
FFFF
0000
FFFF
FFFF
0000
0000
003C
0000
0000
0000
FFFF
FFFF
FFFF
FFFF
0000
FFFF
FFFF
0000
0000
0000
0000
