0000
FFFF
FFFF
FFFF
0020
FFFF
0000
0000
FFFF
FFFF
FFFF
FFFF
FFFF
0000
FFFF
0000
0000
FFFF
FFFF
FFFF
FFFF
0000
FFFF
0000
0000
0000
FFFF
0000
FFFF
0000
FFFF
0000
0000
FFFF
0000
FFFF
0000
0000
0000
0000
0000
FFFF
0000
0000
FFFF
FFFF
FFFF
0000
FFFF
0000
FFFF
0000
FFFF
FFFF
FFFF
FFFF
FFFF
FFFF
FFFF
0000
0000
0000
FFFF
FFFF
FFFF
0000
FFFF
0000
0000
0000
FFFF
0000
0000
0000
0000
0000
FFFF
0000
0000
0000
FFFF
0000
0034
FFFF
0000
FFFF
0000
0000
FFFF
FFFF
0000
FFFF
0000
0000
0000
0000
0000
0000
0000
0000
0000
0000
FFFF
0000
0000
0000
0000
0000
0000
FFFF
FFFF
0000
FFFF
FFFF
0000
FFFF
FFFF
0000
0000
0000
0000
0000
0000
0010
0000
0000
0018
0000
0005
0028
0019
0000
000A
0000
0000
0000
0000
FFFF
FFFF
FFFF
0000
FFFF
0000
FFFF
0000
0000
0000
0000
0000
0000
0000
0040
0012
007B
0051
0023
0000
0042
0011
000E
0000
0000
0000
0000
FFFF
FFFF
FFFF
FFFF
0000
0000
FFFF
FFFF
0000
0000
0000
0000
0000
001B
0000
001D
000B
0026
0044
002E
0016
0000
0050
004A
0000
000D
0000
0000
0000
0000
FFFF
0000
FFFD
0000
FFFF
FFFF
FFFF
0000
0000
0000
0000
0000
0000
0000
0000
0000
0059
006C
0043
0031
0000
0000
0005
0000
0000
0000
0000
0000
0000
FFFF
FFFF
FFFF
FFFF
FFFF
0000
0000
0000
0000
0007
0039
0000
0000
0000
002D
0015
0000
0000
0091
0000
0000
0000
0012
0000
0000
0000
0000
0000
FFFF
FFFF
0000
FFFF
FFFF
0000
0000
0000
0000
0016
0000
000C
001F
0045
000B
004A
0000
000E
0000
0000
0010
0000
0000
0000
0000
0000
0000
FFFF
FFFF
FFFF
FFFF
0000
0000
0000
0000
0000
0000
0000
003A
0025
001D
004B
001E
0000
0000
0000
0070
0000
0000
000E
0030
003D
0000
0000
0000
0000
FFFF
FFFF
FFFF
FFFF
0000
0000
0000
0000
0000
0000
0000
0000
0000
0070
0000
0000
0011
0000
0096
0009
0007
0038
002F
0000
0000
0000
0000
FFFF
FFFF
0000
FFFF
FFFF
0000
0000
0000
0000
0000
0024
0000
0030
002A
0000
0000
0000
0055
0005
006B
0000
0047
0042
0000
0000
0000
0000
FFFF
FFFF
FFFF
FFFF
0000
FFFF
FFFF
0000
0000
0000
0000
0000
0000
0000
001E
0000
0000
0017
0000
0017
0000
0016
0000
0000
0000
0000
0000
0000
FFFF
FFFF
0000
FFFF
FFFF
0000
0000
0014
0000
0000
001F
0000
0005
0017
0000
002F
0000
0000
0031
0000
001B
000A
0000
0000
001E
0000
0000
0000
0000
FFFF
FFFF
0000
FFFF
FFFF
FFFF
0000
0000
0000
000E
0002
003E
0007
0000
0000
0059
0000
0000
0000
0000
0000
0000
0000
001D
0000
0000
0000
0000
FFFF
0021
FFFF
0000
FFFF
0000
0000
0000
0000
0014
0061
0000
0000
0016
001F
0000
000C
0006
0000
000A
0000
0015
001B
0000
0000
0000
0000
0000
0000
0000
0000
0000
FFFF
FFFF
0000
0000
0013
0013
0049
0051
0000
002A
0015
000F
0007
0000
0049
0000
0000
0000
000A
0000
0000
0000
0000
0000
0000
FFFF
FFFF
0000
FFFF
0000
0000
0023
0027
0000
0000
0018
0027
0000
001D
0000
0000
0006
0046
0007
0000
0030
0000
0016
0000
0000
0000
0000
0000
FFFF
002D
FFFF
FFFF
FFFF
0000
0000
001E
0000
0000
0000
0000
0020
003F
0008
0000
0000
0000
001D
0000
005A
0001
0000
0000
0000
0000
0000
0000
0000
FFFF
0000
FFFF
0000
0000
0031
0000
0000
0000
001E
0000
0031
0000
0025
0000
0000
0022
0032
0016
0061
0022
0004
0000
0000
0000
0000
0000
0000
FFFF
FFFF
FFFF
FFFF
0000
0000
0000
0000
0000
0018
001B
0000
0060
0050
0003
0048
0000
0000
0010
0000
0000
0000
0000
0000
0000
FFFF
0000
0000
FFFF
0000
0000
0000
0000
0002
001D
0027
0007
0000
000D
0038
0000
0000
000C
0000
0001
0000
0000
000D
0000
0000
0000
0000
0000
0000
0000
FFFF
FFFF
FFFF
0000
0000
0000
0000
0000
0018
006D
0000
0024
0000
0027
001B
0000
002A
0000
0000
0000
0000
0000
0000
0000
FFFF
FFFF
FFFF
FFFF
0000
0000
0000
0000
FFFF
0000
0000
0000
0000
0000
0000
0006
0000
0000
0026
0008
001F
000B
0000
0000
0000
FFFF
0000
0000
0000
FFFF
FFFF
0000
FFFF
0000
FFFF
FFFF
FFFF
0000
0000
0000
0000
0000
0000
0000
0000
0000
0000
0000
0000
0000
0000
0000
0000
FFFF
0000
FFFF
0072
FFFF
FFFF
FFFF
FFFF
0000
0000
FFFF
FFFF
FFFF
FFFF
0000
FFFF
0000
0000
0000
0000
0000
0000
0000
0000
0000
0000
FFFF
0000
FFFF
0000
FFFF
0000
FFFF
0000
FFFF
FFFF
FFFF
0000
FFFF
FFFF
FFFF
0000
0000
FFFF
0000
FFFF
FFFF
FFFF
0000
0000
0000
0000
0000
0000
FFFF
FFFF
FFFF
0000
FFFF
FFFF
0000
0000
FFFF
0000
