FFFF
FFFF
0000
FFFF
FFFF
0000
0000
FFFF
0000
FFFF
FFFF
FFFF
FFFF
0000
0000
FFFF
0000
0000
0000
0000
0000
0000
0000
0000
FFFF
0000
0000
0000
FFFF
0000
0000
FFFF
0000
FFFF
0000
FFFF
0000
FFFF
0000
0000
0000
0000
FFFF
FFFF
0000
FFFF
FFFF
FFFF
FFFF
0000
FFFF
0000
FFFF
FFFF
FFFF
FFFF
FFFF
FFFF
0000
FFFF
0000
0000
0000
0000
0000
0000
0000
0000
0000
0000
FFFF
0000
0000
0000
0000
0000
0000
0000
FFFF
0000
0000
FFFF
FFFF
FFFF
FFFF
0000
FFFF
FFFF
FFFF
FFFF
0000
0000
FFFF
0000
FFFF
0000
0000
0000
0000
0000
0000
0000
0000
0000
0000
0000
0000
FFFF
FFFF
0000
FFFF
0000
0000
0060
FFFF
FFFF
0036
0000
0000
0000
0000
FFFF
FFFF
0000
0000
0000
0000
0000
0000
0000
0000
0000
0000
0000
0000
0000
0000
FFFF
0000
0000
0000
FFFF
0000
0000
0000
0000
0000
FFFF
0000
0000
0000
0000
0019
0000
0026
002F
0000
000A
0009
0000
0000
0000
0000
FFFF
FFFF
FFFF
FFFF
FFFF
FFFF
0000
FFFF
FFFF
FFFF
0000
0000
FFFF
0000
0000
0003
0013
0000
0016
0017
0016
0000
0000
0000
0026
0000
0000
0000
0000
0000
0000
FFFF
FFFF
0000
0000
FFFF
FFFF
0000
0000
0000
0000
0000
0000
0015
0000
0000
0000
0000
0018
0000
0000
0000
0024
000D
0000
0000
0000
0000
FFFF
0000
0000
0000
FFFF
FFFF
FFFF
0000
0000
FFFF
0000
0000
0000
0034
0062
0000
0000
0060
0017
0000
0038
0000
0000
002D
0020
0000
0000
0000
0000
0000
FFFF
0000
0000
FFFF
FFFF
FFFF
0000
0000
0000
0000
003A
004C
001B
0000
0010
0009
0017
0000
0000
0000
0000
0000
0000
0000
0000
0000
0000
0000
0000
FFFF
FFFF
0000
0000
0000
0000
0000
0000
0029
0000
0000
0000
001B
0012
0000
0000
0000
0000
0000
0000
0005
0000
0000
0000
0000
0000
0000
FFFF
FFFF
FFFF
FFFF
0000
0000
0000
0000
0000
0000
0000
0051
0065
0000
0000
0000
0000
000E
0000
003B
0000
0000
0019
0000
0000
0000
0000
FFFF
FFFF
0000
0000
0000
FFFF
0000
0000
0000
0000
0008
0000
0010
0000
0003
0000
0000
0000
0000
0000
0000
0000
0000
002C
0000
0000
0000
0000
FFFF
FFFF
0000
FFFF
0000
FFFF
0000
0000
0000
0000
0000
0000
0069
0000
0000
0032
0000
0027
0032
0000
0000
0023
004E
0000
0000
0000
0000
0000
0000
0000
0000
FFFF
0000
0000
0000
0000
0000
0000
003A
0000
0000
0000
0030
0000
0000
0014
0007
001B
0042
003F
0004
0000
0000
0000
0000
FFFF
FFFF
FFFF
FFFF
FFFF
FFFF
FFFF
0000
0000
0000
0025
0000
0000
0000
000A
0001
0000
0000
0000
001B
0015
0000
0000
0016
0046
0000
0000
0000
0000
FFFF
0000
0000
FFFF
0000
0000
0000
0000
0000
0000
0009
0022
000A
0000
0000
001B
0017
0000
0000
0000
0000
0035
0000
0000
0000
0000
0000
0000
0000
0000
FFFF
0000
0000
0000
0000
0000
0000
0000
0000
0000
0000
0000
0000
0000
0028
0000
0000
0000
0000
0000
0000
0000
0000
0000
0000
0000
0000
0000
0000
0000
0000
0000
0000
0000
0000
0021
0000
0015
0012
0000
0028
0000
0000
0000
0000
0019
000D
006B
0000
0000
0000
0000
0000
FFFF
FFFF
FFFF
FFFF
FFFF
0000
FFFF
0000
0000
0000
0000
0000
001C
0000
0000
0000
003C
0059
0000
0000
0017
0000
002E
0000
0080
0000
0000
FFFF
FFFF
FFFF
FFFF
0000
0000
FFFF
0000
0000
0000
0000
0000
0000
000D
0000
0000
0002
0000
0000
0000
003F
0012
000A
0054
0000
0000
0000
0000
0000
FFFF
FFFF
0000
FFFF
FFFF
FFFF
0000
FFFF
0000
0000
0000
0000
0021
0012
0000
003C
0038
0000
0000
000D
0000
0000
0000
0000
0000
0000
0000
FFFF
0000
FFFF
0000
FFFF
0000
0000
0000
0000
0000
0000
0000
0000
0000
0000
0026
0000
0000
0000
0031
0000
0000
0000
0000
0000
0000
FFFF
0000
FFFF
FFFF
0000
FFFF
0000
FFFF
0000
0000
0000
0000
0000
0000
0000
0000
0000
0000
000F
0000
0000
002A
0000
0000
0000
0000
0000
FFFF
0000
0000
0000
0000
0000
0000
FFFF
FFFF
FFFF
FFFF
0000
0000
0000
0000
0000
0000
0046
001C
0026
003E
0000
0000
0000
0000
0000
0000
0000
0000
0000
0000
FFFF
0000
0000
0000
0000
0000
FFFF
0000
0000
0000
0000
0000
0000
0000
0000
0000
0000
0000
0000
0000
0000
0000
0000
0000
0000
0000
FFFF
FFFF
0000
0000
0000
0000
0000
FFFF
FFFF
0000
0000
FFFF
0000
0000
0000
0000
0000
0000
0000
0000
0000
0000
FFFF
0000
0000
0000
0000
0000
FFFF
FFFF
0000
0000
FFFF
FFFF
0000
0000
FFFF
0000
FFFF
0000
0000
0000
0000
0000
FFFF
FFFF
0000
0000
0000
0000
0000
FFFF
FFFF
0000
0000
0000
FFFF
FFFF
0000
FFFF
0000
0000
