FFFF
0000
FFFF
0000
FFFF
FFFF
FFFF
0000
0000
0000
FFFF
FFFF
FFFF
0000
0000
FFFF
0000
FFFF
FFFF
FFFF
FFFF
FFFF
FFFF
0000
FFFF
0000
FFFF
0000
FFFF
0000
0000
0000
0000
FFFF
FFFF
FFFF
0000
FFFF
0000
0000
0000
FFFF
FFFF
FFFF
FFFF
0000
FFFF
FFFF
FFFF
0000
0000
0000
FFFF
FFFF
FFFF
0000
FFFF
0000
FFFF
0000
FFFF
0000
FFFF
FFFF
FFFF
FFFF
FFFF
0000
0000
0000
FFFF
0000
0000
0000
FFFF
0000
FFFF
FFFF
FFFF
0001
0000
FFFF
FFFF
FFFF
FFFF
0000
FFFF
0000
FFFF
FFFF
0000
0000
FFFF
0000
0000
0000
0000
0000
0000
0000
0000
0000
0000
0000
0000
FFFF
FFFF
0000
0000
0000
0000
0000
0000
0000
FFFF
FFFF
FFFF
0000
0000
0000
0000
0000
0000
0000
0000
0000
0047
0000
0000
002A
0000
0000
0000
0000
0000
0000
0000
FFFF
FFFF
0000
0000
FFFF
FFFF
0000
0000
0000
0000
0000
0000
001B
0000
0000
0054
0000
0000
0031
0000
0002
0039
0000
0015
0000
0000
0000
FFFF
FFFF
FFFF
0000
FFFF
FFFF
FFFF
0000
0000
0000
0000
0000
0000
005D
005C
0069
0000
0000
0000
0052
000B
0039
0043
0015
0000
0051
0000
0000
0000
0000
FFFF
FFFF
FFFF
FFFF
0000
FFFF
0000
0000
0000
0000
001A
0044
0000
0022
0016
0000
0000
0018
0000
008B
0022
0000
0025
0004
0000
0002
0000
0000
0000
0000
FFFF
FFFF
FFFF
FFFF
0000
0000
0000
0017
0029
0026
0000
0039
001A
002E
0000
0000
006B
0037
0000
0000
0057
001F
0038
0000
0000
0000
0000
FFFF
FFFF
0000
FFFF
FFFF
0000
0000
0001
0063
0000
0000
006D
0012
0031
0000
0000
0031
0000
0069
0000
0000
0000
0000
0000
0000
0000
0000
FFFF
FFFF
0000
FFFF
0000
0000
0000
0000
000E
0000
000F
0009
0004
0006
0036
005D
0000
0000
0000
003B
0000
0000
0008
0055
0000
0000
0000
0000
0000
0000
FFFF
FFFF
FFFF
0000
0000
0000
0000
0000
002D
0007
0000
0015
004B
0000
002E
0000
0000
0000
0000
0000
0000
0028
0000
0000
0000
0000
0000
FFFF
0000
FFFF
FFFF
FFFF
0000
0000
000C
0000
0054
0000
0004
0000
0033
0000
0000
0000
0000
000C
0000
0000
003D
0000
0000
0030
0000
0000
FFFF
FFFF
FFFF
0000
FFFF
0000
0000
0000
0021
0009
001A
0000
0000
0000
0000
0000
0008
005F
0000
0000
0006
0000
0000
000E
002E
0000
0000
0000
FFFF
FFFF
FFFF
0000
0000
0000
0000
0000
0000
002E
0000
003A
0000
0057
0000
0079
0000
0000
0000
0000
0000
0009
001C
0000
0029
0000
0000
FFFF
0000
FFFF
FFFF
0000
FFFF
FFFF
0000
0000
000E
0000
0043
0000
005E
0000
001F
0000
0000
0000
0000
0000
000D
0000
0032
0052
0019
0000
0000
0000
FFFF
0000
FFFF
FFFF
0000
0000
0000
0000
0001
0019
0000
0022
0023
001A
0000
0000
0017
0000
0030
0010
0000
0000
0031
0059
0000
0000
0000
0000
0000
FFFF
FFFF
0000
FFFF
FFFF
0000
0011
002D
0000
0000
0000
0000
0035
0009
0000
0008
0037
0000
0000
0000
005E
0000
0000
0000
0000
0000
0000
0000
FFFF
FFFF
FFFF
FFFF
0000
0000
0000
0001
0000
001C
000A
0000
0000
0000
0000
0054
0029
0023
0000
0009
0002
0000
000E
0000
0000
0000
0000
0000
0000
FFFF
FFFF
FFFF
0000
0000
0000
0000
0000
001A
0014
001D
0000
0000
0018
0000
0000
001B
0043
0000
0000
000C
0039
0000
0000
0000
0000
0000
FFFF
0000
0000
FFFF
0000
0000
0000
002C
0000
0013
0000
0006
0000
0020
0000
0000
0008
0000
0000
0000
0000
000B
0000
0000
0000
0000
0000
0000
0000
FFFF
0000
0000
0000
0000
0000
0013
0000
0000
0009
0000
0000
0025
0056
0012
0010
0002
001A
0000
0000
000B
0000
0000
0000
0000
FFFF
0000
FFFF
0000
0000
0000
0000
0000
0000
0018
002E
0000
0028
0000
0017
0000
0019
002F
0004
004B
0000
0000
0000
0000
0000
0000
0000
0000
FFFF
0000
FFFF
FFFF
FFFF
0000
0000
0000
0000
0000
0012
0000
0042
0000
0015
0034
0000
0002
0000
0000
0000
0056
0000
0000
0000
0000
FFFF
FFFF
0000
0000
0000
FFFF
FFFF
FFFF
FFFF
0000
0000
0000
0000
0000
002A
0011
0000
004B
0000
003F
002C
0021
0000
0000
0000
0000
0000
0000
0000
0000
FFFF
0000
FFFF
0000
0000
FFFF
FFFF
FFFF
0000
0000
0000
0000
0000
0000
0042
001D
005B
0000
0000
0000
0000
0000
0000
0000
0000
FFFF
FFFF
FFFF
FFFF
0000
FFFF
0000
FFFF
FFFF
FFFF
FFFF
0000
0000
0000
0000
0000
0000
0000
0000
0000
0000
0000
0000
0000
0000
0000
FFFF
0000
0000
FFFF
FFFF
0000
FFFF
FFFF
FFFF
0000
0000
FFFF
FFFF
0000
FFFF
FFFF
0000
FFFF
FFFF
0000
0000
FFFF
0000
0000
0000
FFFF
FFFF
FFFF
FFFF
0000
FFFF
FFFF
0000
0000
FFFF
0000
