0000
0000
FFFF
FFFF
FFFF
FFFF
0000
0000
0000
0000
FFFF
FFFF
FFFF
0000
0000
FFFF
0000
0000
FFFF
FFFF
0000
0000
FFFF
0000
FFFF
0000
FFFF
0000
FFFF
0000
0000
0000
0000
FFFF
FFFF
FFFF
0000
FFFF
0000
0000
0000
FFFF
FFFF
FFFF
FFFF
FFFF
FFFF
0000
FFFF
0000
FFFF
0000
FFFF
FFFF
0000
0000
FFFF
FFFF
FFFF
0000
FFFF
0000
0000
FFFF
FFFF
0000
FFFF
0000
0000
0000
FFFF
FFFF
0000
0000
0000
0000
FFFF
FFFF
FFFF
0000
0000
FFFF
FFFF
FFFF
FFFF
0000
FFFF
0000
FFFF
FFFF
0000
0000
0000
0000
0000
0000
0000
0000
0000
0000
0000
0000
FFFF
0000
0000
0000
FFFF
FFFF
FFFF
FFFF
FFFF
0000
0000
0000
FFFF
FFFF
0000
0000
0000
0000
0000
0000
004A
0000
0000
0007
0012
0024
0000
003B
0001
0000
0000
0000
0000
FFFF
0000
FFFF
FFFF
0000
0000
FFFF
FFFF
0000
0000
0000
0000
0000
0000
004E
0038
0059
000C
0000
0000
0000
0000
0000
002D
0000
0000
0000
0000
0000
0000
0000
FFFF
FFFF
0000
0000
0000
FFFF
0000
0000
0000
0000
0063
002F
0000
0029
0025
0000
003A
0000
0000
0000
0000
000F
0000
0000
0000
0000
0000
0000
0000
FFFF
FFFF
0000
FFFF
FFFF
0000
FFFF
0000
0000
002C
0000
0000
001C
0000
0000
0000
0000
0019
0071
0056
0000
0000
0000
0000
0000
0000
FFFF
0000
0000
FFFF
FFFF
FFFF
FFFF
0000
FFFF
FFFF
0000
0030
000A
0029
0000
0000
0000
0010
0023
000C
0017
0000
0020
0000
000E
0000
0000
0000
0000
0000
FFFF
FFFF
0000
FFFF
FFFF
FFFF
0000
0000
0000
0000
0000
004B
0039
0032
0000
0000
001C
0000
0000
0000
0032
001D
003C
0000
0000
0000
0000
FFFF
FFFF
FFFF
FFFF
0000
0000
0000
0000
0000
0000
0000
0000
0000
000A
0000
0000
0000
0009
0000
0000
0000
0000
0000
0000
0000
0000
0000
0000
0000
0000
FFFF
FFFF
FFFF
0000
0000
0000
0000
0057
0030
002D
0000
001C
0000
0000
0036
0076
0047
0051
0000
0000
0000
0004
000D
0000
0000
0000
0000
FFFF
0000
FFFF
FFFF
0000
0000
0000
0000
0009
0011
0000
0015
0000
0000
0000
002A
0000
001B
005A
0054
0000
0000
0000
0000
0000
0000
0000
FFFF
FFFF
FFFF
FFFF
FFFF
0000
0000
0000
0000
0000
0000
0044
0011
000E
0000
0062
0000
0007
0000
0000
0000
0000
0000
0000
002E
0000
0000
FFFF
FFFF
0000
FFFF
0000
0000
0000
0000
0000
0000
002A
0000
0000
0000
0000
0000
0000
0000
0026
001A
0016
0008
0000
0005
004E
0000
005C
0000
FFFF
0000
FFFF
0000
FFFF
FFFF
FFFF
0000
0000
0000
0000
0000
0009
0011
001F
0000
0000
0000
001E
0009
0039
0000
0032
0000
004E
0000
0000
0000
0000
FFFF
0000
FFFF
0000
0000
0000
0000
0000
0000
0000
0000
0022
0000
000B
0000
0000
0010
0000
0008
0000
0000
0017
0029
0038
0000
0000
0000
0000
0000
0000
FFFF
0000
FFFF
FFFF
0000
0000
0000
000F
0000
0000
0035
0044
0016
0000
003E
0000
0023
0000
0064
0000
0000
0000
0000
0000
0000
0000
0000
FFFF
0000
FFFF
FFFF
0000
0000
0000
0000
007C
0007
0000
004E
001B
0000
0018
0000
0000
0000
0000
0000
0000
0000
0034
0000
0000
0000
0000
0000
FFFF
FFFF
FFFF
FFFF
FFFF
0000
0031
0000
009A
0008
0000
002C
0011
0000
0014
0007
0000
0000
0004
0018
0011
0000
0000
0000
0000
0000
0000
0000
0000
FFFF
0000
FFFF
0000
0000
001B
0000
0049
0000
0032
0000
0027
0000
0000
0016
0031
0000
0056
002E
0000
0000
0000
0000
0000
0000
0000
0000
0000
FFFF
0000
FFFF
0000
0000
0000
0000
0061
0000
0000
0009
0004
0000
0000
0074
0037
003C
0040
0000
0000
000A
0000
0000
0000
0000
FFFF
0000
0000
FFFF
0000
0000
0000
0000
0000
005B
0000
0000
0024
004A
0001
0062
0000
0048
0000
0000
0025
0000
0000
0000
0000
0000
0000
0000
FFFF
0000
FFFF
FFFF
FFFF
0000
0000
0000
0000
0000
0004
0000
0000
0030
0000
0035
0000
0012
0000
0046
0034
0000
0000
0000
0000
0000
0000
FFFF
0000
FFFF
0000
0000
FFFF
0000
FFFF
0000
0000
0000
0000
0000
0000
0065
0000
0038
0000
0000
0000
0000
0000
0000
0000
FFFF
0000
0000
0000
FFFF
FFFF
0000
FFFF
0000
FFFF
FFFF
FFFF
FFFF
0000
0000
0000
0000
0000
0000
0000
0000
0000
0000
0000
0000
0000
0000
0000
FFFF
0000
FFFF
FFFF
FFFF
FFFF
0000
FFFF
0000
FFFF
FFFF
FFFF
FFFF
FFFF
0000
0000
0000
0000
0000
0000
0000
0000
0000
0000
0000
0000
FFFF
0000
FFFF
0000
0000
FFFF
FFFF
0000
FFFF
FFFF
FFFF
0000
FFFF
0000
FFFF
0000
FFFF
FFFF
0000
FFFF
FFFF
0000
0000
FFFF
0000
0000
0000
0000
FFFF
FFFF
0000
0000
FFFF
FFFF
0000
0000
FFFF
0000
