0000
FFFF
FFFF
FFFF
FFFF
FFFF
0000
0000
FFFF
0000
0000
FFFF
FFFF
0000
FFFF
0000
FFFF
0000
FFFF
FFFF
FFFF
0000
FFFF
0000
FFFF
0000
FFFF
0000
FFFF
0000
FFFF
FFFF
0000
FFFF
0000
FFFF
0000
FFFF
0000
0000
0000
FFFF
0000
0000
FFFF
FFFF
FFFF
0000
0000
0000
FFFF
0000
FFFF
FFFF
FFFF
FFFF
FFFF
FFFF
FFFF
0000
0000
0000
FFFF
0000
FFFF
0000
FFFF
FFFF
0000
0000
FFFF
0000
0000
0000
0000
0000
0000
FFFF
FFFF
0000
FFFF
FFFF
FFFF
FFFF
0000
0000
0000
0000
0000
FFFF
FFFF
FFFF
FFFF
0000
0000
0000
0000
0000
0000
0000
0000
0000
FFFF
0000
0000
FFFF
0000
FFFF
0000
0000
FFFF
0000
0000
FFFF
FFFF
FFFF
FFFF
0000
0000
0000
0000
0000
0000
0000
0004
0006
0000
0000
0000
0083
003A
0054
0060
0000
0000
FFFF
0000
FFFF
0000
0000
0000
FFFF
FFFF
0000
0000
0000
0000
0000
0000
0000
0018
002B
002A
0021
005F
0060
0000
0032
0000
000D
0020
004E
0000
FFFF
FFFF
0000
FFFF
FFFF
0000
0000
FFFF
FFFF
0000
0000
0000
0000
0000
0031
002B
0010
0000
000D
0000
0000
0000
000B
0021
0053
0000
0000
0000
0000
0000
0000
FFFF
0000
FFFF
0000
FFFF
FFFF
FFFF
0000
0000
0000
0000
0010
0024
0000
0007
004B
0000
0017
0000
0021
008C
0014
0000
0000
0000
0000
0000
FFFF
0000
FFFF
FFFF
FFFF
FFFF
FFFF
0000
0000
0000
0000
0000
0000
0020
0000
0010
0000
0000
0001
0000
0059
0000
0041
0000
0000
0000
FFFF
0000
0000
0000
FFFF
0000
0000
FFFF
FFFF
0000
0000
0000
0000
0000
0013
0000
0000
0000
0000
0000
0000
0000
0037
0047
0028
0075
0000
002C
0000
FFFF
FFFF
FFFF
FFFF
FFFF
FFFF
0000
0000
0000
FFFF
0000
0000
0000
0012
0000
0000
0000
0000
0000
0000
0000
0000
0000
0000
0024
0009
0000
0000
0000
0000
0000
FFFF
FFFF
FFFF
FFFF
0000
0000
0000
0000
0000
0000
000B
0026
0000
0000
0001
006A
0000
0000
0000
0000
0000
0000
0000
0000
0000
0000
0000
FFFF
0000
0000
FFFF
FFFF
0000
0000
0000
0000
0000
0000
0000
001B
002B
002C
0000
005C
0056
0000
0041
0000
0000
0000
0000
0000
0000
0000
FFFF
FFFF
FFFF
FFFF
0000
FFFF
FFFF
0000
0000
0000
0000
0000
0000
0043
0012
000C
0000
0000
0000
0007
0000
0000
0035
0000
0000
0000
0000
0000
FFFF
FFFF
0000
FFFF
FFFF
0000
0000
0000
0000
0000
0000
0000
0000
0000
0029
0001
0007
0000
0000
0000
0000
0000
0000
0000
0056
0000
0000
0000
0000
FFFF
FFFF
FFFF
FFFF
FFFF
FFFF
0000
0000
0000
0000
0000
0000
0000
0031
0000
0000
0000
0000
0000
0000
0051
0046
0000
0000
0000
0000
0000
0000
FFFF
0000
FFFF
FFFF
FFFF
0000
0000
0000
0000
0000
0000
0000
0009
003C
0000
005E
000D
001A
0013
0026
0000
0000
0000
0000
0000
0000
0000
0000
0000
0000
0000
0000
FFFF
FFFF
0000
0000
0000
001B
0000
001A
0042
000F
0021
0000
0000
001E
0000
0000
0000
0028
004D
0000
0000
0000
0000
0000
0000
FFFF
FFFF
FFFF
FFFF
0000
0000
0011
0000
000B
0033
0026
0000
0000
000A
0000
0023
0000
0000
0029
0000
0000
0000
0000
0000
0000
0000
0000
0000
FFFF
FFFF
FFFF
FFFF
FFFF
0000
0047
0028
0043
0000
0000
0000
0000
0000
000F
0000
0000
0008
0000
0000
0021
0000
004F
0000
0000
0000
0000
0000
FFFF
FFFF
0000
FFFF
0000
0000
0011
0042
0021
001D
000F
000D
0000
0000
003D
0000
0000
005F
001C
0000
0000
0009
0000
0000
0000
0000
0000
0000
0000
FFFF
FFFF
FFFF
0000
0000
0053
0000
0010
0000
0000
0000
0032
0000
0000
0009
0020
0000
0000
002A
0087
0000
0000
0000
0000
0000
FFFF
0000
FFFF
FFFF
0000
0000
0000
0000
0000
0032
0036
0050
0008
0000
0048
001E
0037
001F
0007
000B
0000
0000
0000
0000
0000
0000
0000
0000
0000
0000
0000
FFFF
FFFF
0000
0000
0000
0000
0000
0000
0000
0000
003B
0000
0025
0000
0000
0000
0000
0000
0000
0000
0000
0000
0000
FFFF
0000
0000
FFFF
0000
FFFF
FFFF
FFFF
0000
0000
0000
0000
0000
0000
0000
0000
0048
005F
0000
0027
0000
0000
0000
0000
0000
FFFF
FFFF
0000
0000
FFFF
FFFF
0013
FFFF
0000
FFFF
0000
FFFF
FFFF
FFFF
0000
FFFF
FFFF
0000
FFFF
FFFF
FFFF
FFFF
0000
0000
FFFF
FFFF
0000
FFFF
FFFF
FFFF
FFFF
FFFF
FFFF
FFFF
FFFF
FFFF
0000
FFFF
0000
FFFF
FFFF
0000
0000
0000
0000
0000
FFFF
0000
FFFF
FFFF
0000
0000
FFFF
0000
FFFF
0000
FFFF
0000
FFFF
FFFF
FFFF
0000
FFFF
FFFF
FFFF
0000
0000
FFFF
0000
0000
0000
FFFF
0000
FFFF
FFFF
FFFF
0000
0000
0000
0000
0000
FFFF
FFFF
FFFF
FFFF
0000
FFFF
FFFF
0000
0000
FFFF
0000
