FFFF
FFFF
0000
FFFF
FFFF
FFFF
FFFF
0000
FFFF
0000
FFFF
FFFF
FFFF
0000
0000
FFFF
0000
FFFF
FFFF
FFFF
0000
0000
0000
0000
FFFF
0000
FFFF
0000
FFFF
0000
0000
FFFF
0000
FFFF
0000
FFFF
0000
0000
0000
0000
0000
FFFF
FFFF
FFFF
FFFF
0000
FFFF
FFFF
FFFF
0000
FFFF
0000
FFFF
FFFF
FFFF
FFFF
FFFF
FFFF
FFFF
0000
0000
0000
FFFF
FFFF
FFFF
0000
0000
0000
0000
0000
FFFF
0000
0000
0000
0000
0000
FFFF
0000
0000
0000
FFFF
FFFF
FFFF
FFFF
FFFF
0000
FFFF
FFFF
FFFF
FFFF
0000
0000
0000
0000
0000
0000
0000
0000
0000
0010
0000
0017
0000
0000
0000
0000
0000
0000
0000
FFFF
0000
0000
0000
FFFF
FFFF
FFFF
FFFF
0000
0000
0000
0000
0000
001A
0075
0000
0000
0026
004B
0016
0000
0004
0003
0000
0000
0000
0000
0000
FFFF
0000
0000
0000
FFFF
FFFF
0000
0000
0000
0000
0000
000A
0016
0016
006F
0000
0051
0033
0000
0000
0000
0042
0006
0000
0000
0000
0000
FFFF
FFFF
FFFF
0000
FFFF
FFFF
FFFF
0000
0000
0000
0000
0035
0000
0000
0022
0036
0000
0000
0000
0000
0009
0052
0000
0000
004E
0028
0000
0000
0000
0000
FFFF
FFFF
FFFF
FFFF
0000
FFFF
0000
0000
0000
004D
0042
0000
0013
0000
0012
0000
000E
0000
0000
0000
0024
0000
0000
0000
0000
0000
0000
FFFF
0000
0000
FFFF
FFFF
FFFF
FFFF
0000
0000
0000
0000
0000
0000
0061
0026
0000
001D
005B
0000
002F
0000
0000
0000
0000
0000
0000
0000
0000
0000
0000
FFFF
FFFF
0000
FFFF
FFFF
FFFF
0000
0000
0000
0000
0000
0000
0039
0000
0022
0000
0000
0050
0000
0000
0000
0000
0000
0000
0000
0000
0000
FFFF
0000
FFFF
FFFF
0000
0000
0000
0000
0000
0000
0046
0010
001F
0029
0015
0000
0000
0009
0017
0007
0000
005C
0045
0002
0000
0000
0000
0000
0000
FFFF
FFFF
FFFF
FFFF
0000
0000
0000
0000
003B
0000
002B
0000
0001
000E
0001
0019
0000
001E
0012
0000
0000
0000
0000
0000
0000
0000
0000
FFFF
FFFF
0000
FFFF
FFFF
FFFF
0000
0000
0000
0000
0000
0000
0000
0000
003A
0019
0000
0000
0000
0038
003D
0024
0000
005B
0091
0000
0000
FFFF
FFFF
FFFF
FFFF
FFFF
0000
0000
0000
0000
0000
002F
0000
001D
0000
0056
0000
0000
0000
000A
003B
000F
0000
001C
0000
0000
0004
0000
0000
FFFF
FFFF
FFFF
FFFF
FFFF
0000
0000
0000
0000
0000
0000
0000
0032
0066
0015
0000
0053
0000
0000
004F
0009
0000
0000
0000
0025
0000
001C
0000
FFFF
FFFF
FFFF
FFFF
0000
FFFF
FFFF
0000
0000
0025
0000
0002
004F
0016
0000
0000
0000
0053
0000
0008
0000
0000
0018
003E
0000
0000
0019
0000
0000
FFFF
0000
0000
FFFF
0000
0000
0000
0000
002F
0000
0022
0000
0042
0000
0000
0029
0000
000C
0000
0000
0000
0000
0000
0070
000E
0000
0000
0000
0000
FFFF
FFFF
0000
FFFF
FFFF
0000
0000
0000
0000
0000
0000
0000
0000
0032
0036
0000
0000
0000
0000
0000
0000
0022
0000
0048
0000
0000
0000
0000
FFFF
0000
FFFF
FFFF
0000
0000
0000
0000
0000
0000
0000
0000
007C
0031
0000
0000
001A
000E
0000
0000
0000
0000
0005
0009
0000
0000
0000
0000
FFFF
FFFF
FFFF
FFFF
FFFF
0000
000B
002F
0000
0000
0047
0000
0000
005B
0000
0018
0000
0000
0000
001A
0000
0000
0025
0000
0000
0000
0000
0000
FFFF
FFFF
0000
FFFF
0000
0000
0000
0000
0003
0000
003C
0012
000C
0015
005A
0000
0000
0000
0014
001E
004F
0012
0000
0000
0000
0000
0000
0000
0000
FFFF
FFFF
0000
0000
0000
0000
0068
0000
002F
002D
0000
0000
0000
002B
0004
0068
0041
0020
0000
0000
0023
0000
0000
0000
0000
FFFF
FFFF
FFFF
FFFF
0000
0000
0000
0000
0000
0000
0000
0000
0000
0000
000E
0028
0019
0000
0000
0005
0020
0022
0000
0000
0000
0000
0000
0000
FFFF
0000
FFFF
FFFF
FFFF
0000
0000
FFFF
0000
0000
0000
0000
0000
0000
0000
0044
0036
0000
0000
002E
0000
0000
0000
0000
0000
0000
0000
0000
0000
FFFF
0000
FFFF
FFFF
FFFF
FFFF
0000
0000
0000
0000
0000
0000
0000
0011
0000
0000
0030
0022
0000
0000
0000
FFFF
FFFF
0000
0000
0000
FFFF
FFFF
0000
0000
0000
FFFF
FFFF
0000
FFFF
FFFF
0000
0000
0000
0000
0000
0000
0000
0000
0000
0000
0000
0000
0000
0000
FFFF
0000
FFFF
FFFF
FFFF
0000
0000
0000
0000
FFFF
FFFF
0000
FFFF
FFFF
0000
0000
0000
0000
0000
0000
0000
FFFF
0000
0000
0000
0000
0000
0000
FFFF
0000
0000
FFFF
FFFF
0000
FFFF
FFFF
FFFF
0000
FFFF
0000
FFFF
0000
0000
FFFF
0000
FFFF
FFFF
FFFF
0000
0000
0000
0000
0000
FFFF
FFFF
FFFF
FFFF
0000
FFFF
FFFF
0000
0000
FFFF
FFFF
