FFFF
0000
FFFF
FFFF
FFFF
FFFF
0000
0000
FFFF
FFFF
0000
FFFF
FFFF
0000
0000
FFFF
0000
0000
FFFF
FFFF
FFFF
FFFF
FFFF
0000
FFFF
0000
FFFF
0000
FFFF
FFFF
0000
0000
0000
FFFF
0000
FFFF
0000
0000
0000
0000
0000
FFFF
FFFF
FFFF
FFFF
FFFF
FFFF
0000
FFFF
0000
FFFF
0000
FFFF
FFFF
0000
0000
FFFF
FFFF
FFFF
0000
0000
0000
FFFF
FFFF
FFFF
0000
0000
0000
0000
0000
0000
0000
0000
0000
0000
0000
FFFF
0000
0000
0000
0000
FFFF
FFFF
FFFF
0000
0000
0000
FFFF
FFFF
FFFF
FFFF
0000
0000
0000
0000
0000
0000
0000
0000
0000
0000
0000
0000
0000
0000
0000
0000
0000
0000
FFFF
FFFF
0000
0000
0000
FFFF
FFFF
0000
0000
FFFF
0000
0000
0000
001B
0000
0000
0000
0000
000C
0008
0000
0000
0000
0000
0000
0000
0000
0000
FFFF
FFFF
0000
0000
FFFF
FFFF
0000
0000
0000
0000
0000
0000
0000
0013
002B
0010
0043
001E
000B
0000
001F
0020
0000
0019
002B
0000
0000
FFFF
FFFF
FFFF
FFFF
0000
FFFF
0000
FFFF
0000
0000
0000
0000
0000
0027
0000
000C
0031
000D
0025
002D
0000
0000
0000
001D
0000
0000
0046
0000
0000
0000
FFFF
0000
FFFF
0000
FFFF
0000
0000
0000
0000
001E
0000
0000
0000
0005
0000
0000
0000
0006
0000
003E
0004
005C
0000
0000
0000
0000
0000
0000
0000
FFFF
FFFF
FFFF
0000
FFFF
0000
0000
0000
0000
0039
000A
0000
0011
0000
0035
008A
0000
0059
0000
0000
0028
0000
004E
0000
0000
0000
0000
0000
FFFF
FFFF
0000
FFFF
FFFF
0000
0000
0000
0037
0000
0009
0022
0000
0000
0000
0000
0001
0000
0012
0011
0000
0001
007E
0000
0000
0000
0000
FFFF
FFFF
FFFF
FFFF
0000
FFFF
0000
0000
0001
0000
0010
0000
0003
0000
0000
001A
000D
0025
0000
002B
0063
0000
0000
0043
0009
0000
0000
0000
FFFF
0000
FFFF
FFFF
FFFF
0000
0000
0000
000A
0000
0000
002E
0002
0000
0014
0013
0000
0000
0000
0018
0038
0000
0000
001F
0000
0000
0000
0000
0000
FFFF
FFFF
FFFF
FFFF
FFFF
0000
0000
0058
0000
0000
0049
0073
0043
0000
0000
0073
0000
0000
003E
004A
0000
002D
0021
0000
0000
0000
0000
FFFF
0000
FFFF
0000
FFFF
0000
0000
0000
0000
0000
0000
0002
0000
0008
0000
005D
0000
0000
003B
0000
0000
0004
0000
0000
0053
0000
0000
FFFF
FFFF
0000
FFFF
0000
0000
0000
0000
0000
0000
0000
0076
0054
0043
0025
0040
0028
004E
0000
0000
0000
003D
0000
0073
003C
0027
0000
0000
FFFF
0000
FFFF
FFFF
FFFF
FFFF
FFFF
0000
0000
0020
0022
0003
0028
0000
0036
0000
004C
0000
0000
0029
0019
001F
0000
0035
001A
0000
0000
0000
0000
FFFF
0000
FFFF
FFFF
0000
0000
0000
0000
0000
0000
0000
0000
0000
0013
0020
0000
003E
002C
005E
0000
0000
0000
004E
0011
0000
0000
0000
0000
0000
0000
0000
0000
FFFF
FFFF
0000
0000
0015
0000
0000
0009
0014
0000
0000
001F
0000
0000
0000
0012
0000
0000
0000
004B
0000
0000
0000
0000
0000
FFFF
FFFF
FFFF
FFFF
0000
0000
0000
0000
0000
000E
0000
0000
0000
0000
0000
0000
0000
0000
0000
0030
0000
0000
0000
0012
0000
0000
0000
FFFF
FFFF
FFFF
FFFF
FFFF
FFFF
0000
0000
0007
0012
001E
0060
0000
0000
0000
0000
0062
0000
0005
0038
0000
0000
0022
004F
001C
0000
0000
FFFF
0000
FFFF
FFFF
0000
FFFF
0000
0000
0000
0000
000D
0000
0000
0000
0000
0020
0064
0029
0000
0054
0000
0000
001B
0010
0047
0000
0000
0000
0000
FFFF
0000
FFFF
0000
FFFF
0000
0000
0000
001E
0000
0005
0028
0000
0000
0000
0000
002D
0000
0052
0083
0000
000B
0028
0000
0000
0000
0000
FFFF
0000
FFFF
FFFF
0000
0000
0000
0000
0000
0000
000C
0018
0002
0000
0000
0000
0038
003C
0000
0034
0000
0000
004A
0000
0000
0000
0000
0000
0000
0000
FFFF
FFFF
FFFF
0000
0000
0000
0000
0000
0000
0000
0058
0006
0000
0000
001A
0009
0000
002B
0031
001D
0000
0000
0000
0000
FFFF
FFFF
0000
FFFF
0000
FFFF
FFFF
FFFF
FFFF
0000
0000
0000
0000
0000
0024
0000
0026
0016
0000
006C
003C
0000
0031
0000
0000
FFFF
0000
0000
0000
FFFF
FFFF
0000
FFFF
0000
FFFF
0000
FFFF
FFFF
0000
0000
0000
0000
0000
0000
0000
002D
0000
0000
0000
0000
0000
0000
0000
0000
0000
FFFF
FFFF
FFFF
FFFF
FFFF
FFFF
0000
FFFF
0000
FFFF
FFFF
FFFF
0000
FFFF
0000
0000
0000
0000
0000
0000
000C
0000
0000
0000
0000
0000
FFFF
0000
0000
FFFF
FFFF
0000
FFFF
FFFF
FFFF
0000
FFFF
FFFF
FFFF
0000
0000
FFFF
0000
FFFF
FFFF
0000
0000
0000
0000
0000
0000
0000
FFFF
FFFF
FFFF
0000
FFFF
FFFF
0000
0000
FFFF
FFFF
