FFFF
0000
FFFF
FFFF
0000
FFFF
FFFF
0000
0000
0000
FFFF
FFFF
FFFF
0000
0000
0000
0000
FFFF
FFFF
FFFF
0000
0000
0000
0000
FFFF
0000
FFFF
0000
FFFF
0000
0000
FFFF
0000
FFFF
0000
FFFF
0000
FFFF
0000
0000
0000
FFFF
0000
FFFF
FFFF
0000
FFFF
FFFF
FFFF
0000
0000
0000
FFFF
FFFF
FFFF
0000
FFFF
0000
FFFF
0000
0000
0000
0000
FFFF
FFFF
0000
FFFF
0000
0000
0000
0000
0000
0000
0000
0000
0000
FFFF
0000
0000
0000
0000
FFFF
0000
FFFF
FFFF
0000
FFFF
0000
FFFF
FFFF
FFFF
0000
FFFF
0000
0000
0000
0000
0000
0000
0000
0000
0000
0000
0000
0000
0000
0000
0000
0000
0000
0000
0000
0000
FFFF
FFFF
0000
FFFF
0000
FFFF
0000
0000
0000
0000
0000
0005
0000
0008
0000
0029
0000
0000
0000
004D
0000
0000
0000
0000
FFFF
0000
0000
0000
FFFF
FFFF
0000
0000
0000
0000
0000
0000
0000
0031
0000
0010
0019
0011
0000
0000
0072
0000
0000
003B
0000
0031
0000
FFFF
FFFF
FFFF
0000
FFFF
0000
FFFF
0000
0000
0000
0000
0000
0007
0000
0000
0017
0000
000E
0000
0000
001C
0023
0000
0000
0014
0035
006F
0000
0000
0000
0000
FFFF
FFFF
0000
0000
FFFF
FFFF
0000
0000
0000
00A7
0000
004C
000F
0049
002A
0000
0000
0000
0000
0000
0000
0022
0012
003E
001D
0000
0000
0000
0000
FFFF
FFFF
FFFF
FFFF
0000
0000
0000
0000
0000
000F
0000
0000
0012
0000
0005
0024
0000
000F
0000
0000
004B
0044
0000
0014
0000
0000
0000
FFFF
FFFF
0000
FFFF
FFFF
0000
0000
0000
0000
0056
000D
0011
0000
0000
0000
0020
0000
0061
0009
0000
002D
0000
0000
0000
000A
0000
0000
FFFF
FFFF
0000
FFFF
0000
0000
0000
FFFF
0000
0015
0000
001E
0000
000F
0000
0070
0000
0000
0000
0000
0000
001E
0000
001F
0021
0000
0000
0000
0000
0000
FFFF
FFFF
FFFF
0000
0000
0000
0000
0000
003A
0018
0068
0000
0000
0000
0000
0002
0000
0000
0000
0000
0000
0016
001A
0000
0000
0000
0000
FFFF
0000
FFFF
FFFF
FFFF
0000
0000
0006
0057
0046
0058
0000
0000
0000
0059
0000
003C
0000
0000
0000
0000
0020
0000
001A
0000
0000
FFFF
FFFF
FFFF
FFFF
0000
FFFF
0000
0000
0000
0000
0000
004A
0000
0000
0000
0036
0000
0000
003F
0000
0000
0049
004F
0000
005A
0000
0000
0000
FFFF
FFFF
0000
FFFF
0000
0000
0000
0000
0000
0006
0000
0000
0012
0000
0000
0000
0000
0006
0000
0002
0000
0000
0016
0000
0000
0072
0023
0000
0000
0000
FFFF
FFFF
0000
FFFF
FFFF
0000
0000
0000
0000
0000
0028
0040
0042
001C
0036
0000
0000
000E
0012
000B
001C
0046
0000
000F
0000
0000
0000
FFFF
0000
FFFF
0000
0000
0000
0000
0000
000E
0017
0000
0000
0000
0000
0014
0000
0059
0000
0010
0044
001C
001A
0000
0000
0000
0000
0000
0000
0000
FFFF
FFFF
0000
FFFF
FFFF
0000
0008
0031
002B
0000
003A
0000
0007
0000
003D
002F
000C
0000
003F
004C
0000
004D
0000
0000
0000
0000
0000
0000
FFFF
0000
FFFF
FFFF
0000
0000
0000
0000
0000
004A
0000
0000
0000
0000
0000
0010
0000
0000
0000
0070
0002
0000
0033
0000
0000
0000
0000
0000
FFFF
0000
FFFF
FFFF
0000
0000
0065
0047
002C
0063
003F
0039
003F
0000
0035
0012
0000
0000
0019
0000
000D
0035
0000
0000
0000
0000
0000
0000
0000
FFFF
0000
0000
0000
0000
0000
0028
001A
0017
0000
0019
0000
0026
0000
0032
002F
0000
002F
001F
0000
000F
0000
001F
0000
0000
0000
0000
0000
FFFF
0000
0000
0000
0000
0000
0000
0000
0034
003D
0000
0000
0000
0000
0000
005E
0000
0017
0028
000B
0000
0000
0000
0000
0000
FFFF
0000
0000
FFFF
0000
0000
0000
0000
0000
0008
0066
0000
0013
0017
0036
001E
0000
009E
0000
0000
001F
0013
0000
0000
0000
0000
0000
0000
FFFF
0000
FFFF
FFFF
FFFF
0000
0000
0000
0000
0000
0023
0000
0000
003D
0000
0000
0000
0000
0000
0000
0000
0000
0000
0000
0000
FFFF
FFFF
0000
0000
FFFF
0000
0000
FFFF
0000
FFFF
FFFF
0000
0000
0000
0000
0000
002D
0000
001C
0000
0012
0000
0000
0000
0000
0000
FFFF
FFFF
0000
0000
0000
FFFF
0000
FFFF
0000
FFFF
FFFF
FFFF
FFFF
FFFF
0000
FFFF
0000
0000
0000
0000
0000
0000
0000
0000
0000
0000
0000
0000
0000
0000
FFFF
0000
FFFF
FFFF
0000
FFFF
0000
FFFF
FFFF
FFFF
FFFF
0000
0000
FFFF
0000
0000
0000
0000
FFFF
0000
0000
0000
FFFF
0000
0000
0000
FFFF
0000
FFFF
FFFF
FFFF
0000
FFFF
FFFF
FFFF
0000
0000
0000
FFFF
0000
0000
FFFF
0000
FFFF
FFFF
0000
0000
0000
0000
0000
0000
FFFF
FFFF
FFFF
0000
FFFF
FFFF
FFFF
0000
0000
FFFF
0000
