FFFF
FFFF
FFFF
FFFF
FFFF
FFFF
FFFF
FFFF
FFFF
FFFF
0000
FFFF
FFFF
0000
FFFF
FFFF
0000
FFFF
FFFF
FFFF
FFFF
FFFF
0000
0000
FFFF
0000
FFFF
0000
FFFF
0000
FFFF
FFFF
0000
FFFF
0000
FFFF
0000
0000
FFFF
0000
0000
FFFF
FFFF
FFFF
FFFF
FFFF
FFFF
FFFF
FFFF
0000
FFFF
0000
FFFF
FFFF
FFFF
FFFF
FFFF
FFFF
FFFF
0000
0000
0018
FFFF
FFFF
FFFF
0000
FFFF
0000
0000
0000
FFFF
0000
0000
0000
0000
0000
FFFF
FFFF
FFFF
0000
FFFF
FFFF
FFFF
FFFF
0000
FFFF
0000
FFFF
FFFF
FFFF
FFFF
0000
FFFF
0000
0000
0000
0000
0000
0000
0000
0000
FFFF
0000
FFFF
FFFF
FFFF
FFFF
0000
0000
0000
FFFF
0000
FFFF
FFFF
FFFF
FFFF
FFFF
0000
0000
0000
0000
0000
0000
0000
0050
0002
0030
0000
0028
0000
0000
0000
0000
0000
0000
0022
0000
FFFF
0000
0000
0000
FFFF
0000
0000
FFFF
0000
0000
FFFF
0000
0002
0000
0000
0042
000F
002E
0000
0000
002D
0015
0000
0033
0027
0000
0000
0000
FFFF
FFFF
FFFF
FFFF
0000
FFFF
0000
FFFF
FFFF
0000
0000
0000
0000
0036
0030
0000
002B
0034
001C
0000
001F
0009
005D
0000
0000
0047
0000
0000
0000
FFFF
0000
FFFF
0000
FFFF
FFFF
FFFF
0000
0000
0016
0000
0000
004F
0000
001B
0000
0000
0046
0017
0016
0006
0000
0044
0000
0077
0042
0000
FFFF
0000
FFFF
FFFF
FFFF
FFFF
FFFF
0000
0000
0000
0020
00A1
0002
0031
0000
0023
0000
0000
0000
0011
0020
004F
0000
0000
006C
000D
000F
0000
0000
0000
FFFF
FFFF
0000
FFFF
FFFF
0000
0000
0000
0000
0000
0000
0000
000F
0011
0000
0000
0000
0000
0010
0038
0053
0000
0000
001A
0000
0000
0000
FFFF
FFFF
FFFF
0000
0000
FFFF
0000
0000
0000
0000
0038
0027
002C
0045
0000
0000
0017
0000
0013
0000
003F
000B
0000
0000
0000
0000
0000
0000
FFFF
FFFF
FFFF
FFFF
FFFF
0000
0000
0000
0000
0024
0003
0000
000F
0000
0000
0014
0001
0002
0003
0012
0000
0000
0000
0015
0020
0000
0000
0000
0000
FFFF
0000
FFFF
FFFF
FFFF
0000
0000
0008
000C
0039
0032
0000
0000
0000
0000
0000
0042
0000
008E
0007
003E
0044
0000
0000
0000
0000
FFFF
FFFF
FFFF
FFFF
FFFF
FFFF
0000
0000
0000
0004
0000
0009
0000
0000
0000
0004
0000
0000
0035
0000
0000
0000
001D
0015
000D
0000
0000
0000
FFFF
FFFF
0000
FFFF
FFFF
0000
0000
0000
0000
0000
0000
0000
0000
0014
0000
000E
005F
0000
0002
0000
0003
0042
0000
001E
0000
004E
0000
0000
FFFF
FFFF
FFFF
FFFF
FFFF
FFFF
FFFF
0000
0000
0000
0000
0000
0000
0055
002E
0013
0030
0000
002D
005A
001C
001D
0000
0000
0000
0000
0000
0000
0000
FFFF
0000
FFFF
FFFF
0000
0000
0000
0000
0000
0024
0000
0000
0000
004B
0072
0000
0019
0000
0037
0018
0000
0005
0000
0013
0000
0000
0000
0000
0000
0000
0000
0000
FFFF
FFFF
0000
0000
0000
0057
0000
0000
0000
0003
0009
0000
0000
0000
0000
0000
0066
005B
0045
0017
0000
0000
0000
0000
0000
FFFF
FFFF
0000
FFFF
0000
0000
0026
0000
0006
0000
0031
0000
0000
0000
0046
0008
0000
0000
0000
0000
0000
0008
0000
0004
0000
0000
0000
0000
FFFF
FFFF
FFFF
FFFF
FFFF
0000
0009
006D
0012
0000
0000
0000
0000
0000
0000
0000
0099
0000
0062
0000
0003
0011
0051
0000
0000
0000
0000
0000
FFFF
FFFF
0000
FFFF
0000
0000
0000
0030
0000
0004
0003
0000
0000
000E
0001
0000
0028
0000
0000
0000
0000
0000
001F
0036
0000
0000
0000
0000
0000
FFFF
FFFF
FFFF
0000
0000
0011
0000
000D
0010
0000
000C
0000
0000
0000
0000
0000
0000
0000
0006
0035
0000
0000
0000
0000
0000
FFFF
FFFF
FFFF
FFFF
0000
0000
0000
0000
0000
0000
000C
0050
001F
0000
0007
0000
0000
0015
0000
0000
0000
0010
0000
0000
0000
0000
0000
0000
0000
0000
FFFF
FFFF
FFFF
0000
0000
0000
0000
0000
000B
0000
0033
005F
0045
0000
0000
0008
0000
0000
0000
0038
0000
0000
0000
0000
0000
0000
0000
FFFF
0000
FFFF
0000
FFFF
FFFF
FFFF
0000
0000
0000
0000
0000
0000
0000
002A
0015
002C
004D
0000
0000
0000
0000
FFFF
FFFF
0000
0000
FFFF
FFFF
0000
FFFF
0000
FFFF
0000
FFFF
FFFF
0000
0000
0000
0000
0000
0000
0000
0000
0000
0000
0000
0000
0000
0000
0000
FFFF
0000
FFFF
FFFF
FFFF
FFFF
FFFF
FFFF
0000
FFFF
0000
0000
0000
FFFF
0000
0000
0000
0000
0000
0000
0000
0000
0000
0000
0000
0000
FFFF
FFFF
FFFF
0000
FFFF
FFFF
FFFF
0000
0000
FFFF
FFFF
0000
FFFF
FFFF
FFFF
FFFF
0000
FFFF
0000
FFFF
FFFF
FFFF
0000
0000
0000
0000
0000
FFFF
FFFF
FFFF
FFFF
0000
FFFF
FFFF
0000
FFFF
FFFF
0000
