FFFF
0000
FFFF
FFFF
FFFF
FFFF
0000
0000
0000
0000
FFFF
FFFF
FFFF
0000
0000
FFFF
0000
FFFF
FFFF
FFFF
0052
FFFF
0000
FFFF
FFFF
0000
FFFF
0000
FFFF
0000
FFFF
0000
0000
FFFF
FFFF
FFFF
0000
FFFF
FFFF
0000
0000
FFFF
FFFF
0000
FFFF
0000
FFFF
FFFF
FFFF
0000
FFFF
0000
FFFF
FFFF
0000
0000
FFFF
0000
0000
0000
0000
0000
008A
FFFF
FFFF
0000
0000
0000
FFFF
0000
FFFF
FFFF
0000
0000
0000
0000
FFFF
0000
0000
0000
FFFF
FFFF
FFFF
FFFF
FFFF
0000
FFFF
FFFF
FFFF
FFFF
0000
0000
FFFF
0000
0000
0000
0000
0000
0000
0000
0000
0000
FFFF
0000
0000
0000
0000
0000
0000
FFFF
0000
0000
FFFF
FFFF
FFFF
FFFF
FFFF
0000
0000
0000
0000
0000
0000
0000
0000
0000
0003
0000
0000
0000
0000
0000
0000
0000
0000
0000
0000
FFFF
FFFF
FFFF
0000
FFFF
FFFF
FFFF
0000
0000
0000
0000
0000
0000
0015
0000
001E
0000
0000
0000
0000
0035
000C
002F
0000
0000
0000
0000
FFFF
FFFF
FFFF
0000
FFFF
0000
0000
0000
0000
0000
0000
0000
0002
0000
0031
0000
0000
0000
0000
0000
0000
0008
0000
0034
0008
004A
0000
0000
0000
0000
FFFF
FFFF
FFFF
FFFF
0000
FFFF
0000
0000
0000
0000
0000
0001
0047
005E
0000
0034
0013
004C
000F
0000
0000
0007
0000
004B
0013
0000
0000
0000
0000
FFFF
FFFF
FFFF
FFFF
FFFF
0000
0000
FFFF
0031
0000
0000
0000
0000
000B
0047
0069
0000
0000
003E
0071
0000
0000
0000
0021
0000
0000
0000
0000
0000
0000
0000
FFFF
FFFF
0000
0000
0000
0000
000B
0038
0000
0000
0000
0005
0000
0000
0068
0000
0000
0019
0000
002B
0006
0000
0000
0000
FFFF
0000
FFFF
FFFF
0000
0000
0000
0000
0024
0018
0000
0000
0013
002B
0000
0027
0028
0000
0000
0010
0019
0000
0000
0000
0000
0000
0000
0000
0000
0000
FFFF
FFFF
FFFF
0000
0000
0000
0000
0017
0000
0022
001F
0015
0000
0022
001E
0039
0000
0000
0000
0000
005B
0031
0000
0000
0000
0000
0000
FFFF
0000
0000
FFFF
FFFF
0000
0000
0000
000E
0008
0001
0000
0050
0000
0000
0000
0000
0027
002B
0000
002F
0000
0000
0000
0000
0000
0000
FFFF
FFFF
FFFF
FFFF
FFFF
0000
0000
0000
0000
0011
0000
000B
0000
0000
0000
002E
0000
0000
0000
002F
0000
0004
0035
0001
0000
0000
0000
FFFF
FFFF
0000
FFFF
0000
0000
0000
0000
0000
0000
0000
0000
0000
0003
0000
0000
0001
0000
0020
004E
0044
0000
0001
0000
0000
0000
0000
0000
FFFF
0000
FFFF
FFFF
0000
FFFF
FFFF
0000
0000
0000
0041
0000
0000
0000
0030
0000
0004
001F
007C
0000
0000
0026
0051
0000
0003
0000
0000
0000
0000
FFFF
0000
FFFF
FFFF
FFFF
0000
0000
0000
0000
0041
0000
0039
0000
0028
0000
002D
0000
0009
0000
0000
0000
0000
0000
0000
0000
0000
0000
0000
0000
FFFF
FFFF
0000
FFFF
FFFF
0000
0000
0000
0000
004B
0007
004C
0014
0000
002B
0012
0000
0065
000D
0026
0000
0014
0000
0000
0000
0000
0000
0000
FFFF
0056
FFFF
FFFF
0000
0000
0000
0000
0000
0000
001A
0000
0000
0005
000A
0000
0000
0024
0041
0000
0018
0000
0000
0000
0000
0000
0000
0000
FFFF
FFFF
FFFF
FFFF
FFFF
0000
0000
0000
0067
000A
0000
0023
0000
003B
000C
001C
003A
0000
0026
003C
0000
0000
0000
0000
0000
0000
0000
0000
FFFF
FFFF
0000
FFFF
0000
0000
0000
0000
0026
0034
0000
0003
0000
0011
0003
0000
0000
001F
0061
0000
0000
0000
001F
0000
0000
0000
0000
0000
0000
FFFF
0000
0000
0000
0000
0000
0000
003A
0008
004A
007D
0010
001E
002C
0000
003F
0000
0069
0000
0000
0000
0000
0000
0000
0000
FFFF
FFFF
FFFF
FFFF
0000
0000
0000
0000
0000
0000
0000
0000
0041
0039
0000
000E
0000
0013
0000
0000
0000
0000
0000
0000
0000
0000
0000
0000
FFFF
0000
FFFF
FFFF
FFFF
0000
0000
0000
0000
002A
0000
002E
0000
0000
0002
0000
0000
0000
0000
002B
0000
0000
0000
0000
0000
0000
0000
FFFF
FFFF
FFFF
0000
FFFF
FFFF
FFFF
FFFF
0000
0048
0000
0000
003E
0000
0000
0003
0039
0047
000C
0008
0026
0000
0000
0000
FFFF
FFFF
0000
0000
0000
FFFF
0000
FFFF
0000
FFFF
FFFF
FFFF
0000
0000
0000
0000
0000
0000
0000
0000
0026
002E
0000
0044
0000
0000
0000
0000
0000
FFFF
FFFF
FFFF
FFFF
FFFF
FFFF
FFFF
0000
FFFF
FFFF
0000
0000
FFFF
0000
FFFF
0000
0000
0000
0000
0000
0000
0000
0000
0000
0000
FFFF
0000
FFFF
0000
FFFF
FFFF
FFFF
0000
FFFF
FFFF
FFFF
0000
FFFF
FFFF
FFFF
FFFF
FFFF
FFFF
0000
FFFF
FFFF
0000
0000
FFFF
0000
0000
0000
FFFF
FFFF
FFFF
0036
FFFF
FFFF
FFFF
0000
0000
FFFF
0000
