FFFF
0000
FFFF
FFFF
FFFF
FFFF
FFFF
0000
FFFF
FFFF
0000
FFFF
FFFF
0000
FFFF
FFFF
0000
FFFF
FFFF
FFFF
0000
FFFF
0000
0000
FFFF
0000
FFFF
0000
FFFF
FFFF
0000
FFFF
0000
FFFF
0000
FFFF
0000
0000
0000
0000
0000
FFFF
FFFF
FFFF
0000
FFFF
FFFF
FFFF
FFFF
0000
FFFF
0000
FFFF
FFFF
FFFF
0000
FFFF
FFFF
FFFF
0000
0000
0000
0000
FFFF
0000
0000
FFFF
0000
0000
0000
FFFF
0000
0000
0000
0000
0000
0000
0000
0000
0000
0000
FFFF
FFFF
FFFF
0000
FFFF
0000
0000
FFFF
FFFF
0000
0000
0000
0000
0000
0000
0000
0000
0000
0000
0000
0000
FFFF
0000
0000
0000
0000
0000
0000
FFFF
FFFF
0000
0000
0000
FFFF
0000
0000
0000
0000
0000
0000
0000
0023
0000
0000
0000
0000
0000
0000
001F
004B
0037
0000
0000
0000
0000
0000
FFFF
FFFF
0000
0000
FFFF
FFFF
0000
0000
0000
0000
0000
0000
0000
0000
0051
0050
001C
0016
0000
001D
0007
0000
0017
0000
0000
0000
0000
FFFF
FFFF
FFFF
FFFF
FFFF
FFFF
FFFF
0000
0000
0000
0000
0000
0033
002B
0000
0034
0021
0000
0000
0002
0000
0044
0041
0000
0017
0027
0000
0000
0000
0000
FFFF
0000
FFFF
0000
FFFF
FFFF
0000
FFFF
0000
0013
000C
0000
0000
0044
000B
0000
0000
0000
0005
0000
0000
001D
0000
0004
0000
0000
0000
FFFF
0000
0000
FFFF
FFFF
0000
FFFF
FFFF
0000
0000
0000
0068
0012
0033
0002
0010
0000
0074
0000
000F
001C
0038
0000
0016
0000
0019
0000
0000
0000
0000
FFFF
FFFF
0000
FFFF
FFFF
0000
0000
0000
0038
0031
0023
0016
0027
000E
0000
0000
0000
0000
0010
0018
0000
0008
0000
0026
0000
0000
0000
FFFF
FFFF
FFFF
0000
0000
0000
0000
0000
0000
0000
004F
000B
0026
0030
0000
0000
0000
002C
006F
0015
0000
0011
0000
0000
001C
0000
0000
0000
0000
0000
FFFF
FFFF
FFFF
0000
0000
0000
0000
0020
0000
0000
0000
0018
001F
0000
0000
0000
0000
0037
001D
0033
0000
001D
0087
0000
0000
0000
0000
FFFF
0000
FFFF
FFFF
FFFF
0000
0000
0000
0000
0000
0000
0057
0000
0002
0050
001A
0000
0061
0012
0000
0010
001A
000A
004C
0000
0000
FFFF
FFFF
FFFF
FFFF
0000
FFFF
0000
0000
000F
0047
0000
0036
0048
0000
0000
000B
0000
0018
0000
0000
002E
0000
0000
0000
0000
0025
0000
0000
FFFF
FFFF
0000
FFFF
0000
0000
0000
0000
0000
0000
0000
007C
0000
0023
0009
001A
0000
000C
0000
0000
001B
000C
0036
0023
0011
0000
0000
0000
FFFF
0000
FFFF
FFFF
FFFF
FFFF
FFFF
0000
0000
0010
0000
005A
0000
0000
0008
0000
0051
0000
0027
0000
0006
0020
0000
0000
000B
0000
0000
0000
0000
FFFF
FFFF
FFFF
FFFF
0000
0000
0000
0000
0000
0005
0000
0000
0000
0065
0000
0013
0000
0020
0034
002E
001A
0000
001A
0000
002E
0017
0000
0000
0000
FFFF
0000
0000
FFFF
FFFF
0000
0000
003C
003F
0000
0000
0000
0000
0008
0049
003A
0014
003B
0000
000D
0000
0021
000D
0002
0000
0000
0000
0000
FFFF
0000
0000
FFFF
0000
0000
000A
0015
0000
0068
003A
0054
0000
0000
0000
0033
0000
0000
0000
0000
0000
0000
0085
0000
0000
0000
0000
0000
FFFF
FFFF
FFFF
FFFF
0000
0000
0000
0000
0000
0052
0020
0000
0000
0000
0000
0035
0029
0021
0000
001F
0000
0044
0054
000A
0000
0000
0000
0000
FFFF
FFFF
0000
FFFF
0000
0000
002C
003E
0061
005F
0000
0005
0000
0000
0000
0000
004B
005C
0000
0000
0000
0000
0000
0000
0000
0000
0000
0000
0000
FFFF
0000
FFFF
0000
0000
0000
002B
0000
0000
0005
0000
0000
0000
0022
0000
0000
0017
0000
0000
0000
0000
0000
0000
0000
0000
0000
0000
FFFF
FFFF
0000
FFFF
FFFF
FFFF
0000
0000
0000
0000
004D
0080
0000
0013
0000
0000
0000
0009
0017
001F
0000
0000
0000
0000
0000
0000
0000
0000
FFFF
0000
FFFF
0000
0000
FFFF
0000
0000
0000
0000
0000
0023
0030
0044
0038
0043
0037
000C
0007
003F
0000
0000
0000
0000
0000
FFFF
0000
FFFF
0000
FFFF
0000
FFFF
FFFF
0000
0000
0000
0000
0000
0000
0000
0000
0050
0000
0025
0001
0015
0000
0000
0000
FFFF
0000
0000
0000
FFFF
FFFF
0000
FFFF
0000
FFFF
0000
FFFF
FFFF
0000
0000
0000
0000
0000
0000
0000
0011
0003
0000
0000
0000
0000
0000
0000
0000
0000
FFFF
FFFF
0000
FFFF
0000
FFFF
0000
FFFF
0000
FFFF
FFFF
FFFF
0000
0000
0000
0000
0000
0000
0000
0000
0000
0000
0000
0000
0000
0000
FFFF
0000
0000
FFFF
FFFF
0000
0000
FFFF
FFFF
0000
FFFF
0000
FFFF
0000
0000
FFFF
0000
FFFF
FFFF
0000
0000
0000
0000
0000
0000
FFFF
FFFF
FFFF
0000
0000
FFFF
FFFF
0000
0000
FFFF
0000
