FFFF
FFFF
FFFF
FFFF
FFFF
FFFF
FFFF
0000
FFFF
FFFF
0000
FFFF
FFFF
0000
FFFF
0000
0000
FFFF
FFFF
FFFF
FFFF
0000
0000
0000
FFFF
0000
FFFF
0000
FFFF
0000
0000
FFFF
0000
FFFF
0000
FFFF
0000
0000
0000
0000
0000
FFFF
0000
FFFF
0000
0000
FFFF
FFFF
0000
0000
FFFF
0000
FFFF
FFFF
FFFF
FFFF
FFFF
0000
FFFF
0000
0000
0000
FFFF
FFFF
0000
0000
FFFF
0000
0000
0000
0000
0000
0000
FFFF
0000
0000
FFFF
0000
0000
0000
0000
0000
FFFF
FFFF
0000
FFFF
0000
0000
FFFF
FFFF
0000
0000
0000
0000
0000
0000
0000
0000
0000
0000
0000
0000
0000
0000
0000
0000
0000
0000
0000
0000
0000
0000
0000
0000
FFFF
0000
0000
0000
FFFF
0000
0000
0000
0000
0000
0000
0000
0076
001F
000B
0000
0083
0027
0000
0000
0000
0000
0000
FFFF
FFFF
0000
0000
FFFF
FFFF
0000
0000
FFFF
0000
FFFF
0000
0000
0033
0000
0000
0000
0000
0000
0028
001B
0000
0015
0000
0000
0000
FFFF
FFFF
0000
FFFF
0000
FFFF
0000
FFFF
0000
FFFF
FFFF
0000
0000
001D
0059
003F
0000
0065
0000
000B
0000
0036
0000
0000
0000
0009
0035
0000
0000
0000
0000
FFFF
0000
FFFF
FFFF
0000
0000
0000
0000
0000
0000
001B
0000
0000
0014
0000
0084
0000
0023
0000
0000
003C
0000
0040
0018
004B
0000
0000
0000
0000
0000
0000
FFFF
0000
FFFF
0000
0000
0000
0013
003B
007E
0000
0039
0000
0058
0000
0000
0000
0000
0000
000E
0000
0000
0020
0000
0000
0000
0000
FFFF
FFFF
0000
FFFF
FFFF
0000
0000
0000
0025
0043
0059
000B
001B
0000
0053
001D
000E
0001
0000
0021
0000
0000
0003
003C
0000
0000
0000
FFFF
FFFF
FFFF
0000
0000
0000
0000
0000
0000
0001
0000
0035
003B
002F
0000
0002
0000
003A
0012
0000
0000
0000
000D
000B
0039
0000
0000
0000
0000
FFFF
FFFF
FFFF
FFFF
0000
0000
0000
0022
0029
0000
0022
0000
0010
0092
0055
0020
004A
003D
0000
000B
0000
0000
0052
0000
0000
0000
0000
FFFF
0000
0000
FFFF
0000
FFFF
0000
0000
0000
000F
0000
0016
0000
0000
002F
0000
0000
0000
0000
0000
0033
0000
0021
0000
0000
0000
0000
FFFF
FFFF
0000
FFFF
0000
FFFF
0000
0000
0000
0000
000A
002B
0000
0007
0000
0000
0000
0000
000C
0000
0000
0014
0000
0000
0009
000D
0000
0000
FFFF
FFFF
0000
FFFF
FFFF
0000
0000
0000
0000
0000
0000
0000
0013
000A
0000
0000
0000
001F
0000
0038
0012
0000
0000
009F
0000
0000
0000
0000
0000
FFFF
FFFF
FFFF
0000
FFFF
FFFF
0000
0000
0000
002A
0020
0000
0029
0000
0000
004B
0000
0005
004E
002D
0040
001F
0004
0000
0033
001D
0000
0000
FFFF
0000
FFFF
0000
0000
0000
0000
0000
001B
003E
0000
0000
0000
0001
0000
0010
0000
0028
0000
0000
000C
0036
0000
0001
0002
0056
0000
0000
0000
FFFF
0000
0000
0000
FFFF
0000
0000
0000
0000
0000
001B
0012
0002
0000
0055
001E
0000
0000
0024
0000
0000
0009
0000
0000
0000
0000
0000
0000
0000
FFFF
FFFF
FFFF
0000
0000
0029
001B
0005
0000
0000
002C
0063
0000
0051
0000
0000
0017
004A
002D
0006
0081
0000
0005
0000
0000
0000
0000
FFFF
FFFF
FFFF
FFFF
0000
0000
0000
0034
001A
0000
0031
0000
0000
0000
0000
0017
0000
0000
0000
0030
0000
0000
0002
0000
0000
0000
0000
0000
0000
FFFF
0000
FFFF
0000
0000
002E
0037
0034
0000
0084
007B
001A
0007
000B
0000
0015
001A
0000
0000
0000
0029
0025
0000
0000
0000
0000
0000
0000
FFFF
FFFF
0000
0000
0000
0000
0007
001E
0005
0000
0000
0010
0000
0000
0000
000B
0019
0000
001A
0000
0000
0000
0000
0000
0000
FFFF
0000
0000
FFFF
0000
0000
0000
0000
0000
0000
0016
0011
0032
000E
0000
0061
0012
0071
0000
0003
0000
0000
0000
0000
0000
0000
0000
0000
0000
0000
FFFF
FFFF
FFFF
0000
0000
0000
0000
0000
0000
0017
0000
0000
0000
001A
004C
000F
0000
0000
0009
004B
0000
0000
0000
0000
0000
FFFF
0000
FFFF
0000
0000
0000
0000
FFFF
FFFF
0000
0000
0000
0000
0000
0000
0000
0000
0000
0031
0028
0000
0000
0000
0000
FFFF
0000
0000
0000
FFFF
FFFF
0000
FFFF
0000
FFFF
0000
FFFF
FFFF
0000
0000
FFFF
0000
0000
0000
0000
0000
0000
0000
0000
0000
0000
0000
0000
0000
0000
FFFF
FFFF
0000
FFFF
0000
FFFF
0000
FFFF
0000
FFFF
FFFF
0000
0000
0000
0000
0000
0000
0000
0000
0000
0000
0000
0000
0000
0000
0000
0000
0000
0000
FFFF
FFFF
0000
0000
FFFF
0000
0000
0000
0000
0000
0000
0000
FFFF
0000
FFFF
FFFF
FFFF
0000
0000
0000
0000
0000
0000
FFFF
0000
FFFF
0000
FFFF
FFFF
0000
0000
FFFF
0000
