FFFF
0000
FFFF
FFFF
FFFF
FFFF
FFFF
0000
FFFF
0000
0000
FFFF
FFFF
0000
FFFF
FFFF
0000
0000
FFFF
FFFF
FFFF
0000
0000
0000
FFFF
0000
FFFF
0000
FFFF
0000
0000
FFFF
0000
FFFF
0000
FFFF
0000
0000
0000
0000
0000
FFFF
FFFF
0000
FFFF
0000
FFFF
FFFF
0000
0000
FFFF
0000
FFFF
FFFF
0000
0000
FFFF
FFFF
FFFF
0000
0000
0000
FFFF
FFFF
FFFF
0000
FFFF
0000
0000
0000
FFFF
0000
FFFF
0000
0000
0000
FFFF
FFFF
FFFF
0000
0000
FFFF
FFFF
FFFF
0000
FFFF
0000
0000
FFFF
FFFF
FFFF
0000
FFFF
0000
0000
0000
0000
0000
0000
0000
0000
FFFF
0000
0000
0000
FFFF
FFFF
0000
0000
0000
FFFF
0000
0000
0000
FFFF
FFFF
0000
0000
FFFF
0000
0000
0000
0000
0000
0000
0000
0000
0000
0000
0000
0000
0000
0000
0000
0000
0000
0000
FFFF
0000
0000
0000
FFFF
FFFF
0000
0000
0000
0000
0000
0000
0000
0000
0000
0012
0000
0000
0000
0007
0000
0000
001B
0000
0000
0000
0000
FFFF
FFFF
FFFF
FFFF
FFFF
0000
0000
0000
0000
0000
0000
0000
0000
0000
0000
0033
0022
0000
005E
0062
0014
0000
0002
0037
000C
001B
0000
0000
0000
0000
FFFF
0000
FFFF
FFFF
0000
FFFF
0000
0000
0000
0000
0000
002D
006E
0000
0000
0000
0000
0000
003F
001B
0046
0000
0000
0003
0000
0000
0000
FFFF
0000
0000
FFFF
FFFF
FFFF
FFFF
0000
0000
FFFF
002E
0000
0000
002C
0000
0032
003F
0038
0023
0000
003F
0000
0006
0076
0000
0000
0000
0000
0000
0000
FFFF
FFFF
0000
FFFF
FFFF
0000
0000
0000
0053
0029
0019
0000
0034
0000
0000
0000
0000
0070
0000
0041
0034
0000
0004
0025
0000
0000
0000
FFFF
FFFF
FFFF
0000
0000
0000
0000
0000
0000
0000
0000
0000
0039
0000
0000
0000
000F
001D
006A
0000
0000
000C
000F
0028
0064
0000
0000
0000
0000
0000
FFFF
FFFF
FFFF
0000
0000
0000
0011
0000
0000
004F
0000
0000
003A
0000
0004
004B
001B
004D
0000
0011
0000
0009
0016
0000
0000
0000
0000
0000
0000
FFFF
FFFF
FFFF
0000
0000
0000
0000
0000
0000
0000
000F
0025
000B
0000
0000
0030
0000
0024
0000
003D
0000
0000
0019
0000
FFFF
FFFF
FFFF
FFFF
FFFF
FFFF
0000
0000
0000
0052
0000
0060
0064
0005
0000
0000
0005
0000
0049
0000
003E
0007
0000
0000
0000
0000
0000
0000
FFFF
FFFF
0000
FFFF
0000
0000
0000
0000
0000
0004
0025
0014
0000
0007
0000
0000
0000
0000
001D
0007
0000
0009
0000
0000
0001
0056
0000
0000
FFFF
0000
FFFF
FFFF
FFFF
FFFF
FFFF
0000
0000
0000
001C
001D
0003
0000
0000
0000
0000
0000
0008
0000
0000
0000
0093
0026
000B
0000
0000
0000
0000
FFFF
0000
FFFF
FFFF
0000
0000
0000
0000
003D
0000
0000
0000
0000
0000
0000
0000
0000
0000
0016
0000
0000
0000
001A
000B
003E
0000
0000
0000
0000
FFFF
0000
0000
FFFF
FFFF
0000
0056
0000
0009
002F
0000
0000
0000
0000
0000
002A
0000
0000
0002
0000
0026
0033
0000
0000
0000
0000
0000
0000
FFFF
FFFF
0000
FFFF
0000
0000
000C
003A
0029
0031
0000
0000
0005
0000
0004
003F
0060
0000
0014
000D
0000
0044
0000
0000
0000
0000
FFFF
FFFF
FFFF
FFFF
FFFF
FFFF
0000
0000
0000
004C
0000
0000
0000
0000
0019
0000
0000
0000
0000
000E
0000
0000
002B
0026
0000
0000
0000
0000
FFFF
0000
FFFF
FFFF
0000
FFFF
0000
0000
0000
0000
0000
0000
0000
0000
0000
0000
0000
0000
004C
001E
0000
0000
0008
0001
0000
0000
0000
0000
0000
FFFF
FFFF
FFFF
0000
0000
FFFF
0000
0000
0019
0000
0000
0000
0000
005A
0000
0000
000E
000A
0000
0000
0020
0006
0000
0000
0000
0000
0000
0000
FFFF
FFFF
FFFF
0000
0000
0000
0000
0000
0000
0000
0000
0000
0021
004B
0010
0000
0000
0006
0000
0000
0000
0000
0000
0000
0000
0000
FFFF
0000
0000
FFFF
FFFF
FFFF
0000
0000
0000
0000
0000
002D
0005
0000
0000
0033
0000
0014
0000
003D
0000
0000
0000
0000
0000
0000
0000
0000
0000
0000
FFFF
0000
FFFF
0000
FFFF
FFFF
0000
0000
0000
0000
0000
000F
003E
0000
0006
001B
0026
0067
0000
0000
0000
0000
0000
FFFF
0000
0000
FFFF
FFFF
0000
FFFF
0000
FFFF
0000
FFFF
FFFF
FFFF
0000
0000
0000
0000
0000
0000
0000
0000
0000
0000
0000
0000
0000
0000
0000
0000
FFFF
FFFF
FFFF
FFFF
0000
FFFF
0000
FFFF
0000
FFFF
FFFF
FFFF
0000
0000
0000
0000
0000
0000
0000
0000
0000
0000
0000
0000
0000
0000
FFFF
0000
FFFF
FFFF
FFFF
0000
FFFF
FFFF
FFFF
0000
FFFF
0000
0000
0000
0000
FFFF
0000
FFFF
FFFF
0000
0000
0000
0000
0000
0000
0000
FFFF
FFFF
FFFF
FFFF
FFFF
FFFF
0000
0000
FFFF
0000
