0000
0000
0000
0000
0000
0000
0000
0000
0000
0000
0000
0000
0000
0000
0000
0000
0000
0000
0000
0000
0000
0000
0000
0000
0000
0000
0000
0000
0000
0000
0000
0000
0000
0000
0000
0000
0000
0000
0000
0000
0000
0000
0000
0000
0000
0000
0000
0000
0000
0000
0000
0000
0000
0000
0000
0000
0000
0000
0000
0000
0000
0000
0000
0000
0000
0000
0000
0000
0000
0000
0000
0000
0000
0000
0000
0000
0000
0000
0000
0000
0000
0000
0000
0000
0000
0000
0000
0000
0000
0000
0000
0000
0000
0000
0000
0000
0000
0000
0000
0000
0000
0000
0000
0000
0000
0000
0000
0000
0000
0000
0000
0000
0000
0000
0000
0000
0000
0000
0000
0000
0000
0000
0000
0000
0000
0000
0000
0000
0000
0000
0000
0000
0000
0000
0000
0000
0000
0000
0000
0000
0000
0000
0000
0000
0000
0000
0000
0000
0000
0000
0000
0000
0000
0000
0000
0000
0000
0000
0000
0000
0000
0000
0000
0000
0000
0000
0000
0000
0000
0000
0000
0000
0000
0000
0000
0000
0000
0000
0000
0000
0000
0000
0000
0000
0000
0000
0000
0000
0000
0000
0000
0000
0000
0000
0000
0000
0000
0000
0000
0000
0000
0000
0000
0000
0000
0002
0009
0000
0000
0000
0000
0000
0000
0000
0000
0000
0000
0000
0000
0000
0000
0000
0000
0000
0000
0000
0000
0000
0000
0000
0000
0000
0000
0000
0000
0000
0000
0000
0000
0000
0000
0000
0000
0000
0000
0000
0000
0000
0000
0000
0000
0000
0000
0000
0000
0000
0000
0000
0000
0000
0000
0000
0000
0000
0000
0000
0000
0000
0014
0000
0000
0000
0000
0000
0000
0000
0000
0000
0000
0000
0000
0000
0000
0000
0000
0000
0000
0000
001A
0000
0000
0000
0000
0000
0000
0000
0034
0000
0016
0000
0000
0000
0000
0000
0000
0000
0000
0000
0000
0000
0000
0000
0000
0000
0000
0000
0000
0000
0000
0000
0000
0000
0000
0000
0000
0000
0000
0000
0000
0000
0000
0000
0000
0000
0000
0000
0000
0000
0000
0000
0000
0000
0000
0000
0010
002C
0000
0000
0000
0000
0000
0000
0000
0007
0000
0000
0000
0000
0000
0000
0000
0000
0000
0000
0000
0000
0000
0000
0000
0000
0000
003B
0000
0000
0000
0000
0000
0000
0000
0000
0000
0024
0000
0000
0000
0000
0000
0000
0000
0000
0000
0000
0000
0000
0000
0000
0000
0000
0000
000B
0000
0000
0000
0000
0000
0000
0000
0000
0027
0000
0032
001E
0000
0000
0000
0000
0000
0000
0000
0000
0000
0000
0000
0000
0000
0000
0000
0000
0025
0000
0000
000B
0000
002A
0000
0042
0025
0000
001E
0018
0000
0000
0000
0000
0000
0000
0000
0000
0000
0000
0000
0000
0000
0000
0000
0000
0024
0000
0000
0000
0000
0000
0000
0011
001D
0000
0000
0000
0000
0000
0000
0000
0000
0000
0000
0000
0000
0000
0000
0000
0000
0000
0000
0000
0000
0000
0000
0000
0000
0000
0000
0000
0000
0000
000C
0000
0000
0000
0000
0000
0000
0000
0000
0000
0000
0000
0000
0000
0000
0000
0000
0000
0000
0000
0000
0000
0000
0000
0000
0000
0000
0000
0000
0000
0000
0000
0000
0000
0000
0000
0000
0000
0000
0000
0000
0000
0000
0000
0000
0000
0000
0000
0000
0000
0000
0000
0000
0000
0000
0000
0000
0036
0000
0000
0000
0000
0000
0000
0000
0000
0000
0030
0000
0000
0000
0000
0000
0000
0000
0000
0000
0000
0000
0000
0000
0000
0000
0000
0000
0000
0000
0000
0000
0000
0000
0000
0000
0000
0000
0000
0000
0000
0000
0000
0000
0000
0000
0000
0000
0000
0000
0000
0000
0000
0000
0000
004E
0006
0000
0000
0000
0000
0000
0000
0000
0000
0000
0000
0000
0000
0000
0000
0000
0000
0000
0000
0000
0000
0000
0000
0000
0000
0000
0000
001A
0025
0000
0000
0000
0000
0000
0000
0000
0000
0000
0000
0000
0000
0000
0000
0000
0000
0000
0000
0000
0000
0000
0000
0000
0000
0000
000A
0000
0000
0000
0000
0000
0000
0000
0000
0000
0000
0000
0000
0000
0000
0000
0000
0000
0000
0000
0000
0000
0000
0000
0000
0000
0000
0000
0000
0000
0000
0000
0000
0000
0000
0000
0000
0000
0000
0000
0000
0000
0000
0000
0000
0000
0000
0000
0000
0000
0000
0000
0000
0000
0000
0000
0000
0000
0000
0000
0000
0000
0000
0000
0000
0000
0000
0000
0000
0000
0000
0000
0000
0000
0000
0000
0000
0000
0000
0000
0000
0000
0000
0000
0000
0000
0000
0000
0000
0000
0000
0000
0000
0000
0000
0000
0000
0000
0000
0000
0000
0000
0000
0000
0000
0000
0000
0000
0000
0000
0000
0000
0000
0000
0000
0000
0000
0000
0000
0000
0000
0000
0000
FFFF
0000
0000
FFFF
FFFF
FFFF
FFFF
0000
FFFF
0000
FFFF
FFFF
FFFF
0000
FFFF
FFFF
0000
FFFF
FFFF
FFFF
FFFF
FFFF
0000
0000
FFFF
0000
0000
0000
FFFF
0000
0000
0000
0000
FFFF
0000
FFFF
0000
0000
FFFF
0000
0000
FFFF
FFFF
FFFF
FFFF
0000
FFFF
0000
FFFF
0000
FFFF
0000
FFFF
FFFF
FFFF
0000
FFFF
0000
FFFF
0000
0000
0000
FFFF
FFFF
FFFF
0000
0000
0000
0000
0000
FFFF
FFFF
0000
0000
0000
0000
FFFF
0000
0000
0000
0000
FFFF
FFFF
FFFF
FFFF
0000
FFFF
FFFF
FFFF
FFFF
0000
0000
FFFF
0000
0000
0000
0000
0000
0000
0000
0000
0000
FFFF
0000
0000
0000
0000
0000
0000
0000
0000
0000
FFFF
FFFF
FFFF
FFFF
FFFF
0000
0000
0000
0000
0000
0000
0000
0000
0049
0047
0000
0057
0000
0020
0000
0000
0000
0000
0000
0000
FFFF
FFFF
FFFF
0000
FFFF
0000
FFFF
0000
0000
0000
0000
0000
0000
0000
0000
0026
0000
0000
0022
0011
001B
002D
001F
0003
0000
0000
0000
FFFF
FFFF
FFFF
0000
FFFF
0000
FFFF
0000
0000
0000
0000
0000
0000
0000
0000
0000
0000
0000
0042
0000
0000
002E
0000
0000
0000
006B
0000
0000
0000
0000
0000
FFFF
FFFF
0000
0000
FFFF
FFFF
0000
FFFF
0000
0000
0014
0012
0000
0000
0000
0005
0000
0003
0000
0000
0000
0000
0014
0069
0000
0000
0000
0000
FFFF
FFFF
FFFF
FFFF
FFFF
0000
0000
FFFF
0000
001C
0000
0000
0000
0007
0039
001B
0051
0000
0030
0000
0021
0000
0004
0000
0000
0000
0000
0000
FFFF
FFFF
0000
FFFF
FFFF
FFFF
FFFF
FFFF
0000
000D
0000
0043
0000
0000
006B
0000
001F
0027
0028
0000
0000
0023
0000
000D
0000
0000
0000
FFFF
0000
FFFF
0000
0000
FFFF
0000
FFFF
0000
0000
0004
0000
0012
004C
0000
001B
0012
000D
003C
0048
0029
0019
0000
0000
0000
0000
0000
0000
0000
0000
FFFF
FFFF
FFFF
0000
0000
0000
0000
0000
000F
0000
0061
0000
0000
0047
0000
0000
0000
0039
000D
0000
0023
0000
0024
0000
0000
0000
0000
FFFF
0000
0000
FFFF
FFFF
0000
0000
002F
0000
0000
0000
0007
0000
0038
0000
0000
00AF
0000
0000
0000
001A
0000
0000
002E
0000
0000
FFFF
FFFF
FFFF
0000
0000
0000
0000
FFFF
0000
0017
003B
0070
005B
000B
0000
0000
0000
0000
0000
005D
0000
0015
0000
0003
0000
001F
0000
0000
FFFF
FFFF
0000
FFFF
0000
0000
0000
0000
0000
003F
0034
0034
0020
002D
0028
0009
0000
0000
0000
0000
001D
0027
001B
0040
0058
0002
0013
0000
FFFF
0000
FFFF
FFFF
0000
FFFF
FFFF
0000
0000
0000
0073
0000
0000
0050
0000
0000
0035
004C
002D
0000
001C
0000
0000
0000
0017
0000
0000
0000
0000
FFFF
0000
0000
0000
FFFF
0000
0000
0000
003D
0000
0049
0008
0000
001F
0000
0000
000F
0025
0000
001C
0000
0001
0000
0030
000A
0001
0000
0000
0000
0000
FFFF
0000
FFFF
FFFF
0000
0000
001E
0034
0030
0000
0000
0000
007D
0000
000F
0000
0000
0000
0000
0000
0000
0000
0021
0000
0000
0000
0000
FFFF
FFFF
FFFF
FFFF
0000
0000
0042
0000
0000
0000
0005
0022
002F
0000
0000
0000
0044
000C
0000
0000
0047
0000
0000
0000
0000
0000
0000
FFFF
FFFF
FFFF
FFFF
FFFF
FFFF
0000
0000
0000
0000
0016
0009
0000
0000
0001
0000
0018
0000
0000
0001
0000
0000
0000
0000
0000
0000
0000
FFFF
FFFF
0000
FFFF
0000
FFFF
0000
0000
0000
0000
0000
0000
0000
0000
0013
000C
0000
0000
0022
001B
003F
0000
0044
0000
0000
0000
0000
0000
0000
0000
0000
FFFF
0000
0000
FFFF
0000
0000
0059
0000
0000
0003
0000
0000
0000
0007
0025
0000
003D
0001
0064
0000
0000
0000
0000
0000
0000
FFFF
FFFF
0000
FFFF
0000
0000
0000
0000
FFFF
0000
0003
000C
0000
0000
0000
0000
001A
0000
0028
0022
0000
000B
0000
0000
0000
0000
0000
0000
FFFF
0000
FFFF
FFFF
FFFF
0000
0000
0000
0000
0000
0000
0000
0000
004C
0000
001F
0000
0000
000F
0001
001A
0000
0000
FFFF
0000
0000
0000
FFFF
FFFF
FFFF
0000
0000
0000
0000
FFFF
0000
0000
0000
0000
0000
001D
0000
0012
0000
0000
0000
0000
0000
0000
0000
0000
0000
0000
0000
0000
0000
FFFF
0000
0000
0000
FFFF
FFFF
0000
0000
0000
0000
0000
0000
0000
0000
0000
0000
0000
0000
0000
0000
0000
0000
0000
0000
0000
FFFF
0000
0000
0000
FFFF
0000
0000
0000
FFFF
0000
FFFF
FFFF
0000
0000
0000
0000
0000
0000
0000
0000
0000
0000
0000
0000
0000
0000
FFFF
0000
0000
FFFF
FFFF
0000
0000
FFFF
FFFF
0000
FFFF
FFFF
FFFF
0000
0000
FFFF
0000
FFFF
FFFF
0000
0000
FFFF
0000
FFFF
0000
FFFF
FFFF
FFFF
FFFF
0000
FFFF
FFFF
0000
0000
FFFF
0000
0000
0000
0000
FFFF
FFFF
FFFF
0000
0000
0000
0000
FFFF
FFFF
FFFF
0000
FFFF
FFFF
0000
FFFF
FFFF
FFFF
0000
FFFF
0000
0000
FFFF
0000
FFFF
0000
FFFF
0000
0000
FFFF
0000
FFFF
FFFF
FFFF
0000
FFFF
0000
0000
0000
FFFF
FFFF
FFFF
0000
0000
FFFF
0000
FFFF
0000
0000
0000
FFFF
FFFF
0000
0000
FFFF
FFFF
FFFF
0000
FFFF
0000
FFFF
FFFF
0000
0000
0000
0000
0000
0000
FFFF
0000
0000
0000
0000
0000
0000
0000
FFFF
0000
0000
FFFF
FFFF
FFFF
FFFF
0000
FFFF
FFFF
FFFF
FFFF
0000
0000
0000
0000
0000
0000
0000
0000
0000
0000
0000
0000
0000
0000
0000
0000
0000
0000
0000
0000
FFFF
0000
0000
0000
FFFF
FFFF
FFFF
0000
FFFF
0000
0000
0000
0020
004D
0000
0000
000D
003B
0000
0000
001B
0000
0000
0000
0000
0000
0000
FFFF
FFFF
0000
0000
FFFF
FFFF
0000
0000
0000
0000
0000
0000
0007
0031
0015
0000
0000
001A
000E
0045
0000
0000
0022
0000
0000
0000
FFFF
FFFF
FFFF
FFFF
FFFF
0000
FFFF
0000
0000
0000
0000
0000
0000
0000
0058
0000
0000
0037
0004
003F
0095
0063
0000
0000
0037
0000
0046
0000
0000
0000
0000
FFFF
FFFF
FFFF
0000
0000
FFFF
FFFF
0000
0000
0024
0009
0000
0000
0000
0000
0000
0000
0003
006C
0028
0000
003F
0000
000B
0000
0000
0000
FFFF
0000
0000
FFFF
FFFF
FFFF
FFFF
0000
0000
0000
0000
000F
0054
0000
0010
000F
0012
006B
0000
0000
0005
0013
0018
001E
0009
0000
0000
0000
0000
0000
FFFF
FFFF
0000
FFFF
FFFF
0000
0000
0000
0000
0000
0000
0032
0002
003C
002E
0000
0002
0005
0000
0000
0037
001C
004E
0000
0000
0000
0000
FFFF
0000
FFFF
FFFF
0000
0000
0000
FFFF
0000
0000
001F
000B
0000
0000
0049
001A
0000
0065
0001
0000
0000
0000
0000
0000
0000
0000
0000
0000
0000
0000
FFFF
FFFF
FFFF
0000
0000
0000
0000
0000
0000
003C
0023
002C
0000
0000
0057
0026
0000
0036
0000
0000
0000
0010
0000
0009
0000
0000
0000
FFFF
0000
0000
FFFF
FFFF
0000
0000
000B
000F
0000
0016
0003
0000
0000
0022
0000
002D
001C
0017
0032
0000
0053
0000
0035
0000
0000
0000
FFFF
FFFF
0000
FFFF
0000
0000
0000
0000
0065
0034
006D
000C
003D
0000
0000
0000
0010
0025
0000
0025
004A
000A
0000
0000
0000
0000
0000
FFFF
FFFF
0000
FFFF
0000
0000
0000
0000
0011
005A
0000
002F
0000
0000
0030
0000
0000
0018
0000
0019
001D
0000
0000
0000
0000
0000
0000
0000
FFFF
0000
FFFF
FFFF
FFFF
FFFF
FFFF
0000
000E
0004
0033
0034
0000
0032
0017
0000
0000
0000
0000
000A
0014
0000
0042
0007
001D
0000
0000
0000
0000
FFFF
0000
0000
FFFF
0000
0000
0000
0000
0040
0012
0000
0000
0018
003C
0000
0000
0000
0000
0000
001A
0025
0000
0000
0000
0000
0038
0000
0000
0000
0000
FFFF
0000
FFFF
FFFF
0000
0000
000E
004F
0000
0000
0000
0000
0000
0000
0031
0002
000D
0006
0000
002F
006A
0034
0000
0000
0000
0000
FFFF
FFFF
0000
FFFF
FFFF
0000
0000
0000
0000
0000
0009
0000
0000
0000
0000
004F
0001
0000
0000
0060
0000
0016
0000
0000
000F
0000
0000
0000
0000
FFFF
FFFF
FFFF
FFFF
FFFF
0000
0000
0004
0000
0015
001A
0000
0003
0000
0000
0061
0046
0000
0000
0045
003B
0000
0000
0000
0000
0000
0000
0000
FFFF
FFFF
0000
FFFF
0000
0000
000F
000C
001B
0000
0012
0000
0033
0000
005C
0000
0000
0000
0000
0043
000A
0046
001C
0000
0000
0000
0000
0000
0000
FFFF
0000
FFFF
0000
0000
0000
0000
0000
006C
0007
0001
0000
0000
0000
0000
003D
0017
003A
0000
002E
0000
0000
0000
0000
0000
FFFF
0000
FFFF
FFFF
0000
0000
0000
0000
0000
001C
000A
0014
0009
0046
0000
0000
0000
0000
008F
0000
0033
002C
000C
0028
0000
0000
0000
0000
FFFF
0000
FFFF
0000
FFFF
0000
0000
0000
0000
0000
0000
0000
0000
0007
000F
0000
002D
0000
004B
005B
0011
0022
0001
0000
0000
0000
0000
FFFF
0000
FFFF
0000
FFFF
FFFF
FFFF
FFFF
0000
0000
0000
0000
0000
0000
0007
001E
004F
0004
0000
0000
0000
0000
0000
0000
0000
0000
0000
0000
FFFF
0000
0000
0000
0000
FFFF
FFFF
0000
0000
FFFF
0000
0000
0000
0000
0000
0000
002E
0022
0000
0000
0000
0000
0000
0000
0000
0000
FFFF
FFFF
0000
0000
0000
0000
0000
FFFF
FFFF
0000
FFFF
0000
0000
0000
0000
0000
0000
0000
0000
0000
0000
0000
0000
0000
0000
0000
FFFF
0000
0000
FFFF
FFFF
0000
FFFF
FFFF
FFFF
0000
0000
0000
FFFF
0000
FFFF
FFFF
0000
FFFF
FFFF
0000
0000
FFFF
0000
0000
0000
FFFF
FFFF
FFFF
FFFF
0000
FFFF
FFFF
002D
0000
FFFF
FFFF
FFFF
0000
FFFF
FFFF
FFFF
FFFF
0000
0000
FFFF
FFFF
0000
FFFF
FFFF
0000
0000
FFFF
0000
0000
FFFF
FFFF
FFFF
FFFF
FFFF
0000
FFFF
0000
FFFF
0000
FFFF
FFFF
0000
0000
0000
FFFF
0000
FFFF
0000
0000
0000
0000
0000
FFFF
FFFF
FFFF
FFFF
FFFF
FFFF
0000
FFFF
0000
FFFF
0000
FFFF
FFFF
0000
0000
FFFF
FFFF
FFFF
0000
0000
0000
FFFF
FFFF
FFFF
0000
0000
0000
0000
0000
0000
0000
0000
0000
0000
0000
FFFF
0000
0000
0000
0000
FFFF
FFFF
FFFF
0000
0000
0000
FFFF
FFFF
FFFF
FFFF
0000
0000
0000
0000
0000
0000
0000
0000
0000
0000
0000
0000
0000
0000
0000
0000
0000
0000
FFFF
FFFF
0000
0000
0000
FFFF
FFFF
0000
0000
FFFF
0000
0000
0000
001B
0000
0000
0000
0000
000C
0008
0000
0000
0000
0000
0000
0000
0000
0000
FFFF
FFFF
0000
0000
FFFF
FFFF
0000
0000
0000
0000
0000
0000
0000
0013
002B
0010
0043
001E
000B
0000
001F
0020
0000
0019
002B
0000
0000
FFFF
FFFF
FFFF
FFFF
0000
FFFF
0000
FFFF
0000
0000
0000
0000
0000
0027
0000
000C
0031
000D
0025
002D
0000
0000
0000
001D
0000
0000
0046
0000
0000
0000
FFFF
0000
FFFF
0000
FFFF
0000
0000
0000
0000
001E
0000
0000
0000
0005
0000
0000
0000
0006
0000
003E
0004
005C
0000
0000
0000
0000
0000
0000
0000
FFFF
FFFF
FFFF
0000
FFFF
0000
0000
0000
0000
0039
000A
0000
0011
0000
0035
008A
0000
0059
0000
0000
0028
0000
004E
0000
0000
0000
0000
0000
FFFF
FFFF
0000
FFFF
FFFF
0000
0000
0000
0037
0000
0009
0022
0000
0000
0000
0000
0001
0000
0012
0011
0000
0001
007E
0000
0000
0000
0000
FFFF
FFFF
FFFF
FFFF
0000
FFFF
0000
0000
0001
0000
0010
0000
0003
0000
0000
001A
000D
0025
0000
002B
0063
0000
0000
0043
0009
0000
0000
0000
FFFF
0000
FFFF
FFFF
FFFF
0000
0000
0000
000A
0000
0000
002E
0002
0000
0014
0013
0000
0000
0000
0018
0038
0000
0000
001F
0000
0000
0000
0000
0000
FFFF
FFFF
FFFF
FFFF
FFFF
0000
0000
0058
0000
0000
0049
0073
0043
0000
0000
0073
0000
0000
003E
004A
0000
002D
0021
0000
0000
0000
0000
FFFF
0000
FFFF
0000
FFFF
0000
0000
0000
0000
0000
0000
0002
0000
0008
0000
005D
0000
0000
003B
0000
0000
0004
0000
0000
0053
0000
0000
FFFF
FFFF
0000
FFFF
0000
0000
0000
0000
0000
0000
0000
0076
0054
0043
0025
0040
0028
004E
0000
0000
0000
003D
0000
0073
003C
0027
0000
0000
FFFF
0000
FFFF
FFFF
FFFF
FFFF
FFFF
0000
0000
0020
0022
0003
0028
0000
0036
0000
004C
0000
0000
0029
0019
001F
0000
0035
001A
0000
0000
0000
0000
FFFF
0000
FFFF
FFFF
0000
0000
0000
0000
0000
0000
0000
0000
0000
0013
0020
0000
003E
002C
005E
0000
0000
0000
004E
0011
0000
0000
0000
0000
0000
0000
0000
0000
FFFF
FFFF
0000
0000
0015
0000
0000
0009
0014
0000
0000
001F
0000
0000
0000
0012
0000
0000
0000
004B
0000
0000
0000
0000
0000
FFFF
FFFF
FFFF
FFFF
0000
0000
0000
0000
0000
000E
0000
0000
0000
0000
0000
0000
0000
0000
0000
0030
0000
0000
0000
0012
0000
0000
0000
FFFF
FFFF
FFFF
FFFF
FFFF
FFFF
0000
0000
0007
0012
001E
0060
0000
0000
0000
0000
0062
0000
0005
0038
0000
0000
0022
004F
001C
0000
0000
FFFF
0000
FFFF
FFFF
0000
FFFF
0000
0000
0000
0000
000D
0000
0000
0000
0000
0020
0064
0029
0000
0054
0000
0000
001B
0010
0047
0000
0000
0000
0000
FFFF
0000
FFFF
0000
FFFF
0000
0000
0000
001E
0000
0005
0028
0000
0000
0000
0000
002D
0000
0052
0083
0000
000B
0028
0000
0000
0000
0000
FFFF
0000
FFFF
FFFF
0000
0000
0000
0000
0000
0000
000C
0018
0002
0000
0000
0000
0038
003C
0000
0034
0000
0000
004A
0000
0000
0000
0000
0000
0000
0000
FFFF
FFFF
FFFF
0000
0000
0000
0000
0000
0000
0000
0058
0006
0000
0000
001A
0009
0000
002B
0031
001D
0000
0000
0000
0000
FFFF
FFFF
0000
FFFF
0000
FFFF
FFFF
FFFF
FFFF
0000
0000
0000
0000
0000
0024
0000
0026
0016
0000
006C
003C
0000
0031
0000
0000
FFFF
0000
0000
0000
FFFF
FFFF
0000
FFFF
0000
FFFF
0000
FFFF
FFFF
0000
0000
0000
0000
0000
0000
0000
002D
0000
0000
0000
0000
0000
0000
0000
0000
0000
FFFF
FFFF
FFFF
FFFF
FFFF
FFFF
0000
FFFF
0000
FFFF
FFFF
FFFF
0000
FFFF
0000
0000
0000
0000
0000
0000
000C
0000
0000
0000
0000
0000
FFFF
0000
0000
FFFF
FFFF
0000
FFFF
FFFF
FFFF
0000
FFFF
FFFF
FFFF
0000
0000
FFFF
0000
FFFF
FFFF
0000
0000
0000
0000
0000
0000
0000
FFFF
FFFF
FFFF
0000
FFFF
FFFF
0000
0000
FFFF
FFFF
FFFF
FFFF
FFFF
FFFF
FFFF
FFFF
0000
0000
0000
FFFF
0000
FFFF
0000
0000
0000
FFFF
0000
0000
FFFF
FFFF
FFFF
FFFF
FFFF
0000
FFFF
0000
FFFF
0000
FFFF
0000
0000
0000
0000
FFFF
0000
FFFF
0000
0000
0000
0000
0000
FFFF
FFFF
FFFF
FFFF
0000
FFFF
FFFF
FFFF
0000
FFFF
0000
FFFF
FFFF
FFFF
FFFF
FFFF
0000
FFFF
0000
0000
0000
FFFF
FFFF
FFFF
0000
0000
0000
0000
0000
FFFF
0026
0000
0000
0000
0000
FFFF
0000
FFFF
0000
0000
0000
FFFF
FFFF
0000
0000
0000
0000
FFFF
FFFF
0000
0000
0000
0000
0000
0000
0000
0000
0000
0000
0020
0000
0000
0000
0000
0000
0000
0000
0000
FFFF
0000
0000
0000
FFFF
FFFF
0000
FFFF
0000
FFFF
0000
0000
0000
0000
0000
0000
003F
0000
000B
0006
0000
0041
000E
0000
0000
0000
0000
0000
FFFF
FFFF
0000
0000
FFFB
FFFF
0000
0000
FFFF
FFFF
FFFF
0000
0000
0000
0000
0000
0000
0035
0059
0000
0000
000C
0000
0000
0000
0000
0000
FFFF
FFFF
FFFF
0000
FFFF
0000
FFFF
0000
FFFF
FFFF
0000
0000
0000
0000
0022
0000
0000
0000
000A
0020
0000
0000
0003
0016
0036
0043
0026
0000
0000
0000
0000
0000
FFFF
0000
0000
FFFF
0000
FFFF
0000
0000
0007
0000
0000
0047
0000
0000
0017
0014
0000
0000
0096
0002
0000
0000
0023
0000
0000
0000
0000
0000
FFFF
FFFF
0000
FFFF
0000
0000
0000
0000
0000
0000
0000
0049
0016
0058
0000
0000
0020
0000
0000
0000
0049
0014
0000
0000
0000
0000
0000
FFFF
FFFF
0000
FFFF
FFFF
FFFF
FFFF
0000
0017
001E
0000
0000
0000
0046
0042
0000
002F
0000
0000
0000
0060
0000
0000
0000
0000
0000
0000
FFFF
FFFF
FFFF
0000
0000
0000
0000
FFFF
0000
0000
001B
0000
0049
0019
002F
0008
0009
0000
0000
0000
0000
0018
0000
000F
0049
0000
0000
0000
0000
FFFF
FFFF
FFFF
FFFF
0000
0000
0000
0000
0030
0026
0045
0055
0000
002C
0036
0034
0000
0000
000A
0050
0000
0000
0024
0019
0000
0000
0000
0000
FFFF
FFFF
FFFF
FFFF
FFFF
0000
0000
0000
0000
0000
0036
0000
002B
0000
0000
0000
0000
0000
0000
001D
0000
006E
0000
0031
0000
0000
0000
FFFF
FFFF
FFFF
0000
FFFF
0000
0000
0000
003D
0015
0050
0068
0000
0000
0000
0000
0000
000B
0033
0028
0021
0026
0000
0000
0013
0000
0000
FFFF
FFFF
0000
FFFF
FFFF
0000
0000
0000
0000
0000
0000
0000
001E
0000
0008
0000
0000
0000
0000
001A
0012
0000
000D
0017
0000
0000
0023
0000
FFFF
FFFF
FFFF
FFFF
0000
FFFF
FFFF
0000
0000
0000
0000
001A
003E
001C
0000
0054
0000
0000
001F
0000
0016
0006
004E
0023
0056
0000
0000
0000
0000
FFFF
FFFF
FFFF
0000
0000
0000
0000
003D
0041
000A
0013
0000
0008
0020
004C
0000
002F
0008
0000
0000
0000
0004
0000
0000
0000
000D
0000
0000
0000
FFFF
0000
0000
FFFF
FFFF
0000
0000
0000
002E
000E
0001
000B
0032
0000
0000
0018
0040
0003
0000
0000
002E
0000
0000
0063
0000
0000
0000
0000
FFFF
FFFF
FFFF
FFFF
0000
0000
0000
0052
0000
0000
004C
0054
0000
003A
0015
0068
0000
0012
001E
0000
0017
0000
0028
002D
0000
0000
0000
0000
FFFF
FFFF
0000
FFFF
0000
0000
003A
0000
0021
0000
005E
0000
0015
0000
0021
0000
0000
002F
0039
0000
006E
0012
0012
0000
0000
0000
0000
0000
0000
FFFF
0000
FFFF
0000
0000
0000
0000
000E
0000
0016
0000
000F
0021
006B
0000
0000
0005
0008
006C
000E
0000
0027
0000
0000
0000
0000
0000
0000
FFFF
FFFF
0000
0000
0000
0000
0051
0000
0000
002B
0000
0047
0000
0031
0000
0000
000D
0015
0000
000D
0026
0000
0000
0000
0000
FFFF
0000
0000
FFFF
0000
0000
0000
0000
0000
0000
0000
002F
0001
0024
0036
0000
0017
003A
000C
0000
0003
0038
0000
0000
0000
0000
0000
0000
0000
0000
FFFF
FFFF
FFFF
0000
0000
0000
0000
0000
0000
0017
0013
0000
0000
003A
0016
0000
0012
0037
0012
0039
0000
0000
0000
0000
0000
FFFF
0000
FFFF
0000
0000
0000
0000
FFFF
0000
0000
0000
0000
0000
0000
0040
0000
0028
0015
000F
0000
0000
0000
0000
0000
0000
0000
0000
0000
0000
FFFF
0000
FFFF
0000
FFFF
0000
FFFF
FFFF
0000
0000
0000
0000
0000
0000
0000
0000
0000
0000
0000
0000
0000
0000
0000
0000
0000
FFFF
FFFF
FFFF
FFFF
0000
FFFF
0000
FFFF
0000
0000
0000
FFFF
0000
FFFF
0000
0000
0000
0000
0000
0000
0000
0000
0000
0000
0000
0000
FFFF
0000
0000
FFFF
FFFF
0000
0000
FFFF
FFFF
0000
FFFF
0000
FFFF
0000
0000
FFFF
0000
FFFF
FFFF
FFFF
0000
0000
0000
0000
0000
0000
FFFF
FFFF
FFFF
0000
FFFF
FFFF
0000
0000
FFFF
FFFF
FFFF
0000
FFFF
0000
FFFF
FFFF
FFFF
0000
0000
0000
FFFF
FFFF
FFFF
0000
0000
FFFF
0000
FFFF
FFFF
FFFF
FFFF
FFFF
FFFF
0000
FFFF
0000
FFFF
0000
FFFF
0000
0000
0000
0000
FFFF
FFFF
FFFF
0000
FFFF
0000
0000
0000
FFFF
FFFF
FFFF
FFFF
0000
FFFF
FFFF
FFFF
0000
0000
0000
FFFF
FFFF
FFFF
0000
FFFF
0000
FFFF
0000
FFFF
0000
FFFF
FFFF
FFFF
FFFF
FFFF
0000
0000
0000
FFFF
0000
0000
0000
FFFF
0000
FFFF
FFFF
FFFF
0001
0000
FFFF
FFFF
FFFF
FFFF
0000
FFFF
0000
FFFF
FFFF
0000
0000
FFFF
0000
0000
0000
0000
0000
0000
0000
0000
0000
0000
0000
0000
FFFF
FFFF
0000
0000
0000
0000
0000
0000
0000
FFFF
FFFF
FFFF
0000
0000
0000
0000
0000
0000
0000
0000
0000
0047
0000
0000
002A
0000
0000
0000
0000
0000
0000
0000
FFFF
FFFF
0000
0000
FFFF
FFFF
0000
0000
0000
0000
0000
0000
001B
0000
0000
0054
0000
0000
0031
0000
0002
0039
0000
0015
0000
0000
0000
FFFF
FFFF
FFFF
0000
FFFF
FFFF
FFFF
0000
0000
0000
0000
0000
0000
005D
005C
0069
0000
0000
0000
0052
000B
0039
0043
0015
0000
0051
0000
0000
0000
0000
FFFF
FFFF
FFFF
FFFF
0000
FFFF
0000
0000
0000
0000
001A
0044
0000
0022
0016
0000
0000
0018
0000
008B
0022
0000
0025
0004
0000
0002
0000
0000
0000
0000
FFFF
FFFF
FFFF
FFFF
0000
0000
0000
0017
0029
0026
0000
0039
001A
002E
0000
0000
006B
0037
0000
0000
0057
001F
0038
0000
0000
0000
0000
FFFF
FFFF
0000
FFFF
FFFF
0000
0000
0001
0063
0000
0000
006D
0012
0031
0000
0000
0031
0000
0069
0000
0000
0000
0000
0000
0000
0000
0000
FFFF
FFFF
0000
FFFF
0000
0000
0000
0000
000E
0000
000F
0009
0004
0006
0036
005D
0000
0000
0000
003B
0000
0000
0008
0055
0000
0000
0000
0000
0000
0000
FFFF
FFFF
FFFF
0000
0000
0000
0000
0000
002D
0007
0000
0015
004B
0000
002E
0000
0000
0000
0000
0000
0000
0028
0000
0000
0000
0000
0000
FFFF
0000
FFFF
FFFF
FFFF
0000
0000
000C
0000
0054
0000
0004
0000
0033
0000
0000
0000
0000
000C
0000
0000
003D
0000
0000
0030
0000
0000
FFFF
FFFF
FFFF
0000
FFFF
0000
0000
0000
0021
0009
001A
0000
0000
0000
0000
0000
0008
005F
0000
0000
0006
0000
0000
000E
002E
0000
0000
0000
FFFF
FFFF
FFFF
0000
0000
0000
0000
0000
0000
002E
0000
003A
0000
0057
0000
0079
0000
0000
0000
0000
0000
0009
001C
0000
0029
0000
0000
FFFF
0000
FFFF
FFFF
0000
FFFF
FFFF
0000
0000
000E
0000
0043
0000
005E
0000
001F
0000
0000
0000
0000
0000
000D
0000
0032
0052
0019
0000
0000
0000
FFFF
0000
FFFF
FFFF
0000
0000
0000
0000
0001
0019
0000
0022
0023
001A
0000
0000
0017
0000
0030
0010
0000
0000
0031
0059
0000
0000
0000
0000
0000
FFFF
FFFF
0000
FFFF
FFFF
0000
0011
002D
0000
0000
0000
0000
0035
0009
0000
0008
0037
0000
0000
0000
005E
0000
0000
0000
0000
0000
0000
0000
FFFF
FFFF
FFFF
FFFF
0000
0000
0000
0001
0000
001C
000A
0000
0000
0000
0000
0054
0029
0023
0000
0009
0002
0000
000E
0000
0000
0000
0000
0000
0000
FFFF
FFFF
FFFF
0000
0000
0000
0000
0000
001A
0014
001D
0000
0000
0018
0000
0000
001B
0043
0000
0000
000C
0039
0000
0000
0000
0000
0000
FFFF
0000
0000
FFFF
0000
0000
0000
002C
0000
0013
0000
0006
0000
0020
0000
0000
0008
0000
0000
0000
0000
000B
0000
0000
0000
0000
0000
0000
0000
FFFF
0000
0000
0000
0000
0000
0013
0000
0000
0009
0000
0000
0025
0056
0012
0010
0002
001A
0000
0000
000B
0000
0000
0000
0000
FFFF
0000
FFFF
0000
0000
0000
0000
0000
0000
0018
002E
0000
0028
0000
0017
0000
0019
002F
0004
004B
0000
0000
0000
0000
0000
0000
0000
0000
FFFF
0000
FFFF
FFFF
FFFF
0000
0000
0000
0000
0000
0012
0000
0042
0000
0015
0034
0000
0002
0000
0000
0000
0056
0000
0000
0000
0000
FFFF
FFFF
0000
0000
0000
FFFF
FFFF
FFFF
FFFF
0000
0000
0000
0000
0000
002A
0011
0000
004B
0000
003F
002C
0021
0000
0000
0000
0000
0000
0000
0000
0000
FFFF
0000
FFFF
0000
0000
FFFF
FFFF
FFFF
0000
0000
0000
0000
0000
0000
0042
001D
005B
0000
0000
0000
0000
0000
0000
0000
0000
FFFF
FFFF
FFFF
FFFF
0000
FFFF
0000
FFFF
FFFF
FFFF
FFFF
0000
0000
0000
0000
0000
0000
0000
0000
0000
0000
0000
0000
0000
0000
0000
FFFF
0000
0000
FFFF
FFFF
0000
FFFF
FFFF
FFFF
0000
0000
FFFF
FFFF
0000
FFFF
FFFF
0000
FFFF
FFFF
0000
0000
FFFF
0000
0000
0000
FFFF
FFFF
FFFF
FFFF
0000
FFFF
FFFF
0000
0000
FFFF
0000
FFFF
FFFF
FFFF
FFFF
FFFF
FFFF
FFFF
0000
FFFF
0000
0000
FFFF
FFFF
0000
FFFF
FFFF
0000
FFFF
FFFF
FFFF
FFFF
FFFF
0000
0000
FFFF
0000
FFFF
0000
FFFF
0000
FFFF
FFFF
0000
FFFF
0000
FFFF
0000
0000
FFFF
0000
0000
FFFF
FFFF
FFFF
FFFF
FFFF
FFFF
0000
FFFF
0000
FFFF
0000
FFFF
FFFF
FFFF
FFFF
FFFF
FFFF
0000
0000
0000
0000
FFFF
FFFF
FFFF
0000
0000
0000
0000
0000
0000
0000
0000
0000
0000
0000
FFFF
0000
FFFF
0000
FFFF
FFFF
FFFF
FFFF
0000
FFFF
0000
0000
FFFF
FFFF
0000
0000
FFFF
0000
0000
0000
0000
0000
0000
0026
0000
0000
FFFF
0000
0000
0000
0000
0000
0000
0000
FFFF
0000
0000
FFFF
FFFF
0000
FFFF
0000
0000
0000
0027
0000
0000
0075
0013
0054
0000
0000
002E
0005
0091
0007
0000
0000
0000
0000
0000
FFFF
FFFF
FFFF
0000
FFFF
FFFF
0000
0000
0000
0000
0000
0000
0000
0000
0000
000B
0023
0016
0000
0042
0000
0000
0000
0000
0000
0000
0000
FFFF
FFFF
FFFF
FFFF
FFFF
0000
FFFF
FFFF
0000
0000
0000
0040
0000
0010
0000
0000
0000
0000
0018
0000
0000
0024
002E
0000
0009
0000
0000
0000
0000
0000
0000
0000
FFFF
0000
FFFF
FFFF
0000
0000
0000
002A
0000
001F
0000
0000
0000
003C
0000
0014
0000
0000
0007
0020
0023
0014
0020
0000
0000
0000
0000
FFFF
FFFF
FFFF
FFFF
FFFF
0000
0000
0000
000E
0000
0000
0006
0014
001C
0000
0000
0000
0000
002E
0000
0000
003E
000A
0000
0000
0000
0000
0000
FFFF
FFFF
0000
FFFF
FFFF
0000
0000
0012
005C
0001
000F
0014
007E
0017
0039
002F
0000
0000
0021
0009
0000
0050
0034
0014
0021
0000
0000
FFFF
FFFF
FFFF
FFFF
0000
FFFF
0000
0000
0000
0000
0032
0038
0000
0000
0009
0000
0000
003E
0000
0046
0000
0054
0000
0007
0000
0000
0000
0000
FFFF
FFFF
FFFF
FFFF
FFFF
FFFF
0000
0000
0000
0000
0000
0000
002F
0000
0045
0011
0045
003E
0031
001A
001E
0004
0000
0069
001D
0000
0000
0000
0000
FFFF
0000
0000
FFFF
FFFF
0000
0000
0046
0050
0000
006B
0028
0000
0000
0087
003C
0041
0000
0000
0000
0000
0020
0000
0000
0076
0000
FFFF
FFFF
FFFF
FFFF
0000
FFFF
0000
0000
0000
002F
0000
0000
001C
0056
0000
0000
003E
002F
001D
0000
0069
0031
0000
000F
0000
0047
0000
0000
FFFF
FFFF
0000
FFFF
0000
0000
0000
0000
0000
0017
0000
0015
0000
0000
0000
0000
0037
0021
0000
0000
0019
0000
0000
0000
0000
0030
0000
0000
FFFF
FFFF
FFFF
FFFF
FFFF
FFFF
FFFF
0000
0000
0000
000F
0006
0006
0000
0000
0000
0000
0068
0000
0034
0000
0080
0031
004A
0062
0000
0000
0000
0000
FFFF
FFFF
FFFF
0000
FFFF
0000
0000
0028
0060
000E
000E
0025
0001
007B
0000
0000
0015
0037
0084
0000
0011
0090
0000
0000
001A
0000
0000
0000
0000
0000
0000
0000
FFFF
FFFF
0000
0000
0011
0000
000A
0014
0000
002D
0007
0000
0019
0000
0000
0000
003B
0000
001E
0000
003C
0000
0000
0000
0000
FFFF
FFFF
FFFF
FFFF
0000
0000
0001
0000
0000
003A
0001
0000
0014
0065
0000
007A
0000
008A
0000
0000
0028
0000
003C
003B
0000
0000
0000
0000
FFFF
FFFF
FFFF
FFFF
0000
0000
0021
0021
0029
001D
0047
0000
0000
0000
0000
0007
0045
0064
0037
0028
005F
0022
0000
0052
0000
0000
0000
0000
0000
FFFF
0000
FFFF
0000
0000
000B
0029
0000
0018
0045
0000
0013
0026
000E
0000
0000
0000
0031
0040
0000
001A
0000
0042
0000
0000
0000
0000
0000
FFFF
FFFF
FFFF
0000
0000
0000
0000
0029
0000
0000
0000
0000
0000
0000
0012
0000
0001
0000
0000
0025
002F
0029
0000
0000
0000
FFFF
FFFF
0000
FFFF
0000
0000
0000
0000
0000
0000
000E
003B
0000
0016
0000
0078
0000
0036
0000
0021
0000
0000
0000
0020
0000
0000
0000
0000
0000
0000
FFFF
FFFF
FFFF
0000
0000
0000
0000
0000
0000
0000
005E
0019
0007
0000
0000
0064
0000
002E
0060
000A
0003
0000
0000
0000
0000
FFFF
0000
FFFF
0000
0000
FFFF
0000
FFFF
0000
0000
0000
0000
0000
0000
0000
0000
0000
0000
0000
0000
0000
0000
0000
0000
FFFF
0000
0000
0000
FFFF
FFFF
0000
FFFF
0000
FFFF
0000
FFFF
0000
0000
0000
0000
0000
0000
0000
0000
0000
0000
0000
0000
0000
0000
0000
0000
0000
0000
FFFF
FFFF
FFFF
FFFF
FFFF
FFFF
0000
FFFF
0000
0000
0000
FFFF
0000
FFFF
0000
0000
0000
0000
0000
0000
0000
0000
0000
0000
FFFF
0000
FFFF
0000
0000
FFFF
FFFF
0000
FFFF
FFFF
FFFF
0000
FFFF
FFFF
FFFF
0000
0000
FFFF
0000
FFFF
FFFF
0000
0000
0000
0000
0000
0000
FFFF
FFFF
FFFF
FFFF
0000
FFFF
FFFF
0000
0000
FFFF
FFFF
0000
0000
FFFF
FFFF
FFFF
FFFF
FFFF
0000
FFFF
0000
FFFF
FFFF
FFFF
0000
FFFF
FFFF
0000
FFFF
FFFF
FFFF
FFFF
FFFF
FFFF
0000
FFFF
0000
FFFF
0000
FFFF
0000
0000
FFFF
0000
FFFF
0000
FFFF
0000
0000
FFFF
0000
0000
FFFF
FFFF
FFFF
0000
FFFF
FFFF
0000
FFFF
0000
FFFF
0000
FFFF
FFFF
FFFF
FFFF
FFFF
FFFF
FFFF
0000
0000
0000
FFFF
FFFF
0000
0000
FFFF
0000
0000
0000
0000
0000
0000
0000
0000
0000
FFFF
0000
0000
0000
0000
0000
FFFF
FFFF
FFFF
FFFF
FFFF
0000
FFFF
FFFF
0000
FFFF
FFFF
0000
0000
0000
0000
0000
0000
0000
0000
0000
0000
0000
0000
0000
0000
0000
0000
FFFF
FFFF
0000
FFFF
FFFF
FFFF
0000
FFFF
0000
0000
0000
0000
0000
0000
0000
0000
0000
003B
0000
0000
006E
0000
0000
0000
0000
0000
0000
0000
FFFF
FFFF
FFFF
0000
FFFF
FFFF
FFFF
0000
0000
0000
001E
0000
0005
001F
0029
0032
002F
0000
000B
001B
0000
0000
0000
0000
002A
0000
0000
FFFF
0038
FFFF
FFFF
0000
0000
FFFF
0000
0000
0000
0000
003D
0000
0000
0000
0000
0029
0000
001B
0000
002E
0000
0002
0032
0000
0037
0010
0000
0000
0000
FFFF
FFFF
FFFF
0000
0000
FFFF
FFFF
0000
0000
0029
0000
0023
0037
0000
0032
0000
0053
0000
0015
006A
0000
0089
000F
0000
0022
0000
0000
0000
0000
FFFF
FFFF
FFFF
FFFF
FFFF
0000
0000
0044
005D
0000
0000
007A
0000
0021
0026
0000
0049
0000
000E
0000
002B
001F
0000
0000
0000
0000
0000
0000
FFFF
FFFF
0000
FFFF
FFFF
0000
0000
0000
0000
0000
0000
0000
0000
002C
002D
001E
0028
004E
0040
0000
0000
0000
0000
003A
0000
0000
0000
FFFF
FFFF
FFFF
FFFF
0000
FFFF
0000
0000
0000
0024
0000
0000
0000
0015
0005
0010
000A
0000
0025
004A
0000
001B
0000
0001
0038
0000
0000
0000
FFFF
FFFF
FFFF
FFFF
FFFF
0000
0000
0000
0000
0025
0002
0026
0000
0000
003D
0000
0037
001A
0018
002F
0000
0000
0000
0000
0000
0000
0000
0000
0000
FFFF
0010
FFFF
FFFF
0000
0000
0000
0000
0000
0000
000D
003A
002D
0032
0012
0000
0002
0028
0000
002B
003D
0000
0029
001E
0000
0000
0000
FFFF
FFFF
FFFF
0000
FFFF
0000
0000
0000
0000
0067
0000
0000
0012
0026
000B
0015
002F
0000
0000
002A
0000
0000
0057
0000
0030
0025
0000
0000
0000
0000
FFFF
0000
0000
0000
0000
0000
0000
0030
0000
002F
0012
0052
0023
0000
0000
000C
0000
0000
0000
0000
0000
0000
0000
0000
0000
FFFF
0000
FFFF
FFFF
FFFF
FFFF
FFFF
0000
0000
0000
004E
004B
0000
0000
000D
0000
0000
0000
0008
0050
000A
002F
0000
008F
0015
0000
0000
0000
0000
FFFF
FFFF
FFFF
FFFF
FFFF
0000
0000
0001
0000
0007
0038
0035
0002
0033
0020
0028
001A
0050
0057
0060
0042
001A
0000
0000
0005
0000
0000
0000
001C
0000
FFFF
0000
FFFF
FFFF
0000
0000
0022
0000
001C
0054
000C
000E
0000
0016
0000
002F
0000
0070
0000
0000
0000
0000
0000
0000
0000
0000
0000
FFFF
FFFF
0000
FFFF
0000
0000
0002
001E
0000
0000
0008
0023
0000
0019
0002
0066
0000
001A
0000
0078
0015
0000
0000
0043
0000
0000
0000
0000
FFFF
FFFF
FFFF
FFFF
0000
0000
0000
0020
0043
0013
000F
0000
0009
0026
0000
0010
0000
0000
0000
0039
0000
0037
0007
0000
0000
0000
0000
0000
FFFF
FFFF
0000
FFFF
0000
0000
0022
0023
0073
0000
0000
0000
0000
0000
0000
0017
0015
0000
0032
007C
003B
0000
0000
0000
0002
0000
0000
0000
0000
FFFF
0000
FFFF
0000
0000
0000
0000
0024
0001
0000
0000
0022
0000
0000
002D
0009
0005
003C
0000
000A
0000
0000
0000
0000
0000
FFFF
FFFF
FFFF
FFFF
0000
0000
0000
0000
0000
0000
0000
0031
0018
0000
000D
0000
0000
0000
0000
0027
002F
0000
000B
0001
0017
0000
0000
0000
FFFF
0000
FFFF
FFFF
FFFF
0000
0000
0000
0000
0000
000F
0000
0009
000D
0029
0000
0043
0028
0067
0000
0000
0031
0000
0000
0000
0000
FFFF
FFFF
FFFF
FFFF
0000
FFFF
FFFF
FFFF
FFFF
0000
0000
0000
0000
0000
0000
000A
0000
0009
0000
0000
0000
0014
000C
0033
0008
0000
0000
0000
0000
FFFF
FFFF
0000
FFFF
0000
FFFF
FFFF
FFFF
0000
FFFF
0000
0000
0000
0000
004A
0000
0000
0000
0000
0000
0000
0000
0000
0000
0000
0000
FFFF
FFFF
FFFF
FFFF
FFFF
FFFF
0000
0000
FFFF
FFFF
0000
FFFF
0000
0000
0000
0000
0000
0000
0000
0000
0000
0000
0000
0000
0000
0000
FFFF
0000
0000
0000
FFFF
0000
FFFF
FFFF
FFFF
0000
FFFF
FFFF
FFFF
0000
0000
FFFF
0000
FFFF
FFFF
0000
0000
0000
0000
0000
0000
FFFF
FFFF
FFFF
FFFF
0000
FFFF
FFFF
0000
0000
FFFF
0000
0000
FFFF
FFFF
0000
FFFF
FFFF
0000
0000
FFFF
FFFF
FFFF
FFFF
FFFF
0000
0000
FFFF
0000
FFFF
FFFF
FFFF
FFFF
0000
FFFF
0000
FFFF
0000
FFFF
0000
FFFF
0000
0000
0000
0000
FFFF
0000
FFFF
0000
FFFF
0000
0000
0000
FFFF
FFFF
0000
0000
FFFF
FFFF
0000
FFFF
0000
FFFF
0000
FFFF
FFFF
FFFF
FFFF
FFFF
FFFF
FFFF
0000
0000
0000
FFFF
FFFF
0000
0000
FFFF
0000
0000
0000
0000
0000
0000
0000
0000
001E
0000
0000
FFFF
0000
FFFF
FFFF
FFFF
FFFF
0000
0000
0000
0000
FFFF
FFFF
0000
0000
FFFF
0000
0000
0000
0000
0000
0000
0000
0000
0000
0000
0000
0000
0000
0000
0000
0000
FFFF
FFFF
0000
0000
0000
FFFF
FFFF
0000
0000
0000
0000
0000
0000
0007
0000
0050
0041
0000
0000
0000
0000
0000
0000
0000
0000
0000
0000
0000
FFFF
FFFF
FFFF
0000
FFFF
FFFF
FFFF
0000
0000
0000
0000
0000
0000
002F
0026
0000
0000
0000
0000
0000
0040
001F
0000
0012
002D
0000
0000
FFFF
FFFF
FFFF
FFFF
0000
0000
FFFF
FFFF
0000
0000
0000
0000
0027
003B
0010
0000
0055
0001
0000
0000
0000
000B
0000
004A
0000
000F
0000
0000
0000
0000
FFFF
0000
FFFF
0000
FFFF
FFFF
0000
0000
0000
0001
0000
0008
0000
0069
0000
0087
0059
000F
0039
0039
0000
0034
0000
0000
0000
0000
0000
0000
0000
FFFF
FFFF
FFFF
FFFF
FFFF
0000
0000
0000
0028
001B
0000
0002
0000
0028
0044
0000
0000
0000
0015
005C
0000
0000
0012
0000
0000
0000
0000
0000
FFFF
FFFF
0000
FFFF
FFFF
0000
0000
0000
0021
001C
0000
0000
0011
0000
0000
004A
0000
0000
0000
0000
0050
001B
0034
0000
0000
0000
0000
FFFF
FFFF
FFFF
FFFF
0000
0000
0000
0000
0000
0029
0000
0000
0000
0010
0000
001F
0000
009D
002C
0026
005A
0000
0066
0000
0000
0000
0000
0000
0000
FFFF
FFFF
FFFF
FFFF
0000
0000
0000
0000
0010
0000
0023
0012
0000
0085
0000
0000
0000
0013
0034
0012
0000
0000
002A
0064
0000
0000
0000
FFFF
FFFF
0000
FFFF
FFFF
0000
0000
0000
0000
0000
0000
0000
0000
0000
0006
0000
0030
0000
002D
0000
0000
0005
004B
0000
0000
0000
0000
0000
FFFF
FFFF
FFFF
FFFF
FFFF
0000
0000
0000
0000
0000
0000
0000
0000
0013
002F
0023
0003
0000
0000
0008
0000
0026
0000
0000
002F
0000
0000
0000
FFFF
0000
FFFF
FFFF
0000
0000
0000
0000
0000
0000
0000
0000
0011
0000
0051
0050
0035
0000
0000
0018
0021
0000
0000
0042
0000
0000
0000
FFFF
FFFF
FFFF
0000
FFFF
FFFF
FFFF
0000
0000
0000
0000
0004
0000
0000
0036
000B
000C
005D
0000
0000
0000
0029
0000
002E
001D
0000
0000
0000
0000
FFFF
0000
FFFF
FFFF
FFFF
0000
0000
0000
003B
0000
0039
0000
0000
0000
0011
0031
0000
0003
0000
0022
0000
001A
0000
0000
0000
0000
0000
0000
0000
0000
0000
0000
FFFF
FFFF
0000
0000
0000
0000
0047
0003
0000
0000
0055
0000
0000
0000
0000
0000
0023
0000
0047
0000
0000
0000
0000
0000
0000
FFFF
FFFF
0000
FFFF
0000
0000
0000
0000
0007
0000
002C
0000
0000
0000
004D
0000
004B
002D
003A
0028
0004
0000
001A
0000
0000
0000
0000
0000
0000
FFFF
FFFF
FFFF
FFFF
0000
0020
0000
0000
0000
0008
002C
00A4
0000
0000
0000
0000
0000
0033
0028
0000
0000
001C
0006
0000
0000
0000
0000
FFFF
FFFF
0000
FFFF
0000
0000
0000
0048
0031
0000
0000
0000
0000
002A
0007
0000
0000
0000
008E
0000
0031
0000
0000
0000
0000
0000
0000
0000
0000
FFFF
FFFF
FFFF
0000
0000
0000
0006
0000
0000
0034
002F
001A
0000
0000
0000
0014
0000
0013
0000
0013
001E
0000
0000
0000
0000
FFFF
FFFF
FFFF
0000
0000
0000
0000
0000
0000
0023
0000
0000
000A
0000
004B
0030
000D
002F
0000
0020
0006
0000
008F
0000
0000
0000
0000
0000
0000
0000
FFFF
FFFF
FFFF
0000
0000
0000
0000
0000
002A
0000
0016
0008
0000
0000
001D
0000
0000
0032
0000
0000
0000
0000
0000
0000
FFFF
FFFF
0000
FFFF
0000
FFFF
FFFF
FFFF
0000
0000
0000
0000
0000
0000
0000
0015
0000
0015
0020
0000
0000
0000
0000
0000
0000
FFFF
FFFF
0000
0000
FFFF
FFFF
0000
FFFF
0000
FFFF
FFFF
FFFF
0000
FFFF
0000
0000
0000
0000
0000
0000
0000
0000
0000
0000
0000
0000
0000
0000
FFFF
FFFF
FFFF
FFFF
FFFF
FFFF
FFFF
FFFF
0000
FFFF
FFFF
FFFF
FFFF
FFFF
0000
FFFF
0000
0000
0000
0000
0000
0000
0000
0000
FFFF
0000
FFFF
0000
FFFF
0000
FFFF
FFFF
FFFF
0000
FFFF
FFFF
FFFF
0000
FFFF
FFFF
FFFF
0000
0000
FFFF
0000
FFFF
FFFF
FFFF
0000
0000
0000
0000
0000
FFFF
FFFF
FFFF
FFFF
0000
FFFF
FFFF
0000
0000
FFFF
0000
0000
FFFF
FFFF
FFFF
FFFF
FFFF
0000
0000
0000
0000
FFFF
FFFF
FFFF
0000
0000
FFFF
0000
FFFF
FFFF
FFFF
0000
FFFF
FFFF
0000
FFFF
0000
FFFF
0000
FFFF
0000
0000
0000
0000
FFFF
FFFF
FFFF
0000
0000
0000
0000
0000
FFFF
FFFF
FFFF
FFFF
FFFF
FFFF
0000
FFFF
0000
FFFF
0000
FFFF
FFFF
FFFF
FFFF
FFFF
FFFF
FFFF
0000
0000
0000
0000
0000
FFFF
0000
FFFF
0000
0000
0000
FFFF
0000
0000
0000
0000
0000
FFFF
0000
FFFF
0000
FFFF
FFFF
FFFF
FFFF
FFFF
0000
FFFF
0000
FFFF
FFFF
FFFF
0000
0000
0000
0000
0000
0000
0000
0000
0000
0000
0002
0000
0000
0000
0000
0000
0000
0000
0000
FFFF
0000
0000
0000
FFFF
FFFF
0000
0000
0000
0000
0000
0000
0000
0000
0000
0025
0000
0000
0011
0000
0000
0000
0000
0000
0000
0000
0000
FFFF
FFFF
FFFF
0000
FFFF
FFFF
0000
0000
0000
0000
0000
0000
0000
0017
0000
0000
0000
0000
002B
0024
002A
0024
0000
0022
0000
0000
0000
FFFF
FFFF
FFFF
FFFF
0000
0000
FFFF
FFFF
0000
0000
0000
0000
0000
0000
0000
0000
0036
0023
0008
0000
003E
0015
000F
0000
0000
0026
0000
0000
0000
0000
0000
FFFF
FFFF
0000
FFFF
FFFF
0000
0000
0000
0000
0007
0024
0000
0000
0000
002E
0000
000A
0000
0018
0026
0000
0000
0000
006B
0000
0000
0000
0000
FFFF
FFFF
FFFF
FFFF
FFFF
0000
0000
0000
0000
0000
0000
0000
0000
0000
0000
0017
0051
0038
0006
0000
0000
002B
0000
0000
0000
0000
0000
0000
0000
FFFF
0000
FFFF
FFFF
FFFF
0000
0000
0000
0026
0000
0016
0000
0000
000C
0047
0000
0000
0035
0000
0069
0000
002E
001C
0000
0000
0000
FFFF
FFFF
FFFF
FFFF
0000
0000
0000
0000
0000
0054
0000
0083
000E
0000
0028
001D
0000
0006
001E
0047
0041
001D
0049
002D
0058
0000
0000
0000
0000
FFFF
FFFF
FFFF
FFFF
0000
0000
0000
0000
0000
0000
004A
003E
0000
0000
0000
006E
0036
0000
0023
0000
0032
001C
001F
0002
0026
0000
0000
0000
FFFF
FFFF
FFFF
FFFF
0000
0000
0000
0047
0000
0000
0023
0000
0046
006A
0000
0059
0000
0030
003B
0000
0000
0000
0000
0000
0021
0000
0000
FFFF
FFFF
FFFF
0000
FFFF
FFFF
0000
0000
0000
001C
0000
0000
002D
0006
0013
002E
0033
0037
002C
0005
0000
0000
0000
005B
0000
0000
0000
FFFF
FFFF
0000
FFFF
0000
0000
0000
0000
0000
0000
0012
0000
0015
0000
0000
0025
0000
0000
0000
003A
0000
0020
000A
0030
0031
0000
0025
0000
FFFF
FFFF
FFFF
0000
FFFF
FFFF
FFFF
0000
0021
0028
0037
0000
0016
0078
0000
0056
0017
0000
0000
0000
0056
0000
0000
0008
002B
000D
0004
0000
0000
FFFF
0000
FFFF
0000
FFFF
0000
0000
0024
0000
0000
0030
0000
0000
0000
001A
0000
0000
0000
0028
0013
0004
0029
0000
0054
0044
0000
0000
0000
0000
0000
FFFF
0000
FFFF
FFFF
0000
0000
0000
004D
0000
003E
0000
0037
0007
0000
0000
0000
0000
0000
0000
0027
0000
0000
0000
0000
0000
0000
0000
FFFF
0000
FFFF
FFFF
0000
0000
0012
0000
0002
0000
0000
0052
0007
004B
002B
0014
0000
000B
0000
000D
0000
0000
0000
0043
0000
0000
0000
0000
FFFF
FFFF
FFFF
FFFF
FFFF
0000
001A
000B
0000
0026
004D
002A
0000
0000
0033
0000
0004
0000
0000
0059
001C
000F
0037
0000
0000
0000
0000
0000
0000
FFFF
0000
FFFF
003A
0000
0000
0015
0000
0000
0044
0037
0030
0000
000E
0000
005D
002F
0001
0024
0000
0000
0000
0000
0000
0000
0000
0000
0000
FFFF
FFFF
FFFF
0000
0000
0013
0000
0007
0000
0000
0033
0000
003D
0000
0000
0000
0000
0000
0000
0000
0000
0000
0000
0000
0000
FFFF
0000
0000
FFFF
0000
0000
0000
0000
0000
000D
0000
0000
0000
002F
0000
0000
005E
002C
0000
0014
0001
000C
0000
0000
0000
0000
0000
0000
FFFF
0000
FFFF
FFFF
FFFF
0000
0000
0000
0000
0000
0028
003B
0001
0000
0000
0000
0011
0000
0017
0000
0002
0000
0000
0000
0000
0000
0000
FFFF
0000
FFFF
0000
0000
FFFF
0000
0000
0000
0000
0000
0000
0000
0040
0000
0000
004E
0000
0000
0014
0000
0000
0000
0000
FFFF
0000
0000
0000
FFFF
FFFF
0000
FFFF
0000
FFFF
FFFF
FFFF
FFFF
0000
0000
0000
0000
0000
0000
0000
0000
0000
0000
0000
0000
0000
0000
0000
0000
0000
FFFF
FFFF
FFFF
FFFF
FFFF
FFFF
0000
FFFF
FFFF
FFFF
0000
FFFF
0000
FFFF
0000
0000
0000
0000
0000
0000
0000
0000
0000
0000
0000
0000
FFFF
0000
0000
FFFF
FFFF
0000
FFFF
FFFF
FFFF
0000
FFFF
FFFF
FFFF
0000
FFFF
FFFF
0000
FFFF
FFFF
FFFF
0000
FFFF
0000
0000
0000
0000
FFFF
FFFF
0000
0000
FFFF
FFFF
0000
0000
FFFF
0000
0000
FFFF
FFFF
FFFF
FFFF
FFFF
FFFF
0000
FFFF
FFFF
0000
FFFF
0000
0000
FFFF
FFFF
0000
FFFF
FFFF
FFFF
0000
0000
FFFF
0000
FFFF
0000
FFFF
0000
FFFF
0000
0000
FFFF
0000
FFFF
0000
FFFF
0000
0000
FFFF
0000
0000
FFFF
FFFF
FFFF
0000
0000
FFFF
0000
FFFF
0000
FFFF
0000
FFFF
FFFF
FFFF
FFFF
FFFF
0000
FFFF
0000
0000
0000
FFFF
0000
0000
0000
FFFF
0000
0000
0000
0000
0000
0000
002E
0000
0000
FFFF
0000
0000
0000
FFFF
FFFF
FFFF
FFFF
0000
FFFF
0000
0000
FFFF
FFFF
0000
0000
0000
0000
0000
0000
0000
0000
0000
0049
0000
0000
0000
0000
0000
0000
0000
0000
0000
0000
0000
0000
0000
FFFF
FFFF
0000
FFFF
0000
0000
0000
0000
0000
0000
0000
0033
0060
0000
000C
0000
0000
0013
0000
0000
0000
0000
0000
0000
FFFF
0000
FFFF
0000
FFFF
FFFF
FFFF
0000
0000
0000
0000
0000
0000
0000
0000
0000
0002
0002
0000
0000
0000
001E
001E
000E
0013
0000
0000
FFFF
FFFF
FFFF
0000
0000
0000
FFFF
0000
0000
0000
0000
0000
0000
0000
0000
0047
0010
0036
0000
0000
0001
0000
0000
003A
0067
0000
0000
0000
0000
0000
0000
0000
FFFF
0000
0000
0000
0000
FFFF
0000
0000
0011
001C
0012
0027
0026
004C
0000
000D
0029
0041
0000
0000
0000
0000
0001
0000
0000
0000
0000
FFFF
FFFF
FFFF
0000
FFFF
0000
0000
0000
0000
0053
004D
0017
0023
0000
0000
0000
0000
0000
0000
0000
0000
0000
0000
0000
0000
0000
0000
0000
FFFF
FFFF
0000
FFFF
FFFF
0000
0000
0000
0000
0000
0000
001F
0033
0000
0009
002D
0001
0000
0049
002A
000E
0000
0069
0016
0000
0000
0000
FFFF
FFFF
0000
FFFF
0000
0000
0000
0000
0000
0073
0000
0000
000F
0000
0026
002F
0020
0000
0000
0000
0000
0000
0007
0000
003E
0000
0000
0000
0000
FFFF
FFFF
FFFF
FFFF
FFFF
0000
0000
0000
0000
0000
0000
0000
0000
0026
0000
0000
0000
0000
0000
001A
000E
0000
0035
0042
0000
0000
0000
FFFF
0000
0000
FFFF
FFFF
0000
0000
0000
001A
005B
0000
0026
0000
000E
0000
001C
0024
005F
0000
0035
003B
0000
0000
0000
0000
0000
0000
FFFF
FFFF
0000
FFFF
FFFF
FFFF
0000
0000
0000
0000
0000
0000
0000
0065
001E
0000
0000
0000
0007
0013
005C
0030
0000
0025
0073
0000
0000
0000
FFFF
FFFF
0000
FFFF
FFFF
0000
FFFF
0000
0000
0000
0000
0007
0008
0025
0000
0049
0000
0020
0001
0000
0000
0032
003C
0000
003E
002A
0000
0000
FFFF
FFFF
FFFF
0000
0000
FFFF
FFFF
0000
0028
002A
0000
0000
0070
004B
0000
0000
0000
0000
0002
0013
0000
0028
0040
0000
0024
001A
0000
0000
0000
FFFF
0000
FFFF
0000
FFFF
0000
0000
0025
0073
0000
0000
0000
0000
0004
003A
005F
0006
0001
0000
0000
0021
006F
0010
0044
000C
0007
0000
0000
0000
0000
0000
0000
FFFF
FFFF
0000
001E
0000
001A
0000
0012
0000
0033
0023
0036
0000
0000
0000
0000
0026
0000
0000
0000
0018
0000
0000
0000
0000
FFFF
0000
0000
FFFF
0000
0000
0000
0000
0010
001B
001D
0055
0070
0000
0000
0000
001D
0011
004E
008A
0022
0000
0000
0000
0000
0000
0000
0000
FFFF
FFFF
0000
FFFF
0000
0000
0000
0055
0000
0000
0000
0007
0011
0000
0000
0044
0000
0000
0056
0058
0030
0000
0002
0000
0000
0000
0000
0000
0000
FFFF
0000
FFFF
0000
0000
0000
0000
0000
0000
003F
0001
0060
0000
000E
0000
0000
0000
0060
0024
0000
0000
0000
0012
0000
0000
0000
0000
0000
FFFF
FFFF
0000
0000
0000
002A
0033
0000
0027
0018
0000
0000
0000
0065
0022
0026
0000
0017
003A
0009
0000
000A
0000
0000
0000
FFFF
FFFF
0000
FFFF
0000
0000
0000
0000
0000
0000
0029
0000
0000
0005
0000
0000
0000
002D
0000
0000
0000
002B
003D
0000
0000
0000
0000
0000
0000
0000
FFFF
0000
FFFF
0000
0000
0000
0000
0000
0000
0045
0015
0000
002A
0030
0000
0000
0000
0000
0000
0000
0000
0000
0000
0000
0000
0000
FFFF
FFFF
0000
0000
FFFF
0000
FFFF
0000
0000
0000
0000
0000
0000
0028
001A
0058
0021
0035
0021
0000
0000
0000
0000
FFFF
FFFF
0000
0000
0000
FFFF
0000
FFFF
0000
FFFF
0000
FFFF
0000
0000
0000
FFFF
0000
0000
0000
0000
0000
0000
0000
0000
0000
0000
0000
0000
0000
FFFF
FFFF
FFFF
0000
FFFF
FFFF
FFFF
0000
FFFF
0000
FFFF
0000
FFFF
0000
0000
0000
0000
0000
0000
0000
0000
0000
0000
0000
0000
FFFF
FFFF
FFFF
0000
FFFF
FFFF
FFFF
0000
FFFF
FFFF
FFFF
0000
FFFF
FFFF
0000
0000
0000
FFFF
0000
FFFF
FFFF
FFFF
0000
0000
0000
0000
0000
0000
FFFF
FFFF
FFFF
0000
FFFF
FFFF
0000
0000
FFFF
0000
FFFF
0000
FFFF
FFFF
FFFF
FFFF
FFFF
0000
FFFF
0000
FFFF
FFFF
0000
0000
FFFF
FFFF
FFFF
FFFF
FFFF
FFFF
FFFF
0000
0000
0000
FFFF
0000
FFFF
0000
FFFF
0000
0000
FFFF
0000
FFFF
0000
FFFF
0000
0000
FFFF
0000
0000
FFFF
FFFF
0000
FFFF
0000
FFFF
FFFF
FFFF
0000
FFFF
0000
FFFF
FFFF
FFFF
0000
FFFF
0000
FFFF
0000
0000
0000
FFFF
0000
FFFF
0000
0000
0000
0000
0000
0000
0000
0000
0000
0000
0000
FFFF
0000
00A0
0000
0000
FFFF
FFFF
FFFF
0000
0000
0000
0000
FFFF
FFFF
0000
0000
0000
0000
0000
0000
0000
0000
0000
0000
0000
0000
0000
0000
0000
0000
0000
FFFF
FFFF
0000
0000
0000
0000
0000
FFFF
0000
0000
0000
FFFF
0000
0000
0000
0000
0000
0000
0000
0000
0015
0076
0000
0011
0000
0000
0000
0000
0000
0000
FFFF
0000
0000
0000
FFFF
FFFF
0000
0000
0000
0000
0000
0000
0000
0000
0000
002F
0034
005C
0000
0022
000B
0000
004C
0021
0000
0000
FFFF
FFFF
FFFF
FFFF
0000
FFFF
0000
FFFF
0000
0000
0000
0000
0000
0000
0024
0021
0000
006F
003D
0000
0000
003C
0000
004E
0000
0000
0000
0000
0000
0000
0000
FFFF
0000
FFFF
0000
0000
FFFF
FFFF
0000
0000
0000
003F
000E
0010
0000
0010
0000
0019
0002
0000
0007
0000
0000
002C
0000
0000
0000
0000
0000
0000
0000
FFFF
FFFF
FFFF
FFFF
0000
0000
0027
0000
0000
001A
003F
003B
0016
0010
0007
0000
0000
0000
0000
0017
003D
002D
0000
0000
0000
0000
0000
FFFF
FFFF
0000
FFFF
FFFF
0000
0000
0000
0000
0000
0000
0000
0024
0000
0017
0021
0000
0039
0034
0000
0000
0027
0000
000B
0000
0000
0000
FFFF
0000
0000
0000
0000
0000
0000
FFFF
0000
000A
0018
0000
005F
0000
002A
002D
0000
00A6
0012
004F
000D
0000
0024
003D
0000
0000
0000
0000
0000
0000
FFFF
FFFF
FFFF
0000
0000
0000
0024
0027
000F
0000
0000
0000
0023
0013
0000
0000
002C
0000
0000
0000
001D
0000
0000
0000
0000
0000
0000
FFFF
0000
FFFF
FFFF
FFFF
0000
0000
004C
0031
0000
0000
000A
0000
0016
003E
0000
0022
0000
0000
0019
000A
0033
0000
0021
0000
0000
FFFF
FFFF
FFFF
FFFF
0000
FFFF
0000
0000
0000
0000
0007
000E
0000
0000
0000
0041
0000
0000
0000
0000
0000
0000
0032
0000
000F
0016
0000
0000
FFFF
FFFF
0000
FFFF
0000
0000
0000
0000
0000
0000
0000
0000
0066
0000
0000
0000
0000
0001
0000
0008
0000
0000
004C
0078
0000
0000
0000
0000
FFFF
0000
FFFF
FFFF
0000
FFFF
FFFF
0000
0000
0000
0000
0000
0000
0000
0009
0010
0000
0000
0000
0045
002C
0000
0033
0036
0004
000C
0000
0000
0000
FFFF
0000
FFFF
FFFF
0000
0000
0000
0000
0000
0000
0000
0000
0000
0000
0000
0029
0000
0000
0002
0024
0000
003C
000E
001A
000E
0000
0000
0000
0000
FFFF
FFFF
0000
FFFF
FFFF
0000
0010
0037
0093
0000
0029
000B
0000
0000
0000
0000
0000
0000
0000
003E
0036
001B
0000
0000
0000
0000
0000
0000
FFFF
FFFF
FFFF
FFFF
0000
0000
0034
0005
0063
000F
0000
006D
0000
0000
002D
0056
000B
002D
0019
002B
0042
0000
002F
000A
0000
0000
0000
0000
FFFF
FFFF
0000
FFFF
0000
0000
0000
0000
0000
00AE
0000
000F
0000
0011
0057
0000
0000
0012
0024
0036
003C
0000
0037
0000
0000
0000
0000
0000
FFFF
0000
0000
0000
0000
0000
0000
0017
0022
0000
0000
0024
0000
0000
0000
0000
0000
0000
004F
0000
0053
0000
0000
0000
0000
0000
0000
0000
0000
FFFF
0000
0000
FFFF
0000
0000
002C
003E
0000
0043
005F
0000
0017
000A
0000
0000
0000
002E
006F
0000
0000
0006
0000
0000
0000
FFFF
FFFF
FFFF
FFFF
0000
0000
0000
0000
0000
0000
0000
0000
000E
0000
0000
0000
0000
0016
0000
006E
0035
0000
0003
0000
0000
0000
0000
0000
0000
0000
FFFF
FFFF
FFFF
0000
0000
0000
0000
0000
0000
0000
0000
0000
0011
0000
0016
0017
003C
0000
0000
0000
0000
0000
0000
0000
0000
0000
0000
0000
0000
FFFF
0000
FFFF
FFFF
0000
0000
0000
0000
0000
0000
0000
0000
0035
0000
0018
0000
0000
0000
0000
0000
0000
0000
0000
0000
0000
FFFF
0000
0000
0000
0000
FFFF
FFFF
FFFF
FFFF
0000
FFFF
FFFF
FFFF
FFFF
FFFF
FFFF
0000
0000
0000
0000
0000
0000
0000
0000
0000
FFFF
FFFF
FFFF
0000
0000
0000
0000
FFFF
FFFF
FFFF
FFFF
FFFF
0000
0000
0000
0000
FFFF
0000
FFFF
FFFF
0000
0000
0000
0000
0000
0000
FFFF
0000
FFFF
FFFF
FFFF
0000
0000
FFFF
FFFF
0000
FFFF
FFFF
FFFF
0000
0000
FFFF
0000
FFFF
FFFF
0000
0000
0000
0000
0000
0000
0000
FFFF
FFFF
FFFF
FFFF
FFFF
FFFF
0000
0000
FFFF
FFFF
0000
0000
FFFF
0000
FFFF
FFFF
0000
0000
0000
0000
FFFF
FFFF
FFFF
0000
0000
FFFF
0000
0000
FFFF
FFFF
FFFF
0000
FFFF
0000
FFFF
0000
FFFF
0000
FFFF
0000
0000
0000
0000
FFFF
FFFF
FFFF
0000
FFFF
0000
0000
0000
FFFF
FFFF
FFFF
FFFF
FFFF
FFFF
0000
0000
0000
0000
0000
FFFF
FFFF
0000
0000
FFFF
FFFF
FFFF
0000
0000
0000
FFFF
FFFF
FFFF
0000
FFFF
0000
0000
0000
FFFF
0000
0000
0000
0000
0000
FFFF
0000
0000
0000
0000
0000
FFFF
FFFF
FFFF
0000
FFFF
0000
0000
FFFF
FFFF
0000
0000
0000
0000
0000
0000
0000
0000
0000
0000
0000
0000
0000
0000
0000
0000
0000
FFFF
FFFF
FFFF
0000
0000
0000
FFFF
0000
0000
0000
FFFF
0000
0000
0000
0000
0000
0000
0000
0000
0020
004E
001E
0000
0000
0000
0000
0000
0000
0000
FFFF
FFFF
FFFF
0000
FFFF
FFFF
FFFF
0000
0000
0000
0000
0000
0000
0000
0000
0008
0062
0000
0000
0052
0000
0000
0040
0020
0015
0000
0000
FFFF
FFFF
FFFF
FFFF
0000
0000
0000
FFFF
0000
0000
0000
0000
0000
0020
0000
0000
0000
0010
0000
0000
0013
002E
0002
0011
0022
0000
0000
0000
0000
0000
FFFF
FFFF
FFFF
0000
FFFF
FFFF
FFFF
FFFF
0000
0000
0000
0000
0000
0000
0000
0000
0013
0000
0023
0035
0000
0000
0018
005A
0000
0000
0000
0000
0000
FFFF
FFFF
FFFF
FFFF
FFFF
0000
0000
FFFF
0000
0000
0000
0000
0000
0000
0000
0000
0016
0000
0000
0049
0000
0063
0000
0000
0000
0000
0000
0000
0000
FFFF
0000
FFFF
FFFF
0000
0000
0000
0000
0000
0000
0020
0000
0000
001C
0000
0000
000E
0030
0027
0000
002B
0000
0000
0000
0000
0000
FFFF
FFFF
FFFF
FFFF
0000
0000
0000
FFFF
0000
0000
0000
0000
0000
0000
0000
004C
002B
0020
000E
0016
0000
0000
0000
0000
0031
0000
0000
0000
0000
0000
FFFF
FFFF
FFFF
0000
0000
0000
0000
0000
0000
0002
0000
0000
0000
0000
0000
0000
000C
0034
0006
001B
0000
005A
0000
0000
0000
0000
0000
0000
0000
FFFF
FFFF
0000
0000
0000
0000
0000
0000
0043
0055
0000
0000
0027
0000
0023
001B
0000
0003
0003
0004
007F
0006
0000
0000
0000
FFFF
FFFF
FFFF
0000
FFFF
0000
0000
0000
0000
0000
0071
0000
0000
0000
0026
003C
0000
0032
0010
0000
0000
0000
0000
0000
0007
0000
0000
FFFF
FFFF
0000
FFFF
0000
0000
0000
0000
0000
0000
0000
000A
0000
0031
0000
0000
0000
0022
0000
0000
0002
0000
0000
000F
0064
0000
0000
0000
FFFF
0000
FFFF
0000
FFFF
FFFF
FFFF
0000
0000
0005
0000
0000
000F
0000
0000
0000
0000
0028
000C
0074
0000
0030
0000
0000
001E
0000
0000
0000
0000
FFFF
0000
FFFF
FFFF
FFFF
0000
0000
0000
0041
0001
002D
0000
0000
004F
0038
0000
000A
0000
0000
0000
0049
0029
0005
0000
0036
0000
0000
0000
0000
0000
FFFF
0000
FFFF
FFFF
0000
0000
0000
0000
002B
0032
0048
0025
0018
0000
005F
0000
0030
0054
0047
0026
0000
0000
0000
0000
0000
0000
0000
FFFF
FFFF
FFFF
FFFF
0000
0000
0018
0000
0036
0000
0000
0000
0026
0000
0015
0042
0000
0000
003D
0024
0044
0000
0004
0000
0000
0000
0000
0000
0000
FFFF
FFFF
FFFF
0000
0000
0056
0010
0024
0000
0051
0050
0000
001C
0000
0050
0000
000C
0000
0006
0000
0040
0000
0000
0000
0000
0000
0000
0000
FFFF
0000
FFFF
0000
0000
0024
0024
0004
0080
0040
000C
0007
0000
0015
0000
000E
0000
0000
0005
0000
001E
0000
0000
0000
0000
0000
0000
0000
FFFF
0000
FFFF
0000
0000
0000
0000
0000
0038
0020
000F
0044
0000
0000
0000
0000
0000
0032
0000
008B
003A
0000
0000
0000
0000
FFFF
0000
0000
0000
0000
0000
0000
0000
0000
0062
0000
0000
002C
0000
0000
002B
001C
0033
000D
0000
0028
000D
0000
0000
0000
0000
0000
0000
FFFF
0000
FFFF
FFFF
FFFF
0000
0000
0000
0000
0000
0000
0000
0000
003A
000B
003B
004B
0000
0027
0000
0000
0000
0000
0000
0000
0000
0000
FFFF
FFFF
FFFF
0000
FFFF
FFFF
FFFF
FFFF
0000
0000
0000
0000
0000
0028
0033
0000
0014
0007
003C
0000
0000
0000
0000
0000
FFFF
FFFF
0000
0000
FFFF
FFFF
0000
FFFF
0000
FFFF
FFFF
FFFF
FFFF
FFFF
0000
0000
0000
0000
0000
0000
0000
0000
0000
0000
0000
0000
0000
0000
FFFF
FFFF
FFFF
FFFF
FFFF
FFFF
FFFF
FFFF
0000
FFFF
FFFF
FFFF
0000
0000
0000
FFFF
0000
0000
0000
FFFF
FFFF
FFFF
0000
0000
0000
0000
FFFF
0000
FFFF
0000
FFFF
FFFF
FFFF
0000
FFFF
FFFF
FFFF
0000
0000
FFFF
0000
0000
FFFF
FFFF
0000
FFFF
FFFF
0000
0000
FFFF
0000
0000
0000
FFFF
FFFF
FFFF
FFFF
0000
FFFF
FFFF
0000
0000
FFFF
FFFF
0000
FFFF
FFFF
FFFF
FFFF
FFFF
FFFF
0000
FFFF
0000
FFFF
FFFF
FFFF
0000
0000
FFFF
0000
FFFF
FFFF
FFFF
FFFF
FFFF
FFFF
0000
FFFF
0000
FFFF
0000
FFFF
0000
0000
FFFF
0000
FFFF
0000
FFFF
0000
FFFF
0000
0000
0000
FFFF
FFFF
FFFF
FFFF
FFFF
FFFF
0000
FFFF
0000
FFFF
0000
FFFF
FFFF
FFFF
FFFF
FFFF
FFFF
FFFF
0000
0000
0000
FFFF
FFFF
FFFF
0000
FFFF
0000
0000
0000
0000
0000
0000
0000
0000
0000
FFFF
0000
0000
0000
FFFF
FFFF
FFFF
FFFF
FFFF
0000
FFFF
0000
FFFF
FFFF
FFFF
0000
0000
0000
0000
0000
0000
0000
0000
0000
0000
0000
0000
0000
0000
0000
0000
0000
0000
FFFF
FFFF
0000
0000
0000
FFFF
0000
0000
0000
FFFF
0000
0000
0000
0000
0000
0007
0000
0000
0012
0048
0000
0026
004A
0000
0000
0000
0000
0000
FFFF
FFFF
0000
0000
FFFF
0000
0000
FFFF
FFFF
FFFF
FFFF
0000
0000
004A
0000
0011
0029
0000
0031
0057
0000
0021
00A3
0000
0033
0000
FFFF
FFFF
FFFF
FFFF
FFFF
0000
0000
FFFF
0000
FFFF
FFFF
0000
0000
0000
0000
0000
0067
0023
0019
0000
0000
002B
0000
0000
0000
0008
000C
0000
0000
0000
0000
FFFF
FFFF
FFFF
0000
0000
FFFF
0000
0000
0000
0003
0025
0005
001B
0018
007D
0000
0000
000B
0000
000D
0005
004D
000B
0000
0000
0000
0000
FFFF
0000
0000
FFFF
FFFF
FFFF
FFFF
0000
0000
0000
0013
0000
0040
0000
0000
0000
006D
0000
0022
0013
0015
0000
0000
0038
003E
003E
0000
0000
0000
0000
FFFF
FFFF
0000
FFFF
FFFF
FFFF
0000
001A
0000
0015
0000
0000
0021
0000
0023
0013
0000
0028
0000
0029
0000
0033
0000
0000
0000
0000
0000
FFFF
FFFF
FFFF
FFFF
0000
0000
0000
0000
0055
000C
0000
0036
0050
0000
0005
0000
0000
0000
0000
0022
0005
0050
003C
0000
0076
0000
0000
0000
0000
FFFF
FFFF
FFFF
FFFF
0000
0000
0000
0038
0021
0000
004A
0009
0057
000C
0000
0000
0000
000A
0012
004F
0000
0044
0000
0000
0000
0000
0000
0000
FFFF
0000
FFFF
FFFF
0000
0000
0000
0011
0000
0000
0000
000D
001A
0033
0000
0008
004D
0000
0000
0022
0006
0000
003D
0004
0000
0000
FFFF
FFFF
FFFF
FFFF
FFFF
FFFF
0000
0000
0000
0000
0024
0032
0000
000F
0000
0000
0071
0000
0015
0000
0000
0000
0000
004C
0000
0000
0000
0000
FFFF
FFFF
0000
FFFF
0000
0000
0000
0000
0000
000D
0010
0000
000E
0000
0000
0048
0006
0000
0000
0000
0000
0000
0000
0014
0000
0000
0000
0000
FFFF
FFFF
FFFF
0000
FFFF
FFFF
FFFF
0000
0000
0000
0004
0000
0000
0013
0005
0000
0047
0000
0000
0000
005E
0000
0018
0023
0000
0005
0000
0000
0000
FFFF
0000
FFFF
0000
0000
0000
0000
0000
0000
0028
0014
0025
0022
0030
003A
0000
0000
0000
0000
0000
0000
0025
0000
0000
0000
0000
0000
0000
0000
0000
FFFF
0000
FFFF
FFFF
0000
0013
0005
006A
0000
002B
0000
0004
0000
0008
0000
0003
0045
0000
003B
0011
0032
0008
0000
0000
0000
0000
0000
FFFF
FFFF
FFFF
FFFF
0000
0000
0000
0000
0000
0000
0000
000C
003C
0000
0019
0000
0000
0041
004F
0059
0022
0014
0000
0000
0000
0000
0000
0000
FFFF
FFFF
FFFF
FFFF
FFFF
0000
000E
0000
0004
0000
0030
0000
0020
0000
0000
0030
0000
0034
002B
0000
0000
0000
0017
0004
0000
0000
0000
0000
0000
FFFF
0000
FFFF
0000
0000
0000
0000
0000
0018
0064
0036
0020
0000
0000
0003
0001
0013
0046
005F
0000
0000
0000
0000
0000
0000
0000
0000
0000
FFFF
FFFF
FFFF
0000
0000
0000
0007
0003
005D
0021
0025
0025
0000
0000
0028
0007
0000
0000
0000
0000
002D
0000
0000
0000
0000
FFFF
0000
0000
FFFF
0000
0000
0000
0000
0000
0000
0000
0000
0019
000C
0002
0000
0000
0005
0000
0000
0000
004C
0025
0000
0000
0000
0000
0000
FFFF
0000
FFFF
FFFF
FFFF
0000
0000
0000
0000
0000
0000
0000
0000
0018
0000
0000
0000
0000
0000
0000
0000
0000
0013
0000
0000
0000
0000
FFFF
0000
FFFF
0000
0000
FFFF
0000
001C
0000
0000
0000
0000
0000
0087
0000
0000
0000
0000
0000
0000
0000
0000
0000
0000
FFFF
FFFF
0000
0000
FFFF
FFFF
0000
FFFF
0000
FFFF
FFFF
FFFF
FFFF
FFFF
0000
0000
0000
0000
0000
0000
0000
0000
0000
0000
0000
0000
0000
0000
FFFF
0000
FFFF
FFFF
FFFF
FFFF
0000
FFFF
0000
FFFF
FFFF
FFFF
FFFF
FFFF
0000
0000
0000
0000
0000
0000
FFFF
0000
0000
0000
0000
0000
FFFF
0000
FFFF
0000
FFFF
FFFF
FFFF
0000
FFFF
FFFF
FFFF
0000
FFFF
0000
FFFF
0000
0000
FFFF
0000
FFFF
FFFF
FFFF
0000
0000
0000
0000
0000
0000
FFFF
FFFF
FFFF
0000
FFFF
FFFF
0000
0000
FFFF
0000
FFFF
0000
FFFF
FFFF
FFFF
FFFF
FFFF
FFFF
0000
0000
0000
FFFF
FFFF
0000
0000
FFFF
0000
FFFF
0000
0000
0000
0000
FFFF
0000
FFFF
0000
FFFF
0000
FFFF
0000
0000
0000
FFFF
FFFF
0000
FFFF
0000
0000
0000
0000
0000
FFFF
FFFF
FFFF
FFFF
0000
FFFF
FFFF
0000
0000
FFFF
0000
FFFF
FFFF
FFFF
0000
FFFF
0000
FFFF
0000
0000
0000
FFFF
FFFF
FFFF
0000
0000
0000
0000
0000
FFFF
0000
0000
0000
0000
0000
FFFF
0000
0000
0000
0000
FFFF
FFFF
FFFF
0000
0000
0000
FFFF
0000
FFFF
FFFF
0000
FFFF
0000
0000
0000
0000
0000
0000
0000
0000
0000
FFFF
0000
0000
0000
FFFF
0000
0000
0000
0000
0000
0000
FFFF
FFFF
0000
FFFF
0000
0000
0000
0000
0000
0000
0000
0000
0000
0000
0000
000F
0000
0000
0000
0000
0000
0000
0000
0000
FFFF
0000
0000
0000
FFFF
FFFF
0000
0000
0000
FFFF
FFFF
0000
0000
0000
0020
002A
000A
0031
0000
002E
0006
0000
0017
0000
0000
0000
0000
FFFF
FFFF
FFFF
0000
FFFF
0000
FFFF
0000
FFFF
FFFF
0000
0000
0000
0000
0000
0022
0000
0000
0000
0000
0037
0010
0000
0000
0000
0004
0000
0000
0000
0000
FFFF
0000
FFFF
0000
0000
FFFF
0000
0000
0000
0000
0000
0000
0001
0016
006B
0030
0000
005E
0000
0018
0020
0000
0000
002F
0000
0000
0000
0000
0000
0000
0000
FFFF
FFFF
0000
0000
0000
001B
001E
0042
0014
0003
0000
0000
0053
001F
0008
0005
0000
0000
0000
002F
002D
0000
001A
0000
0000
0000
0000
FFFF
0000
0000
FFFF
0000
0000
0000
0000
0076
0000
0000
0000
001F
000C
0027
0000
0026
004B
0000
0000
002E
002E
0000
0000
0000
0000
FFFF
FFFF
0000
0000
0000
0000
0000
0000
0018
0073
0000
0000
0017
003B
0000
0000
0000
0047
000C
0000
0016
0000
0003
0000
0000
0000
0000
0000
0000
FFFF
FFFF
FFFF
0000
0000
0000
0000
004E
0016
0000
0000
003B
0000
0000
0000
0006
0000
0000
0000
0003
0000
0000
0004
0047
0000
0009
0000
0000
0000
0000
FFFF
0000
FFFF
0000
0000
0027
0000
0012
0000
001B
0031
001E
0055
0056
0000
0000
0003
0000
0000
0006
0000
0000
0000
0000
0000
FFFF
FFFF
FFFF
FFFF
FFFF
0000
0000
0000
0000
0043
0000
0000
0040
0000
0038
0000
0000
0000
0021
0035
000B
0000
0023
0005
0000
0000
0000
0000
0000
0000
FFFF
0000
0000
0000
0000
0000
0011
0054
003D
0026
0030
0032
0006
0000
0005
0000
0000
0000
0000
005A
0047
001A
0016
0038
0000
FFFF
0000
FFFF
FFFF
0000
FFFF
FFFF
0000
0000
0000
002C
0000
0045
0000
0065
0027
0000
0003
0067
000E
0024
002E
0000
0015
0000
0006
0038
0000
0000
FFFF
FFFF
FFFF
FFFF
0000
0000
0000
0000
0011
0011
0074
0015
0000
0007
0000
0000
0000
000A
0000
001F
0000
0014
0000
0036
001E
0000
0000
0000
0000
0000
0000
0000
0000
FFFF
0000
0000
0000
0000
0000
001B
0006
006E
0000
0000
0000
0000
0024
0000
0000
0001
006C
0000
0000
0000
0000
0000
0000
0000
0000
FFFF
0000
0000
0000
0000
0000
0004
0000
0073
0006
0000
0000
0037
0000
0000
0062
0000
0000
0000
0035
001F
0022
0000
0000
FFFF
FFFF
FFFF
FFFF
FFFF
FFFF
FFFF
0000
0011
0042
0000
0003
0009
0001
0000
0016
0000
000F
0001
0000
0000
000D
0035
0000
0017
0000
0000
0000
FFFF
FFFF
FFFF
FFFF
0000
0000
0000
0000
0000
0034
0000
0000
0000
0035
0000
0016
0046
0022
0000
0038
0010
0000
0000
0000
0000
0000
0000
0000
0000
FFFF
0000
FFFF
0000
0000
0000
0000
0000
003C
0000
0008
002C
0000
001A
0000
0030
0047
0000
0000
0000
0000
0000
0000
0000
0000
0000
0000
FFFF
FFFF
FFFF
FFFF
0000
0000
0000
0000
0000
0000
0000
002B
0000
0000
0000
0000
0000
000B
0001
0000
0000
0000
0000
0000
0000
0000
0000
0000
0000
0000
FFFF
FFFF
FFFF
0000
0000
0000
0000
0000
0000
0000
0000
0000
000F
001A
0000
002E
0014
0000
0000
0000
0000
0000
0000
0000
0000
0000
0000
FFFF
0000
FFFF
0000
FFFF
FFFF
0000
0000
0000
0000
0000
0000
0000
0000
0000
0000
0002
0000
0065
0000
0000
0000
0000
0000
0000
0000
0000
FFFF
0000
FFFF
0000
FFFF
0000
FFFF
FFFF
0000
0000
FFFF
0000
0000
0000
0000
0000
0000
0000
0000
0000
0000
0000
0000
0000
0000
FFFF
FFFF
FFFF
FFFF
0000
FFFF
0000
FFFF
0000
0000
FFFF
FFFF
0000
0000
0000
0000
0000
0000
0000
0000
0000
0000
0000
0000
0000
0000
0000
0000
0000
FFFF
FFFF
0000
FFFF
FFFF
0000
0016
FFFF
0000
0000
0000
0000
FFFF
0000
0000
FFFF
0000
0000
0000
0000
0000
0000
FFFF
FFFF
0000
0000
0000
FFFF
FFFF
0000
FFFF
FFFF
0000
0000
FFFF
FFFF
FFFF
FFFF
FFFF
FFFF
0000
FFFF
0000
0000
FFFF
FFFF
0000
FFFF
0000
0000
0000
FFFF
FFFF
FFFF
0000
0000
0000
0000
0000
FFFF
0000
FFFF
0000
0000
FFFF
0000
FFFF
0000
FFFF
0000
0000
0000
0000
0000
FFFF
0000
FFFF
FFFF
0000
FFFF
0000
FFFF
0000
FFFF
0000
FFFF
FFFF
FFFF
FFFF
FFFF
FFFF
FFFF
0000
0000
0000
FFFF
FFFF
FFFF
0000
FFFF
0000
0000
0000
0000
0000
0000
0000
0000
0000
FFFF
0000
0000
0000
0000
0000
FFFF
FFFF
0000
FFFF
0000
0000
FFFF
FFFF
0000
0000
0000
0000
0000
0011
0000
0000
0000
0000
0000
0000
FFFF
0000
0000
0000
0000
0000
0000
0000
FFFF
0000
0000
0000
0000
0000
FFFF
0000
0000
0000
0000
0000
0000
0000
0001
0000
0005
0000
0014
0000
0000
0000
0000
0000
0000
0000
0000
FFFF
FFFF
0000
0000
FFFF
FFFF
0000
0000
0000
0000
0000
000A
0000
0000
0000
0014
0068
0036
0000
0013
0019
0000
0000
0028
0000
0000
0000
FFFF
FFFF
FFFF
FFFF
0000
FFFF
FFFF
0000
0000
0000
0000
0000
003B
0015
0000
001A
0042
002C
000A
0025
0036
0000
0000
0000
0009
0000
0000
0000
0000
0000
0000
0000
FFFF
0000
0000
FFFF
FFFF
0000
0000
0000
0000
0009
001B
0000
0000
0000
0000
0000
0000
004A
0003
0010
0008
003E
0000
0000
0000
0000
0000
0000
FFFF
FFFF
0000
FFFF
0000
0000
0000
0000
0000
0000
0000
0000
003B
0000
0024
0000
0005
0000
0000
0000
0000
0010
0000
0000
0000
0000
0000
FFFF
0000
0000
FFFF
FFFF
0000
0000
0000
0000
0000
0022
0025
0011
0000
001D
000D
0000
0010
003A
0000
0000
0071
002F
0000
0000
0000
0000
FFFF
FFFF
FFFF
0000
0000
0000
0000
0000
002A
0000
0000
004A
001F
0000
0000
0041
006D
000E
0021
0026
0000
0000
0000
0000
009B
0000
0000
0000
0000
FFFF
FFFF
FFFF
FFFF
0000
0000
0000
0000
003B
0012
0000
0000
0000
0000
0032
0000
0000
0030
001A
0000
0022
007C
000C
003E
0000
0000
0000
0000
FFFF
0000
FFFF
FFFF
0000
0000
0000
0000
0000
0030
0001
0000
0000
002C
0000
0027
005E
0000
0000
0000
0004
0051
0017
0000
002A
0000
0000
FFFF
FFFF
FFFF
0000
FFFF
0000
0000
0000
0015
0050
003F
0007
0031
0000
0007
0013
001F
0000
0006
0017
0026
004F
0000
0000
0000
0000
0000
FFFF
FFFF
0000
FFFF
FFFF
0000
0000
0000
0000
0002
0020
0000
0000
000C
0000
0000
0016
0000
0000
0036
0014
001D
0000
001B
0019
0000
0000
0000
0000
FFFF
FFFF
0000
FFFF
FFFF
FFFF
0000
0008
0030
0000
0006
0000
0000
001E
0001
001E
0027
0010
0000
0000
0055
0066
0032
002D
0000
0000
0000
0000
FFFF
0000
FFFF
0000
0000
0000
0000
008A
0000
0000
002F
0000
0000
0068
0000
006C
007E
0043
0000
004E
000C
0000
000A
0000
0056
0000
0000
0000
0000
0000
0000
0000
FFFF
FFFF
0000
0000
0000
0000
0000
0000
002A
0000
001E
0000
000D
001C
0000
001D
0000
0006
002F
0039
0035
0000
0000
0000
0000
FFFF
FFFF
0000
FFFF
0000
0000
0000
0043
0016
0000
0000
0000
0029
0000
0000
0003
000D
000E
0000
0000
0041
0000
0000
001E
0000
0000
0000
0000
FFFF
FFFF
FFFF
FFFF
0000
0000
0037
000E
0000
000D
000C
0054
001D
0000
002F
000B
0024
003F
0000
002B
0000
0065
0000
0003
0000
0000
0000
0000
0000
FFFF
0000
FFFF
0000
0000
0000
0000
003D
0043
0000
0015
0011
0050
0037
0000
000B
002B
0000
0024
0020
003A
0000
0000
0000
0000
0000
0000
0000
FFFF
FFFF
0000
0000
0000
0053
0014
0006
000E
0025
0000
0000
0000
0000
0000
0000
0000
0069
0039
0000
0000
0000
0000
0000
0000
FFFF
FFFF
0000
FFFF
0000
0000
0000
0000
0000
0000
0000
0000
0000
0000
0040
0000
0000
0000
0000
002D
0000
0000
0000
0000
0000
0000
0000
0000
0000
0000
FFFF
FFFF
FFFF
0000
0000
0000
0000
0000
0062
003B
0000
0033
0000
0000
0000
0005
0000
000E
0020
0000
0000
0000
0000
0000
0000
FFFF
0000
FFFF
0000
0000
0000
0000
FFFF
0000
0000
0000
0000
0000
0000
001C
001A
0000
006A
0000
0033
0007
0000
0000
0000
FFFF
FFFF
0000
0000
FFFF
FFFF
0000
FFFF
0000
FFFF
0000
FFFF
FFFF
0000
0000
0000
0000
0000
0000
0000
0000
0000
0000
0000
0000
0000
0000
FFFF
FFFF
0000
FFFF
FFFF
FFFF
FFFF
0000
FFFF
0000
0000
0000
FFFF
0000
FFFF
FFFF
0000
0000
0000
0000
0000
0000
0000
0000
0000
0000
0000
FFFF
0000
FFFF
0000
FFFF
0000
FFFF
0000
0000
FFFF
FFFF
0000
FFFF
0000
FFFF
0000
0000
FFFF
0000
FFFF
FFFF
FFFF
0000
0000
0000
0000
0000
0000
FFFF
FFFF
FFFF
0000
FFFF
FFFF
0000
0000
FFFF
0000
FFFF
FFFF
FFFF
0000
FFFF
FFFF
FFFF
0000
FFFF
0000
FFFF
FFFF
FFFF
0000
0000
FFFF
0000
0000
FFFF
FFFF
0000
FFFF
FFFF
0000
FFFF
0000
FFFF
0000
FFFF
004E
FFFF
0000
0000
FFFF
0000
FFFF
0000
0000
FFFF
0000
0000
FFFF
FFFF
FFFF
FFFF
0000
FFFF
FFFF
FFFF
0000
FFFF
0000
FFFF
FFFF
FFFF
FFFF
FFFF
FFFF
FFFF
0000
0000
0000
0000
FFFF
FFFF
0000
FFFF
0000
0000
0000
0000
0000
0000
0000
0000
0000
FFFF
0000
FFFF
0000
FFFF
0000
FFFF
FFFF
FFFF
0000
FFFF
FFFF
FFFF
FFFF
FFFF
0000
0000
0000
0000
0000
0000
0000
0000
0000
0000
0000
0000
0000
0000
0000
0000
0000
FFFF
FFFF
FFFF
0000
0000
0000
FFFF
FFFF
0000
0000
FFFF
0000
0000
0000
0000
0000
003A
0034
0000
0063
0000
0000
0000
0000
0000
0000
0000
0000
0000
FFFF
FFFF
FFFF
0000
FFFF
FFFF
FFFF
0000
0000
0000
0000
0000
0000
0000
0000
0000
0000
0000
0000
0000
0000
0000
0000
0000
0000
0000
0000
FFFF
FFFF
FFFF
FFFF
FFFF
0000
FFFF
0000
0000
0000
0000
0000
0000
0000
0020
0076
0000
001F
0025
0014
0000
0000
0001
0000
001B
0000
0000
0000
0000
0000
FFFF
FFFF
FFFF
0000
0000
FFFF
FFFF
0000
0000
0000
0000
0000
0025
0000
0000
0000
0000
0000
003C
0000
0036
0000
0000
0008
0000
0000
0000
0000
0000
FFFF
FFFF
FFFF
FFFF
FFFF
0000
0000
FFFF
0000
0000
0042
0000
001A
0000
0033
0000
0018
0000
0000
0000
0000
0010
000C
0000
0000
0000
0000
0000
FFFF
FFFF
0000
FFFF
FFFF
0000
0000
0000
0020
0000
0026
0000
0050
0018
000E
0009
0000
0014
0005
0000
0000
0000
0000
0000
0000
0000
0000
FFFF
FFFF
FFFF
0000
0000
0000
0000
0000
0000
0000
004D
0012
0024
0012
000B
000D
001B
0022
0009
002B
001C
001C
0000
0008
0003
0000
0000
0000
0000
FFFF
FFFF
FFFF
FFFF
0000
0000
0000
0011
0067
0000
000D
0000
0000
0000
003F
0000
0000
0000
0004
0000
0006
0003
0000
002D
0000
0000
0000
0000
FFFF
0000
FFFF
FFFF
FFFF
0000
0000
001A
0000
003C
0000
0007
0000
0000
0015
0000
0046
0014
0000
0023
000E
0021
0000
0000
0000
0000
FFFF
FFFF
FFFF
FFFF
FFFF
FFFF
0000
0000
0000
0000
0074
002F
0000
0000
0000
0000
0000
0000
0051
0000
0000
0000
0000
003C
0000
0000
0000
0000
FFFF
FFFF
0000
FFFF
0000
0000
0000
0000
0000
0000
0000
0000
000B
000F
0000
0012
0029
0000
0000
0038
006A
0000
000E
0055
0000
0000
003C
0000
FFFF
0000
FFFF
FFFF
FFFF
FFFF
FFFF
0000
0000
0000
0000
002A
0023
0040
0034
0024
006D
0000
0000
0000
0000
0000
0024
003E
0000
0000
0000
0000
0000
FFFF
0000
FFFF
0000
FFFF
0000
0000
0000
0000
000D
0000
0000
0000
0000
0015
0020
0000
003B
0003
0000
0042
0000
0000
001A
0000
0000
0000
0000
0000
0000
FFFF
0000
FFFF
FFFF
0000
0000
000F
0000
0017
0000
002D
0000
001E
0058
0036
0000
000C
0000
0000
0000
004A
0000
0000
0000
0000
0000
0000
FFFF
0000
0000
FFFF
0000
0000
0000
0000
0000
002B
0000
0000
0000
0000
002C
004E
0014
0024
0000
002D
0022
0088
0000
0018
0000
0000
0000
0000
FFFF
FFFF
FFFF
FFFF
FFFF
0000
0000
0000
0021
0000
0043
0000
0000
004C
0000
0007
0025
0000
0000
0000
001D
0000
0034
0000
0000
0000
0000
0000
0000
FFFF
0000
FFFF
0000
0000
0000
0000
0000
0000
0000
0000
0012
005E
0000
0000
0000
0000
0000
0021
0000
0000
0011
0000
0000
0000
0000
0000
0000
FFFF
FFFF
0000
0000
0000
0000
0000
001F
005B
0000
0034
0000
0045
0020
0000
0007
0000
0000
0000
0047
0000
0000
0000
0000
0000
FFFF
FFFF
0000
FFFF
0000
0000
0000
0000
0000
0000
0000
001C
0008
0000
0026
000C
0000
0008
0035
0000
0000
0008
0077
0017
0000
0000
0000
0000
FFFF
0000
FFFF
FFFF
FFFF
0000
0000
FFFF
0000
0000
0000
0000
0000
0000
0050
0040
0000
0039
0032
0048
0000
0000
0000
0000
0000
0000
0000
FFFF
FFFF
FFFF
0000
0000
0000
0000
FFFF
0000
0000
0000
0000
0000
0000
006D
0004
001B
0000
0000
0000
0004
0000
0000
0000
FFFF
0000
0000
0000
FFFF
FFFF
0000
FFFF
0000
FFFF
FFFF
FFFF
FFFF
FFFF
0000
0000
0000
0000
0000
0000
0000
0000
0000
0000
0000
0000
0000
0000
FFFF
0000
FFFF
0000
FFFF
FFFF
FFFF
FFFF
0000
FFFF
FFFF
FFFF
0000
FFFF
0000
0000
0000
0000
0000
0000
0000
0000
0000
0000
0000
0000
FFFF
0000
FFFF
0000
0000
FFFF
FFFF
0000
FFFF
FFFF
FFFF
0000
FFFF
FFFF
FFFF
0000
0000
FFFF
0000
FFFF
FFFF
0000
0000
0000
0000
0000
0000
0000
FFFF
FFFF
0000
0000
FFFF
FFFF
0000
0000
FFFF
0000
FFFF
FFFF
FFFF
FFFF
FFFF
FFFF
0000
0000
0000
0000
0000
FFFF
FFFF
0000
0000
FFFF
0000
FFFF
FFFF
FFFF
FFFF
0000
FFFF
0000
FFFF
0000
FFFF
0000
0000
0000
0000
0000
0000
FFFF
0000
0000
0000
FFFF
0000
0000
0000
FFFF
FFFF
FFFF
0000
FFFF
FFFF
FFFF
FFFF
0000
FFFF
0000
0000
0000
FFFF
FFFF
FFFF
FFFF
FFFF
0000
0000
0000
FFFF
FFFF
0000
FFFF
0000
0000
0000
0000
FFFF
0000
0000
0000
FFFF
0000
0000
0000
FFFF
0000
0000
0000
FFFF
FFFF
0000
0000
0000
FFFF
FFFF
FFFF
0000
0000
0000
0000
0000
0000
0000
0000
0000
0000
0000
0000
FFFF
0000
0000
0000
0000
FFFF
0000
FFFF
FFFF
0000
0000
FFFF
FFFF
FFFF
FFFF
0000
0000
0000
0000
0000
0000
0006
0042
002C
0000
0000
0018
0000
0000
0000
0000
0000
0000
0000
0000
FFFF
0000
0000
0000
FFFF
FFFF
0000
0000
0000
0002
0000
003F
0000
0000
0000
0000
0000
0000
0037
0000
0000
0000
0000
0000
0000
0000
0000
FFFF
0000
FFFF
FFFF
FFFF
0000
FFFF
FFFF
0000
0000
0000
0000
0000
0000
0000
0000
000D
0032
0000
0038
006D
000D
0000
0043
0000
0005
0000
0000
0000
0000
0000
0000
FFFF
0000
FFFF
FFFF
FFFF
0000
0000
0000
0000
0031
0000
006D
0027
0007
0005
0000
0067
0000
0000
001C
0000
0000
0000
0000
0000
FFFF
0000
FFFF
FFFF
FFFF
0000
FFFF
0000
0000
0000
0000
0000
0034
000E
000B
0000
003D
0000
0033
0000
0000
006F
0025
0000
000A
0000
0000
0000
0000
0000
0000
FFFF
0000
FFFF
FFFF
0000
0000
0000
001A
003C
0032
0010
0000
0007
0000
000D
0016
002A
0000
0000
0021
003B
0019
0000
0000
0000
0000
FFFF
0000
FFFF
FFFF
0000
0000
0000
0000
0046
0000
0000
0000
0000
0000
0011
000B
0000
007F
0034
0000
0000
0000
0016
003F
0000
0000
0000
0000
0000
FFFF
FFFF
FFFF
0000
0000
0000
0000
004B
0000
0000
008A
0050
0013
0015
0000
0000
0006
0000
0000
0010
000B
000C
006A
0000
0000
0000
0000
FFFF
FFFF
0000
FFFF
FFFF
FFFF
0000
0000
0002
0060
0000
0046
0001
0000
0000
0000
0000
0000
000B
0000
0000
0000
0000
0000
0051
0014
0000
0000
FFFF
FFFF
FFFF
0000
FFFF
0000
0000
0000
002F
0010
0010
0000
0000
0053
0000
0000
0002
006C
0000
0012
0000
0035
0000
0020
0000
0000
0000
FFFF
FFFF
0000
FFFF
FFFF
0000
0000
0000
0000
0000
0000
0029
002F
0003
0000
000D
0000
0017
0000
0000
0000
004B
0000
0000
001A
0098
0000
0000
FFFF
FFFF
FFFF
FFFF
FFFF
FFFF
FFFF
0000
0000
0000
0017
0000
0078
0000
0000
0000
0000
0000
0008
002E
0007
0000
0000
000E
003D
0000
0000
0000
0000
FFFF
0000
FFFF
0000
0000
0000
0000
0000
0000
0000
0012
0000
003D
0000
0000
0000
001B
0000
0016
000A
0065
0016
0000
003E
0000
0000
0000
0000
0000
0000
0000
0000
FFFF
FFFF
0000
0000
0000
0000
0000
0011
0000
0012
0000
0000
0000
0022
0000
0000
0024
0000
0023
0021
0009
0000
0000
0000
0000
FFFF
FFFF
FFFF
FFFF
0000
0000
000E
0007
0000
0000
0000
0025
0014
002A
0032
002A
0035
0000
0000
0025
0000
0057
0000
0058
0000
0000
0000
0000
FFFF
FFFF
FFFF
FFFF
FFFF
0000
0000
0000
0000
0000
001F
0000
0000
0018
001C
0020
0000
0000
001B
0031
0000
0000
0000
0000
0000
0000
0000
0000
0000
FFFF
0000
FFFF
0000
0000
0000
0000
0000
0000
0029
002A
0042
0000
0044
003E
0000
0000
004C
0000
0060
003C
0019
0000
0000
0000
0000
0000
0000
FFFF
FFFF
FFFF
0000
0000
0000
0000
000F
0000
0049
0000
0000
000A
0000
001F
0000
0000
0049
0000
0000
0000
0000
0000
0000
0000
FFFF
0000
0000
FFFF
0000
0000
0000
0000
0000
0000
0000
0000
0001
0000
0000
0000
0000
0000
0000
0000
000A
005A
0000
0000
0000
0000
0000
0000
0000
0000
FFFF
FFFF
FFFF
0000
0000
0000
0000
0000
0000
003E
001E
0000
000D
0004
0000
0000
0000
0000
0022
0024
0000
0000
0000
0000
FFFF
0000
0000
0000
0000
0000
FFFF
0000
FFFF
0000
0000
0000
0000
0000
0000
0005
0000
0000
0000
0010
0000
0000
0000
0000
0000
0000
FFFF
0000
0000
FFFF
FFFF
0000
FFFF
0000
FFFF
0000
FFFF
0000
0000
0000
0000
0000
0000
0000
0000
0000
0000
0000
0000
0000
0000
0000
0000
0000
0000
FFFF
FFFF
FFFF
FFFF
FFFF
FFFF
0000
FFFF
0000
FFFF
0000
0000
0000
0000
0000
0000
0000
0000
0000
FFFF
0000
0000
0000
0000
0000
0000
FFFF
0000
FFFF
FFFF
FFFF
0000
FFFF
FFFF
FFFF
0000
0000
FFFF
FFFF
0000
0000
FFFF
0000
FFFF
FFFF
FFFF
0000
0000
0000
0000
0000
0000
FFFF
FFFF
FFFF
0000
FFFF
FFFF
FFFF
0000
FFFF
0000
0000
FFFF
FFFF
0000
FFFF
FFFF
0000
0000
FFFF
0000
0000
FFFF
FFFF
0000
FFFF
FFFF
0000
FFFF
FFFF
FFFF
0000
0000
0000
0000
FFFF
0000
FFFF
0000
FFFF
0000
0000
FFFF
0000
FFFF
0000
FFFF
0000
FFFF
FFFF
0000
0000
FFFF
FFFF
0000
FFFF
FFFF
FFFF
0000
0000
0000
FFFF
0000
FFFF
FFFF
FFFF
FFFF
FFFF
FFFF
FFFF
0000
0000
0000
FFFF
0000
FFFF
0000
0000
0000
0000
0000
0000
0000
0000
0000
0000
0000
0000
0000
FFFF
0000
FFFF
0000
FFFF
FFFF
0000
FFFF
0000
0000
FFFF
FFFF
0000
0000
0000
0000
0000
0000
0000
0000
0000
0000
0000
0000
0000
0000
0000
0000
0000
0000
0000
0000
FFFF
0000
0000
0000
FFFF
0000
FFFF
0000
0000
0000
0000
0000
0000
0000
002F
0012
0020
0000
002B
0051
0000
0071
0041
0000
0000
0000
0000
FFFF
0000
0000
0000
FFFF
FFFF
0000
0000
0000
0000
0000
0000
0000
0085
005F
0000
0000
0000
0000
0000
002F
003B
0000
0053
003C
0000
0000
FFFF
FFFF
FFFF
FFFF
0000
0000
FFFF
FFFF
0000
0000
0000
0000
0000
0000
0018
0000
006A
0010
0000
0000
0069
0000
0025
001B
005B
0000
0000
0000
0000
0000
FFFF
0000
FFFF
0000
FFFF
0000
0000
0000
0000
0000
0000
0000
0000
0000
0060
0000
0000
000C
0011
0022
0000
0000
001D
003A
001B
0000
0000
0000
0000
0000
FFFF
FFFF
0000
FFFF
0000
0000
0000
0000
0000
0000
0000
004C
0000
0000
0000
004A
0025
0000
0015
0000
0000
0000
0000
0000
0000
0000
0000
FFFF
FFFF
0000
FFFF
FFFF
FFFF
0000
0000
0033
0000
0002
0000
0013
0001
0030
0000
0034
0045
0000
0000
0000
0000
0000
0011
0000
0000
0000
FFFF
FFFF
FFFF
FFFF
0000
0000
0000
0000
0000
0000
002E
004B
004F
0000
0000
0000
004E
0000
0022
0035
0000
0000
0000
0020
0033
0000
0000
0000
0000
FFFF
FFFF
FFFF
FFFF
0000
0000
0000
001D
0000
0000
0009
0000
0000
0021
0017
0000
0000
0000
0000
0000
0011
005B
0038
0000
003C
0000
0000
0000
0000
0000
FFFF
FFFF
0000
0000
0000
0000
0000
0000
0000
0044
0000
0065
0000
001F
0000
005A
0040
0000
0019
0000
001D
0014
0000
0000
FFFF
FFFF
FFFF
FFFF
FFFF
FFFF
FFFF
0000
0000
0059
0000
002D
0038
0016
000B
0000
003C
001C
0049
003C
0000
0000
0004
0044
0027
0000
000B
0000
0000
0000
0000
FFFF
FFFF
0000
0000
0000
0005
000C
0009
0000
0000
0000
002B
0000
0000
0048
0000
0000
0020
0000
003D
0000
0000
0031
0000
0000
FFFF
FFFF
FFFF
FFFF
FFFF
FFFF
FFFF
0000
000A
0000
0032
0006
0034
0000
0000
0012
0000
0033
0000
0010
0026
0002
0000
0022
0008
00B4
0000
0000
0000
FFFF
FFFF
FFFF
FFFF
0000
0000
0000
0000
0000
0008
0000
0060
0015
0054
0009
0006
0000
000C
002C
0000
002C
0000
0049
0000
0000
0000
0000
0000
0000
0000
0000
0000
FFFF
FFFF
0000
0000
0030
0030
0000
0000
0000
0000
000E
0017
004D
0000
0020
0000
004D
0000
0030
0036
006E
0000
0000
0000
0000
FFFF
0000
FFFF
FFFF
0000
0000
0035
0000
0066
0044
0000
0000
0000
0000
0016
0024
0077
001A
0038
0000
0000
00B1
0011
0000
002A
0000
0000
0000
FFFF
FFFF
FFFF
003B
0000
0000
003C
0000
0039
0000
0010
0000
0000
0011
0000
0000
0000
0009
0032
003B
0000
0033
0009
0000
0000
0000
0000
0000
0000
FFFF
0000
FFFF
FFFF
0000
0000
0000
0002
0000
000B
001B
0045
0000
0000
0045
0000
001D
005E
0015
0000
0000
0000
0000
0000
0000
0000
0000
0000
FFFF
FFFF
FFFF
0000
0000
0026
0025
0000
0000
0000
0040
0054
000D
001D
0022
0004
0007
0000
002B
0000
0028
0000
0000
0000
0000
FFFF
FFFF
0000
0000
0000
0000
0000
0000
0000
0038
0000
0000
0009
0000
0000
0043
0000
000F
0020
0009
0010
0000
002E
0000
0000
0000
0000
0000
0000
0000
FFFF
FFFF
FFFF
0000
0000
002F
0000
0000
0017
0000
0057
0000
000A
0000
0003
0000
000A
0000
0000
0000
0000
002A
0000
0000
0000
0000
0000
FFFF
0000
FFFF
FFFF
FFFF
FFFF
0000
0000
0000
0000
0000
0000
0015
0000
0000
0000
0000
0001
0045
0000
0000
FFFF
FFFF
0000
0000
0000
FFFF
FFFF
0000
FFFF
0000
FFFF
0000
FFFF
003C
0000
0000
0000
0000
0000
0000
0000
0000
0000
0000
0000
0000
0000
0000
FFFF
FFFF
0000
FFFF
FFFF
FFFF
FFFF
0000
FFFF
0000
FFFF
0000
FFFF
0000
FFFF
0000
FFFF
0000
0000
FFFF
0000
0000
0000
0000
0000
0000
0000
FFFF
FFFF
FFFF
0000
0000
FFFF
FFFF
0000
FFFF
FFFF
FFFF
0000
FFFF
0000
0000
0000
0000
FFFF
0000
FFFF
FFFF
FFFF
0000
0000
0000
0000
0000
FFFF
FFFF
FFFF
FFFF
0000
FFFF
FFFF
0000
0000
FFFF
FFFF
FFFF
0000
FFFF
0000
FFFF
FFFF
0000
0000
0000
0000
0000
FFFF
FFFF
0000
0000
0000
0000
FFFF
FFFF
FFFF
0000
0000
FFFF
0000
FFFF
0000
FFFF
0000
FFFF
0000
0000
0000
0000
FFFF
0000
FFFF
0000
FFFF
0000
0000
0000
FFFF
0000
0000
FFFF
0000
FFFF
FFFF
FFFF
0000
0000
0000
FFFF
FFFF
0000
0000
FFFF
FFFF
FFFF
0000
0000
0000
FFFF
0000
FFFF
0000
0000
0000
0000
0000
0000
0000
0000
0000
0000
0000
FFFF
FFFF
FFFF
0000
FFFF
FFFF
FFFF
FFFF
0000
0000
0000
FFFF
FFFF
FFFF
FFFF
0000
FFFF
0000
0000
0000
0000
0000
0000
0000
0000
0000
0000
0000
0000
FFFF
0000
0000
0000
0000
FFFF
0000
0000
0000
FFFF
0000
0000
0000
0000
0000
0000
0000
0000
0000
000D
0021
0000
0011
0055
0000
0000
0000
0000
0000
0000
0000
0000
FFFF
FFFF
0000
0000
FFFF
FFFF
0000
0000
0000
0000
0000
0000
000E
0014
0000
0000
0020
0000
002D
0000
0034
0039
0000
0000
0000
0000
FFFF
FFFF
FFFF
FFFF
FFFF
FFFF
0000
0000
0000
0000
0000
0000
0076
0072
0018
0000
0000
0000
004D
0006
0000
0071
0000
0000
0000
0042
0000
0019
0000
0000
0000
FFFF
0000
FFFF
0000
0000
0000
0000
0000
0036
0000
0023
0000
0000
0012
0000
000A
0003
0000
0000
001B
0000
0000
0036
0000
0000
0000
0000
0000
0000
0000
FFFF
FFFF
0000
FFFF
0000
0000
0000
0000
000F
0000
0000
0000
0000
0013
0028
005F
0012
0044
0046
0000
006B
0000
0032
0000
0000
0000
0000
FFFF
0000
0000
FFFF
FFFF
0000
0000
002D
0000
0000
002E
0004
0000
0000
0002
0000
0069
0042
0011
0000
0000
0000
0000
005F
0000
0000
0000
FFFF
FFFF
FFFF
FFFF
0000
0000
0000
0000
0000
0012
0000
001F
0012
000B
0000
000C
0039
0038
0000
0000
0000
0030
0012
000C
0000
0000
0000
0000
0000
0000
FFFF
FFFF
FFFF
0000
0000
0000
0000
0000
0025
0000
0000
0000
0015
000C
0000
0023
0005
0051
0018
0000
0000
0025
0000
0000
0000
0000
0000
FFFF
0000
FFFF
FFFF
FFFF
0000
0000
0000
002C
0007
0069
0000
0000
0048
0000
0000
0000
0000
001B
001F
0000
004A
0000
0000
004A
0000
0000
FFFF
0000
FFFF
0000
FFFF
0000
0000
0000
0000
0038
0000
0000
001C
000A
0000
0000
0000
0000
002C
0000
0016
0000
000F
0000
0000
0014
0000
FFFF
FFFF
0000
FFFF
0000
0000
0000
0000
0000
001C
0000
0001
0000
003A
001F
0000
000C
0030
0000
0000
0000
0000
0000
0000
0000
0000
0000
0000
0000
0000
FFFF
FFFF
FFFF
FFFF
FFFF
0000
0000
0015
0000
0013
0000
001C
0014
003A
0000
0000
0003
0039
0000
0000
0000
0000
005E
0000
0000
0000
0000
FFFF
0000
FFFF
0000
0000
0000
0000
0000
0000
001D
0000
0000
0000
0000
0000
001A
0000
0000
0001
0005
0000
0000
0000
0000
0000
0000
0000
0000
0000
FFFF
0000
0000
FFFF
FFFF
0000
0000
0013
004A
0000
0000
0000
0000
0000
0000
0000
0031
0000
0002
0000
0025
000B
0000
0000
0000
0000
0000
0000
FFFF
0000
FFFF
FFFF
0000
0000
0012
0000
0000
0000
004A
0004
0000
0000
0000
000D
004A
0000
001C
007D
0000
0000
0000
0000
0000
0000
0000
0000
0000
FFFF
FFFF
FFFF
FFFF
0000
0000
0027
0053
000B
0000
0025
0000
0028
0000
0002
0033
0000
0011
0000
0014
0057
0000
0000
0000
0000
0000
0000
0000
FFFF
0000
FFFF
0000
0000
0078
0000
0000
0009
0000
003D
0014
0006
0000
001B
003D
0000
0000
0033
000C
0000
0000
0000
0000
0000
0000
0000
0000
FFFF
0000
0000
FFFF
0000
0022
0000
005B
0000
004E
0037
0000
000B
0000
0000
0000
0000
0048
0054
0000
0052
0014
0000
0000
0000
FFFF
0000
0000
0000
0000
0000
0000
0000
0000
003C
0000
000B
0000
0032
003C
0000
0000
000B
0041
0000
0000
0000
0039
0000
0000
0000
0000
0000
0000
0000
FFFF
FFFF
FFFF
0000
0000
0000
0000
0000
0000
0000
0000
0000
0000
0000
002C
0039
0024
0046
0000
0000
0000
0000
0000
0000
0000
FFFF
0000
FFFF
0000
0000
FFFF
0000
FFFF
0000
0000
0000
0000
0000
0000
0000
001D
0000
0001
0034
0005
001E
0000
0000
0000
0000
FFFF
0000
0000
FFFF
FFFF
0000
FFFF
0000
FFFF
0000
FFFF
FFFF
0000
0000
0000
0000
0000
0000
0000
0000
0000
0000
0000
0000
0000
0000
0000
0000
0000
FFFF
FFFF
FFFF
FFFF
0000
FFFF
0000
FFFF
0000
FFFF
FFFF
0000
FFFF
0000
0000
0000
0000
0000
0000
0000
0000
0000
FFFF
0000
0000
0000
FFFF
0000
FFFF
FFFF
FFFF
0000
FFFF
FFFF
FFFF
0000
0000
0000
FFFF
0000
0000
FFFF
0000
FFFF
FFFF
0000
0000
0000
0000
0000
0000
FFFF
FFFF
FFFF
FFFF
FFFF
FFFF
FFFF
FFFF
0000
FFFF
FFFF
FFFF
FFFF
FFFF
0000
FFFF
FFFF
FFAC
0000
FFFF
FFFF
0000
FFFF
FFFF
0000
FFFF
FFFF
0000
FFFF
FFFF
FFFF
FFFF
0000
0000
0000
FFFF
0000
FFFF
0000
FFFF
0000
0000
FFFF
0000
FFFF
0000
FFFF
0000
0000
FFFF
0000
0000
FFFF
FFFF
0000
0000
0039
FFFF
FFFF
FFFF
0000
FFFF
0000
FFFF
FFFF
FFFF
FFFF
FFFF
004C
FFFF
0000
0000
0000
FFFF
FFFF
0000
0000
FFFF
0000
0000
0000
0000
0000
0000
0000
0000
0000
0000
0000
FFFF
0000
FFFF
0000
FFFF
FFFF
0000
FFFF
0000
0000
FFFF
FFFF
0000
FFFF
FFFF
0000
0000
0000
0000
0000
0000
0000
0000
0000
0000
0000
0000
0000
0000
0000
0000
FFFF
0046
0000
0000
0000
FFFF
0000
FFFF
0000
0000
0000
0000
0000
0000
0000
0000
002C
0000
0000
0027
0000
008B
0000
0000
0000
0000
0000
0000
FFFF
FFFF
FFFF
0000
FFFF
FFFF
FFFF
0000
0000
0000
0000
0000
0000
000E
0000
0045
0035
0013
0002
0030
0000
0049
0000
0000
0000
0000
0000
FFFF
FFFF
FFFF
0046
FFFF
0000
FFFF
002C
0000
0000
0000
0000
0000
0007
0000
0000
000F
0032
0022
008A
0000
002D
0020
0000
0030
0000
0068
0000
0000
0000
0000
0000
FFFF
0000
0033
0000
0000
0000
0000
0000
0000
0000
0000
0027
0000
0027
0000
0000
0000
0054
0017
0006
0000
0000
0006
0000
0073
0000
0000
FFFF
FFFF
FFFF
0000
001D
0000
0000
000E
0000
0026
003B
0000
0000
000C
0008
0000
0040
0052
0016
0040
0000
0000
000B
0000
0000
002C
0000
0000
FFFF
FFFF
0000
0016
FFFF
0000
0000
0000
0027
0023
0014
0000
0024
0030
0000
0000
0067
0037
0043
0011
0020
0000
0000
006F
0020
0000
0000
FFFF
FFFF
0068
0000
0000
0000
0000
0000
002F
0005
000E
0038
0000
0049
0000
002E
0000
000C
0000
0000
0000
0021
0000
0000
0000
0000
0000
0000
0000
FFFF
FFFF
FFFF
FFFF
FFFF
0000
0000
0000
0000
0000
0000
0000
0046
0000
0000
005D
0034
0000
001B
0018
0000
0000
0000
004A
0000
0000
0000
FFFF
FFFF
0000
FFFF
FFFF
FFFF
0000
0000
0000
0052
0000
0025
0000
0000
005E
0000
0000
0000
0000
0047
0000
0030
003A
0008
0053
0000
0000
0000
FFFF
FFFF
FFFF
0000
FFFF
0022
0000
0000
0000
0009
0000
0000
0000
0028
006E
0048
0063
004C
0004
0034
0017
0000
0000
001A
0070
0000
0000
FFFF
FFFF
0000
FFFF
FFFF
0000
0000
0000
0000
001B
0000
0000
0000
0014
0000
002A
0000
003C
0000
001B
0003
0000
0021
002A
0006
0000
0000
0000
FFFF
FFFF
FFFF
FFFF
0046
FFFF
FFFF
0000
0000
000D
000B
0038
003A
0000
0000
0000
0000
0005
003F
000A
0000
0000
0014
0000
0041
0000
0000
0000
0000
FFFF
0000
FFFF
0000
FFFF
0000
0000
0000
000C
005B
0000
0000
0032
0000
0000
007D
002D
0080
0041
0050
0019
0000
0000
0000
0000
0000
0000
0000
0000
0000
0000
0000
FFFF
FFFF
0000
0000
001B
0003
0000
0000
0002
0000
0000
0000
0023
0000
0042
000A
0000
0000
002D
0000
0009
0000
0000
0000
0000
FFFF
FFFF
FFFF
FFFF
0000
0000
0000
0000
0000
0026
0000
0070
0000
0000
000A
0033
0000
0000
0000
0000
0039
0000
0000
001C
0000
0000
0000
0000
0000
FFFF
FFFF
FFFF
0000
0000
0004
0050
002D
0000
002A
003A
0037
0016
0041
005F
0000
003B
0000
0000
0005
0023
0016
0000
0000
0000
0000
0000
0000
FFFF
0000
00B0
0000
0000
0005
004C
0002
0000
0000
004F
0000
0001
0017
0003
0000
0000
0000
0000
0000
0000
0000
0000
0000
0000
0000
0000
0000
FFFF
FFFF
0042
0000
0000
0000
0043
0052
007B
0000
0000
0013
0000
0035
0033
0044
0047
0039
0000
000D
001E
0000
0000
0000
0000
FFFF
FFFF
0000
0000
0000
0000
0000
0000
0000
0000
0002
0000
0000
0000
0000
003F
0000
0000
0000
0034
0000
0000
0000
0000
0000
0000
0000
0000
0000
0000
FFFF
FFFF
FFFF
0000
0000
0000
0000
0000
0000
0035
0060
0000
0000
0000
0000
0000
0012
0000
0035
0000
0000
0000
0000
0000
FFFF
FFFF
FFFF
FFFF
0000
0000
0000
0000
FFFF
0000
0000
0000
0000
0000
0019
0006
000A
0000
0035
0000
001F
003F
0000
0000
0000
FFFF
FFFF
0000
0000
0051
FFFF
0000
FFFF
0000
FFFF
0000
FFFF
FFFF
0000
0000
0000
0000
0000
0000
008A
002E
001E
0000
0000
0000
0000
0000
0000
004C
FFFF
FFFF
FFFF
FFFF
FFFF
FFFF
FFFF
0000
FFFF
0000
FFFF
FFFF
FFFF
FFFF
FFFF
0000
0029
0000
0000
0000
0000
0000
0000
0000
0000
0000
0000
FFFF
0000
FFFF
FFFF
FFFF
0000
FFFF
FFFF
FFFF
0000
FFFF
FFFF
FFFF
0000
0000
FFFF
0000
FFFF
FFFF
FFFF
0000
0000
0000
0000
0000
0000
FFFF
FFFF
FFFF
0000
FFFF
FFFF
0000
0000
FFFF
0000
FFFF
0000
FFFF
FFFF
FFFF
FFFF
FFFF
0000
FFFF
FFFF
FFFF
FFFF
FFFF
0000
0000
FFFF
0000
FFFF
FFFF
FFFF
FFFF
FFFF
FFFF
0000
FFFF
0001
FFFF
0000
FFFF
FFFF
FFFF
0000
0000
FFFF
FFFF
FFFF
0000
0000
0000
0000
0000
FFFF
FFFF
FFFF
FFFF
FFFF
FFFF
FFFF
FFFF
0000
FFFF
0000
FFFF
FFFF
0000
0000
FFFF
FFFF
FFFF
0000
FFFF
0000
FFFF
FFFF
FFFF
0000
FFFF
FFFF
FFFF
0000
FFFF
0000
0000
0000
0000
0000
FFFF
0000
0000
0000
FFFF
0000
FFFF
FFFF
FFFF
0000
FFFF
0000
FFFF
FFFF
FFFF
0000
FFFF
0000
0000
0000
0000
0000
0000
0000
0000
0000
0000
0000
0000
0000
0000
0000
0000
FFFF
FFFF
0000
FFFF
0000
FFFF
0000
FFFF
0000
FFFF
0000
0000
0000
0000
0000
0000
003E
001C
0000
0007
0000
0000
0000
0000
0000
0000
0000
0000
FFFF
0026
FFFF
0000
FFFF
FFFF
FFFF
FFFF
0000
FFFF
0000
0000
0000
0000
000A
001F
0011
0037
0000
0019
0017
0037
0000
0034
000D
0000
0000
FFFF
FFFF
FFFF
FFFF
FFFF
0000
0000
0000
FFFF
FFFF
0000
0000
0000
0025
0000
0017
0005
0000
002D
0021
0000
0000
0025
0027
0056
001B
006E
0000
0000
0000
FFFF
FFFF
FFFF
0000
0000
FFFF
0000
0000
0000
0000
0033
0000
002A
0000
0000
002F
003A
0062
0035
0023
0000
0016
0060
0000
0000
0000
0000
FFFF
0000
FFFF
FFFF
FFFF
FFFF
FFFF
0000
0000
0000
0000
0000
0015
0000
0000
0005
001B
0000
0000
0011
0000
0029
0000
0007
0023
0000
0000
0000
0000
0000
FFFF
FFFF
0000
FFFF
FFFF
0000
0000
0000
0000
0000
000B
0005
0026
000B
0066
000C
0000
0000
0000
0012
0000
0000
0000
0000
0000
0000
0000
FFFF
FFFF
FFFF
0000
0000
FFFF
0000
0000
002E
0034
0022
0002
0000
0000
0000
0016
0000
0000
0000
0000
0000
0011
0000
000B
0020
0000
0000
0000
FFFF
0000
FFFF
FFFF
FFFF
0000
0000
0000
0028
0000
0040
009D
0000
0045
0041
0000
000C
0000
0000
0000
0025
0065
0000
0000
0005
0000
0000
0000
0000
FFFF
0000
FFFF
FFFF
FFFF
0000
0000
0020
0025
0046
0014
0000
0000
0000
0000
0000
0004
0000
0000
0002
0063
0028
0000
0000
0000
0000
0000
FFFF
FFFF
FFFF
0000
FFFF
0000
0000
0000
000C
0000
0000
0000
002E
0000
0027
002A
0000
0028
0038
003F
0000
005F
0031
0030
0000
0000
0000
FFFF
FFFF
0000
FFFF
0000
0000
0000
0000
0000
000F
0000
0008
0000
0000
0000
001C
0000
001E
0000
0033
0008
0000
0028
0004
0035
0000
0000
0000
FFFF
0000
FFFF
FFFF
FFFF
FFFF
FFFF
0000
0000
0042
0000
0000
007C
0000
0041
000E
0073
001A
002A
002E
0000
0000
0032
0000
0025
0000
0000
0000
0000
FFFF
0000
FFFF
FFFF
FFFF
0000
0000
0000
0000
0000
003C
0000
0000
006D
0079
0017
0000
0000
0000
0005
0041
0000
0000
0003
0000
0000
0000
0000
0000
FFFF
FFFF
0000
FFFF
FFFF
0000
0000
0000
0011
0000
002A
000F
0000
0000
0000
002B
002F
0038
0000
0000
0028
0000
002B
0023
0000
0000
0000
0000
FFFF
FFFF
0000
FFFF
0000
0000
0000
0000
0000
0029
001C
0000
0018
0000
0000
0000
0000
0000
0000
0032
000C
0000
0000
000F
0000
0000
0000
0000
FFFF
FFFF
FFFF
FFFF
0000
0000
0000
001D
0000
0000
004A
0000
003B
0000
0041
0000
0000
0000
0000
0022
0000
0004
0000
0000
0000
0000
0000
0000
FFFF
FFFF
0000
FFFF
0000
0000
0000
0000
0000
0000
0000
0015
000D
0026
000A
0000
0000
0000
000F
0005
0000
0000
0000
0000
0000
0000
0000
FFFF
0000
FFFF
0000
FFFF
0000
0000
0000
0000
0000
0000
0029
003D
0012
0000
0013
0000
0000
0000
0000
0000
0060
0068
0000
0000
0000
0000
FFFF
FFFF
FFFF
FFFF
0000
0000
0000
0000
0000
0000
002C
0000
0000
0000
0038
002D
0000
0000
0000
0055
0000
0001
0052
0018
0000
0000
0000
0000
FFFF
0000
FFFF
FFFF
FFFF
0000
0000
0000
0000
0000
0000
0000
0000
0013
0004
0009
002D
0006
0000
0000
000E
0000
0000
0000
0000
0000
0000
0014
FFFF
FFFF
0000
FFFF
0000
FFFF
FFFF
0000
0000
0000
0000
0000
0000
0000
0000
001F
0000
0000
0000
0024
0000
0000
0000
FFFF
0000
0000
0000
FFFF
FFFF
0000
FFFF
0000
FFFF
FFFF
FFFF
FFFF
0000
0000
0000
0000
0000
0000
0000
0000
0000
0000
0000
0000
0000
0000
FFFF
FFFF
0000
FFFF
FFFF
FFFF
FFFF
FFFF
FFFF
0000
FFFF
FFFF
0000
FFFF
FFFF
0000
FFFF
0000
0000
0000
0000
FFFF
0000
0000
0000
0000
0000
FFFF
0000
0000
0000
FFFF
FFFF
FFFF
0000
0000
FFFF
FFFF
0000
FFFF
FFFF
FFFF
0000
FFFF
FFFF
0000
FFFF
FFFF
0000
0000
FFFF
0000
0000
0000
0000
FFFF
FFFF
FFFF
0000
FFFF
FFFF
0000
0000
FFFF
0000
FFFF
0000
FFFF
0000
FFFF
FFFF
FFFF
0000
FFFF
0000
FFFF
FFFF
FFFF
0000
FFFF
FFFF
0000
0000
FFFF
FFFF
FFFF
FFFF
0000
0000
0000
0000
0000
0000
FFFF
0000
0000
FFFF
0000
FFFF
0000
FFFF
0000
FFFF
0000
0000
003A
FFFF
FFFF
FFFF
FFFF
0000
FFFF
FFFF
FFFF
0000
FFFF
0000
0000
0000
FFFF
0000
FFFF
FFFF
FFFF
0000
0000
0000
FFFF
0000
FFFF
0000
FFFF
0000
0000
0000
FFFF
0000
0000
0000
0000
0000
FFFF
0000
FFFF
0000
FFFF
FFFF
FFFF
FFFF
FFFF
FFFF
FFFF
FFFF
FFFF
FFFF
FFFF
FFFF
FFFF
0000
0000
0000
0000
0000
0000
0000
0000
0000
0000
0000
0000
FFFF
0000
0000
0000
0000
0000
0000
0000
FFFF
0000
FFFF
FFFF
0000
FFFF
0000
0000
0000
0000
0000
0000
0004
001C
000B
0000
0019
0004
0000
0000
0000
0000
0000
0000
FFFF
FFFF
0000
0000
FFFF
0000
0000
0000
0000
0000
0000
0000
0000
0000
0040
0000
0000
002C
0000
0000
0000
0000
0000
0000
0026
0000
0000
FFFF
0000
FFFF
0000
FFFF
0000
FFFF
0000
0000
0000
0000
0000
0000
001C
0020
000C
002D
0000
0029
001E
0000
0014
0006
0019
0035
0000
0000
0000
0000
0000
FFFF
FFFF
FFFF
FFFF
0000
FFFF
FFFF
0000
0000
0000
001F
0005
0000
0000
0000
0000
0000
000F
0003
0017
0000
0033
0000
0000
0048
0027
0000
FFFF
0000
0000
FFFF
FFFF
FFFF
FFFF
0000
0000
0000
0035
0009
0013
0038
0071
0000
0000
0000
0000
0000
0000
0016
0004
0024
0000
0000
0000
0000
0000
0000
FFFF
FFFF
0000
FFFF
FFFF
0000
0000
0000
0000
0000
0033
004E
0000
0001
0000
0000
0007
0000
0000
0000
0000
0008
000D
0033
0000
0000
0000
FFFF
FFFF
FFFF
FFFF
0000
FFFF
0000
0000
0000
0000
0000
0000
0000
002F
0000
0000
0000
001C
0008
0008
003A
0006
0000
001F
0003
0000
0000
0000
FFFF
0000
FFFF
FFFF
FFFF
0000
0000
0000
0000
0000
0029
0000
0000
0000
0000
004F
0052
0000
0000
007C
000F
0000
0001
0028
0000
0000
0000
0000
0000
FFFF
0000
0000
FFFF
FFFF
0000
0000
0000
0000
0000
001E
0000
0000
004A
0034
0003
0000
000C
0000
0000
0020
0004
003F
0000
0000
0000
0000
FFFF
FFFF
FFFF
FFFF
FFFF
0000
0000
0000
0000
0003
0000
0000
0000
001B
0000
0047
0000
0000
0000
0072
0000
001F
0000
0000
0000
0000
0000
FFFF
FFFF
0000
FFFF
0000
0000
0000
0000
0000
0000
0000
0019
0000
001F
0000
0019
0003
0015
0014
006C
0000
0018
003C
0000
0000
0000
0000
0000
FFFF
0000
FFFF
FFFF
0000
FFFF
FFFF
0000
0000
0000
002E
0000
0000
0000
000F
0041
0000
0000
0000
0054
0019
0001
001E
0000
0020
0000
0000
0000
0000
FFFF
0000
FFFF
FFFF
0000
0000
0000
0000
0000
0000
0014
0000
0000
0000
0031
0000
0000
0000
0000
002D
001B
003B
0000
0000
0000
0000
0000
0000
0000
FFFF
FFFF
0000
FFFF
FFFF
0000
0000
0000
0000
0000
0000
0000
0000
0023
0011
0000
001A
0000
0022
0055
002C
0000
0014
0000
0000
0000
0000
0000
FFFF
FFFF
FFFF
FFFF
0000
0000
0004
0000
0032
0000
0028
0000
0009
0000
0000
0000
0014
0010
0067
0000
0000
0000
0000
0000
0000
0000
0000
0000
FFFF
FFFF
FFFF
FFFF
FFFF
0000
000C
0018
0023
0007
0022
0000
0000
0000
0000
0000
0000
000E
0000
0000
001F
000A
0000
0000
0000
0000
0000
0000
FFFF
FFFF
0000
FFFF
0000
0000
005E
0062
002C
0000
0000
0000
0000
0008
004F
0000
0030
0000
0000
0000
0000
0000
0000
0000
0000
0000
0000
0000
0000
FFFF
0000
0000
0000
0000
0000
0034
0000
003A
0000
008B
003D
006A
0000
0048
0000
0000
0000
001B
0000
002A
0000
0000
0000
0000
FFFF
0000
FFFF
FFFF
0000
0000
0000
0000
0000
0000
0002
0000
0011
0035
0000
0041
0000
001C
0000
002F
0000
0000
003A
0000
0000
0000
0000
FFFF
FFFF
0000
FFFF
FFFF
FFFF
0000
0000
0000
0000
0000
0000
0012
0007
0000
0000
0027
000A
0044
0004
005D
0000
0000
0003
0000
0000
0000
0000
FFFF
0000
FFFF
0000
FFFF
FFFF
FFFF
FFFF
0000
0000
0000
0000
0000
0001
0081
0000
0000
0023
000B
0000
0000
001D
0000
0000
0000
FFFF
0000
0000
FFFF
FFFF
0000
0000
0000
FFFF
FFFF
FFFF
FFFF
FFFF
0000
0000
0000
0000
0000
0000
0000
0000
0000
0000
0000
0000
0000
0000
0000
0000
FFFF
FFFF
FFFF
FFFF
0000
FFFF
0000
0000
FFFF
FFFF
0000
0000
FFFF
0000
0000
0000
0000
0000
0000
0000
0000
0000
0000
0000
0000
0000
FFFF
0000
FFFF
0000
FFFF
0000
FFFF
FFFF
FFFF
0000
0000
0000
FFFF
0000
0000
FFFF
0000
FFFF
FFFF
0000
0000
0000
0000
0000
0000
0000
FFFF
FFFF
FFFF
FFFF
FFFF
FFFF
0000
0000
FFFF
FFFF
FFFF
0000
FFFF
FFFF
FFFF
FFFF
FFFF
0000
FFFF
0000
FFFF
FFFF
002D
0000
FFFF
FFFF
0000
FFFF
FFFF
FFFF
0000
0000
0000
0000
FFFF
0000
FFFF
0000
FFFF
0000
0000
FFFF
FFFF
FFFF
FFFF
FFFF
0000
0000
0000
0000
0000
FFFF
FFFF
0000
FFFF
0000
FFFF
FFFF
FFFF
0000
FFFF
0000
FFFF
FFFF
0000
0000
FFFF
0000
FFFF
0000
FFFF
0000
0000
FFFF
FFFF
0000
FFFF
0000
0000
0000
FFFF
0000
0000
0000
0000
0000
FFFF
0000
FFFF
0000
0000
0000
FFFF
FFFF
FFFF
0000
FFFF
FFFF
FFFF
FFFF
FFFF
FFFF
FFFF
0000
0000
0000
0000
0000
0000
0000
0000
0000
0000
0000
0000
0000
FFFF
0000
0000
FFFF
0000
0000
FFFF
FFFF
FFFF
FFFF
FFFF
0000
FFFF
0000
0000
0000
0000
0000
0000
0000
000C
0000
0000
0013
0000
0000
0000
0000
0000
0000
0000
FFFF
FFFF
0000
0000
FFFF
FFFF
0000
0000
FFFF
0000
0000
0000
0000
0000
0000
0000
0000
0000
0000
003D
0000
001B
0000
0000
0000
0000
FFFF
FFFF
0000
FFFF
0000
FFFF
0000
0000
0000
FFFF
FFFF
FFFF
0000
0000
0000
0000
001A
0000
0000
0039
0000
0000
005E
0000
0000
0000
0045
0014
0000
0000
0000
FFFF
FFFF
FFFF
0000
0000
FFFF
FFFF
FFFF
FFFF
0000
0000
0000
0000
0000
0000
0000
0014
0034
0000
0000
0012
0000
0000
0000
004D
000D
0000
0000
0000
0000
FFFF
FFFF
FFFF
0000
0000
FFFF
FFFF
0000
003C
0000
0000
0000
0000
0096
0004
0000
0000
0000
000D
0000
000C
0018
000C
0000
0000
0000
0000
FFFF
FFFF
0000
0000
FFFF
FFFF
0000
FFFF
0000
004B
0000
0000
0000
0000
0000
0021
0000
0052
0005
0023
000D
0001
0028
0070
0000
0000
0000
FFFF
FFFF
0000
0000
0000
0000
0000
FFFF
0000
0000
0004
003A
0029
0063
0000
002E
002A
0001
0000
0032
0009
0000
0000
0000
0007
0000
0000
0000
0000
0000
FFFF
FFFF
FFFF
0000
0000
0000
0000
000E
0021
0000
007F
0000
0026
0015
0000
000F
000C
0000
002E
0022
0000
0000
0000
0000
0000
0000
0000
FFFF
0000
0000
FFFF
FFFF
0000
0000
0000
0040
004E
0000
0018
0000
001B
0010
0000
0000
0009
0000
0000
000C
0000
0000
0047
0000
0000
0000
FFFF
FFFF
FFFF
0000
FFFF
0000
0000
0000
0000
0000
0000
0000
004E
0000
0000
0000
0004
0006
0031
0007
0000
0019
0000
0010
0004
0000
0000
FFFF
FFFF
0000
FFFF
0000
0000
0000
0000
0000
0004
001D
0016
0000
0010
0000
000C
0000
0017
0000
0000
002F
0000
0000
004F
0000
0025
0000
0000
FFFF
0000
FFFF
FFFF
0000
FFFF
FFFF
0000
0000
0000
0000
0000
002C
004D
0000
001D
0023
0000
0000
000A
0000
0000
0028
0000
0000
0000
0000
0000
0000
FFFF
0000
FFFF
0000
0000
0000
0000
0000
0000
0000
0026
0000
000D
0000
0063
002D
0020
0000
0000
0000
0037
0000
0000
0000
0000
0000
0000
0000
0000
0000
FFFF
0000
FFFF
FFFF
0000
0000
0000
0000
002E
0000
0019
0000
0003
0000
0000
002A
0000
0000
0018
0000
0000
0000
0000
0000
0000
0000
0000
FFFF
0000
0000
FFFF
0000
0000
0000
0000
000D
0000
003F
0000
002C
001C
0023
0000
0000
0067
000E
0000
0034
0007
0015
0000
0000
0000
0000
0000
FFFF
FFFF
0013
FFFF
FFFF
0000
0000
0000
0000
002C
0000
0000
0000
0015
001E
0000
002D
000D
000D
003B
0000
0000
0000
0000
0000
0000
0000
0000
0000
FFFF
0000
0000
0000
0000
0000
0000
0000
0000
0000
0000
003E
0000
0046
001C
002E
001A
0000
003F
0022
0000
0000
0000
0000
0000
0000
0000
0000
FFFF
0000
0000
0000
0000
0000
0000
0000
0019
0015
0000
0021
0016
000D
0000
0000
0003
000B
0000
0000
0000
0000
0000
0000
0000
FFFF
0000
0000
FFFF
0000
0000
FFFF
0000
0000
0000
0000
002D
0000
0000
0000
000F
0000
0007
0008
0000
0000
0008
0000
0000
0000
0000
0000
FFFF
FFFF
0000
FFFF
FFFF
FFFF
0000
0000
FFFF
0000
0000
0000
0000
0000
0000
0000
0000
0000
000E
0039
0006
0000
0000
0000
0000
0000
0000
0000
FFFF
0000
FFFF
0000
0000
0000
0000
FFFF
0000
0000
0000
0000
0000
0000
0000
0000
0000
0033
0000
002C
0008
0000
0000
0000
0000
0000
0000
0000
0000
FFFF
0000
0000
0000
FFFF
FFFF
FFFF
0000
0000
0000
0000
0000
0000
0000
0000
0000
0000
0000
0000
0000
0000
0000
0000
0000
0000
FFFF
FFFF
FFFF
FFFF
0000
FFFF
0000
FFFF
FFFF
0000
FFFF
0000
0000
0000
0000
0000
0000
0000
0000
0000
0000
0000
0037
0000
0000
0000
0000
0000
0000
FFFF
FFFF
0000
0000
FFFF
FFFF
0000
0000
0000
FFFF
0000
FFFF
FFFF
0000
FFFF
FFFF
0000
0000
FFFF
0000
0000
0000
001E
FFFF
FFFF
0000
FFFF
FFFF
FFFF
0000
0000
FFFF
0000
0000
FFFF
FFFF
0000
FFFF
FFFF
FFFF
0000
FFFF
0000
FFFF
FFFF
FFFF
0000
FFFF
FFFF
0000
0000
FFFF
FFFF
0000
0000
FFFF
0000
FFFF
0000
FFFF
0000
FFFF
0000
0000
FFFF
0000
FFFF
FFFF
FFFF
0000
0000
0000
0000
FFFF
FFFF
FFFF
0000
FFFF
0000
FFFF
0000
FFFF
0000
FFFF
0000
FFFF
FFFF
FFFF
FFFF
FFFF
0000
FFFF
0000
FFFF
0000
FFFF
FFFF
FFFF
0000
FFFF
0000
0000
0000
FFFF
FFFF
0000
0000
0000
0000
FFFF
FFFF
FFFF
0000
FFFF
FFFF
FFFF
FFFF
FFFF
FFFF
FFFF
FFFF
FFFF
FFFF
FFFF
0000
0000
0000
0000
0000
0000
0000
0000
0000
0000
0000
0000
0000
0000
0000
FFFF
FFFF
FFFF
FFFF
0000
0000
0000
FFFF
FFFF
0000
FFFF
0000
0000
0000
0000
0000
0000
0000
0000
0000
0000
0000
0000
0000
0000
0001
0000
0000
0000
0000
0000
FFFF
FFFF
0000
0000
FFFF
0000
0000
0000
0000
0000
0000
0000
0000
0000
0000
0050
0058
0000
0004
000D
0000
0000
0000
0000
0000
0000
0000
0000
FFFF
FFFF
0000
0000
0000
FFFF
0000
0000
0000
0000
0000
0000
0000
0000
0000
0000
0087
0042
0000
005C
0045
001C
0075
0000
0000
0000
0000
0000
0000
0000
FFFF
FFFF
0000
0000
FFFF
0000
0000
0000
0000
002C
0028
006E
0013
0018
0000
0000
0000
0000
0000
0002
001F
0030
0002
0017
0000
0000
FFFF
0000
0000
FFFF
FFFF
FFFF
0000
0000
0000
001C
0044
002E
000A
0000
0000
0011
0000
007A
004B
001D
0010
0004
000E
000B
0000
004F
0000
0000
0000
0000
FFFF
FFFF
0000
0000
FFFF
0000
0000
0000
0000
0041
0000
0057
001B
0000
0000
0000
0023
0024
001F
0030
0000
0000
0000
0000
0000
0000
0000
FFFF
FFFF
0000
0000
0000
0000
0000
0000
002F
0000
0000
0000
0007
0027
0000
0000
000B
0000
003D
0014
0021
0000
0009
0044
0037
0000
0000
0000
0000
FFFF
FFFF
FFFF
FFFF
0000
0000
0000
0019
0000
0000
001E
002D
0000
0000
001B
0011
004F
0000
0005
0000
0000
0000
0000
0000
0000
0000
0000
0000
FFFF
0000
FFFF
FFFF
FFFF
0000
0000
0000
0000
0058
0000
001C
003C
0000
0000
0044
007A
0044
0000
0000
0035
0000
002B
0000
0000
0000
0000
FFFF
FFFF
FFFF
FFFF
FFFF
0000
0000
0000
0018
001D
0028
0025
001B
000E
000F
0002
0000
0013
0000
0000
0003
0000
0000
0000
002A
0000
0000
FFFF
FFFF
0000
FFFF
0000
0000
0000
0000
0000
0017
001A
0000
0010
0000
0030
0000
0000
0003
001C
0042
0007
0000
0000
0000
0000
0000
0000
0000
FFFF
FFFF
FFFF
FFFF
0000
FFFF
FFFF
0000
0000
001D
0000
0000
0000
0000
0017
0031
0000
0000
0030
0000
002B
002A
000F
006B
0000
0000
0000
0000
0000
FFFF
0000
FFFF
0000
0000
0000
0000
0000
0000
0000
0000
001A
0000
0047
0011
0000
0000
0000
0000
0000
0021
0000
0000
0003
003C
0000
0000
0000
0000
0000
FFFF
0000
FFFF
FFFF
0000
0000
0000
000F
0041
006B
0035
0000
0000
0000
0000
0000
0000
0000
0011
0000
0000
0000
0000
0000
0000
0000
0000
FFFF
0000
0000
FFFF
0000
0000
0000
0008
0000
0009
0000
0000
002A
0000
0025
0000
0000
0000
0000
0037
0000
0000
0000
0000
0000
0000
0000
0000
0000
FFFF
FFFF
FFFF
FFFF
0000
0000
0000
003E
0000
0000
0037
000A
000A
0000
0000
0000
0017
0000
0000
0000
0000
003E
0007
0000
0000
0000
0000
0000
FFFF
0000
0000
0000
0000
0000
0000
0000
0000
0000
0000
001C
0044
0000
0027
001C
0012
004E
002D
0000
000A
0047
0000
0000
0000
0000
0000
0000
FFFF
FFFF
0000
0000
0000
0000
0012
0023
0031
0004
0031
0013
0045
0000
000C
0011
003B
0000
0019
0000
008A
0058
0000
0000
0000
FFFF
0000
0000
0000
0000
0000
0000
0000
0000
0000
0004
0000
0000
0000
000D
0025
0037
0000
0000
0011
0000
0028
0057
004B
0000
0000
0000
0000
FFFF
0000
FFFF
FFFF
FFFF
0000
0000
0000
0000
0000
0000
000B
0000
0000
0002
0000
0027
0000
001C
0051
0000
001F
0037
0000
0000
0000
0000
FFFF
0000
FFFF
0000
0000
0000
0000
FFFF
0000
0000
0000
0000
0044
0044
0000
001D
004D
0000
0040
001A
004A
0000
0000
0000
0000
0000
0000
0000
0000
FFFF
0000
FFFF
0000
FFFF
FFFF
FFFF
FFFF
FFFF
0000
0000
0000
0000
0000
0000
0000
0000
0000
0000
0000
0000
0000
0000
0000
0000
FFFF
FFFF
FFFF
FFFF
0000
FFFF
0000
FFFF
FFFF
FFFF
0000
FFFF
0000
FFFF
0000
0000
0000
0000
0000
0000
0000
0000
0000
0000
0000
0000
FFFF
0000
0000
FFFF
FFFF
0000
FFFF
FFFF
FFFF
0000
0000
0000
FFFF
0000
FFFF
FFFF
0000
FFFF
FFFF
0000
0000
FFFF
0000
0000
0000
FFFF
FFFF
FFFF
FFFF
0000
FFFF
FFFF
0000
0000
FFFF
0000
FFFF
FFFF
FFFF
FFFF
FFFF
FFFF
FFFF
0000
FFFF
0000
0000
FFFF
FFFF
0000
FFFF
FFFF
0000
0000
FFFF
FFFF
0000
0000
FFFF
0000
FFFF
0000
FFFF
0000
FFFF
0000
0000
0000
0000
FFFF
0000
FFFF
0000
0000
0000
0000
0000
FFFF
FFFF
FFFF
FFFF
0000
FFFF
0000
FFFF
0000
0000
0000
FFFF
FFFF
FFFF
FFFF
FFFF
FFFF
FFFF
0000
0000
0000
0000
FFFF
FFFF
0000
FFFF
0000
0000
0000
FFFF
0000
0000
0000
0000
0000
0000
0000
FFFF
0000
0000
FFFF
FFFF
FFFF
0000
0000
0000
0000
FFFF
FFFF
0000
0000
0000
0000
0000
0000
0000
0000
0054
0000
0009
0000
0000
0000
0000
0000
0000
0000
0000
0000
FFFF
0000
0000
0000
FFFF
0000
0000
0000
0000
0000
0000
0000
0000
0000
0000
002F
0040
0012
001B
0004
0000
0000
0000
0000
0000
0000
0000
FFFF
FFFF
FFFF
0000
FFFF
FFFF
FFFF
0000
0000
0000
0000
0000
0089
0056
000E
0000
0021
004F
009B
0003
0007
0011
0009
0024
0000
0000
0000
FFFF
FFFF
FFFF
FFFF
FFFF
0000
FFFF
0000
0000
0000
0000
0021
0009
0001
0053
0000
000C
0000
0000
0041
0000
0037
0016
0000
0000
002A
0000
0000
0000
0000
0000
0000
FFFF
0000
0000
FFFF
0000
0000
0000
002C
002B
0051
0000
000B
003F
0000
0009
0000
002C
0000
0000
0000
004C
0031
0000
0000
0000
FFFF
0000
FFFF
FFFF
FFFF
0000
FFFF
0000
0000
0012
0043
0047
0000
0025
0000
0000
0024
0014
0000
000D
0013
0000
000A
005B
0000
0018
0000
0000
0000
0000
FFFF
FFFF
0000
FFFF
FFFF
0000
0000
0008
003A
0000
001C
0010
0000
005E
0000
0000
0000
0000
0000
0000
000C
0000
0046
000A
0000
0000
0000
FFFF
FFFF
FFFF
FFFF
0000
0000
0000
001A
004A
002B
0012
0000
0000
0000
0021
0000
0004
0000
0000
0020
0000
0000
0049
0000
000C
0000
0000
0000
0000
FFFF
FFFF
FFFF
FFFF
0000
0000
0000
0000
0013
0000
0000
0000
003D
0034
000A
0001
000B
0042
0000
0054
0000
0000
0000
0000
0000
0000
0000
0000
FFFF
0000
FFFF
FFFF
FFFF
0000
0000
0000
0000
0000
0000
0010
0005
0003
0000
0000
0059
0000
0000
0000
0000
0021
0000
0021
0020
0000
FFFF
FFFF
FFFF
FFFF
0000
FFFF
0000
0000
0000
003D
0000
0000
0000
0002
0000
0000
0000
0000
001D
001C
003C
0018
0000
0005
0000
0000
0000
0000
FFFF
FFFF
0000
FFFF
FFFF
0000
0000
0000
0000
0000
0000
