0000
0000
FFFF
0000
0000
FFFF
0000
FFFF
0000
0000
FFFF
FFFF
FFFF
0000
0000
0000
0000
FFFF
FFFF
FFFF
0000
0000
FFFF
0000
FFFF
0000
FFFF
0000
0000
0000
0000
0000
0000
0000
0000
0000
0000
FFFF
0000
0000
0000
FFFF
0000
0000
0000
FFFF
0000
0000
0000
0000
0000
0000
FFFF
FFFF
0000
0000
FFFF
FFFF
FFFF
0000
0000
0000
FFFF
FFFF
0000
0000
FFFF
0000
0000
0000
FFFF
0000
0000
0000
0000
0000
0000
0000
FFFF
0000
0000
FFFF
0000
FFFF
FFFF
0000
FFFF
0000
FFFF
FFFF
0000
0000
FFFF
0000
0000
0000
0000
0000
0000
0000
0000
0000
0000
FFFF
0000
0000
0000
0000
0000
FFFF
FFFF
0000
0000
0000
FFFF
FFFF
0000
0000
FFFF
0000
0000
0000
0000
0000
0000
0000
000F
0000
0000
0000
0000
0000
0000
0000
0000
0000
0000
FFFF
FFFF
0000
0000
FFFF
FFFF
0000
0000
0000
0000
0000
0000
0000
0000
0057
0000
0000
000E
0004
0031
0000
0012
0003
0000
0000
0000
0000
FFFF
0000
0000
FFFF
0000
0000
0000
0000
0000
0000
0000
0000
0000
0000
0040
0000
0000
003B
0001
0015
002A
0046
000F
0000
0001
0019
0000
0000
0000
0000
FFFF
FFFF
FFFF
0000
FFFF
FFFF
FFFF
0000
0000
0000
0072
0000
0000
0000
0000
002D
000B
0072
0000
001E
0000
0000
0038
0000
0042
0000
0000
0000
0000
0000
FFFF
FFFF
FFFF
FFFF
0000
0000
0000
0000
005C
0000
0000
0000
0000
0000
0000
000E
0000
0019
000B
0015
0031
0077
0000
0000
0000
0000
0000
0000
0000
0000
FFFF
FFFF
0000
0000
0000
0020
0000
0000
005A
0008
0000
0000
0000
0011
0000
0000
0000
0000
0060
0000
0000
0000
0000
0000
FFFF
FFFF
FFFF
FFFF
0000
0000
0000
0000
0000
0000
0000
0002
002B
000A
0013
0028
0003
003E
0000
0000
0000
0000
0038
0000
0006
0000
0000
0000
0000
0000
FFFF
FFFF
0000
0000
0000
0000
0000
0026
0029
0000
0000
0027
0000
0000
000F
0000
0011
000C
0000
0014
002F
0036
0024
0000
0000
0000
0000
0000
0000
FFFF
FFFF
FFFF
0000
0000
0000
0000
0013
0009
001E
0000
0000
0005
0000
0013
002D
0000
0046
0000
0000
0000
0023
0000
0000
0000
FFFF
FFFF
FFFF
0000
FFFF
0000
0000
0000
0000
0000
0000
0022
0000
0000
0000
0000
0000
0000
0010
0003
0010
0015
0000
0000
0000
0000
0000
FFFF
FFFF
0000
FFFF
0000
0000
0000
0000
0000
0000
0000
0000
0000
0052
0000
0014
000B
0000
0000
0000
0000
001A
0038
0039
001A
0000
0000
0000
0000
0000
FFFF
FFFF
FFFF
0000
FFFF
0000
0000
0012
0000
0000
0000
0000
0000
0000
0000
0022
0000
0000
0000
0001
0000
0000
003E
0000
0000
0000
0000
FFFF
0000
FFFF
FFFF
0000
0000
0000
0000
0000
0023
001F
0000
0000
0014
0090
0001
003E
004C
0000
0000
0000
0000
000B
0073
0017
0000
0000
0000
0000
0000
FFFF
0000
FFFF
FFFF
0000
0000
000D
005F
0051
0000
0021
0011
0000
0000
0000
0000
0031
0000
0000
0000
0000
0000
0000
0000
0000
0000
0000
FFFF
0000
FFFF
FFFF
0000
0000
0000
0000
0005
000A
0000
0026
0000
0000
0000
001B
0000
0000
0015
0000
0000
0000
0000
0000
0000
0000
FFFF
FFFF
FFFF
0000
FFFF
FFFF
0000
0000
0000
004C
0000
0000
002C
0064
0000
0000
0006
0000
0015
0000
0000
0000
0028
0024
0000
0000
0000
0000
FFFF
0000
FFFF
0000
0000
FFFF
0000
0000
0000
0000
001C
0000
003A
0000
0000
0008
0000
0000
0000
0023
0000
0000
0000
0059
0000
0000
0000
FFFF
0000
FFFF
0000
FFFF
0000
FFFF
0000
0000
0000
005B
0000
0035
0000
0000
0000
0000
0037
0053
0000
0000
003B
0018
0000
0068
0000
0000
0000
0000
0000
0000
FFFF
FFFF
0000
0000
0000
0000
0000
004C
000F
0037
0000
004B
000B
0000
0000
006C
0000
0043
0000
0000
001B
0000
0000
0000
0000
0000
FFFF
0000
FFFF
FFFF
FFFF
0000
0000
0000
0000
0000
0000
0000
0018
0000
0000
0027
0000
001E
0022
0000
0000
0000
0000
0000
0000
0000
0000
FFFF
0000
0000
0000
FFFF
FFFF
FFFF
FFFF
0000
0000
0000
0000
0000
000F
0067
0000
0000
0000
0000
0000
0000
0000
0000
0000
FFFF
FFFF
0000
0000
FFFF
FFFF
0000
FFFF
0000
0000
FFFF
FFFF
FFFF
0000
0000
0000
0000
0000
0000
0000
0000
0000
0000
0000
FFFF
0000
0000
0000
FFFF
0000
FFFF
0000
FFFF
FFFF
0000
FFFF
0000
FFFF
FFFF
FFFF
0000
0000
0000
0000
0000
0000
0000
FFFF
FFFF
0000
0000
0000
FFFF
0000
FFFF
0000
FFFF
0000
FFFF
FFFF
FFFF
0000
FFFF
FFFF
FFFF
0000
0000
0000
0000
0000
0000
FFFF
0000
FFFF
FFFF
0000
0000
0000
0000
0000
0000
FFFF
FFFF
FFFF
FFFF
0000
FFFF
FFFF
FFFF
FFFF
FFFF
FFFF
