0000
FFFF
FFFF
FFFF
FFFF
FFFF
0000
0000
0000
0000
FFFF
FFFF
FFFF
0000
0000
FFFF
0000
FFFF
FFFF
FFFF
0000
FFFF
FFFF
0000
FFFF
0000
FFFF
0000
FFFF
0000
0000
0000
0000
FFFF
FFFF
FFFF
0000
0000
0000
0000
0000
FFFF
FFFF
FFFF
FFFF
FFFF
FFFF
0000
FFFF
0000
FFFF
0000
FFFF
FFFF
FFFF
FFFF
FFFF
FFFF
FFFF
0000
0000
0000
0000
0000
FFFF
0000
FFFF
0000
0000
0000
FFFF
0000
0000
0000
0000
0000
FFFF
0000
FFFF
0000
FFFF
FFFF
FFFF
FFFF
FFFF
0000
FFFF
0000
FFFF
FFFF
FFFF
0000
0000
0000
0000
0000
0000
0000
0000
0000
0000
0002
0000
0000
0000
0000
0000
0000
0000
0000
FFFF
0000
0000
0000
FFFF
FFFF
0000
0000
0000
0000
0000
0000
0000
0000
0000
0025
0000
0000
0011
0000
0000
0000
0000
0000
0000
0000
0000
FFFF
FFFF
FFFF
0000
FFFF
FFFF
0000
0000
0000
0000
0000
0000
0000
0017
0000
0000
0000
0000
002B
0024
002A
0024
0000
0022
0000
0000
0000
FFFF
FFFF
FFFF
FFFF
0000
0000
FFFF
FFFF
0000
0000
0000
0000
0000
0000
0000
0000
0036
0023
0008
0000
003E
0015
000F
0000
0000
0026
0000
0000
0000
0000
0000
FFFF
FFFF
0000
FFFF
FFFF
0000
0000
0000
0000
0007
0024
0000
0000
0000
002E
0000
000A
0000
0018
0026
0000
0000
0000
006B
0000
0000
0000
0000
FFFF
FFFF
FFFF
FFFF
FFFF
0000
0000
0000
0000
0000
0000
0000
0000
0000
0000
0017
0051
0038
0006
0000
0000
002B
0000
0000
0000
0000
0000
0000
0000
FFFF
0000
FFFF
FFFF
FFFF
0000
0000
0000
0026
0000
0016
0000
0000
000C
0047
0000
0000
0035
0000
0069
0000
002E
001C
0000
0000
0000
FFFF
FFFF
FFFF
FFFF
0000
0000
0000
0000
0000
0054
0000
0083
000E
0000
0028
001D
0000
0006
001E
0047
0041
001D
0049
002D
0058
0000
0000
0000
0000
FFFF
FFFF
FFFF
FFFF
0000
0000
0000
0000
0000
0000
004A
003E
0000
0000
0000
006E
0036
0000
0023
0000
0032
001C
001F
0002
0026
0000
0000
0000
FFFF
FFFF
FFFF
FFFF
0000
0000
0000
0047
0000
0000
0023
0000
0046
006A
0000
0059
0000
0030
003B
0000
0000
0000
0000
0000
0021
0000
0000
FFFF
FFFF
FFFF
0000
FFFF
FFFF
0000
0000
0000
001C
0000
0000
002D
0006
0013
002E
0033
0037
002C
0005
0000
0000
0000
005B
0000
0000
0000
FFFF
FFFF
0000
FFFF
0000
0000
0000
0000
0000
0000
0012
0000
0015
0000
0000
0025
0000
0000
0000
003A
0000
0020
000A
0030
0031
0000
0025
0000
FFFF
FFFF
FFFF
0000
FFFF
FFFF
FFFF
0000
0021
0028
0037
0000
0016
0078
0000
0056
0017
0000
0000
0000
0056
0000
0000
0008
002B
000D
0004
0000
0000
FFFF
0000
FFFF
0000
FFFF
0000
0000
0024
0000
0000
0030
0000
0000
0000
001A
0000
0000
0000
0028
0013
0004
0029
0000
0054
0044
0000
0000
0000
0000
0000
FFFF
0000
FFFF
FFFF
0000
0000
0000
004D
0000
003E
0000
0037
0007
0000
0000
0000
0000
0000
0000
0027
0000
0000
0000
0000
0000
0000
0000
FFFF
0000
FFFF
FFFF
0000
0000
0012
0000
0002
0000
0000
0052
0007
004B
002B
0014
0000
000B
0000
000D
0000
0000
0000
0043
0000
0000
0000
0000
FFFF
FFFF
FFFF
FFFF
FFFF
0000
001A
000B
0000
0026
004D
002A
0000
0000
0033
0000
0004
0000
0000
0059
001C
000F
0037
0000
0000
0000
0000
0000
0000
FFFF
0000
FFFF
003A
0000
0000
0015
0000
0000
0044
0037
0030
0000
000E
0000
005D
002F
0001
0024
0000
0000
0000
0000
0000
0000
0000
0000
0000
FFFF
FFFF
FFFF
0000
0000
0013
0000
0007
0000
0000
0033
0000
003D
0000
0000
0000
0000
0000
0000
0000
0000
0000
0000
0000
0000
FFFF
0000
0000
FFFF
0000
0000
0000
0000
0000
000D
0000
0000
0000
002F
0000
0000
005E
002C
0000
0014
0001
000C
0000
0000
0000
0000
0000
0000
FFFF
0000
FFFF
FFFF
FFFF
0000
0000
0000
0000
0000
0028
003B
0001
0000
0000
0000
0011
0000
0017
0000
0002
0000
0000
0000
0000
0000
0000
FFFF
0000
FFFF
0000
0000
FFFF
0000
0000
0000
0000
0000
0000
0000
0040
0000
0000
004E
0000
0000
0014
0000
0000
0000
0000
FFFF
0000
0000
0000
FFFF
FFFF
0000
FFFF
0000
FFFF
FFFF
FFFF
FFFF
0000
0000
0000
0000
0000
0000
0000
0000
0000
0000
0000
0000
0000
0000
0000
0000
0000
FFFF
FFFF
FFFF
FFFF
FFFF
FFFF
0000
FFFF
FFFF
FFFF
0000
FFFF
0000
FFFF
0000
0000
0000
0000
0000
0000
0000
0000
0000
0000
0000
0000
FFFF
0000
0000
FFFF
FFFF
0000
FFFF
FFFF
FFFF
0000
FFFF
FFFF
FFFF
0000
FFFF
FFFF
0000
FFFF
FFFF
FFFF
0000
FFFF
0000
0000
0000
0000
FFFF
FFFF
0000
0000
FFFF
FFFF
0000
0000
FFFF
0000
