FFFF
0000
FFFF
FFFF
FFFF
FFFF
FFFF
0000
FFFF
0000
FFFF
FFFF
FFFF
0000
FFFF
FFFF
0000
FFFF
FFFF
FFFF
FFFF
FFFF
0000
0000
FFFF
0000
FFFF
0000
FFFF
0000
0000
FFFF
0000
FFFF
0000
FFFF
0000
0000
0000
0000
0000
FFFF
FFFF
FFFF
0000
0000
FFFF
FFFF
FFFF
0000
FFFF
0000
FFFF
FFFF
FFFF
0000
FFFF
FFFF
FFFF
0000
0000
0000
FFFF
FFFF
0000
0000
FFFF
0000
0000
0000
FFFF
0000
0000
0000
0000
0000
0002
0000
0000
0000
0000
FFFF
FFFF
FFFF
0000
FFFF
0000
0000
FFFF
FFFF
0000
FFFF
FFFF
0000
0000
0000
0000
0000
0000
0000
0000
0000
FFFF
0000
0000
0000
0000
0000
0000
0000
FFFF
0000
FFFF
FFFF
FFFF
0000
FFFF
0000
0000
0000
0000
0000
0000
002E
0000
0002
0072
0074
0000
0000
0020
0000
0000
0000
0000
0000
0000
FFFF
FFFF
0000
0000
FFFF
FFFF
0000
0000
0000
0000
0000
0022
0003
0052
0000
0000
0027
0000
0010
009F
0000
0000
0033
0030
0000
0000
0000
FFFF
FFFF
FFFF
FFFF
FFFF
0000
FFFF
0000
0000
0000
0000
000E
000B
0000
0008
000A
0000
001A
0007
0000
003F
0008
0000
0000
0015
0000
0000
0000
0000
0000
FFFF
0000
FFFF
0000
0000
FFFF
0000
FFFF
0000
002A
0027
0014
0043
000F
0000
0016
0000
000F
0040
0017
0003
0018
002E
0022
0000
0000
0000
0000
0000
0000
FFFF
FFFF
FFFF
FFFF
0000
0000
0000
0000
0000
000B
0000
0000
0000
0000
0000
0022
0000
0000
0000
003E
0015
0000
0000
0000
0000
0000
0000
FFFF
FFFF
0000
FFFF
FFFF
0000
0000
0000
0010
0011
0000
0000
0017
0036
0019
004C
0018
0000
002A
0000
0000
003C
0000
0000
0000
0000
0000
FFFF
FFFF
FFFF
0000
0000
FFFF
0000
0000
0000
003F
0032
0012
0065
000C
0045
000F
0000
0000
0011
0000
0030
0000
0000
002A
0000
0000
0000
0000
FFFF
0000
FFFF
FFFF
FFFF
0000
0000
0000
0015
0000
0000
0058
0000
0000
003B
0000
0000
0000
0000
0023
007A
0000
0035
0000
0013
0000
0000
0000
0000
FFFF
0000
FFFF
FFFF
FFFF
0000
0000
0000
0009
0009
005D
0000
0000
000F
0000
0000
0029
0005
0000
002D
0000
0000
0015
0000
0000
0000
FFFF
FFFF
FFFF
FFFF
FFFF
FFFF
0000
0000
0000
0000
0000
0046
0000
0023
0026
0000
0000
0064
002F
0000
004B
0004
0000
0000
0000
003A
0000
0000
FFFF
FFFF
0000
FFFF
0000
0000
0000
0000
0000
0041
0000
0000
0018
0000
0049
0000
000E
0000
0000
0000
0000
0000
0000
0000
001E
0000
003E
0000
FFFF
0000
FFFF
FFFF
FFFF
FFFF
FFFF
0000
000C
0000
000E
0008
0000
006B
005D
0000
0000
0000
0000
000F
0000
0020
0002
0020
0041
0000
0000
0000
0000
FFFF
0000
FFFF
0000
0000
0000
0000
0000
0026
0056
0000
003C
0004
0000
0012
0037
0024
0008
0021
0024
002E
0000
0000
0017
0000
0003
0000
0000
0000
0000
FFFF
0000
FFFF
FFFF
0000
0000
0000
0000
0000
0000
0005
0000
0013
0000
0000
0014
0017
0070
0000
0000
006A
0089
0028
0000
0000
0000
0000
FFFF
FFFF
0000
FFFF
0000
0000
0000
0003
0000
0000
0000
0000
0000
0007
0029
0000
0000
0000
0025
0005
0014
0028
0000
0029
0000
0000
0000
0000
FFFF
FFFF
FFFF
FFFF
0000
0000
0000
0000
0005
0012
005F
0000
0000
0004
0066
0050
0000
0021
001E
0002
0000
0000
002B
0000
0000
0000
0000
0000
0000
FFFF
0000
FFFF
0000
0000
0000
0000
0000
000E
0001
0063
000A
0000
0000
0000
0000
0000
0027
0000
0000
0009
0053
0000
0000
0000
0000
0000
0000
FFFF
0000
0000
0000
0000
0000
0013
0000
0019
0040
0000
002D
0000
0000
002B
0000
006B
002A
000C
0000
0000
0000
0000
0000
0000
FFFF
0000
0000
FFFF
0000
0000
0000
0000
0000
0018
004C
0000
0000
0013
0000
0000
0000
0029
0094
0000
0000
0026
0000
0000
0000
0000
0000
0000
0000
0000
FFFF
0000
FFFF
0000
0000
0000
0000
0000
0000
0000
0011
0000
0022
0000
002D
004C
0010
001F
0000
0000
0000
0000
0000
0000
0000
FFFF
0000
FFFF
0000
0000
0000
0000
FFFF
0000
0000
0000
0000
0000
0000
0028
0031
002A
0000
0000
0015
0000
0000
0000
0000
FFFF
0000
0000
0000
FFFF
FFFF
0000
FFFF
0000
FFFF
FFFF
FFFF
FFFF
FFFF
0000
0000
0000
0000
0000
0000
0000
0000
0000
0000
0000
0000
0000
0000
FFFF
0000
FFFF
FFFF
0000
FFFF
0000
FFFF
0000
FFFF
FFFF
FFFF
0000
FFFF
0000
0000
0000
0000
0000
0000
0000
0000
0000
0000
0000
0000
FFFF
FFFF
FFFF
0000
0000
FFFF
FFFF
0000
0000
FFFF
FFFF
0000
FFFF
FFFF
FFFF
0000
0000
FFFF
0000
FFFF
FFFF
0000
0000
0000
0000
0000
0000
0000
FFFF
FFFF
FFFF
0000
FFFF
FFFF
0000
0000
FFFF
0000
