FFFF
FFFF
FFFF
FFFF
FFFF
FFFF
0000
0000
0000
0000
FFFF
FFFF
FFFF
0000
0000
FFFF
0000
FFFF
FFFF
FFFF
FFFF
FFFF
FFFF
0000
001A
0000
FFFF
0000
FFFF
0000
0000
0000
0000
FFFF
0000
FFFF
0000
0000
FFFF
0000
0000
FFFF
FFFF
FFFF
FFFF
FFFF
FFFF
0000
FFFF
0000
FFFF
0000
FFFF
FFFF
FFFF
FFFF
FFFF
FFFF
FFFF
0000
0000
0000
FFFF
FFFF
FFFF
FFFF
FFFF
0000
0000
0000
FFFF
0000
0000
0000
FFFF
0000
0000
0000
FFFF
0000
FFFF
0000
FFFF
FFFF
0000
0000
0000
0000
FFFF
FFFF
0000
0000
0000
0000
0000
0000
0000
0000
0000
0000
0000
0000
0000
0000
0000
0000
0000
0000
0000
0000
FFFF
0000
0000
0000
0047
0000
FFFF
0000
0000
0000
0000
0000
0000
0000
0045
0029
0004
000C
000B
0058
0000
0011
002A
0000
0000
0000
0000
FFFF
FFFF
FFFF
0000
FFFF
FFFF
FFFF
0000
0000
0000
0000
0000
0000
0000
0000
0016
0000
0077
0000
0000
000E
0000
0019
0000
0003
0000
0000
FFFF
0000
FFFF
FFFF
FFFF
0000
FFFF
FFFF
0000
0000
0000
0000
0004
0000
0009
0000
001D
0000
0042
006C
0003
0000
0039
000B
003D
0030
0000
0000
0000
0000
FFFF
0000
FFFF
0000
FFFF
FFFF
FFFF
FFFF
0000
0015
0000
0000
002A
0000
0000
0000
0000
0000
0050
0056
0009
0000
0000
0000
000A
0000
0000
0000
0000
FFFF
FFFF
FFFF
FFFF
FFFF
0000
0000
FFFF
0000
0052
0000
0015
0000
000F
0000
003F
0000
0000
0035
0000
000A
002A
0035
0000
0000
0000
0000
0000
0000
FFFF
0000
FFFF
FFFF
0000
0000
0000
004A
0051
0000
0045
002A
0000
006A
0004
0036
0000
0000
0010
001E
0000
0021
001A
0000
0000
0000
FFFF
FFFF
FFFF
0000
0000
0000
0000
0000
0000
003D
0000
0008
0000
0000
0003
0000
0000
0000
0000
0017
002A
001C
0024
0033
0000
0000
0000
0000
0000
FFFF
FFFF
FFFF
FFFF
0000
0000
0000
0000
0006
0000
0000
0000
0064
0000
0011
002E
004C
001E
0084
000B
0000
000B
0000
0000
0000
0000
0000
0000
FFFF
0000
FFFF
FFFF
FFFF
0000
0000
0000
0000
0000
0000
003E
0000
0000
0000
0000
0000
0000
0000
0000
0000
0000
0026
0000
0000
0000
0000
FFFF
FFFF
FFFF
0000
FFFF
0000
0000
0000
0000
0000
000C
0051
0000
003B
000A
0000
0000
0000
0000
004D
0008
0000
0000
002B
0000
0000
0000
FFFF
FFFF
0000
FFFF
FFFF
0000
0000
0000
0000
0000
002A
0000
0021
0027
0000
0000
002F
0003
0000
006C
0000
004F
006D
001E
0000
0000
0000
0000
FFFF
FFFF
FFFF
FFFF
FFFF
FFFF
FFFF
0000
0000
0035
0000
0002
0000
0000
002C
0000
0000
0000
0000
0000
0000
0000
002F
0002
000B
0000
0000
0000
0000
FFFF
0000
FFFF
0000
FFFF
0000
0000
0000
0020
0000
0052
0000
003E
0054
0000
0000
0000
0000
0000
0000
001B
0000
0000
0000
0000
0002
0000
0000
0000
0000
FFFF
0000
FFFF
FFFF
0000
0000
0011
0045
0000
0048
0037
0000
001C
0052
0043
0046
0000
003C
003F
001B
0005
0015
0000
0000
0000
0000
0000
FFFF
FFFF
FFFF
FFFF
0000
0000
0000
0000
0000
0058
0044
004A
002E
0000
0000
0000
0023
0000
0000
0000
0000
0022
0056
0000
0000
0000
0000
0000
FFFF
FFFF
FFFF
FFFF
0000
0000
0000
0046
0005
0000
0000
0000
0000
0030
001F
002E
0000
0000
0000
0000
0000
001B
0000
0000
0000
0000
0000
0000
0000
FFFF
0000
FFFF
0000
0000
0016
0000
0015
003C
0000
0019
0000
0000
0023
006C
0000
0041
0000
0020
0000
0000
0000
0000
0000
0000
0000
0000
0000
FFFF
FFFF
FFFF
0000
0000
0000
0015
0000
0008
0048
0029
006F
0003
0000
0000
0000
001C
0027
0000
000A
0000
0000
0000
0000
0000
FFFF
FFFF
0000
FFFF
0000
0000
0000
0000
0000
0024
0000
0000
0047
0000
0010
0017
0016
008C
0000
0000
0000
0000
0000
0000
0000
0000
0000
0000
0000
0000
FFFF
FFFF
FFFF
0000
0000
0000
0000
0000
0000
0007
0001
0000
0000
0009
0000
0009
0001
006C
0000
0000
0000
0000
0000
0000
0000
FFFF
FFFF
FFFF
0000
0000
0000
0000
FFFF
0000
0000
0000
0000
0000
0011
0000
0046
0000
0037
0000
0000
0000
0000
0000
0000
FFFF
0000
0000
0000
FFFF
FFFF
0000
FFFF
0000
FFFF
FFFF
FFFF
FFFF
0000
0000
0000
0000
0000
0000
0000
0010
0000
0000
0000
0000
0000
0000
0000
0000
0000
FFFF
FFFF
FFFF
FFFF
FFFF
FFFF
0000
0070
FFFF
FFFF
0000
FFFF
0000
FFFF
0000
0000
0000
0000
0000
0000
0000
0000
0000
0000
0000
0000
0000
0000
FFFF
0078
FFFF
0000
0000
FFFF
FFFF
0000
FFFF
FFFF
FFFF
0000
0000
FFFF
0000
FFFF
FFFF
FFFF
0000
0000
0000
0000
0000
FFFF
FFFF
FFFF
FFFF
0000
FFFF
FFFF
0000
0000
FFFF
0000
