FFFF
FFFF
0000
0000
FFFF
FFFF
FFFF
FFFF
0000
0000
0000
FFFF
FFFF
0000
0000
FFFF
FFFF
0000
FFFF
FFFF
0000
0000
0000
0000
0000
0000
FFFF
0000
FFFF
FFFF
0000
0000
0000
FFFF
0000
FFFF
0000
0000
FFFF
0000
0000
0000
FFFF
FFFF
0000
0000
FFFF
FFFF
FFFF
0000
FFFF
0000
FFFF
FFFF
FFFF
FFFF
FFFF
0000
FFFF
0000
0000
0000
0000
FFFF
0000
0000
0000
0000
FFFF
0000
0000
FFFF
FFFF
0000
0000
0000
FFFF
FFFF
0000
0000
0000
FFFF
FFFF
FFFF
0000
0000
0000
FFFF
FFFF
FFFF
0000
0000
FFFF
0000
0000
0000
0000
0000
0000
0000
0000
FFFF
0000
0000
0000
FFFF
FFFF
FFFF
0000
FFFF
0000
0000
0000
0000
0000
0000
0000
0000
0000
0000
0000
0000
0000
0000
0000
0050
0000
0022
0002
0000
0000
0000
0000
0000
0000
0000
0000
FFFF
FFFF
0000
0000
FFFF
FFFF
0000
0000
0000
0000
0000
0000
0000
0000
0000
0000
0000
0013
0000
0000
0001
0000
0018
0000
0000
0000
0000
FFFF
FFFF
FFFF
0000
FFFF
FFFF
FFFF
0000
0000
0000
0000
0026
0000
0000
0000
0049
0000
0004
0000
001E
002F
0022
0000
0002
001E
0000
0000
0000
0000
0000
FFFF
0000
FFFF
0000
0000
0000
0000
0000
0000
0000
0011
003B
0000
0000
0000
0000
0000
0000
004A
0006
0013
0000
000A
0013
0000
0000
0000
0000
0000
0000
0000
FFFF
0000
0000
0000
0000
0000
0000
0000
006D
0000
0066
0000
0000
0000
0000
0000
0000
002A
0013
0004
003A
0000
0000
0000
0000
0000
FFFF
FFFF
0000
0000
FFFF
0000
0000
0000
0000
0025
0000
0000
0000
0000
0000
0000
0021
002E
0000
007F
0000
0000
003A
0000
0000
0000
0000
FFFF
0000
0000
0000
0000
0000
0000
FFFF
0004
0000
0000
0000
0000
0000
0000
002B
0000
0000
0000
0000
0000
0011
0000
004F
0000
0000
0000
0000
0000
FFFF
FFFF
FFFF
FFFF
0000
0000
0000
0001
0000
0098
0000
0052
0000
0000
0002
001A
0039
0061
0042
0012
0000
0000
0000
0000
0000
0000
0000
0000
FFFF
0000
0000
0000
FFFF
0000
0000
0000
0004
0000
0000
0053
0000
0000
003A
0000
0000
0000
0017
0086
0000
0038
0044
0000
0000
0000
0000
FFFF
0000
0000
FFFF
0000
0000
0000
0000
0000
0000
0000
0000
0013
0004
002F
000C
0000
0047
0000
0000
0035
0025
002C
0000
0000
0000
0000
FFFF
FFFF
0000
FFFF
0000
0000
0000
0000
0000
0000
0000
0000
0068
0011
0000
0027
0004
0022
0000
0000
000F
0040
0000
0000
0009
0000
0000
0000
FFFF
0000
FFFF
FFFF
0000
FFFF
FFFF
0000
0000
0000
0000
0015
0025
0000
0000
0000
0000
0000
0000
0000
0011
0038
005B
0005
0000
0000
0000
0000
0000
FFFF
0000
0000
0000
0000
0000
0000
0000
0000
0000
0000
0000
0000
0000
0000
0007
0000
0000
0009
0000
0000
0088
0000
0000
0000
0000
0000
0000
0000
FFFF
0000
0000
0000
FFFF
0000
0000
0000
0000
0000
0000
0028
0010
0000
0000
0000
0000
0000
0000
0000
0000
0018
0024
0000
0000
0000
0000
0000
0000
0000
FFFF
FFFF
0000
0000
0000
0000
0000
0000
001C
0000
0000
0028
0000
0000
000D
0000
001C
0000
0033
0028
001E
0000
0000
0000
0000
0000
0000
FFFF
FFFF
0000
FFFF
0000
0000
0000
0000
0000
0011
0000
0000
0000
001D
0000
0002
0004
0011
0000
0000
000E
0000
0000
0000
0000
0000
0000
0000
FFFF
0000
0000
0000
0000
0000
000D
0024
0000
0000
0000
0000
0048
0030
0003
0000
0000
0042
0000
0000
0000
0039
0000
0000
0000
0000
0000
0000
FFFF
FFFF
0000
0000
0000
0000
0000
0000
0000
0000
0042
002B
003B
0000
0019
0000
0003
001F
0000
0059
0000
0000
0000
FFFF
0000
FFFF
FFFF
0000
0000
0000
0000
0000
0000
0000
0004
0000
0014
0011
0002
001A
0000
0000
0000
0033
0000
0000
0000
000C
0000
0000
FFFF
FFFF
FFFF
0000
0000
FFFF
FFFF
FFFF
0000
0000
0000
0000
0000
0000
0000
0032
0051
0000
0024
0000
0000
0000
0005
001E
0000
0000
0000
0000
0000
0000
FFFF
0000
FFFF
0000
0000
0000
0000
0000
0000
0000
0000
0000
0000
0000
0006
0000
0000
0000
0000
0000
0000
0033
0000
0000
0000
0000
0000
0000
0000
FFFF
0000
0000
0000
FFFF
0000
0000
0000
0000
0000
0000
0000
0000
0000
0000
0000
0000
0000
0000
0000
0000
0000
0000
0000
0000
FFFF
FFFF
FFFF
0000
0000
0000
0000
0000
0000
FFFF
FFFF
FFFF
0000
FFFF
0010
0000
0000
0000
0000
0000
0000
FFFF
0000
0000
0000
0000
0000
0000
0000
0000
FFFF
FFFF
0000
FFFF
0000
0000
FFFF
0000
0000
0000
0000
FFFF
0000
FFFF
FFFF
FFFF
0000
0000
0000
0000
0000
0000
FFFF
0000
0000
0000
FFFF
FFFF
0000
FFFF
0000
FFFF
