FFFF
0000
FFFF
FFFF
FFFF
FFFF
0000
0000
FFFF
0000
0000
FFFF
FFFF
0000
0000
FFFF
0000
FFFF
FFFF
FFFF
FFFF
0000
FFFF
0000
FFFF
0000
FFFF
0000
FFFF
0000
FFFF
FFFF
0000
FFFF
0000
FFFF
0000
0000
FFFF
0000
0000
FFFF
FFFF
FFFF
0000
FFFF
FFFF
0000
FFFF
0000
FFFF
0000
FFFF
FFFF
FFFF
0000
FFFF
FFFF
FFFF
0000
0000
0000
FFFF
FFFF
0000
0000
0000
0000
0000
0000
0000
0000
0000
0000
0000
0000
FFFF
0000
FFFF
0000
FFFF
FFFF
FFFF
FFFF
0000
0000
0000
0000
FFFF
FFFF
0000
0000
FFFF
0000
0000
0000
0000
0000
0000
0000
0000
0000
FFFF
0000
0000
0000
0000
0000
0000
FFFF
FFFF
0000
0000
0000
FFFF
0000
0000
0000
0000
0000
0000
0000
0000
0000
0000
0033
0021
0000
0000
0000
0000
0051
0000
0000
0000
0000
0000
FFFF
FFFF
0000
0000
FFFF
FFFF
0000
0000
0000
0000
0000
0000
0000
0001
000F
0000
0004
0010
001A
0000
0000
0012
0000
0051
0027
0000
0000
FFFF
FFFF
FFFF
FFFF
FFFF
0000
FFFF
0000
0000
0000
0000
0000
0081
0000
0000
002E
001A
0000
0000
0031
0038
0000
000D
0007
0013
0000
0000
0000
0000
0000
0000
0000
FFFF
0000
FFFF
0000
0000
0000
0000
0000
0000
0006
0000
0020
0000
0004
0000
0000
0054
0000
000E
000D
0042
0038
0000
0000
0000
0000
0000
0000
FFFF
FFFF
0000
FFFF
0000
0000
0000
0000
0025
003A
0000
0000
0000
0051
0000
0000
003D
006F
0043
0000
003B
0000
0037
0000
0000
0000
0000
FFFF
FFFF
0000
FFFF
FFFF
0000
000C
0000
004A
0000
002F
0004
0000
0036
0007
0000
000D
0057
005D
0053
001F
0000
0000
0000
0000
0000
0000
FFFF
FFFF
FFFF
0000
0000
0000
0000
0000
0000
0000
0020
0000
001F
0036
0000
0000
0000
0000
0011
0042
0000
0024
0012
0000
0025
0000
0000
0000
0000
0000
FFFF
FFFF
FFFF
0000
0000
0000
0000
0000
0000
002B
0000
0000
0036
0000
001D
0049
0000
0045
0000
0000
0050
004B
0000
0000
0000
0000
0000
FFFF
0000
FFFF
FFFF
FFFF
0000
0000
0026
0000
0000
0000
0000
0000
005C
002E
0001
003E
0015
0007
0000
0020
0010
001E
0000
0000
0000
FFFF
FFFF
0000
FFFF
FFFF
FFFF
0000
0000
0000
0017
0018
001D
0000
0058
0000
0000
0000
0000
0010
0066
0000
0000
0000
003A
0006
003D
0000
0000
0000
0000
0000
FFFF
0000
0000
0000
0000
0000
0000
004B
0000
0000
0000
003A
0025
000E
0000
003F
0017
0006
0000
0044
0029
0000
0000
0000
0000
FFFF
0000
FFFF
FFFF
FFFF
FFFF
FFFF
0000
0000
0000
0000
0000
000F
0000
0040
001E
0000
0000
0000
0000
0000
0000
0000
0000
0000
005D
0014
0000
0000
FFFF
FFFF
FFFF
0000
0000
0000
0000
0000
0011
0067
0000
0054
0017
003D
0000
0000
0028
0000
001C
0062
005B
002E
0000
006F
0000
0000
0000
0000
0000
0000
0000
0000
FFFF
FFFF
0000
0000
0047
0019
0000
0028
0000
0008
0000
0000
0000
0006
0000
0033
0031
0018
0005
0000
0024
0000
0000
0000
0000
FFFF
FFFF
FFFF
FFFF
0000
0000
0005
0000
0000
0022
0000
0070
0017
0082
0037
0000
0000
0000
0038
0000
0000
001C
0000
0000
0000
0000
0000
0000
FFFF
FFFF
FFFF
FFFF
0000
0000
000B
0000
0011
0000
002E
0000
0000
0000
0000
004C
005C
0002
0000
0053
0012
0025
0000
0011
0000
0000
0000
0000
0000
FFFF
0000
FFFF
0000
0000
0000
0011
0000
0000
0088
0021
0000
0045
000B
0000
0000
0000
003D
0000
0000
0004
0000
0000
0000
0000
0000
0000
0000
FFFF
0000
FFFF
0000
0000
0000
0000
0009
0000
0000
0037
0021
0000
0000
0024
0000
0009
0031
0072
0030
0012
0000
0000
0000
0000
FFFF
FFFF
0000
FFFF
0000
0000
0000
0000
0000
0000
0000
003A
0000
0004
0016
0000
000E
003A
0000
0000
0008
0000
0000
0000
0000
0000
0000
0000
0000
0000
FFFF
FFFF
FFFF
0000
0000
0000
0000
0000
0000
0000
0001
002B
0000
0040
0000
0019
0040
0000
000F
0000
0000
0000
0000
0000
0000
FFFF
0000
FFFF
0000
0000
0000
0000
FFFF
0000
0000
0000
0000
0000
0000
0000
0000
0011
0000
0000
0000
0000
0030
0000
0000
FFFF
FFFF
0000
0000
FFFF
FFFF
0000
FFFF
0000
FFFF
0000
FFFF
FFFF
0000
0000
0000
0000
0000
0000
0000
0044
0000
003F
0000
0000
0000
0000
0000
0000
0000
FFFF
FFFF
FFFF
FFFF
0000
FFFF
0000
FFFF
0000
FFFF
0000
FFFF
0000
0000
0000
0000
0000
0000
0000
0000
0000
0000
0000
0000
0000
0000
FFFF
0000
FFFF
FFFF
FFFF
0000
0000
FFFF
FFFF
0000
FFFF
0000
0000
FFFF
0000
FFFF
0000
FFFF
FFFF
0000
0000
0000
0000
0000
0000
FFFF
FFFF
FFFF
FFFF
0000
FFFF
FFFF
0000
0000
FFFF
FFFF
