0000
0000
FFFF
FFFF
FFFF
FFFF
0000
0000
FFFF
0000
FFFF
FFFF
FFFF
0000
0000
0000
0000
0000
FFFF
FFFF
FFFF
FFFF
FFFF
FFFF
FFFF
0000
FFFF
0000
FFFF
0000
FFFF
0000
0000
FFFF
FFFF
FFFF
0000
0000
0000
0000
0000
FFFF
0000
FFFF
FFFF
FFFF
FFFF
0000
FFFF
0000
FFFF
0000
FFFF
FFFF
FFFF
0000
FFFF
FFFF
FFFF
0000
0000
0000
FFFF
FFFF
FFFF
0000
FFFF
0000
0000
0000
FFFF
FFFF
FFFF
0000
0000
0000
FFFF
0000
0000
0000
FFFF
FFFF
FFFF
0000
FFFF
0000
FFFF
0000
FFFF
FFFF
FFFF
0000
0000
0000
0000
0000
0000
0000
0000
0000
0000
FFFF
0000
0000
0000
0000
0000
0000
0000
FFFF
FFFF
0000
0000
0000
FFFF
FFFF
0000
0000
FFFF
0000
0000
0000
0000
0000
0000
0000
0000
005D
0000
0018
0023
0061
0000
0000
0000
0000
0000
FFFF
FFFF
FFFF
0000
FFFF
0000
FFFF
FFFF
FFFF
FFFF
FFFF
0000
0000
0035
002E
0000
0003
0013
0000
0000
0013
001F
0009
0000
0000
0066
0000
FFFF
FFFF
FFFF
FFFF
0000
0000
FFFF
0000
FFFF
FFFF
0000
0000
0000
001D
0000
0046
0000
0009
0000
0012
0000
0000
0000
005C
0000
001D
000A
000B
0000
0000
FFFF
FFFF
FFFF
0000
FFFF
FFFF
0000
0000
0000
0000
0000
001E
002A
0000
0000
001F
0000
0003
0000
000E
0000
0035
0074
0064
0027
0000
0000
0000
0000
FFFF
FFFF
FFFF
FFFF
FFFF
0000
0000
0000
0000
0000
0000
0002
0053
0000
0000
0000
0046
0000
0000
0064
0000
0000
0026
0063
0000
0000
0000
0000
FFFF
FFFF
0000
FFFF
FFFF
0000
0000
0000
0000
0057
0005
0000
0000
0027
0000
0030
003B
0000
0029
000F
001D
0023
0001
0000
0000
0000
0000
FFFF
FFFF
FFFF
0000
0000
FFFF
0000
0000
0000
0031
0042
0000
0000
0000
0000
0009
0000
0000
0019
0000
0000
0028
0008
0000
001A
0000
0000
0000
FFFF
0000
FFFF
FFFF
FFFF
0000
0000
0000
0000
0029
0000
0000
0000
0030
0011
000B
0000
001D
0022
0000
004A
0000
005F
001D
0000
0039
0000
0000
0000
FFFF
0000
FFFF
FFFF
0000
0000
0000
008F
0015
0002
0000
0028
0000
0003
000A
0044
0000
0009
0000
0037
0030
0066
0073
0000
0000
0000
0000
FFFF
FFFF
FFFF
0000
FFFF
0000
0000
0000
000A
0000
0000
0000
0000
001F
0000
0000
000A
000F
0000
006B
0000
0000
0000
0000
0000
0000
0000
FFFF
FFFF
0000
FFFF
0000
0000
0000
0000
0000
0000
0000
0013
0025
0000
0000
000D
0013
0000
0000
002A
0000
0000
001A
0000
0038
0000
0000
0000
0000
0000
FFFF
FFFF
FFFF
FFFF
FFFF
0000
000D
002F
0033
0000
004A
0000
0012
0000
0000
0000
006E
0054
0000
0030
0000
0000
000B
0000
0000
0000
0000
FFFF
0000
FFFF
FFFF
FFFF
0000
0000
0000
0038
0000
0000
0000
0000
0000
0000
002D
0025
001F
0000
0043
0031
0000
0019
0000
0008
0000
0000
0000
0000
0000
FFFF
0000
FFFF
FFFF
0000
000A
0000
0000
0000
0048
0000
0000
001A
000B
0000
0000
0000
0004
001C
0004
0012
0000
0000
0000
0000
0000
0000
FFFF
FFFF
0000
FFFF
0000
0000
000C
0029
0000
0000
0050
0023
0000
0000
0045
0000
0000
0002
0000
000A
001A
0000
0000
0000
0000
0000
0000
0000
FFFF
FFFF
FFFF
FFFF
FFFF
0000
0000
0000
000E
0029
0016
0000
0000
0000
0000
0032
0000
0048
0017
0000
0034
0003
0000
0000
0000
0000
0000
0000
FFFF
FFFF
0000
FFFF
0000
0000
0000
003C
0004
0006
0000
0000
0000
002A
0000
0000
0002
0000
0000
0006
0000
0000
0000
0000
0000
0000
0000
FFFF
0000
FFFF
FFFF
FFFF
FFFF
0000
001D
0000
0000
002E
0015
0019
000B
001B
0045
0003
0000
003D
0000
0048
0000
0000
0000
0000
0000
0000
FFFF
0000
0000
FFFF
0000
0000
0000
0021
0000
0000
003A
0000
0000
0048
003A
0004
0000
0000
0000
003E
0000
0000
0000
0000
0000
0000
0000
0000
FFFF
0000
FFFF
FFFF
FFFF
0000
0000
0000
0000
0000
0000
0000
0028
0000
003E
0022
0024
0020
0020
001F
0044
0000
0000
0000
0000
0000
FFFF
FFFF
FFFF
FFFF
0000
FFFF
0000
FFFF
FFFF
0000
0000
0000
0000
0000
0000
0036
0011
0000
0026
0000
0005
0000
0000
0000
0000
FFFF
FFFF
0000
0000
FFFF
FFFF
0000
FFFF
0000
FFFF
FFFF
FFFF
FFFF
0000
0000
0000
0000
0013
0000
0000
0000
0000
0000
0000
0000
0000
0000
0000
FFFF
FFFF
FFFF
FFFF
FFFF
FFFF
FFFF
FFFF
0000
0000
FFFF
FFFF
FFFF
FFFF
0000
0000
0000
0000
0000
0000
0000
0000
0000
0000
0000
0000
FFFF
0000
FFFF
0000
FFFF
FFFF
FFFF
0000
0000
FFFF
FFFF
0000
FFFF
FFFF
FFFF
0000
FFFF
FFFF
0000
FFFF
FFFF
0000
0000
FFFF
0000
0000
0000
0000
FFFF
FFFF
FFFF
0000
FFFF
FFFF
0000
0000
FFFF
0000
