FFFF
0000
FFFF
0000
FFFF
FFFF
FFFF
0000
FFFF
0000
0000
FFFF
FFFF
0000
FFFF
FFFF
0000
0000
FFFF
FFFF
FFFF
FFFF
0000
0000
FFFF
0000
FFFF
0000
FFFF
0000
0000
FFFF
0000
FFFF
0000
FFFF
0000
0000
FFFF
0000
0000
FFFF
FFFF
FFFF
FFFF
FFFF
FFFF
0000
FFFF
0000
FFFF
0000
FFFF
FFFF
FFFF
0000
FFFF
FFFF
FFFF
0000
0000
0000
FFFF
FFFF
FFFF
0000
FFFF
0000
0000
0000
FFFF
0000
0000
0000
0000
0000
FFFF
0000
FFFF
0000
0000
FFFF
FFFF
FFFF
0000
FFFF
0000
0000
FFFF
FFFF
FFFF
000B
0000
0000
0000
0000
0000
0000
0000
0000
0000
0000
FFFF
0000
0000
0000
0000
0000
0000
0000
FFFF
0046
0000
FFFF
FFFF
0000
FFFF
0000
FFFF
0000
0000
0000
0000
0000
0047
002B
0017
0018
0057
0000
0000
0000
0000
0000
0000
0000
0000
FFFF
FFFF
0000
0000
FFFF
FFFF
0000
FFFF
0000
FFFF
0000
0000
0000
0000
0000
0000
0000
001E
0035
0000
0025
0000
0000
0000
0000
0000
0000
FFFF
FFFF
FFFF
FFFF
FFFF
FFFF
FFFF
FFFF
FFFF
FFFF
000C
0000
0000
0000
004A
0015
0000
0000
0000
0000
003F
0000
0000
0012
0028
0018
0000
0000
0000
0000
0000
0000
FFFF
0000
FFFF
FFFF
0000
FFFF
0000
0037
0001
0000
0000
0041
0018
0026
0022
0005
0026
0034
0011
0000
0008
0000
0000
0000
0000
0000
0000
0000
FFFF
FFFF
0000
FFFF
0000
0032
0022
006F
0013
0025
0000
000E
0013
0000
0012
0000
0024
0000
0000
0000
001F
001F
0000
0000
0000
0000
0000
FFFF
FFFF
0000
FFFF
FFFF
0000
0000
003E
005E
0053
0000
0012
0000
0000
0060
002C
0000
001E
0034
0000
0038
0000
001F
0024
0024
0000
0000
FFFF
FFFF
FFFF
0000
0000
FFFF
0000
0000
0017
0000
0016
0028
0033
0000
0015
0000
0033
0000
0035
002B
0025
0037
0000
0000
0000
0004
0000
0000
FFFF
0000
FFFF
FFFF
FFFF
0000
0000
0000
0000
0000
0004
0000
002C
0000
0012
0000
0000
0000
0010
0000
0027
000C
0000
0017
0000
0000
0000
0000
0000
FFFF
0000
FFFF
FFFF
FFFF
0000
0000
0000
0012
000C
002D
0000
000A
0000
0047
001D
000E
0003
0000
0000
0000
0000
0002
0009
0002
0000
FFFF
FFFF
FFFF
FFFF
FFFF
FFFF
0000
0000
0000
0000
0000
0049
0007
003D
0000
0000
0000
0025
0017
0016
0005
0000
0021
0000
0058
0011
0025
0000
FFFF
FFFF
0000
FFFF
0000
0000
0000
0000
0000
0020
0044
0000
0000
0000
0000
0026
0010
0000
004A
0000
0000
0000
0011
0000
0066
003F
0036
0000
FFFF
0000
FFFF
FFFF
FFFF
FFFF
FFFF
0000
0000
0005
0000
0000
0000
0000
0008
0025
0000
0000
0000
0051
0050
0000
006B
0000
0000
0000
0000
0000
0000
FFFF
FFFF
FFFF
0000
0000
0000
0000
0000
0000
0000
0000
000B
0000
0000
0000
002A
0000
008C
0074
0006
0005
0025
0021
0000
002F
000C
0000
0000
0000
0000
0000
0000
FFFF
FFFF
0000
0019
0000
0000
0000
0000
0008
0000
0000
0000
0017
0000
005B
0000
0005
0000
0003
0000
001C
0000
0000
0000
0000
FFFF
FFFF
FFFF
FFFF
0000
0000
002C
0031
0000
006D
0028
0017
004E
0019
0046
0001
0000
0000
0000
0000
003E
0000
0000
006B
0000
0000
0000
0000
0000
FFFF
FFFF
FFFF
0000
0000
0046
0000
0000
0000
006A
003E
000D
0009
0046
0000
0037
0036
0000
004D
0000
0000
0020
0010
0000
0000
0000
0000
0000
FFFF
0000
FFFF
0000
0000
0000
002F
0000
0000
001A
0012
0000
0043
002B
0000
0018
0000
003A
0039
0000
0000
0000
0009
0000
0000
0000
0000
0000
FFFF
0000
FFFF
0000
0000
0013
0000
0000
0000
0000
0000
0000
0002
0066
0003
0025
0000
0000
0000
0000
0006
0000
0000
0000
0000
FFFF
FFFF
0000
0000
0000
0000
0000
0000
0022
0000
0019
001A
001A
0000
006C
0029
0000
005B
0001
001A
0000
0034
0000
0000
0000
0000
0000
0000
0000
0000
FFFF
FFFF
FFFF
0000
0000
0000
0000
0000
001D
0000
0000
0018
0000
0019
0000
0026
0004
0000
0001
0000
0000
0000
0000
0000
0000
FFFF
0000
FFFF
0000
0000
0000
0000
FFFF
0000
0000
0000
0000
0000
0032
0000
001B
0030
002F
0006
0000
0000
0000
0000
0000
FFFF
FFFF
0000
0000
FFFF
FFFF
0000
FFFF
0000
FFFF
0000
FFFF
FFFF
0000
0000
0000
0000
0000
0000
0000
0000
0000
0000
0000
0000
0000
0000
0000
0000
0000
FFFF
FFFF
FFFF
FFFF
0000
FFFF
0000
FFFF
0000
FFFF
0000
FFFF
0000
0000
0000
0000
0000
0000
0000
0000
0000
0000
0000
0000
0000
0000
FFFF
0000
FFFF
FFFF
FFFF
0000
0000
FFFF
FFFF
0000
FFFF
FFFF
FFFF
0000
0000
FFFF
0000
FFFF
FFFF
0000
0000
0000
0000
0000
0000
FFFF
FFFF
FFFF
FFFF
0000
FFFF
FFFF
0000
0000
FFFF
0000
