FFFF
0000
FFFF
FFFF
FFFF
FFFF
0000
0000
0000
0000
FFFF
FFFF
FFFF
0000
0000
FFFF
0000
FFFF
FFFF
FFFF
0000
FFFF
FFFF
0000
FFFF
0000
FFFF
0000
FFFF
0000
0000
0000
0000
FFFF
0000
FFFF
0000
0000
FFFF
0000
0000
FFFF
FFFF
0000
FFFF
FFFF
FFFF
FFFF
FFFF
0000
FFFF
0000
FFFF
FFFF
FFFF
0000
FFFF
FFFF
FFFF
0000
0000
0000
FFFF
FFFF
FFFF
0000
FFFF
0000
0000
0000
FFFF
0000
0000
0000
0000
0000
0000
0000
0000
0000
FFFF
FFFF
FFFF
FFFF
0000
0000
0000
0000
FFFF
FFFF
0000
FFFF
FFFF
0000
0000
0000
0000
0000
0000
0000
0000
0000
FFFF
0000
0000
0000
0000
0000
0000
FFFF
FFFF
0000
0000
FFFF
FFFF
0000
FFFF
0000
0000
0000
0000
0000
0000
0000
0000
0000
0000
0000
0034
004C
0000
0000
0000
0000
0000
0000
0000
FFFF
FFFF
0000
0000
FFFF
FFFF
0000
FFFF
FFFF
FFFF
0000
0000
0051
0000
004D
0000
0000
003A
0059
0034
0073
0035
0001
001F
0000
0000
0000
0000
FFFF
FFFF
FFFF
FFFF
0000
FFFF
0000
FFFF
FFFF
0000
0000
0013
0016
0000
000B
0000
0000
0010
0041
0000
001F
0029
0003
004A
0001
0000
0000
0000
0000
FFFF
0000
FFFF
0000
FFFF
FFFF
0000
0000
0000
0000
0000
0000
0000
0037
0005
0026
001A
000A
0046
0000
0021
004F
0000
0000
0000
0011
0000
0000
0000
FFFF
FFFF
FFFF
FFFF
FFFF
0000
0000
0000
0000
0006
0000
000C
0000
0000
0000
0047
0000
0024
0013
0031
0038
0001
0000
0000
002F
0000
0000
0000
0000
FFFF
0000
FFFF
FFFF
0000
0000
FFFF
0000
0000
0000
0004
0026
0000
0025
0000
0000
0039
0000
0037
0000
0000
0014
0000
0036
0000
0000
FFFF
FFFF
FFFF
0000
0000
0000
0000
0000
0000
0000
0000
0000
004C
002D
0033
0000
0000
0000
0001
0004
0012
0000
0000
0000
0000
0000
0000
0000
0000
0000
FFFF
FFFF
0000
0000
0000
0000
0000
0000
0019
0000
0022
004B
0053
0035
0063
000A
0000
0023
0050
0000
0001
0009
0000
0000
0000
0000
0000
FFFF
FFFF
FFFF
FFFF
FFFF
0000
0000
0000
002D
0000
005B
0020
0014
0000
0010
000C
0000
0019
0000
0000
0033
0026
0000
0000
0000
0000
0000
FFFF
FFFF
FFFF
0000
FFFF
0000
0000
0000
0000
0000
0015
001E
0002
001E
001E
0000
0000
0013
0000
0000
0000
0046
0000
0000
0000
0000
0000
FFFF
FFFF
0000
FFFF
0000
0000
0000
0000
0000
0000
000F
0000
0000
0000
0000
0000
000F
002D
0059
0013
0020
0000
0009
002C
0018
0000
0000
0000
FFFF
0000
FFFF
FFFF
FFFF
FFFF
FFFF
0000
0000
0000
0034
0000
0000
0054
0000
0000
0000
0033
0072
0000
0047
0035
0010
0000
0018
0000
0000
0000
0000
FFFF
FFFF
FFFF
0000
0000
0000
0000
0000
0000
006D
0000
004B
0000
003B
0000
0032
001B
0035
003B
0000
0004
0017
0010
0000
004C
0000
0000
0000
0000
FFFF
0000
0000
FFFF
FFFF
0000
0000
002A
0084
0000
0000
0000
0000
0000
006D
0002
003B
0023
0000
0000
0000
0000
0012
0000
0000
0000
0000
0000
FFFF
FFFF
FFFF
FFFF
0000
0000
0000
0000
0000
0000
0000
0000
0000
0000
0000
0000
003C
0000
0000
0000
0000
0043
0021
0000
0000
0000
0000
0000
FFFF
FFFF
FFFF
FFFF
0000
0000
0000
0000
0008
0002
0000
006A
0000
0024
0038
0008
001B
000C
002A
0000
0026
0027
0013
0000
0000
0000
0000
0000
0000
FFFF
0000
FFFF
0000
0000
0000
0000
0062
0002
002C
000F
001E
0009
0022
0000
0000
0000
0000
0000
001F
0000
0039
0000
0000
0000
0000
0000
0000
FFFF
0000
FFFF
0000
0000
0000
002D
0000
0000
0000
0022
0000
0000
002B
0000
0025
0000
0000
001B
0000
0000
0018
0000
0000
0000
FFFF
FFFF
0000
FFFF
0000
0000
0000
0000
0000
0000
0022
0051
0030
0037
0059
0000
0000
0000
001B
0000
0000
0035
0000
0000
0000
0000
0000
0000
0000
0000
FFFF
004A
FFFF
0000
0000
0000
0000
0000
0000
0000
0000
005F
0000
0000
0000
0028
0000
0001
005A
0000
0000
0000
0000
0000
FFFF
FFFF
0000
FFFF
0000
0000
0000
0000
FFFF
0000
0000
0000
0000
0000
0000
0060
0004
0028
0056
0000
001A
001E
0000
0000
0000
FFFF
0000
0000
0000
FFFF
FFFF
0000
FFFF
0000
FFFF
FFFF
FFFF
FFFF
0000
0000
0000
0000
0000
0000
0000
0000
0000
0000
0000
0000
0000
0000
0000
0000
0000
FFFF
FFFF
005D
FFFF
FFFF
FFFF
0000
FFFF
FFFF
0000
0000
FFFF
0000
002A
0000
0000
0000
0000
0005
0000
0000
0000
0000
0000
0000
0000
FFFF
0000
0000
FFFF
FFFF
0000
0000
FFFF
FFFF
0000
FFFF
FFFF
FFFF
FFFF
0000
FFFF
0000
FFFF
FFFF
0000
0000
0000
0000
0000
0000
FFFF
FFFF
FFFF
FFFF
FFFF
FFFF
FFFF
0000
0000
FFFF
FFFF
