FFFF
0000
0000
FFFF
FFFF
FFFF
FFFF
FFFF
FFFF
0000
FFFF
FFFF
FFFF
0000
FFFF
FFFF
0000
0000
FFFF
FFFF
FFFF
FFFF
0000
0000
FFFF
0000
FFFF
0000
FFFF
0000
0000
FFFF
0000
FFFF
FFFF
FFFF
0000
FFFF
0000
0000
0000
FFFF
FFFF
FFFF
FFFF
FFFF
FFFF
FFFF
FFFF
0000
FFFF
0000
FFFF
FFFF
FFFF
0000
FFFF
FFFF
FFFF
0000
0000
0000
FFFF
FFFF
FFFF
0000
0000
0000
0000
0000
0000
0000
0000
0000
0000
0000
FFFF
0000
0000
0000
0000
FFFF
FFFF
FFFF
FFFF
0000
FFFF
FFFF
FFFF
FFFF
0000
0000
0000
0000
0000
0000
0000
0000
0000
0000
000F
0000
0000
0000
0000
0000
0000
0000
0000
0000
FFFF
0000
0000
FFFF
FFFF
FFFF
FFFF
0000
FFFF
0000
0000
0000
0000
0000
0000
0000
0000
0000
0000
002D
0000
0000
0000
0000
0000
0000
0000
FFFF
0000
0000
0000
FFFF
FFFF
0000
0000
0000
0000
0000
0000
0000
0000
0000
0026
002A
0000
0039
0000
0000
000A
0000
0000
0006
0000
0000
FFFF
FFFF
FFFF
FFFF
FFFF
0000
FFFF
0000
0000
0000
0000
0000
0000
0000
0000
0024
0000
0038
0047
0000
0000
0017
003F
0000
0000
0000
0000
0000
0000
0000
FFFF
FFFF
FFFF
0000
FFFF
FFFF
0000
0000
0000
0000
0075
0000
0000
0027
0000
0000
0000
0012
002E
0000
000D
0000
0005
0043
0006
0000
0000
0000
0000
FFFF
FFFF
FFFF
FFFF
FFFF
0000
0000
0000
0000
0070
000F
0000
0000
0000
0000
0000
000C
0000
0000
0013
0000
0000
0000
0030
0000
0000
0000
0000
FFFF
0000
0000
FFFF
FFFF
0000
0000
FFFF
0000
0000
0000
0000
0000
0000
0000
0000
0000
0000
0000
002E
0004
0075
003A
0000
0000
0000
002F
FFFF
0000
FFFF
FFFF
0000
FFFF
0000
0000
0000
0013
0000
0000
0022
001E
0013
0052
000D
0018
0000
0049
0000
0015
0000
0000
0004
0000
0000
0000
FFFF
0000
FFFF
FFFF
FFFF
0000
0000
0000
0000
0000
0000
0015
0011
0018
002D
004E
0000
0000
0000
0000
0001
0000
0000
0005
0000
0000
0000
0000
0000
FFFF
0000
0000
FFFF
FFFF
0000
0000
0000
0000
0000
0025
0001
004D
0000
0000
0000
001B
0035
0017
005F
0011
002A
0000
0000
0000
0000
FFFF
FFFF
FFFF
0000
0000
0000
0000
0000
0000
0000
0000
0000
0006
000B
0014
0001
0056
0012
0000
0000
005D
0000
0000
0028
0000
0000
0000
0000
FFFF
FFFF
0000
FFFF
0000
0000
0000
0000
0000
0000
0000
0000
0017
0000
000F
0000
0000
0000
0000
0000
0023
0000
0000
0036
0026
0000
0000
0000
FFFF
0000
FFFF
FFFF
FFFF
FFFF
FFFF
0000
0000
000F
001D
0000
0003
0000
0049
000B
0001
0000
0000
0000
0007
0000
000B
0011
0013
0000
0000
0000
0000
FFFF
0000
0000
FFFF
0000
FFFF
0000
0000
0000
0026
0023
0000
0000
0000
0018
0045
0000
005D
000C
0000
0017
00A5
002F
0000
0000
0000
0000
0000
0000
0000
FFFF
0000
FFFF
FFFF
0000
0000
005C
0000
0048
0011
0000
0000
0000
0028
0000
0001
0025
0007
0000
0011
0058
0063
0000
0000
0000
0000
0000
FFFF
FFFF
0000
FFFF
0000
0000
0000
0033
0017
0008
0000
0000
0000
0000
0000
0000
000D
0008
002A
0001
0004
0036
0000
0000
0000
0000
0000
0000
FFFF
FFFF
FFFF
FFFF
FFFF
0000
000B
0012
0011
0000
0025
0000
001B
0000
0000
004D
0000
0015
0000
0000
0000
0000
0000
0000
0000
0000
0000
0000
FFFF
FFFF
0000
FFFF
0000
0000
0000
0027
0023
0000
0000
0000
0022
0000
0057
0037
005F
0000
0000
0005
000F
0000
0000
0000
0000
0000
0000
FFFF
0000
FFFF
0000
FFFF
0000
0000
001A
0000
0000
0000
0053
0004
0000
0003
002F
0000
001F
0000
0000
003A
0000
0000
0000
0000
0000
0000
FFFF
0000
FFFF
FFFF
0000
0000
0000
0000
0000
004C
0000
0000
003E
0000
0000
0033
0011
0000
0000
0007
0000
0000
0000
0000
0000
0000
0000
FFFF
FFFF
0000
FFFF
FFFF
FFFF
0000
0000
0000
0000
0000
0000
0008
0000
002C
0000
0000
0000
003A
0000
0000
0000
0000
0000
0000
0000
0000
0000
0000
0000
FFFF
0000
FFFF
FFFF
FFFF
FFFF
FFFF
0000
0000
0000
0000
0000
0000
0000
0000
0000
0000
0000
0000
0000
0000
0000
FFFF
0000
0000
0000
FFFF
0000
0000
0000
0000
FFFF
FFFF
0000
FFFF
0000
0000
0000
0000
0000
0000
0000
0000
0000
0000
0000
FFFF
0000
0000
0000
FFFF
0000
FFFF
FFFF
FFFF
0000
FFFF
0000
0000
FFFF
FFFF
0000
FFFF
FFFF
0000
0000
0000
0000
0000
0000
0000
0000
0000
0000
FFFF
0000
0000
0000
FFFF
0000
FFFF
FFFF
FFFF
0000
FFFF
FFFF
FFFF
0000
FFFF
FFFF
FFFF
0000
FFFF
FFFF
0000
FFFF
FFFF
0000
0000
FFFF
0000
0000
0000
FFFF
FFFF
FFFF
FFFF
0000
FFFF
FFFF
0000
FFFF
FFFF
0000
