FFFF
0000
FFFF
FFFF
FFFF
FFFF
0000
0000
0000
0000
0000
FFFF
FFFF
0000
0000
0000
0000
0000
FFFF
FFFF
FFFF
0000
FFFF
0000
FFFF
0000
FFFF
0000
FFFF
0000
0000
FFFF
0000
FFFF
0000
FFFF
0000
0000
0000
0000
0000
FFFF
0000
FFFF
FFFF
FFFF
FFFF
FFFF
FFFF
0000
FFFF
0000
FFFF
FFFF
0000
0000
FFFF
FFFF
FFFF
0000
0000
0000
FFFF
FFFF
FFFF
0000
FFFF
0000
0000
0000
0000
0000
0000
0000
0000
0000
FFFF
0000
0000
0000
0000
FFFF
FFFF
FFFF
0000
0000
0000
0000
FFFF
FFFF
FFFF
FFFF
FFFF
0000
0000
0000
0000
0000
0000
0000
0000
0000
0000
0000
0000
0000
0000
0000
0000
0000
FFFF
FFFF
FFFF
FFFF
FFFF
0000
FFFF
0000
0000
0000
0000
0000
0000
0000
0000
0000
0000
0046
0000
0000
0000
0000
0000
0000
0000
0000
0000
FFFF
FFFF
0000
0000
FFFF
FFFF
0000
0000
FFFF
FFFF
0000
0000
0000
0000
0000
000D
0000
0031
0000
0035
0009
0007
0021
0025
0000
0000
0000
FFFF
FFFF
FFFF
FFFF
FFFF
FFFF
0000
0000
FFFF
FFFF
0000
0000
001E
000F
002B
0033
002B
0006
000C
0000
005B
0000
0000
0000
0000
0004
002E
0000
0000
0000
0000
0000
FFFF
FFFF
FFFF
0000
FFFF
0000
0000
0000
0000
0000
0007
0000
001B
0000
0000
0000
007A
0005
0000
0042
0000
004D
0061
0000
0000
0000
0000
0000
FFFF
FFFF
0000
FFFF
0000
0000
FFFF
0000
000C
0000
0009
0000
0000
0000
0000
0001
0000
0000
0001
0000
001D
0000
006C
0031
0000
0000
0000
FFFF
FFFF
0000
FFFF
FFFF
FFFF
0000
FFFF
0000
0000
0008
0011
0016
0002
0029
0000
0046
0000
0025
0014
0000
0000
005E
0000
0016
0000
0000
FFFF
FFFF
FFFF
0000
0000
0000
0000
0000
0000
0000
0022
0034
0010
0000
0000
0000
0015
0002
0002
001B
002C
0000
0000
0000
0000
0000
0000
0000
0000
0000
FFFF
FFFF
FFFF
0000
0000
0000
0000
0036
0000
0000
0000
000F
0000
0000
0000
0009
0014
0000
0000
0000
0000
0006
0000
0000
0000
0000
0000
FFFF
0000
FFFF
FFFF
FFFF
0000
0000
0067
0000
0000
0000
0000
0000
0000
000F
0000
0033
0033
0028
0009
0000
001B
0005
0000
0000
0000
0000
FFFF
0000
FFFF
0000
FFFF
0000
0000
0000
0006
0021
0000
0000
0000
0000
004C
0000
002F
0000
001D
0005
0000
002F
0000
0028
000F
0000
0000
FFFF
FFFF
FFFF
FFFF
0000
0000
0000
0000
0000
0017
007D
0000
001C
000A
0000
001C
0000
0026
001B
0000
0000
0032
0000
001A
0000
0000
007F
0000
0000
0000
FFFF
FFFF
FFFF
FFFF
FFFF
0000
0026
0015
0048
0000
0000
0000
0000
0013
0000
0000
0000
0001
0014
0005
0040
0000
001F
003B
0000
0000
0000
FFFF
0000
FFFF
0000
0000
0000
0000
000C
003D
0000
001A
0011
001E
0000
0026
0000
0047
0056
0000
0053
0000
004C
0000
0000
0006
0000
0000
0000
0000
FFFF
0000
0000
FFFF
FFFF
0000
007E
0000
0042
001E
0000
0046
0019
0034
0042
0000
0000
0055
0000
000C
0000
0049
0050
0000
0000
0000
0000
FFFF
FFFF
FFFF
FFFF
FFFF
0000
0000
0032
0027
004C
0036
0012
0036
00A1
0000
0050
001D
0000
0033
0000
0048
0015
003B
000F
0000
0000
0000
0000
0000
FFFF
FFFF
FFFF
FFFF
0000
0000
0000
0000
001D
0000
0000
0000
0000
002D
0019
0000
0000
0000
0000
0059
0000
0000
0000
0039
0000
0000
0000
0000
0000
FFFF
0000
FFFF
FFFF
0000
0010
000C
0020
004A
0000
0016
0000
003A
0000
0067
0017
0016
0016
0000
0000
0075
0041
0000
0000
0000
0000
0000
0000
FFFF
0000
FFFF
0000
0000
0001
0000
0000
0000
0000
0043
0000
0000
0000
0000
0000
0000
0000
0000
0000
0000
0000
0000
0000
0000
FFFF
FFFF
0000
FFFF
0000
0000
0000
0000
0000
0000
0004
000A
002A
0010
002E
0000
0000
0000
0000
0027
0009
0043
0000
000E
0000
0000
0000
0000
0000
0000
FFFF
FFFF
FFFF
0000
0000
0000
0000
0000
0000
002D
001F
000A
002E
0000
0000
0042
0000
0000
003B
002F
0000
0000
0000
0000
0000
FFFF
0000
FFFF
0000
0000
0000
0000
FFFF
0000
0000
0000
0000
0000
0000
0035
0043
0038
0068
003B
0000
0000
0000
0000
0000
FFFF
FFFF
0000
0000
FFFF
FFFF
0000
FFFF
0000
FFFF
0000
FFFF
FFFF
0000
0000
0000
0000
0000
0000
0000
0000
0000
0000
0000
0000
0000
0000
0000
0000
0000
FFFF
0000
FFFF
FFFF
0000
FFFF
0000
FFFF
0000
FFFF
0000
FFFF
0000
0000
0000
0000
0000
0000
0000
0000
0000
0000
0000
0000
0000
0000
FFFF
0000
FFFF
FFFF
FFFF
0000
0000
FFFF
FFFF
0000
FFFF
0000
FFFF
0000
0000
FFFF
0000
FFFF
FFFF
0000
0000
0000
0000
0000
0000
0000
FFFF
FFFF
FFFF
FFFF
FFFF
FFFF
0000
0000
FFFF
FFFF
