FFFF
FFFF
0045
FFFF
FFFF
FFFF
0000
0000
FFFF
FFFF
0000
FFFF
FFFF
0000
FFFF
FFFF
0000
FFFF
FFFF
FFFF
FFFF
FFFF
0057
0000
FFFF
0000
0000
0000
FFFF
0000
0000
FFFF
0000
FFFF
0000
FFFF
0000
0000
FFFF
0000
0000
007C
FFFF
0000
FFFF
FFFF
FFFF
FFFF
FFFF
0000
FFFF
0000
FFFF
FFFF
FFFF
FFFF
FFFF
FFFF
0000
FF90
0000
0000
FFFF
FFFF
FFFF
0000
003A
0000
0000
0000
0000
0000
0000
0000
0000
0000
0000
0000
0000
0000
0000
FFFF
FFFF
FFFF
0000
FFFF
0000
0000
FFFF
FFFF
FFFF
0000
0000
0000
0000
0000
0000
0000
0000
0000
0000
0000
FFFF
0000
0000
0000
0000
0000
0000
0000
FFFF
0000
FFFF
FFFF
FFFF
0000
FFFF
0000
0000
0000
0000
0000
0000
003A
0000
0045
0017
001B
0023
0000
0000
0000
0000
0000
0000
0000
0000
FFFF
0000
0000
0000
FFFF
FFFF
0000
0000
0000
0000
0000
0000
0040
0000
0000
0072
0000
0000
0000
001A
0047
000E
0000
0029
0000
003E
0000
0000
FFFF
FFFF
FFFF
FFFF
0000
FFFF
FFFF
0000
0000
0000
0000
0000
0000
0044
000E
000C
0000
0000
0034
0000
0037
0004
0000
0013
005B
0045
0000
0000
0000
FFFF
0000
0089
0000
FFFF
FFFF
0000
0000
0000
0000
0069
004F
0034
0000
0000
0000
000C
0065
0010
0012
0008
0000
0000
000B
0015
0015
0000
0000
0000
0000
FFFF
FFFF
FFFF
FFFF
0000
0000
0000
0025
0000
0000
0050
0010
0000
0032
0000
004B
0032
0000
0000
0008
000E
0000
0000
0000
0000
0000
0000
FFFF
FFFF
0000
FFFF
FFFF
0000
0000
0000
002D
0003
0000
0000
0000
0000
0004
0000
0026
0001
0032
0000
0045
000F
0000
0000
0000
0000
0000
FFFF
0036
FFFF
0000
0000
FFFF
0000
0000
0000
0006
0015
0000
0000
0000
0000
000B
0000
0000
0028
0000
0019
0000
004B
0000
0000
0000
0000
0000
0000
FFFF
FFFF
FFFF
FFFF
0000
0000
0000
0000
0028
001A
0000
0076
0043
0000
003B
0000
003F
0062
0000
0038
000C
0023
001E
0000
0000
0000
0000
0000
FFFF
0000
0000
FFFF
FFFF
0000
0000
0000
0054
0000
0000
0047
0000
0033
001A
0000
0000
0061
0000
001B
001F
0000
0060
0000
0000
0000
FFFF
FFFF
FFFF
004F
0000
0046
FFFF
0000
0000
0000
004D
0000
005E
000B
0000
002E
0047
0000
000D
0038
0000
006B
0000
0023
0014
0000
0000
0000
FFFF
FFFF
0000
FFFF
FFFF
0000
0016
0000
0000
0016
0006
0000
002C
0000
0000
0000
0022
0000
0005
0000
000B
001A
0000
003E
0008
006A
0017
0000
FFFF
FFFF
FFFF
FFFF
FFFF
FFFF
FFFF
0000
0000
0000
0022
001B
0045
002C
003E
0024
0000
0065
004D
003B
0000
004B
0016
0000
002E
002D
0000
0000
0000
FFFF
0000
004B
0000
0000
0000
0000
0008
0062
0000
0002
001E
006A
0000
0021
0019
006B
005C
0008
0000
0000
0000
0000
0000
0095
0000
0000
0000
0000
0000
0000
0000
FFFF
000B
0000
0000
0000
0041
0000
0000
0000
0000
0021
0027
0000
0003
0000
0000
0007
0003
0026
000C
0022
0000
0000
0000
0000
FFFF
FFFF
FFFF
FFFF
0000
0000
0000
0000
0015
0000
0000
0000
005D
0000
0042
0000
0000
0000
0073
0000
0000
0000
000D
0053
0000
0000
0000
0000
FFFF
FFFF
FFFF
0000
0000
0000
0000
0000
005A
005A
0024
0000
0046
0000
0012
0071
001E
0005
001D
003D
0056
0028
0000
0000
0000
0000
0000
0000
0000
FFFF
0000
FFFF
FFFF
0000
0000
004A
0000
003D
0068
0000
0000
0000
001E
0000
0000
000E
000B
0000
0035
0034
0000
0000
0000
0000
0000
0000
0000
FFFF
FFFF
FFFF
0000
0000
0000
0039
0000
0051
0000
0023
0027
0000
001F
0009
0000
0002
0006
0047
003A
0000
0000
0000
0000
0000
FFFF
FFFF
0000
FFFF
0000
0000
0000
0000
0000
0015
001F
0000
000C
0000
0000
0000
0053
0053
0000
0000
0050
0007
0000
005F
0000
0000
0000
0000
0000
0000
FFFF
FFFF
FFFF
0000
0000
0000
0000
0000
0000
0000
0000
0043
0014
0045
003D
0000
0000
0044
000E
000D
0000
0000
0000
0000
FFFF
0000
0000
FFFF
0000
0000
0000
0000
FFFF
FFFF
0000
0000
0000
0011
0000
0039
002F
0010
001B
001F
0000
0000
0000
0000
0000
FFFF
000C
0000
0000
FFFF
FFFF
0000
0066
0000
FFFF
0000
004B
0000
0000
0000
0000
0030
0000
0000
0000
0026
0047
0000
0000
0000
0000
0000
0000
0000
0000
FFFF
FFFF
FFFF
003C
0000
0042
0000
FFFF
0000
0000
0000
FFFF
0000
FFFF
0000
0000
0000
0000
0000
0000
0000
0000
0000
0000
FFFF
0000
FFFF
0000
0000
FFFF
FFFF
FF97
0000
FFFF
FFFF
0000
FFFF
FFFF
FFFF
FFFF
0000
FFFF
0000
FFFF
FFFF
FFFF
0000
0000
0000
0000
0000
0000
FFFF
FFFF
FFFF
0000
FFFF
FFFF
0000
0000
005E
FFFF
