FFFF
FFFF
FFFF
FFFF
FFFF
FFFF
FFFF
0000
FFFF
0000
FFFF
FFFF
FFFF
0000
FFFF
FFFF
0000
FFFF
FFFF
FFFF
0000
FFFF
0000
0021
FFFF
0000
FFFF
0000
FFFF
0000
0000
FFFF
0000
FFFF
0000
FFFF
0000
0000
0000
0000
0000
FFFF
FFFF
FFFF
FFFF
0000
FFFF
0000
FFFF
0000
FFFF
0000
0007
0006
FFFF
FFFF
FFFF
FFFF
FFFF
0000
0000
0000
FFFF
FFFF
FFFF
0000
FFFF
0000
0000
0000
0000
0000
0000
0000
0000
0000
0000
0069
0000
0000
0000
FFFF
FFFF
FFFF
FFFF
FFFF
FFFF
0000
FFFF
FFFF
FFFF
FFFF
FFFF
0000
0000
0000
0000
0000
0000
0000
0000
0000
0000
0000
0000
0000
0000
0000
0000
0000
FFFF
0000
0000
FFFF
FFFF
0000
FFFF
0000
FFFF
0000
0000
0000
0000
0000
0000
0000
0000
0000
0000
0003
0000
0000
0000
0000
0000
0000
0000
FFFF
FFFF
0000
0000
FFFF
FFFF
0000
FFFF
002F
FFFF
0000
0000
0000
0000
007F
002A
0033
0000
0000
001B
0000
0008
0000
0000
0000
0000
0000
FFFF
FFFF
FFFF
FFFF
FFFF
0000
FFFF
0000
FFFF
FFFF
0000
0000
0000
0000
0015
0000
0000
0000
0000
0000
004A
0014
0000
0000
0000
001B
0000
0000
0000
0000
FFFF
FFFF
FFFF
0000
0000
FFFF
FFFF
FFFF
0000
0000
0000
004E
0000
000F
0000
0037
0035
002B
001A
0000
0000
0075
0000
0019
0000
0000
0000
0000
0000
0000
FFFF
FFFF
FFFF
FFFF
0000
0000
0000
0000
0000
0000
0031
0000
0000
0000
0057
0046
0049
004C
0000
0000
0041
004E
0000
0029
0000
0000
0000
FFFF
FFFF
0000
FFFF
FFFF
0000
0000
0000
0002
0000
0000
0028
0035
0022
0006
0000
0027
0054
0000
001A
003F
0006
0000
0009
0037
0000
0000
FFFF
FFFF
FFFF
0000
0000
0000
0000
0000
0000
0000
0000
0026
0000
0000
000B
0000
0006
0000
0000
000D
0000
0000
0000
0000
0000
0000
0000
0000
0000
FFFF
FFFF
FFFF
FFFF
0000
0000
0000
0000
0004
0015
0000
003D
0000
0026
001B
0000
0000
0000
0000
0036
000A
0000
0000
0035
0000
0000
0000
0000
FFFF
0000
FFFF
FFFF
FFFF
0000
0000
0000
0000
0000
005B
0000
0034
0000
0000
001B
0000
0000
0000
002B
000B
0000
0054
0000
0000
0000
0000
FFFF
FFFF
FFFF
0000
FFFF
0000
0000
0020
0000
0052
0000
0000
0000
003D
0059
0000
0027
0000
0000
003E
0000
0048
0000
0000
0000
0000
0000
FFFF
FFFF
0000
FFFF
FFFF
0000
0000
0000
0000
0038
0023
0048
0003
0000
0007
0000
0000
0000
0004
0057
0000
0000
0047
0000
003E
0000
0000
0000
FFFF
FFFF
FFFF
FFFF
FFFF
FFFF
FFFF
0000
0000
0000
0003
001E
0000
0000
0000
0000
0000
0002
0036
0000
0000
001D
0006
0000
0000
0000
0000
0000
0000
FFFF
0000
FFFF
0000
0000
0000
0000
0000
002B
0056
0025
006C
0000
0000
0033
000F
0000
0000
002B
001A
0000
0000
0000
0000
0000
0000
0000
0000
0000
0000
FFFF
0000
FFFF
FFFF
0000
0000
001E
004C
0075
0003
0000
0000
0000
0051
0032
0000
000A
0067
0011
0012
0000
0000
0000
0000
0000
0000
0000
FFFF
FFFF
FFFF
FFFF
0000
0000
0000
007F
0021
0000
0000
005D
0077
0001
0000
0000
0024
008C
0000
001D
0047
001E
0000
0000
0000
0000
0000
0000
FFFF
FFFF
FFFF
FFFF
0000
0000
0028
0000
000B
0000
000F
0000
0063
0000
0035
005C
0024
0000
004D
0000
0000
0000
0000
0000
0000
0000
0000
0000
0000
FFFF
0000
FFFF
0000
0000
0000
0044
0008
0000
0020
0022
0000
002F
0000
002F
0000
0027
001F
000B
0026
0009
001B
0000
0000
0000
0000
0000
0000
FFFF
FFFF
FFFF
0000
0000
0006
0000
0000
0000
0000
0000
002D
003D
0000
0000
0002
0007
0000
0016
0000
0000
0000
0000
0000
0000
FFFF
FFFF
0000
FFFF
0000
0000
0000
0000
0000
0000
0000
001B
0000
0045
004E
0000
0000
0000
0031
002C
0000
0000
0000
0000
0000
0000
0000
0000
FFFF
0000
FFFF
FFFF
FFFF
0000
0000
0000
0000
0000
0000
0036
0050
0000
0000
0014
0000
0030
001C
0032
0042
0020
0000
0000
0000
0000
FFFF
FFFF
0000
FFFF
0000
0000
0000
0000
FFFF
0000
0000
0000
0000
0000
000E
0000
0001
0000
0000
0000
0020
0024
0000
004C
0000
FFFF
FFFF
0000
0000
FFFF
FFFF
0000
FFFF
0000
FFFF
FFFF
FFFF
FFFF
0000
0000
0000
0000
0000
0000
000D
0000
0027
0000
0000
0000
0000
0000
0000
0000
0000
FFFF
FFFF
FFFF
FFFF
0000
FFFF
0000
0000
FFFF
0000
FFFF
FFFF
0000
0000
0000
0000
0000
0000
0000
0000
0000
0000
0000
0000
0000
0000
FFFF
0000
FFFF
FFFF
FFFF
0000
0000
FFFF
FFFF
0000
FFFF
FFFF
FFFF
0000
0000
FFFF
0000
FFFF
FFFF
FFFF
0000
0000
0000
0000
0000
FFFF
FFFF
FFFF
FFFF
0000
FFFF
FFFF
0000
0000
FFFF
0000
