FFFF
0083
FFFF
0000
FFFF
FFFF
0000
0000
0000
0000
FFFF
FFFF
FFFF
0000
0000
FFFF
0000
FFFF
0000
0000
0000
0000
FFFF
0000
FFFF
0000
FFFF
0000
0000
0000
0000
0000
0000
0000
0000
0000
0000
FFFF
FFFF
0000
FFFF
FFFF
FFFF
0000
0000
0000
0000
FFFF
0000
0000
FFFF
0000
FFFF
FFFF
0021
008B
FFFF
0000
FFFF
0000
0000
0000
FFFF
FFFF
0000
0000
FFFF
0000
FFFF
0000
FFFF
0000
0000
0000
0000
0000
0000
FFFF
0000
0000
FFFF
0000
FFFF
FFFF
FFFF
0000
FFFF
FFFF
FFFF
FFFF
0000
0000
FFFF
0000
0000
0000
0000
0000
0000
0000
0000
0000
FFFF
0000
0000
0000
FFFF
FFFF
FFFF
0000
0000
0000
0000
FFFF
FFFF
0000
FFFF
0000
0000
0000
0000
0000
0000
0000
0000
0000
0053
0000
0000
0000
003B
0000
0000
0000
FFFF
FFFF
0000
FFFF
FFFF
0000
0000
FFFF
FFFF
0000
0000
0000
0000
0000
0000
0000
0000
0000
0000
0000
0000
0004
0043
0000
002C
0018
0000
0000
0000
FFFF
FFFF
FFFF
0000
0000
FFFF
FFFF
0024
0000
0000
0000
0000
0000
0000
0000
0027
0000
0000
0000
0019
001D
003A
0000
0000
0002
0000
0000
0000
0000
0000
0000
0000
FFFF
FFFF
FFFF
0000
FFFF
0000
0000
0000
0000
0000
0057
0000
0000
0000
0000
0000
0000
002F
0028
0000
0000
0000
0000
0000
0000
0000
FFFF
0000
0000
FFFF
FFFF
FFFF
FFFF
0000
0000
0000
0000
0012
0000
0018
0000
001A
0000
0000
0000
002A
0000
0000
003F
000D
0000
0000
FFFF
FFFF
0000
0000
0000
FFFF
0000
FFFF
FFFF
FFFF
0000
FFFF
0000
0000
0000
0000
0000
0000
001A
0000
0013
0000
0000
0000
0000
0000
0000
0000
FFFF
0000
0000
FFFF
FFFF
0000
FFFF
0000
0000
0000
FFFF
0000
0000
0000
001A
0000
0000
0000
0000
0029
009D
0000
0000
0009
0000
0000
0000
0000
FFFF
0000
0000
0000
0092
FFFF
FFFF
0000
0000
0000
0000
0000
0000
0000
0000
0000
0000
0008
002E
0000
0016
0000
0000
0000
0023
0000
0000
FFFF
FFFF
0000
0000
0052
0000
0000
0000
FFFF
FFFF
0000
0000
0000
FFFF
0000
0000
0000
0000
0000
0000
0000
0030
0043
0000
0017
0000
0015
0000
FFFF
0000
0000
0000
FFFF
FFFF
FFFF
FFFF
FFFF
0000
0000
FFFF
0000
0000
0000
0000
0000
0006
0012
0020
0038
0050
0000
0000
0000
0000
0000
0000
0000
FFFF
FFFF
0000
0000
FFFF
FFFF
0047
0000
0000
FFFF
FFFF
0000
0000
0000
0000
0008
0000
0000
0000
0000
0036
0040
001F
0025
0000
0000
0000
FFFF
FFFF
0000
FFFF
0039
FFFF
FFFF
0000
0000
FFFF
FFFF
0000
FFFF
0000
0000
001B
0000
0003
000A
0017
0010
0049
0000
0000
0000
0000
0000
0000
0000
0000
0000
0000
FFFF
0000
FFFF
0000
0000
0000
0000
0000
0000
0000
0000
0035
000D
002E
0013
0000
0000
0037
0000
0000
0000
0016
0000
0000
0000
0000
0000
0000
0000
FFFF
FFFF
0000
FFFF
FFFF
0000
0000
0000
0000
0002
0039
0042
000C
0000
0000
0041
0000
0017
0030
0000
003E
0000
0000
0000
0000
0000
0000
FFFF
FFFF
0000
FFFF
0000
0000
0000
0000
0000
0000
0000
0000
0032
0007
0000
002D
0000
001A
0000
004C
0000
0006
0000
0000
0000
0000
0000
0000
0000
0000
FFFF
FFFF
0000
FFFF
0000
0000
0000
0010
0000
0000
0000
0000
0049
0008
0016
0018
002E
0000
0021
0051
0000
0000
0000
0000
0000
0000
003C
0000
FFFF
0000
FFFF
FFFF
FFFF
0000
0000
0000
0000
0000
0000
0000
0000
0000
0000
0000
0000
0000
0000
0000
0000
0000
0000
0000
0000
0053
0000
0000
FFFF
0032
0000
0000
0000
0000
0000
0005
0030
0040
0000
0000
003A
0047
0000
000A
0000
0011
0000
0000
0000
0000
0000
0000
0000
0000
FFFF
0000
0000
0000
0000
0000
0000
0000
0000
0000
001F
0000
002B
0000
0017
0000
0000
0000
0046
0000
0021
0000
0000
0000
0000
0000
0000
FFFF
0000
FFFF
FFFF
FFFF
0000
005E
0000
0000
0000
0000
0000
0000
0021
0000
000E
0004
0000
0014
0000
0000
0000
0000
0000
0000
0000
FFFF
FFFF
0000
FFFF
0000
0000
FFFF
0000
0000
0000
0000
0000
0000
0000
0000
0000
0039
0000
0000
0000
0000
0000
0000
0000
0000
0000
FFFF
0000
0000
0000
0000
0000
FFFF
0000
FFFF
FFFF
FFFF
0000
FFFF
0000
FFFF
0000
0000
0000
0000
0000
0000
0000
0000
0000
0000
0000
FFFF
0000
0000
FFFF
FFFF
FFFF
FFFF
0000
FFFF
0000
FFFF
FFFF
0000
FFFF
FFFF
FFFF
FFFF
0000
0000
0000
0000
0000
0000
0000
0000
0000
0000
0000
0000
FFFF
0000
FFFF
FFFF
FFFF
0000
FFFF
FFFF
FFFF
0000
FFFF
0000
0000
FFFF
0000
FFFF
0000
0000
FFFF
004D
0000
0000
0000
0000
0000
0000
FFFF
FFFF
FFFF
FFFF
FFFF
FFFF
0000
0000
FFFF
FFFF
