FFFF
FFFF
FFFF
FFFF
FFFF
FFFF
0000
0000
0000
0000
0000
FFFF
FFFF
0000
0000
0000
0000
0000
0000
0000
0000
0000
FFFF
0000
0000
0000
FFFF
0000
0000
0000
0000
0000
0000
0000
0000
0000
0000
FFFF
FFFF
0000
0000
FFFF
0000
FFFF
FFFF
0000
0000
FFFF
FFFF
0000
FFFF
0000
FFFF
FFFF
FFFF
FFFF
FFFF
FFFF
FFFF
0000
0000
0000
0000
0000
FFFF
0000
FFFF
0000
0000
0000
0000
0000
FFFF
FFFF
0000
0000
FFFF
FFFF
FFFF
0000
0000
0000
FFFF
FFFF
0000
0000
0000
0000
FFFF
FFFF
FFFF
0000
0000
0000
0000
0000
0000
0000
0000
0000
0000
0000
0000
FFFF
FFFF
0000
0000
0000
0000
0000
0000
0000
0000
0000
0000
0000
0000
0000
FFFF
0000
0000
0000
0000
0000
0000
0000
0000
0007
0000
0000
0000
0000
FFFF
0000
0000
0000
0000
FFFF
0000
0000
0000
FFFF
FFFF
0000
0000
0000
0000
0000
0000
0000
0000
0000
0002
0000
0000
0000
0000
000A
0000
0000
0000
0000
0000
FFFF
FFFF
FFFF
0000
0000
FFFF
0000
FFFF
0000
0000
0000
0000
0000
0000
0003
0025
0000
0011
0000
0000
0000
0017
0048
0000
0059
0000
0000
0000
0000
0000
0000
0000
0000
FFFF
0000
0000
0000
FFFF
0000
0000
0000
0000
0000
0000
0000
0004
0000
0000
0000
0000
0000
0000
0000
0005
0000
0000
0000
0000
0000
0000
0000
0000
FFFF
0000
FFFF
0000
0000
0000
0000
0000
0014
0000
0000
0007
0004
0000
000E
0028
0000
0000
002C
0037
003C
0007
0000
0000
0000
0000
0000
FFFF
0000
FFFF
FFFF
0000
0000
0000
0056
0000
0000
001C
0033
0000
000B
001C
0028
0000
004F
004E
0075
0027
0000
0000
0000
0000
0000
FFFF
FFFF
FFFF
FFFF
0000
0000
0000
0000
0000
0000
0000
0000
0000
002E
0000
0000
0000
0000
0012
000E
0000
0030
0000
001B
0090
0000
0000
0000
0000
FFFF
FFFF
FFFF
0000
0000
0000
0000
0013
000C
0000
0047
0000
0000
0000
0000
0000
0000
0000
0000
0000
0011
0000
0000
0000
0000
0000
0000
FFFF
FFFF
FFFF
FFFF
0000
FFFF
0000
0000
0040
0006
000D
0000
0000
0000
0000
0000
0000
0000
0000
0000
0000
0000
0041
0046
0000
000A
0000
0000
FFFF
0000
FFFF
0000
FFFF
0000
0000
0000
0019
0000
0039
0000
0000
0000
0000
0000
0000
0032
0000
0000
0000
0000
000A
0048
001B
0027
0000
0000
0000
0000
FFFF
FFFF
0000
0000
0000
0000
0000
0012
0000
0000
0000
0000
0002
0000
0000
0000
0000
0000
0000
0000
0000
0000
000E
0000
0000
0000
FFFF
FFFF
FFFF
0000
0000
FFFF
0000
0008
0000
0000
0007
0000
0006
0014
0000
0045
0017
002D
004A
0000
0000
0000
0000
0000
0000
0000
0000
0000
FFFF
FFFF
FFFF
0000
0000
0000
0000
0000
0000
0071
0028
0000
001A
0020
0000
0037
0000
0035
0000
0000
0000
007C
0004
0046
0000
0000
0000
0000
0000
FFFF
0000
0000
0000
FFFF
0000
000B
002B
0042
001B
0000
0000
0000
0030
0000
0000
003D
0000
0039
0000
0000
002A
0000
0000
0000
0000
0000
0000
0000
0000
0000
0000
0000
0000
0000
001F
0000
0010
0000
0000
0013
0000
0000
0000
0000
0000
0000
0000
004F
0037
0000
006C
0000
0000
0000
0000
FFFF
FFFF
FFFF
FFFF
0000
0000
0008
0000
0003
0010
0000
0019
0000
0000
0000
0017
0000
0000
001C
001D
0049
005E
0024
0000
0000
0000
0000
0000
0000
FFFF
0000
FFFF
0000
0000
0000
0000
0015
0000
0002
0049
0000
0000
0011
0000
0000
0000
0000
0036
0007
001B
0000
0000
0000
0000
FFFF
0000
0000
FFFF
FFFF
0000
FFFF
0000
0000
0018
008B
0000
0000
0000
0000
0000
0000
0014
0025
0001
0000
0000
0000
0000
0000
0000
0000
0000
0000
FFFF
0000
FFFF
0000
0000
0000
0000
FFFF
0000
0059
0018
0000
0000
0017
0035
0000
000E
0005
0000
0000
0045
0000
0000
0000
0000
0000
0000
0000
0000
FFFF
FFFF
FFFF
0000
0000
FFFF
0000
0000
0000
0000
000E
0005
0000
0000
0027
0000
0000
0000
0000
0000
0000
FFFF
0000
0000
0000
0000
0000
FFFF
0000
0000
FFFF
0000
FFFF
FFFF
0000
0000
FFFF
0000
0000
0000
0000
0000
0000
0000
0000
0000
0000
0000
0000
0000
FFFF
0000
0000
FFFF
FFFF
0000
FFFF
0000
FFFF
0000
FFFF
FFFF
0000
0000
FFFF
0000
0000
0000
0000
0000
0000
FFFF
FFFF
0000
0000
0000
0000
0000
0000
FFFF
FFFF
FFFF
FFFF
0000
FFFF
0000
0000
0000
FFFF
0000
FFFF
0000
0000
0000
0000
0000
0000
FFFF
0000
0000
0000
FFFF
0000
0000
0000
0000
0000
FFFF
0000
FFFF
0000
FFFF
FFFF
0000
0000
FFFF
0000
FFFF
0000
0000
FFFF
0000
0000
FFFF
FFFF
0000
0000
0000
0000
0000
FFFF
FFFF
0000
0000
FFFF
FFFF
FFFF
FFFF
0000
FFFF
0000
