FFFF
FFFF
FFFF
0000
FFFF
FFFF
FFFF
0000
0000
0000
FFFF
FFFF
FFFF
0000
0000
FFFF
0000
FFFF
FFFF
FFFF
FFFF
FFFF
FFFF
0000
FFFF
0000
FFFF
0000
FFFF
0000
0000
0000
0000
FFFF
0000
FFFF
0000
FFFF
FFFF
0000
0000
FFFF
FFFF
FFFF
0000
0000
FFFF
FFFF
FFFF
0000
FFFF
0000
FFFF
FFFF
FFFF
FFFF
FFFF
0000
FFFF
0000
0000
0000
FFFF
FFFF
0000
0000
FFFF
0000
0000
0000
FFFF
FFFF
0000
0000
0000
0000
FFFF
0000
FFFF
0000
FFFF
FFFF
FFFF
FFFF
FFFF
0000
FFFF
FFFF
FFFF
FFFF
0000
0000
FFFF
0000
0000
0000
0000
0000
0000
0000
0000
0000
FFFF
0000
0000
0000
FFFF
0000
0000
FFFF
0000
0000
FFFF
FFFF
FFFF
FFFF
FFFF
0000
FFFF
0000
0000
0000
0000
0000
0000
0000
0000
0041
000D
000C
0033
003E
0000
0000
0000
0000
0000
FFFF
FFFF
FFFF
0000
FFFF
FFFF
FFFF
FFFF
FFFF
0000
FFFF
0000
0000
0021
0000
0000
0008
0000
0000
0000
0000
0048
0000
0000
0000
0000
FFFF
FFFF
FFFF
FFFF
0000
FFFF
FFFF
FFFF
0000
FFFF
FFFF
0000
0000
0000
0000
0025
0000
0007
0000
0053
001A
004A
0000
0000
0000
0005
0032
0000
0000
0000
0000
0000
FFFF
FFFF
0000
0000
FFFF
FFFF
0000
0000
0000
0000
0000
0000
0032
0000
0000
0000
0000
0000
001C
0000
0013
0000
0018
0000
0000
0000
FFFF
0000
FFFF
FFFF
FFFF
FFFF
FFFF
0000
0000
0000
0000
0000
0000
0000
0000
001A
0025
007C
0000
0000
0028
0040
0036
0000
0000
0000
0000
0000
0000
0000
0000
FFFF
0000
FFFF
FFFF
0000
0000
0000
0000
0000
0030
0044
0011
0000
0010
0021
0000
0000
002E
0000
0018
0026
0000
0000
FFFF
0000
0000
FFFF
FFFF
0000
FFFF
0000
0000
0000
0000
0000
0000
0000
0000
0000
0000
0000
0004
0000
0000
000D
002F
0035
001D
002C
0023
0000
0000
0000
0000
0000
FFFF
FFFF
FFFF
FFFF
0000
0000
0000
0000
0000
0045
0005
0000
000D
0000
0000
0000
000D
0000
006B
0000
0007
003A
0000
0000
0000
0000
0000
FFFF
FFFF
FFFF
0000
FFFF
FFFF
0000
0000
0000
0000
0000
0000
0010
0000
0000
0000
0000
0000
0000
0000
0000
0039
0000
0000
0000
0000
0000
0000
FFFF
FFFF
FFFF
FFFF
FFFF
0000
0000
0000
0000
0002
0007
0031
0000
0000
0000
0000
0016
0045
0014
0000
000F
0061
0025
002F
0000
0000
0000
FFFF
FFFF
0000
FFFF
FFFF
0000
0000
0000
0000
0044
0025
0000
0030
0000
0000
0000
001D
0017
0003
0000
0013
000A
0011
0000
001D
0000
0000
0000
FFFF
FFFF
FFFF
FFFF
0000
FFFF
FFFF
0000
0000
0000
0000
0000
0000
0000
0000
0021
0021
0000
004C
0006
0000
0000
0016
0000
0000
0000
0000
0000
0000
FFFF
0000
FFFF
0000
FFFF
0000
0000
0000
0021
0000
0040
0000
0000
0019
0000
0000
0016
0000
0000
003E
0027
0000
004F
0000
0000
0000
0000
0000
0000
FFFF
FFFF
0000
FFFF
FFFF
0000
0000
0004
0000
000D
0000
0003
0000
004F
0000
0011
0000
001B
0002
0000
0000
0007
0018
0000
0000
0000
0000
0000
FFFF
FFFF
FFFF
FFFF
0000
0000
0000
000C
0021
0023
0000
0000
0026
0000
0060
0007
0000
0034
0000
0000
0002
0039
0000
0000
0000
0000
0000
0000
FFFF
FFFF
FFFF
0000
FFFF
0000
0017
002D
0000
0000
0000
0000
0000
000C
0000
0000
0000
0000
0000
0000
0000
0000
0000
0000
0000
0000
0000
0000
0000
FFFF
0000
FFFF
0000
0000
0000
0029
0000
0008
0000
0000
0008
000D
002D
0015
0000
0016
0000
000A
0029
0000
0000
0000
0000
0000
0000
0000
0000
FFFF
FFFF
0000
0000
0000
0033
0000
0000
0002
0000
0000
002B
0000
003C
0000
0057
0000
0000
0000
0000
0000
0000
0000
0000
0012
FFFF
FFFF
0000
FFFF
0000
0000
0018
0000
0000
0028
000C
003F
000C
0003
0009
0000
0000
0000
0000
000F
0000
0000
0000
0000
0000
0000
0000
0000
FFFF
0000
FFFF
FFFF
FFFF
0000
0000
0000
0000
0026
0087
0000
002E
0000
0000
0000
0000
0000
0000
0000
0000
0000
0000
FFFF
0000
0000
FFFF
FFFF
FFFF
FFFF
0000
0000
FFFF
0000
FFFF
0000
0000
0000
0000
0000
000E
0000
0000
0000
0000
0000
0000
0000
0000
0000
0000
0000
FFFF
0000
0000
0000
FFFF
0000
FFFF
0000
FFFF
FFFF
FFFF
0000
FFFF
0000
0000
0000
0000
0000
0000
0000
0000
0000
0000
0000
0000
0000
0000
0000
FFFF
FFFF
FFFF
FFFF
FFFF
FFFF
FFFF
0000
FFFF
FFFF
0000
FFFF
FFFF
0000
FFFF
0000
0000
0000
0000
0000
0000
0000
0000
0000
0000
FFFF
0000
FFFF
0000
FFFF
FFFF
FFFF
0000
FFFF
FFFF
FFFF
0000
FFFF
FFFF
FFFF
0000
0000
FFFF
0000
FFFF
FFFF
FFFF
0000
0000
0000
0000
0000
FFFF
FFFF
FFFF
FFFF
FFFF
FFFF
FFFF
0000
0000
FFFF
FFFF
