0000
0000
FFFF
FFFF
FFFF
FFFF
0000
0000
FFFF
FFFF
0000
FFFF
FFFF
0000
FFFF
FFFF
0000
0000
FFFF
FFFF
0000
FFFF
0000
0000
FFFF
0000
0000
0000
FFFF
0000
FFFF
FFFF
0000
FFFF
0000
FFFF
0000
0000
0000
0000
0000
FFFF
FFFF
FFFF
FFFF
FFFF
FFFF
0000
FFFF
0000
0000
0000
FFFF
FFFF
0000
0000
FFFF
FFFF
FFFF
0000
0000
0000
0000
FFFF
FFFF
0000
FFFF
FFFF
FFFF
0000
FFFF
FFFF
0000
0000
0000
0000
FFFF
0000
FFFF
0000
FFFF
0000
FFFF
FFFF
0000
0000
0000
0000
FFFF
FFFF
FFFF
0000
FFFF
0000
0000
0000
0000
0000
0000
0000
0000
0000
0000
0000
0000
0054
0000
0000
0000
0000
FFFF
0000
0000
FFFF
FFFF
FFFF
FFFF
0000
0000
0000
0000
0000
0000
0000
0000
0000
000C
0000
0000
0000
0014
0000
0000
0000
0000
0000
0000
FFFF
FFFF
0000
0000
FFFF
0000
0000
0000
0000
0000
0000
0000
0000
0010
001F
0000
001D
0000
0000
0000
0000
0000
0000
000A
0000
0000
0000
0000
FFFF
FFFF
FFFF
0000
0000
0000
FFFF
0000
0000
0000
0000
0000
0001
000F
0000
0000
0026
0000
0000
0030
0000
002A
001E
0000
0014
0000
0000
0000
0000
00A1
0000
FFFF
0000
FFFF
FFFF
FFFF
0000
0000
0000
0000
000E
0000
0000
0015
0041
0000
0000
0027
0038
0028
0000
0047
0004
000A
0000
0000
0000
0000
FFFF
FFFF
FFFF
FFFF
FFFF
0000
0000
0000
0000
0000
0000
0000
0000
0000
0023
0000
0000
0031
0000
0000
0000
0000
0000
0000
0000
0000
0000
0000
FFFF
0000
0000
FFFF
FFFF
0000
0000
FFFF
0000
0000
0000
0000
0005
0000
0039
0000
003C
0000
0011
001A
0000
0022
0037
0000
0000
0000
0000
FFFF
FFFF
FFFF
0000
0000
0000
0000
FFFF
FFFF
0000
0001
0000
0000
0039
0000
0000
0000
0020
0000
0000
0000
0000
0000
000F
0000
0000
0000
0000
0000
0000
FFFF
FFFF
FFFF
0000
0000
0000
0000
0000
0007
0000
001A
0000
0022
0000
0000
0036
0020
0025
0000
0000
0000
0000
0000
0000
0000
0000
0000
FFFF
0000
0000
FFFF
0000
0000
0000
0000
0000
0000
0001
0000
0000
0000
0000
0000
0008
0000
0027
0031
0017
0000
0000
0000
0000
0000
0000
FFFF
FFFF
FFFF
0000
FFFF
0000
0000
0000
0000
000C
0000
0000
0074
0009
0047
0000
0000
0000
0000
0009
0051
0005
0018
0000
0000
0000
0000
FFFF
FFFF
0000
FFFF
0000
0000
0000
0000
0000
0000
0000
001D
0000
0000
0079
004E
000D
0023
0073
0000
000F
0015
0000
0000
0000
0000
0000
0000
FFFF
0000
FFFF
FFFF
FFFF
FFFF
FFFF
0000
0000
0000
0000
0000
0048
0000
003F
0000
0016
0017
0000
0005
0000
0000
0000
0070
002A
0000
0000
0000
0000
FFFF
0000
FFFF
0060
0000
0000
0000
0000
0003
0000
0000
0000
0028
0007
0024
0000
0015
0000
0000
0000
0004
0000
0000
0000
0000
0000
0000
0000
0000
0000
0000
0000
FFFF
FFFF
0000
0000
002F
0000
0023
0000
0000
000E
0000
0009
004A
0000
0000
000E
0000
0021
0000
0000
0000
0000
0000
0000
0000
FFFF
0000
FFFF
FFFF
0000
0000
0000
0056
001F
0000
0035
0000
000C
0000
0000
0000
0000
0000
0000
0000
0000
0000
0000
0000
0000
0000
0000
0000
FFFF
FFFF
FFFF
FFFF
FFFF
0000
0000
0021
000C
0019
0000
0000
0000
0000
0020
0000
0000
0000
0000
002C
0000
0000
0000
0000
0000
0000
0000
0000
003C
FFFF
0000
FFFF
0000
0000
0000
003F
0000
0009
0000
0000
0000
000C
0023
0000
004E
0000
0017
0000
0000
0000
0000
0000
0000
0000
0000
006C
0000
FFFF
0000
FFFF
0000
0000
0000
0084
0000
0019
005C
0044
0062
0011
0000
0000
0000
0037
0000
0000
0000
0000
0000
0000
0000
FFFF
FFFF
0000
003A
FFFF
0000
0000
0000
0000
0000
0002
007F
0000
0098
0000
0047
000E
0037
0029
001A
0000
0000
0000
0000
0000
FFFF
FFFF
0000
FFFF
0000
0000
FFFF
FFFF
FFFF
0000
0000
0000
0000
0000
0000
0053
004C
0000
0000
0002
000C
0069
0000
002A
0000
0000
0000
0000
0000
0000
FFFF
FFFF
0000
FFFF
0000
0065
0000
0067
FFFF
0000
0000
0000
0000
0000
0000
0000
0019
0000
000F
0022
0000
0000
0000
0000
FFFF
FFFF
FFFF
0000
0000
FFFF
0000
0000
FFFF
0000
FFFF
0000
FFFF
FFFF
0000
0000
0000
0000
0000
0000
0000
0000
0000
0000
0000
0000
0000
0000
FFFF
FFFF
0000
FFFF
FFFF
FFFF
FFFF
FFFF
FFFF
0000
FFFF
0000
0000
0000
0000
0000
FFFF
0000
0000
FFFF
FFFF
FFFF
0000
0000
0000
0000
0000
FFFF
0000
FFFF
0000
FFFF
FFFF
FFFF
0000
0000
FFFF
FFFF
0000
0000
FFFF
FFFF
0000
0000
FFFF
0000
FFFF
FFFF
0000
0000
0000
0000
0000
0000
FFFF
FFFF
FFFF
0000
0000
FFFF
FFFF
0000
0000
FFFF
0000
