FFFF
0000
FFFF
FFFF
FFFF
FFFF
0000
0000
FFFF
0000
0000
FFFF
FFFF
0000
FFFF
FFFF
0000
0000
FFFF
FFFF
FFFF
FFFF
0000
0000
FFFF
0000
FFFF
0000
FFFF
FFFF
FFFF
FFFF
0000
FFFF
0000
FFFF
0000
FFFF
0000
0000
0000
FFFF
FFFF
FFFF
0000
FFFF
FFFF
FFFF
FFFF
0000
FFFF
0000
FFFF
FFFF
FFFF
0000
FFFF
FFFF
FFFF
0000
0000
0000
FFFF
FFFF
0000
0000
0000
0000
0000
0000
0000
0000
0000
0000
0000
0000
0000
0000
FFFF
0000
FFFF
FFFF
FFFF
FFFF
0000
0000
0000
0000
FFFF
FFFF
0000
0000
0000
0000
0000
0000
0000
0000
0000
0000
0000
0000
0000
0000
0000
0000
0000
0000
0000
FFFF
FFFF
0000
0000
0000
FFFF
0000
0000
0000
FFFF
0000
0000
0000
0039
006A
0000
003F
0000
0028
0032
002E
001C
0000
0000
0000
0000
0000
0000
FFFF
FFFF
0000
0000
FFFF
FFFF
0000
0000
FFFF
0000
FFFF
0000
0000
001F
001C
0000
0000
0000
0000
001F
0000
0000
0007
0060
0013
0000
0000
FFFF
FFFF
FFFF
FFFF
FFFF
0000
FFFF
FFFF
FFFF
0000
0000
0000
0000
0017
0045
0054
0000
0000
0004
0000
0000
003B
0057
0000
0000
0000
0000
0045
0000
0000
FFFF
0000
FFFF
0000
FFFF
FFFF
0000
FFFF
0000
0000
0013
0000
0037
0000
0000
002D
0002
003A
0000
0000
0045
0000
001C
0000
0000
0000
0000
0000
0000
0000
FFFF
FFFF
0000
FFFF
0000
0000
FFFF
0000
0015
0000
0000
0000
0011
0000
0028
0001
0000
0000
0000
003D
0000
0003
0000
0000
0000
0000
0000
FFFF
FFFF
0000
FFFF
FFFF
0000
0000
000C
0043
0000
0021
006B
0000
0025
0000
0000
003F
0000
0032
0029
0000
0035
0036
0000
0000
0000
0000
FFFF
0000
FFFF
FFFF
0000
0000
0000
FFFF
0000
0000
0029
0000
0000
0004
0005
0000
0045
0000
0010
0000
0000
003B
0000
004D
0000
001F
0000
0000
0000
0000
FFFF
FFFF
FFFF
0000
0000
0000
0000
0000
0027
0000
0000
0000
0000
0000
0016
0000
0014
0038
0000
0000
002E
0000
0015
0000
0000
0000
0000
FFFF
0000
FFFF
FFFF
FFFF
0000
0000
0002
0040
0000
0032
0000
001B
0000
0008
0000
0000
0000
0034
0033
002D
001E
001B
0000
0000
0000
FFFF
FFFF
FFFF
FFFF
0000
FFFF
0000
0000
0000
0032
0015
0000
0000
0000
0000
0038
003B
0054
0000
0000
0000
0000
0000
001D
0019
0000
0000
0000
FFFF
FFFF
0000
FFFF
0000
0000
0000
0000
0000
0000
0000
0038
003D
0000
0000
0000
0000
002B
0000
0000
0000
0008
0034
005B
0000
0020
0053
0000
FFFF
0000
FFFF
FFFF
FFFF
FFFF
FFFF
0000
0016
0088
0000
0038
0000
000F
004D
0000
0099
0039
0007
000D
0000
0032
0025
0000
0000
001A
0003
0000
0000
FFFF
0000
FFFF
FFFF
0000
0000
0000
0014
0000
0075
0033
001A
0022
0000
0049
0000
0013
0018
000C
0000
0000
0012
0000
0033
0037
0000
0000
0000
0000
0000
0000
0000
FFFF
FFFF
0000
0000
0039
000F
0022
0000
0000
0000
0013
0017
0026
000A
0005
005C
0000
0057
0054
0000
0000
0000
0000
0000
0000
FFFF
FFFF
0000
FFFF
0000
0000
0037
0022
001B
0000
0000
0005
0000
0000
0000
0000
0000
0035
0034
0038
0000
0000
0018
0063
0000
0000
0000
0000
FFFF
FFFF
FFFF
FFFF
0000
0000
0000
005C
001C
0000
003B
0000
0000
0016
0096
0011
000B
0028
0003
0006
0000
0000
0000
0000
0000
0000
0000
0000
FFFF
FFFF
0000
FFFF
0000
0000
005B
0011
003D
0000
0007
0010
0046
0000
0000
0012
0009
0000
0000
0026
0000
0000
0000
0000
0000
0000
0000
0000
0000
FFFF
0000
FFFF
0000
0000
0000
006D
000E
0000
0000
00B3
0000
0000
0000
0000
0027
0042
0000
0000
0000
0000
0000
0000
0000
0000
FFFF
0000
FFFF
FFFF
0000
0000
0000
0000
0000
0000
0079
0000
0000
0000
0002
0000
0047
0000
0029
0000
0000
0000
0000
0025
0000
0000
0000
0000
0000
0000
FFFF
FFFF
FFFF
0000
0000
0000
0000
0000
0000
001B
003A
0000
0000
0019
000B
0020
0000
0006
0000
0009
0000
0000
0000
0000
0000
FFFF
0000
FFFF
0000
FFFF
FFFF
FFFF
FFFF
FFFF
0000
0000
0000
0000
0000
0000
0042
0016
0000
0040
004C
003F
0000
0000
0000
FFFF
FFFF
0000
0000
FFFF
FFFF
0000
0000
0000
FFFF
0000
FFFF
FFFF
0000
0000
0000
0000
0000
0000
0000
0000
0000
0000
0000
0000
0000
0000
0000
FFFF
0000
FFFF
FFFF
FFFF
0000
0000
FFFF
0000
FFFF
0000
FFFF
FFFF
FFFF
0000
0000
0000
0000
0000
0000
FFFF
0000
0000
0000
0000
0000
FFFF
0000
FFFF
0000
FFFF
FFFF
FFFF
0000
FFFF
FFFF
FFFF
0000
FFFF
0000
FFFF
0000
0000
FFFF
0000
FFFF
FFFF
0000
0000
0000
0000
0000
0000
FFFF
FFFF
FFFF
FFFF
0000
FFFF
FFFF
0000
0000
FFFF
0000
