0000
0000
FFFF
FFFF
FFFF
FFFF
FFFF
0000
FFFF
0000
0000
FFFF
FFFF
0000
0000
FFFF
0000
FFFF
FFFF
FFFF
FFFF
FFFF
0000
0000
FFFF
0000
FFFF
0000
FFFF
0000
0000
FFFF
0000
FFFF
0000
FFFF
0000
0000
0000
0000
0000
FFFF
FFFF
0000
FFFF
0000
FFFF
0000
FFFF
0000
FFFF
0000
FFFF
FFFF
0000
0000
FFFF
FFFF
FFFF
0000
0000
0000
FFFF
FFFF
FFFF
0000
FFFF
0000
0000
0000
FFFF
0000
0000
0000
0000
0000
FFFF
0000
FFFF
0000
0000
FFFF
FFFF
FFFF
0000
0000
0000
0000
FFFF
FFFF
0000
0000
0000
0000
0000
0000
0000
0000
000B
0000
0000
0000
0000
0000
0000
0000
FFFF
0000
0000
FFFF
FFFF
0000
0000
0000
FFFF
0000
0000
0000
0000
0000
0000
0000
0000
0000
005D
0000
0051
0042
0000
002C
0000
0000
0000
0000
0000
0000
0000
FFFF
0000
0000
0000
FFFF
FFFF
0000
0000
0000
0000
0000
0000
0000
0000
0000
0000
0000
000F
0000
001D
0000
0004
0000
0000
0000
0000
0000
FFFF
FFFF
FFFF
FFFF
0000
0000
0000
0000
0000
0000
0000
0000
0038
0073
001F
0000
0000
000A
0000
0042
0027
0000
0085
0000
0019
0010
0027
0000
0000
0000
FFFF
0000
FFFF
0000
0000
0000
FFFF
0000
0000
0000
003C
0000
004C
0000
0005
0000
0000
0037
002D
0000
0023
0006
0000
0049
0000
0000
0000
0000
0000
0000
FFFF
FFFF
0000
FFFF
0000
0000
001F
0000
001F
0000
0000
0000
0030
0000
0000
0000
0018
0000
0002
0000
0000
0007
003A
0000
0000
0000
0000
FFFF
FFFF
0000
FFFF
FFFF
0000
0000
0048
0000
0020
002B
0017
0000
001C
0000
0000
0000
0000
003E
0000
0058
0025
001D
0000
0000
0000
0000
FFFF
FFFF
FFFF
0000
0000
0000
0000
0000
0000
0022
0000
0009
001C
0000
0068
0020
0000
0004
002C
0000
0013
0000
0000
0000
0000
0000
0000
0000
0000
0000
FFFF
FFFF
FFFF
0000
0000
0000
0000
0000
0000
0031
0000
0002
0000
0000
0026
0000
0000
002C
001B
0027
0000
000D
0000
0000
0000
0000
0000
FFFF
0000
FFFF
FFFF
0000
0000
0000
0000
0000
001D
0044
0016
0026
0000
0016
0032
0006
0015
0000
0000
0000
0002
0000
002C
000E
0012
FFFF
FFFF
FFFF
FFFF
FFFF
FFFF
0000
0000
0000
0007
0000
0011
0000
0000
0003
0000
0000
0016
0000
0023
0000
001E
0026
0000
0058
0014
0000
0000
FFFF
FFFF
0000
FFFF
0000
0000
0000
0000
0000
0000
0000
0000
0039
0000
0000
0000
0027
0005
0000
003D
0000
0026
003F
0021
000B
0000
0000
0000
FFFF
0000
FFFF
0000
FFFF
FFFF
FFFF
0000
001B
0000
0000
0053
0032
000B
0000
0037
0000
0000
0052
0054
000B
0019
0024
0000
000B
0000
0000
0000
0000
FFFF
0000
FFFF
FFFF
0000
0000
0000
0000
0037
0009
0008
0016
0029
0000
0000
0028
0000
0000
0019
0016
0000
0008
0068
001C
000C
0000
0000
0000
0000
0000
0000
0000
FFFF
FFFF
0000
0000
0019
0003
0044
0007
0000
0015
0000
0036
0010
0040
0000
0000
004A
0000
0017
007B
0020
0000
0000
0000
0000
FFFF
FFFF
FFFF
FFFF
0000
0000
0000
0004
0000
000D
0000
0027
003C
0063
0000
0000
0000
0000
0000
0042
002A
000F
0026
0006
0000
0000
0000
0000
FFFF
FFFF
FFFF
FFFF
0000
0000
0000
000A
0000
0000
0000
0000
0000
0000
0000
0046
0000
0000
0000
0000
0033
0004
0010
0000
0000
0000
0000
0000
FFFF
FFFF
0000
FFFF
0000
0000
0000
0024
001C
0018
002B
0000
0000
0000
0011
0035
0034
0000
0000
0000
004D
0015
0015
0000
0000
0000
0000
0000
0000
FFFF
0000
FFFF
0000
0000
0014
0000
0000
0025
0054
0000
0000
005A
0000
000F
0063
0000
0082
000A
004F
0000
0000
0000
0000
0000
FFFF
0000
FFFF
FFFF
0000
0000
0000
0000
0000
006D
0000
0076
0000
0033
0003
0000
002E
0005
0003
0000
001B
000F
0000
0000
0000
0000
0000
0000
0000
0000
FFFF
FFFF
FFFF
0000
0000
0000
0000
0000
0006
0042
0000
0000
0002
0000
002F
002D
001C
0000
0038
0000
0000
0000
0000
001A
0000
0000
0000
FFFF
0000
FFFF
0000
FFFF
FFFF
0000
0000
0000
0000
0000
0000
0000
0000
0000
0047
0000
0000
0029
0000
0000
0000
FFFF
0000
0000
0000
FFFF
FFFF
0000
FFFF
0000
FFFF
0000
FFFF
FFFF
0000
0000
0000
0000
0000
0000
0000
0000
0004
0000
0000
0000
0000
0000
0000
FFFF
0000
FFFF
FFFF
FFFF
FFFF
0000
FFFF
0000
FFFF
0000
FFFF
FFFF
FFFF
0000
0000
0000
0000
0000
0000
0000
0000
0000
0000
0000
0000
FFFF
0000
FFFF
0000
0000
FFFF
FFFF
0000
0000
FFFF
FFFF
0000
FFFF
0000
FFFF
0000
0000
FFFF
0000
FFFF
FFFF
0000
0000
0000
0000
0000
0000
FFFF
FFFF
FFFF
FFFF
0000
FFFF
FFFF
0000
0000
FFFF
FFFF
