0000
FFFF
FFFF
0000
FFFF
FFFF
0000
FFFF
FFFF
0000
0000
FFFF
FFFF
0000
0000
0000
0000
0000
FFFF
FFFF
FFFF
FFFF
FFFF
0000
FFFF
0000
FFFF
0000
FFFF
0000
FFFF
FFFF
0000
FFFF
0000
FFFF
0000
0000
0000
0000
0000
FFFF
0000
FFFF
FFFF
FFFF
FFFF
0000
FFFF
0000
FFFF
0000
FFFF
FFFF
FFFF
FFFF
FFFF
FFFF
FFFF
0000
0000
0000
FFFF
0000
FFFF
0000
FFFF
0000
0000
0000
0000
0000
0000
0000
0000
0000
FFFF
0000
FFFF
0000
FFFF
FFFF
FFFF
0000
0000
0000
0000
0000
FFFF
FFFF
FFFF
0000
0000
0000
0000
0000
0000
0000
0000
0034
0000
0000
0000
0000
0000
0000
0000
0000
0000
0000
FFFF
0000
0000
0000
FFFF
0000
0000
0000
FFFF
0000
0000
0000
0000
0000
0000
0038
000D
006A
0037
0000
0000
0000
0000
0000
0000
0000
0000
FFFF
0000
0000
0000
FFFF
FFFF
0000
0000
0000
FFFF
0000
0000
0000
0024
0000
001B
0000
0028
0000
0000
0043
004A
0000
0000
0051
0000
0000
FFFF
FFFF
FFFF
FFFF
0000
0000
FFFF
FFFF
FFFF
FFFF
0000
0000
0000
0033
0000
0000
0000
0013
002E
0012
0000
0000
0047
0013
000D
0001
0037
0000
0000
0000
FFFF
0000
FFFF
0000
FFFF
0000
0000
FFFF
0000
0000
0000
0000
0000
0000
0053
0004
0000
000A
0039
0010
0005
0000
0000
001A
0000
0000
0000
0000
0000
0000
FFFF
0000
0000
FFFF
0000
0000
0000
0000
0000
002B
0037
0000
0000
0000
0000
0027
0000
0024
0000
0010
001B
0047
0000
0000
0000
0000
0000
FFFF
FFFF
0000
FFFF
0000
0000
0000
0000
0004
0040
0001
0022
0000
001A
0041
0000
0030
0000
001D
0015
0000
0066
0000
0000
0000
0000
0000
FFFF
FFFF
FFFF
0000
0000
FFFF
0000
0000
0002
0008
0038
000B
0000
0000
0010
0012
001F
0000
0001
0000
0000
0000
0020
0021
000B
0000
0000
0000
FFFF
FFFF
0000
0000
FFFF
0000
0000
0000
0046
0000
0000
002C
0039
0008
0000
0000
000F
0050
0000
0000
004F
0000
0018
0018
0000
0000
0000
0000
0000
FFFF
0000
FFFF
FFFF
0000
0000
0000
0000
0000
0000
0000
0000
0000
0050
0013
0000
0000
0000
0000
0000
0000
0000
0011
0000
0000
0000
FFFF
FFFF
0000
FFFF
0000
FFFF
FFFF
0000
0000
0000
0000
0000
0000
0024
0032
0011
0000
004C
002C
000D
0045
0000
0000
0000
001E
0000
0000
0000
FFFF
FFFF
0000
FFFF
0000
0000
0000
0000
0000
0000
0000
0000
0022
002C
0045
0020
0039
002D
0007
0000
0004
0000
0000
000C
004C
0000
0000
0000
0000
FFFF
0000
0000
FFFF
FFFF
FFFF
0000
0000
0000
0000
001B
004B
0000
0000
0000
0001
0000
003A
0000
0001
0007
0000
0000
0009
0009
0000
0000
0000
FFFF
0000
FFFF
0000
0000
0000
0000
0000
0008
000F
0012
0000
0000
0000
006C
0024
0074
0000
004D
0017
0000
001F
002F
0039
0010
0000
0000
0000
0000
0000
0000
0000
FFFF
FFFF
0000
0000
0000
0000
000B
0000
0000
000C
0057
0000
0000
0000
0014
0028
0000
0005
0007
0069
0056
0000
0000
0000
0000
FFFF
FFFF
FFFF
FFFF
0000
0000
0000
0000
0018
0063
0028
0000
0000
0000
000A
0000
0030
0000
0000
000F
0011
0000
0000
0000
0000
0000
0000
0000
0000
FFFF
FFFF
FFFF
0000
0000
0017
0000
0009
0000
0000
0001
0000
0024
005B
0095
0023
0000
001D
0000
0000
0000
0042
0000
0000
0000
0000
0000
0000
FFFF
0000
FFFF
0000
0000
0000
000D
0016
0000
0000
0000
0003
0000
001E
0000
0004
005E
0018
0024
0033
001E
000D
0000
0000
0000
0000
0000
0000
FFFF
FFFF
FFFF
FFFF
0000
000F
0000
0000
0000
002D
0025
0000
0000
0000
003B
0021
0011
0000
001F
0000
0036
0000
0000
0000
0000
FFFF
FFFF
0000
0000
0000
0000
0000
0000
0000
004D
0000
0000
0000
0000
0025
0018
0000
0000
000C
0000
0000
0044
0000
0000
0000
0000
0000
0000
0000
0000
FFFF
FFFF
0000
0000
0000
0000
0000
0000
001B
0000
0029
0057
0000
0000
0030
0013
0000
0000
0029
0000
0000
0000
0000
0000
0000
0000
0000
FFFF
0000
0000
0000
0000
FFFF
0000
0000
0000
0000
0000
0000
0000
0000
005C
001B
004D
0067
0000
0000
0000
0000
FFFF
FFFF
0000
0000
FFFF
FFFF
0000
FFFF
0000
FFFF
0000
FFFF
FFFF
0000
0000
0000
0000
0000
0000
0000
0015
0000
0000
0000
0000
0000
0000
0000
0000
0000
FFFF
0000
FFFF
FFFF
0000
FFFF
0000
FFFF
0000
FFFF
FFFF
FFFF
0000
0000
0000
0000
0000
0000
0000
0000
0000
0000
0000
0000
FFFF
0000
FFFF
0000
FFFF
FFFF
FFFF
0000
0000
FFFF
FFFF
0000
FFFF
0000
FFFF
0000
0000
FFFF
0000
FFFF
FFFF
0000
0000
0000
0000
0000
0000
FFFF
FFFF
FFFF
FFFF
0000
FFFF
FFFF
0000
FFFF
FFFF
0000
