FFFF
FFFF
FFFF
FFFF
FFFF
FFFF
FFFF
0000
FFFF
0000
0000
FFFF
FFFF
0000
FFFF
FFFF
0000
FFFF
0000
0000
FFFF
0000
0000
0000
FFFF
0000
FFFF
0000
FFFF
0000
0000
FFFF
0000
FFFF
0000
FFFF
0000
0000
FFFF
0000
0000
FFFF
FFFF
FFFF
0000
0000
FFFF
FFFF
FFFF
0000
FFFF
0000
FFFF
FFFF
FFFF
FFFF
FFFF
0000
FFFF
0000
0000
0000
FFFF
0000
0000
0000
FFFF
0000
0000
0000
0000
0000
0000
0000
0000
0000
FFFF
FFFF
FFFF
0000
0000
FFFF
FFFF
FFFF
0000
FFFF
0000
FFFF
FFFF
FFFF
0000
0000
FFFF
0000
0000
0000
0000
0000
0000
0000
0000
0000
0000
0000
FFFF
FFFF
0000
0000
0000
0000
0000
0000
0000
0000
FFFF
FFFF
0000
0000
0000
0000
0000
0000
0000
0000
0031
0000
0031
0037
0042
0000
0000
0000
0000
0000
0000
0000
0000
FFFF
0000
0000
0000
FFFF
0000
0000
0000
0000
0000
0000
0000
0000
0000
009E
0007
000F
002D
002D
0000
0000
0000
0057
0000
0000
0000
0000
FFFF
FFFF
FFFF
0000
FFFF
FFFF
FFFF
0000
0000
0000
0000
000A
0000
0000
0000
0001
001A
003C
0000
0004
0000
0000
0000
0000
0002
000C
0000
0000
0000
0000
FFFF
0000
FFFF
FFFF
0000
0000
0000
0000
0000
0039
0000
0000
004B
0000
0040
000C
0014
0000
0028
0000
0000
0000
0000
0000
0000
0000
0000
0000
0000
0000
FFFF
FFFF
0000
FFFF
001D
0000
002E
0014
0000
0005
0000
0029
0004
0000
002E
0000
002D
0000
0005
0000
004D
0000
0000
0000
0000
0000
0000
FFFF
FFFF
0000
FFFF
FFFF
0000
0000
001B
0037
005D
0000
0000
0000
0000
0000
0000
001F
0035
0000
0016
001C
0000
0000
0005
0000
0000
0000
FFFF
FFFF
0000
0000
0000
0000
0000
0000
0011
006F
0008
0010
0000
0000
0014
0000
0025
0011
0001
0071
0000
0018
0020
0028
0000
0000
0000
0000
0000
FFFF
FFFF
FFFF
FFFF
FFFF
0030
0007
002C
0000
0059
0000
0000
00BF
0000
000A
0000
000B
0000
0009
0000
002E
001D
0023
0000
0000
0000
0000
0000
0000
0000
FFFF
FFFF
FFFF
0000
0058
0002
0036
000E
0037
0000
0000
0004
0000
0039
0033
0000
0000
0000
0000
0000
0031
0000
0000
0000
FFFF
FFFF
0000
FFFF
FFFF
FFFF
0000
0000
0000
0027
0027
0052
003D
0000
0000
0000
0024
0000
002A
0000
0000
0000
0000
0021
004B
0000
0000
0000
0000
0000
FFFF
FFFF
0000
0000
0000
0000
0000
000F
0024
0000
0000
0000
0000
0031
0000
0000
0002
0003
002C
0000
0064
0000
0000
000D
0000
0000
FFFF
FFFF
FFFF
FFFF
0000
FFFF
FFFF
0000
0054
0000
0036
0000
0021
000B
0000
0002
0007
004A
0021
003E
0000
0000
0004
0053
0015
001C
0000
0000
0000
FFFF
0000
FFFF
0000
0000
0000
0006
0045
0000
0000
0000
0000
0000
0000
003F
0000
0000
000B
004C
0055
0000
0079
0038
0000
0000
0032
0000
0000
0000
FFFF
0000
0000
FFFF
FFFF
0000
0046
0000
0000
0000
002C
0008
0000
0047
0001
001E
0000
0001
001F
0007
0000
002C
002C
000B
0000
0000
0000
0000
FFFF
FFFF
0000
0000
0000
0000
0004
0000
0000
0044
0000
0000
0000
0000
0000
001B
0000
0000
002A
0000
0011
0000
0009
0000
0000
0000
0000
0000
FFFF
FFFF
FFFF
FFFF
FFFF
0000
0000
0013
003B
0000
0012
0000
0000
0000
0000
0040
0000
004D
000F
0049
0046
0000
0000
0015
0000
0000
0000
0000
0000
FFFF
0000
FFFF
0000
0000
0000
0031
0000
002D
000D
0000
0027
0000
0000
000F
000D
0000
0000
0015
0000
001E
0029
0000
0000
0000
0000
0000
FFFF
FFFF
FFFF
0000
0000
0000
0000
002A
0000
0009
0000
0000
0000
0000
0000
0028
0000
0022
0030
0008
0000
006B
0000
0000
0000
0000
FFFF
FFFF
0000
FFFF
0000
0000
0000
0000
0000
0000
0000
0044
007C
0000
0010
0000
0000
0018
0000
0000
0009
002A
0010
0000
0000
0000
0000
0000
0000
0000
FFFF
0000
FFFF
0000
0000
0000
0000
0000
0000
0000
0000
0000
002B
0000
0000
0006
006D
0005
0000
0027
0000
0000
0000
0000
FFFF
0000
0000
FFFF
0000
0000
0000
0000
0000
0000
0000
0000
0000
0000
0000
0000
0008
0000
000A
0041
0039
0000
0000
0000
0000
0000
FFFF
0000
0000
0000
FFFF
0000
FFFF
0000
FFFF
0000
FFFF
0000
0000
0000
FFFF
0000
0000
0000
0000
0000
0000
0018
0000
0000
0000
0000
0000
0000
0000
FFFF
FFFF
0000
FFFF
0000
FFFF
0000
FFFF
0000
FFFF
0000
FFFF
0000
0000
0000
0000
0000
0000
0000
0000
0000
0000
0000
FFFF
0000
0000
FFFF
0000
FFFF
FFFF
FFFF
0000
0000
FFFF
FFFF
0000
FFFF
0000
0000
0000
0000
FFFF
0000
0000
FFFF
FFFF
0000
0000
0000
0000
0000
FFFF
FFFF
FFFF
FFFF
FFFF
FFFF
FFFF
0000
0000
FFFF
0000
